#ifndef FANN_FANN_NET_H_
#define FANN_FANN_NET_H_

#include "fann.h"
#include "fann_structs.h"

const enum fann_nettype_enum network_type = 0;

const fann_neuron fann_neurons[433] = {{0, 0, 0.0, 0}, {0, 0, 0, 0}, {0, 0, 0, 0}, {0, 0, 0, 0}, {0, 0, 0, 0}, {0, 0, 0, 0}, {0, 0, 0, 0}, {0, 0, 0, 0}, {0, 0, 0, 0}, {0, 0, 0, 0}, {0, 0, 0, 0}, {0, 0, 0, 0}, {0, 0, 0, 0}, {0, 0, 0, 0}, {0, 0, 0, 0}, {0, 0, 0, 0}, {0, 0, 0, 0}, {0, 0, 0, 0}, {0, 0, 0, 0}, {0, 0, 0, 0}, {0, 0, 0, 0}, {0, 0, 0, 0}, {0, 0, 0, 0}, {0, 0, 0, 0}, {0, 0, 0, 0}, {0, 0, 0, 0}, {0, 0, 0, 0}, {0, 0, 0, 0}, {0, 0, 0, 0}, {0, 0, 0, 0}, {0, 0, 0, 0}, {0, 0, 0, 0}, {0, 0, 0, 0}, {0, 0, 0, 0}, {0, 0, 0, 0}, {0, 0, 0, 0}, {0, 0, 0, 0}, {0, 0, 0, 0}, {0, 0, 0, 0}, {0, 0, 0, 0}, {0, 0, 0, 0}, {0, 0, 0, 0}, {0, 0, 0, 0}, {0, 0, 0, 0}, {0, 0, 0, 0}, {0, 0, 0, 0}, {0, 0, 0, 0}, {0, 0, 0, 0}, {0, 0, 0, 0}, {0, 0, 0, 0}, {0, 0, 0, 0}, {0, 0, 0, 0}, {0, 0, 0, 0}, {0, 0, 0, 0}, {0, 0, 0, 0}, {0, 0, 0, 0}, {0, 0, 0, 0}, {0, 0, 0, 0}, {0, 0, 0, 0}, {0, 0, 0, 0}, {0, 0, 0, 0}, {0, 0, 0, 0}, {0, 0, 0, 0}, {0, 0, 0, 0}, {0, 0, 0, 0}, {0, 0, 0, 0}, {0, 0, 0, 0}, {0, 0, 0, 0}, {0, 0, 0, 0}, {0, 0, 0, 0}, {0, 0, 0, 0}, {0, 0, 0, 0}, {0, 0, 0, 0}, {0, 0, 0, 0}, {0, 0, 0, 0}, {0, 0, 0, 0}, {0, 0, 0, 0}, {0, 0, 0, 0}, {0, 0, 0, 0}, {0, 0, 0, 0}, {0, 0, 0, 0}, {0, 0, 0, 0}, {0, 0, 0, 0}, {0, 0, 0, 0}, {0, 0, 0, 0}, {0, 0, 0, 0}, {0, 0, 0, 0}, {0, 0, 0, 0}, {0, 0, 0, 0}, {0, 0, 0, 0}, {0, 0, 0, 0}, {0, 0, 0, 0}, {0, 0, 0, 0}, {0, 0, 0, 0}, {0, 0, 0, 0}, {0, 0, 0, 0}, {0, 0, 0, 0}, {0, 0, 0, 0}, {0, 0, 0, 0}, {0, 0, 0, 0}, {0, 0, 0, 0}, {0, 0, 0, 0}, {0, 0, 0, 0}, {0, 0, 0, 0}, {0, 0, 0, 0}, {0, 0, 0, 0}, {0, 0, 0, 0}, {0, 0, 0, 0}, {0, 0, 0, 0}, {0, 0, 0, 0}, {0, 0, 0, 0}, {0, 0, 0, 0}, {0, 0, 0, 0}, {0, 0, 0, 0}, {0, 0, 0, 0}, {0, 0, 0, 0}, {0, 0, 0, 0}, {0, 0, 0, 0}, {0, 0, 0, 0}, {0, 0, 0, 0}, {0, 0, 0, 0}, {0, 0, 0, 0}, {0, 0, 0, 0}, {0, 0, 0, 0}, {0, 0, 0, 0}, {0, 0, 0, 0}, {0, 0, 0, 0}, {0, 0, 0, 0}, {0, 0, 0, 0}, {0, 0, 0, 0}, {0, 0, 0, 0}, {0, 0, 0, 0}, {0, 0, 0, 0}, {0, 0, 0, 0}, {0, 0, 0, 0}, {0, 0, 0, 0}, {0, 0, 0, 0}, {0, 0, 0, 0}, {0, 0, 0, 0}, {0, 0, 0, 0}, {0, 0, 0, 0}, {0, 0, 0, 0}, {0, 0, 0, 0}, {0, 0, 0, 0}, {0, 0, 0, 0}, {0, 0, 0, 0}, {0, 0, 0, 0}, {0, 0, 0, 0}, {0, 0, 0, 0}, {0, 0, 0, 0}, {0, 0, 0, 0}, {0, 0, 0, 0}, {0, 0, 0, 0}, {0, 0, 0, 0}, {0, 0, 0, 0}, {0, 0, 0, 0}, {0, 0, 0, 0}, {0, 0, 0, 0}, {0, 0, 0, 0}, {0, 0, 0, 0}, {0, 0, 0, 0}, {0, 0, 0, 0}, {0, 0, 0, 0}, {0, 0, 0, 0}, {0, 0, 0, 0}, {0, 0, 0, 0}, {0, 0, 0, 0}, {0, 0, 0, 0}, {0, 0, 0, 0}, {0, 0, 0, 0}, {0, 0, 0, 0}, {0, 0, 0, 0}, {0, 0, 0, 0}, {0, 0, 0, 0}, {0, 0, 0, 0}, {0, 0, 0, 0}, {0, 0, 0, 0}, {0, 0, 0, 0}, {0, 0, 0, 0}, {0, 0, 0, 0}, {0, 0, 0, 0}, {0, 0, 0, 0}, {0, 0, 0, 0}, {0, 0, 0, 0}, {0, 0, 0, 0}, {0, 0, 0, 0}, {0, 0, 0, 0}, {0, 0, 0, 0}, {0, 0, 0, 0}, {0, 0, 0, 0}, {0, 0, 0, 0}, {0, 0, 0, 0}, {0, 0, 0, 0}, {0, 0, 0, 0}, {0, 0, 0, 0}, {0, 0, 0, 0}, {0, 0, 0, 0}, {0, 0, 0, 0}, {0, 0, 0, 0}, {0, 0, 0, 0}, {0, 0, 0, 0}, {0, 0, 0, 0}, {0, 0, 0, 0}, {0, 0, 0, 0}, {0, 0, 0, 0}, {0, 0, 0, 0}, {0, 0, 0, 0}, {0, 0, 0, 0}, {0, 0, 0, 0}, {0, 0, 0, 0}, {0, 0, 0, 0}, {0, 0, 0, 0}, {0, 0, 0, 0}, {0, 0, 0, 0}, {0, 0, 0, 0}, {0, 0, 0, 0}, {0, 0, 0, 0}, {0, 0, 0, 0}, {0, 0, 0, 0}, {0, 0, 0, 0}, {0, 0, 0, 0}, {0, 0, 0, 0}, {0, 0, 0, 0}, {0, 0, 0, 0}, {0, 0, 0, 0}, {0, 0, 0, 0}, {0, 0, 0, 0}, {0, 0, 0, 0}, {0, 0, 0, 0}, {0, 0, 0, 0}, {0, 0, 0, 0}, {0, 0, 0, 0}, {0, 0, 0, 0}, {0, 0, 0, 0}, {0, 0, 0, 0}, {0, 0, 0, 0}, {0, 0, 0, 0}, {0, 0, 0, 0}, {0, 0, 0, 0}, {0, 0, 0, 0}, {0, 0, 0, 0}, {0, 0, 0, 0}, {0, 0, 0, 0}, {0, 0, 0, 0}, {0, 0, 0, 0}, {0, 0, 0, 0}, {0, 0, 0, 0}, {0, 0, 0, 0}, {0, 0, 0, 0}, {0, 0, 0, 0}, {0, 0, 0, 0}, {0, 0, 0, 0}, {0, 0, 0, 0}, {0, 0, 0, 0}, {0, 0, 0, 0}, {0, 0, 0, 0}, {0, 0, 0, 0}, {0, 0, 0, 0}, {0, 0, 0, 0}, {0, 0, 0, 0}, {0, 0, 0, 0}, {0, 0, 0, 0}, {0, 0, 0, 0}, {0, 0, 0, 0}, {0, 0, 0, 0}, {0, 0, 0, 0}, {0, 0, 0, 0}, {0, 0, 0, 0}, {0, 0, 0, 0}, {0, 0, 0, 0}, {0, 0, 0, 0}, {0, 0, 0, 0}, {0, 0, 0, 0}, {0, 0, 0, 0}, {0, 0, 0, 0}, {0, 0, 0, 0}, {0, 0, 0, 0}, {0, 0, 0, 0}, {0, 0, 0, 0}, {0, 0, 0, 0}, {0, 0, 0, 0}, {0, 0, 0, 0}, {0, 0, 0, 0}, {0, 0, 0, 0}, {0, 0, 0, 0}, {0, 0, 0, 0}, {0, 0, 0, 0}, {0, 0, 0, 0}, {0, 0, 0, 0}, {0, 0, 0, 0}, {0, 0, 0, 0}, {0, 0, 0, 0}, {0, 0, 0, 0}, {0, 0, 0, 0}, {0, 0, 0, 0}, {0, 0, 0, 0}, {0, 0, 0, 0}, {0, 0, 0, 0}, {0, 0, 0, 0}, {0, 0, 0, 0}, {0, 0, 0, 0}, {0, 0, 0, 0}, {0, 0, 0, 0}, {0, 0, 0, 0}, {0, 0, 0, 0}, {0, 0, 0, 0}, {0, 0, 0, 0}, {0, 0, 0, 0}, {0, 0, 0, 0}, {0, 0, 0, 0}, {0, 0, 0, 0}, {0, 0, 0, 0}, {0, 0, 0, 0}, {0, 0, 0, 0}, {0, 0, 0, 0}, {0, 0, 0, 0}, {0, 0, 0, 0}, {0, 0, 0, 0}, {0, 0, 0, 0}, {0, 0, 0, 0}, {0, 0, 0, 0}, {0, 0, 0, 0}, {0, 0, 0, 0}, {0, 0, 0, 0}, {0, 0, 0, 0}, {0, 0, 0, 0}, {0, 0, 0, 0}, {0, 0, 0, 0}, {0, 0, 0, 0}, {0, 0, 0, 0}, {0, 0, 0, 0}, {0, 0, 0, 0}, {0, 0, 0, 0}, {0, 0, 0, 0}, {0, 0, 0, 0}, {0, 0, 0, 0}, {0, 0, 0, 0}, {0, 0, 0, 0}, {0, 0, 0, 0}, {0, 0, 0, 0}, {0, 0, 0, 0}, {0, 0, 0, 0}, {0, 0, 0, 0}, {0, 0, 0, 0}, {0, 0, 0, 0}, {0, 0, 0, 0}, {0, 0, 0, 0}, {0, 0, 0, 0}, {0, 0, 0, 0}, {0, 0, 0, 0}, {0, 0, 0, 0}, {0, 0, 0, 0}, {0, 0, 0, 0}, {0, 0, 0, 0}, {0, 0, 0, 0}, {0, 0, 0, 0}, {0, 0, 0, 0}, {0, 0, 0, 0}, {0, 0, 0, 0}, {0, 0, 0, 0}, {0, 360, 0.40446234534116415, 18}, {360, 720, 0.16290580642633082, 18}, {720, 1080, 0.4069396191154604, 18}, {1080, 1440, -0.6764612418788534, 18}, {1440, 1800, -0.30847517482247566, 18}, {1800, 2160, -0.42488490669891166, 18}, {2160, 2520, 0.09230598831487147, 18}, {2520, 2880, -0.10938784940685287, 18}, {2880, 3240, -0.12827410642490056, 18}, {3240, 3600, 0.013289682655471924, 18}, {3600, 3960, 0.2944795256759132, 18}, {3960, 4320, -0.3912129353542356, 18}, {4320, 4680, -0.30860643656354003, 18}, {4680, 5040, -0.0931125753238626, 18}, {5040, 5400, -0.0625125298667122, 18}, {5400, 5760, -0.12653478202544718, 18}, {5760, 6120, -0.5228370260366485, 18}, {6120, 6480, 0.09081236640483484, 18}, {6480, 6840, 0.0648324538862576, 18}, {6840, 7200, -0.004229040394148004, 18}, {7200, 7560, 0.07801066012335126, 18}, {7560, 7920, 0.08467148177463943, 18}, {7920, 8280, -0.3145753368531094, 18}, {8280, 8640, 0.17901134764635776, 18}, {8640, 9000, -0.08920984053684312, 18}, {9000, 9360, -0.4965656028305768, 18}, {9360, 9720, -0.2723544764359569, 18}, {9720, 10080, 0.04567213929059045, 18}, {10080, 10440, 0.13860457264828002, 18}, {10440, 10800, -1.6640622984368039, 18}, {10800, 11160, 0.04629638096027572, 18}, {11160, 11520, 0.032956299943278276, 18}, {11520, 11880, 0.4717198419991271, 18}, {11880, 12240, 0.5402145965494243, 18}, {12240, 12600, -0.05090941261791688, 18}, {12600, 12960, -0.5473781470122483, 18}, {12960, 13320, -0.009135536683530182, 18}, {13320, 13680, -0.08720099993389444, 18}, {13680, 14040, 0.2731639959327825, 18}, {14040, 14400, -0.08630199880508932, 18}, {14400, 14760, -0.6604045330089288, 18}, {14760, 15120, 0.05099638978928465, 18}, {15120, 15480, 0.03185577192947152, 18}, {15480, 15840, -0.5602827349686034, 18}, {15840, 16200, -0.3880306566622328, 18}, {16200, 16560, -0.2535654555873183, 18}, {16560, 16920, 0.07992737721978432, 18}, {16920, 17280, -0.1939962082558624, 18}, {17280, 17640, -0.12362742196430147, 18}, {17640, 18000, 0.01787156313547396, 18}, {18000, 18050, -1.341216438944948, 18}, {18050, 18100, -0.5674474925341032, 18}, {18100, 18150, 0.12970996536057902, 18}, {18150, 18200, -0.036216722109554685, 18}, {18200, 18250, -0.08567942500036019, 18}, {18250, 18300, 0.013014630196166903, 18}, {18300, 18350, 0.13903763105683384, 18}, {18350, 18400, 0.008142559304686365, 18}, {18400, 18450, 0.14287866569021404, 18}, {18450, 18500, -0.9257326943464245, 18}, {18500, 18550, 1.9971033539901444, 18}, {18550, 18600, 0.3060594088652336, 18}, {18600, 18650, -0.2557968381175268, 18}, {18650, 18700, 0.5343558024670563, 18}, {18700, 18750, -0.3332360822963213, 18}, {18750, 18800, -0.23304607847489256, 18}, {18800, 18850, 0.035275610939454034, 18}, {18850, 18900, -0.03750793921225819, 18}, {18900, 18950, 0.7277822230202743, 18}, {18950, 19000, -0.31134638992257435, 18}, {19000, 19020, -0.037072083350185865, 3}, {19020, 19040, -1.1484554020130329, 3}, {19040, 19060, 1.8065412684531927, 3}};

fann_type fann_weights[19060] = {-1.63191861898182244417e-001, -5.65984139079047432475e-001, -5.96326145977167154655e-001, 2.81141382607134615590e-001, -2.24246858635909734891e-001, 9.84753916949917679213e-002, 1.57587936806526912603e-001, 2.08040070515546293706e-001, 6.11077884178583274899e-003, -5.26593521969508926439e-001, -3.20971746227312337840e-001, -5.40417967673821886265e-001, -1.90745037109383591689e-001, 8.78128905401745311898e-003, -1.73495144852433315352e-002, 4.40625453257040777810e-001, 1.79753730635916542102e-001, -4.28859536356793677458e-002, -6.78827447996312588474e-002, 7.26292382800215567673e-003, 4.00488346018870663978e-002, 1.95754538710705222604e-001, 5.62926894234311164800e-002, 1.26609035638268974111e-001, -1.03313386268570395199e-001, -1.36413184491848971103e-001, -1.41652911902343581207e-001, 2.18289568431650538027e-001, -1.50690929188869674610e-002, 3.11968043414493877152e-002, -2.50556990333847748320e-002, 7.24088739652985619033e-002, 1.13382048656478953697e-001, -2.35273342836364834918e-001, -1.84802037585806544495e-001, -2.10728386098724823627e-001, 5.63614515230525039979e-002, -3.59336327634647567653e-001, -1.17913406870185047404e-001, 1.87760849236805194007e-001, 2.59415608102498029819e-001, 5.53569650733355331229e-002, -2.55120741419252450299e-001, 1.85628055342590934929e-002, 1.54078387486562377873e-002, -1.84570316573324205711e-001, -3.92134050783830012676e-002, 9.25982864696850566100e-002, -1.57236598193610632723e-001, -2.75721347557652707305e-001, 2.27210200648380239441e-001, -9.60878165102361375682e-002, -2.04048236392662341032e-001, -5.39566766664383856700e-002, -7.10657555630697101989e-002, -1.82046408689877897702e-001, -1.10477972891753262186e-001, -1.80611386327835632404e-001, -2.52454923790084884150e-001, -6.15196829643095757789e-002, -8.96965049292485078203e-002, -2.56321321350408970474e-001, -2.16445721220438036525e-001, -6.46459968104624305152e-002, -3.13164958829604989088e-001, -3.05487636146697418005e-002, -2.38796185796711704641e-002, 3.96511553141895914387e-002, 6.75376234354104210134e-002, -6.28296028815500673392e-002, 3.30949548652218633344e-004, -2.81930107458523759867e-001, -3.47068586352505481507e-001, -2.46102340269297004127e-001, -1.62277933143581021280e-001, -4.18838414463736444238e-002, -3.78146005077439617548e-002, -5.87165608813692146972e-002, 2.44600783620740558355e-001, -2.51891865731885510049e-002, -4.00062532339423484323e-003, -2.07977934256605906382e-001, -2.16471823351637615573e-001, -1.35069542706572148782e-001, 2.66999859008655915371e-001, 1.96699621179023564910e-001, 6.85285949396907678732e-002, -1.03283469003543793008e-001, -1.06150526120774121863e-001, -2.50640415455001652756e-001, -3.13797743098637615944e-001, -2.17452579608178708792e-001, -4.30597658689465534465e-001, -4.17980041577418956478e-002, -2.04269044190349718937e-001, 1.96827631152533016889e-001, 1.69907745041352170601e-001, 1.64741676947471243908e-001, -1.10547382050544068521e-001, -5.95114861473361664301e-002, -1.45390608833606438388e-001, -2.39982319998559373575e-001, 7.08754535534390495144e-002, 1.52250435048883026035e-001, 1.07860312617218442877e-001, 8.49556222478863309888e-002, -9.65428996840839714899e-002, 6.93050763700226030162e-002, -1.04038112635625540348e-001, -3.27145871117394237970e-001, -1.89183508225943736170e-001, -2.12611280189124347839e-002, 8.06120281823126116905e-002, -2.57352328577875209478e-003, -1.95141595863372374620e-001, -6.69566664850282794452e-002, -2.36014783800208641229e-002, -5.12341550355389641069e-002, -1.57613986637098746346e-001, -8.35530219752938646538e-002, -1.00230966352495856619e-001, -7.95513005002967121815e-002, 1.18956650699220914391e-001, -1.20130292087001891432e-001, 8.93230084618417199960e-003, -1.94745266356039859260e-003, -3.41710949360494953275e-001, -1.42186206512076168673e-001, -2.84337025284873867736e-001, 1.71957028941606610006e-001, 6.95151593707969139846e-002, 1.12997971244822567605e-001, -2.14860754125946462612e-002, -1.59418445251695406473e-001, -5.12425881761106802315e-002, -2.62731616609393980877e-001, -4.68551118208770878137e-001, -4.01238086271934080163e-001, -5.71208085432365342271e-002, 1.26259173866280993703e-001, 9.68037035923220157141e-002, -1.87795751686286704896e-001, -1.28386720305774915118e-001, -4.62882183387660350871e-002, -1.46208735341360751558e-001, -3.18968103240727385295e-001, -3.36927950427079847540e-001, -1.68941562786181324884e-002, 9.99887504380205655030e-002, -7.44677275630464541312e-002, -2.22016120855455696692e-002, 1.19114785612136092618e-001, 8.65588513829159411639e-002, -1.90465080555243526650e-001, -3.89629725872184362601e-001, -3.21213746702927682719e-001, 9.83715408021546694473e-002, 2.48386215880815303114e-001, -9.08215000606547775280e-004, -1.80202801555997188521e-001, -1.29982880831553126999e-001, -7.34439036924788846150e-002, -2.35793445471412538295e-001, -8.41127156713360191187e-003, -2.85756107874965969984e-001, 3.84975811487702768154e-002, -2.91832495852331931518e-002, -4.48539356419345031091e-002, -1.78398408465221869346e-001, -1.01724801226263442122e-001, -1.02885686524074537740e-001, -1.38643100980120004273e-001, -1.62152749726718892198e-001, -2.04288466111674477110e-001, -1.33939915354553074067e-001, 1.25828061988991768416e-001, 5.75947296231858196780e-002, 9.39811955346144256573e-002, 4.35331942188982787267e-002, 1.04605427439073708773e-001, -9.05273420171500142750e-002, -2.11111720559262777686e-001, -1.14980984823435800068e-002, -6.67333487541396375153e-002, -2.01830027640919923426e-001, -1.51602481543615469350e-001, -1.08005946737624883291e-001, -6.03756531893842873782e-002, -6.84292785146573424165e-003, -1.21744441775200371025e-001, -1.11459669390517795984e-001, -1.43221214730486871847e-002, -1.43088574892179215547e-001, -4.93210325803428162317e-002, -2.04204237448944336819e-001, -4.25243132986089511505e-002, 5.05572162186090148794e-002, -3.97527288851109647516e-002, -3.91876665658856260244e-002, -2.50001600453338412855e-001, -7.75573649111202939599e-002, 3.52029269793504573371e-002, 2.28926919788915383958e-001, -3.54814127855662617139e-002, -1.53866133098676804991e-001, -5.53305216487329568076e-002, -1.81980584141887336003e-001, -7.82980456588187323508e-002, -1.34097503767410447528e-001, -3.78237021987362587172e-001, 2.49810943036281665752e-003, 2.18808157176921425080e-001, 2.68424139134626149605e-001, -6.71994207512241620295e-002, -1.59207058008164453744e-001, -1.07698292681445553787e-001, -5.15528426766647535073e-002, -1.56009716961128114265e-001, -1.77166237391096381693e-001, 1.04822658856103506642e-001, 9.26055139113278885654e-002, 2.62497140329191691599e-001, -2.30073661862548434209e-001, -1.83693575224166433246e-001, -2.75458443292946435210e-002, -3.68590579870186133005e-002, 3.59910677910002807511e-002, -2.06809443053758590381e-001, 1.40258602063668136317e-002, -1.93173100923318102895e-001, -7.61302243104029080500e-002, -2.30248288634339048908e-002, -1.47246635340221948551e-001, -1.33721564186838753896e-001, -1.21036652885124856871e-001, -2.53089050457692033014e-001, -1.04555279399077771796e-001, 1.34284205034653658650e-001, 1.54942406182047270891e-001, 1.23444877288998292042e-001, -4.59467463000502659987e-002, -1.32674301371899450164e-001, 2.42590511863318841757e-001, -1.56953359178399837193e-001, 4.17584496912235675348e-003, -2.15357662534995303316e-001, -2.25099648762649318101e-001, -5.72116321627411175688e-002, 6.46732064394529987394e-002, -1.28013093284360723878e-001, -1.32825766845011988826e-001, 1.48728826498245259025e-001, -1.53158154173228339134e-001, -2.03281453463036804186e-001, -8.77497604355843840995e-002, -1.14444010243548013883e-001, -2.83867113888562408452e-002, -1.65283841142212672981e-001, -2.83114343931562373324e-001, -3.41520455916477505554e-002, -1.92430945497268024447e-001, -5.98062103739479579423e-003, -5.88861018504922006933e-002, -3.25329680049314048929e-002, -4.96719541142868620254e-002, -2.58056930421206587312e-001, 3.83889228658409117911e-002, -1.89309187994204070060e-001, -1.21029012815162498318e-001, -4.43540167572608612367e-001, -1.92340887284984302097e-001, -1.54333823680224108132e-001, -1.26603006340546331288e-001, 1.25553961064677505055e-001, 7.58527658728946341249e-002, 3.43545692528301693791e-001, -2.67363178782539651079e-002, -1.01944554717599999982e-001, 1.67176580989575190861e-002, 1.86284389278713824467e-001, 7.59885295370302527029e-002, -6.37338577423763597007e-002, 1.55115196481786649096e-001, 1.19768609029391029375e-001, -1.66696980214438073009e-001, -1.95559111997089030144e-001, -1.94624853862858965270e-001, -3.31687604213671327624e-001, -4.91061708533308161062e-001, -6.81337850430927954859e-002, -3.82558014131574919414e-001, 5.96850113669444987119e-002, 8.52325613876639548439e-002, 2.13997330640891436637e-001, -8.63985842998163527939e-002, -1.75325872445834779478e-001, -1.21441906542248012624e-001, -3.89221962231943774402e-001, -3.65602800030532137932e-001, -3.32547343016427798812e-001, -1.79062785472105134854e-001, 4.57922112576128192973e-002, -4.95094931318617106908e-003, 5.48057143511386235524e-002, -9.27371765164774763957e-002, -5.32204531117632662074e-002, -6.08329571772066868274e-002, -2.93499893113104814990e-001, -2.32797779996336218211e-001, 1.81417737522419658669e-001, -1.85667261696901397805e-001, -1.53377612509231903148e-001, 1.05609381027456233904e-001, -5.60107341801767064093e-002, 6.22647990604706727535e-002, -2.13784491642120655364e-001, 1.13565419541734088926e-001, -4.50234361414476660923e-002, 6.06094684697136704132e-002, -7.41313331306865802572e-002, -3.28851900832510535277e-002, -7.65475493369348336525e-002, -1.25701849303357593435e-001, -1.96633818227399725931e-001, -2.54817013665296132618e-001, -1.35923661025712488870e-001, -1.84404361870392718981e-001, -1.85316102731633264300e-001, -2.41460653136114394846e-001, -2.33333290633305268091e-001, 1.24932322802716377907e-001, 1.18738113370653625145e-001, 6.88818486477163205439e-002, 9.95839317855037736704e-002, -1.40006977510077457172e-001, 2.84087735778716272972e-002, 1.09508907163709968274e-002, 1.54570101408425808476e-001, -5.14384078995142809965e-002, 2.09510266885744866894e-002, -2.38176395574024382662e-002, -8.79981106488780528974e-002, -5.77746695912926822025e-002, -9.70296405213246782040e-002, 1.22674854147572523488e-001, -1.74968091117585038130e-002, -1.59513139875879922380e-001, 6.66161504581650187884e-002, -8.41252167291267616278e-002, 1.05877692489679306465e-001, -1.42770822851730899705e-001, -1.03583575864173743630e-001, 4.31478129918261843478e-002, 1.69680163133176048484e-001, -1.92597367059945873136e-001, -2.21521858678416616595e-001, -2.68843966645900378509e-001, -2.47201509014477044390e-002, -1.42585373657976327566e-001, 2.94160667810678538858e-002, 1.79376813801161105744e-001, 2.45944218705288014659e-001, 2.98426729462285211802e-001, -1.13471606761128773755e-001, 1.15498477692043383103e-001, -9.61148472498031883338e-003, -2.05307363298843720267e-001, -9.88209142934354523025e-002, -3.07477063029731156885e-001, 1.77991480251643324761e-001, 3.02965641345739222778e-001, 2.98997278429036839054e-001, -3.48879273486728466724e-002, 4.27244861614669013683e-002, 1.13713191330029189663e-002, -2.38296381392589767811e-001, -2.54291882114174361273e-001, -2.16425043220792201470e-001, 2.16729437700799193456e-001, 2.74261303956941482340e-001, 2.27041240041823078055e-001, 1.24947640268078478260e-002, -2.15819889572682055423e-002, 2.08429397965664668646e-003, -2.58720417129285840119e-001, -1.93425220676414710841e-001, -6.34707622334516469165e-002, 1.24300538761483642114e-001, 3.29031823221917874012e-001, 3.05637875744638742859e-001, -4.13470462040708627849e-002, 8.40070735481427549596e-002, 3.94913638849866341363e-002, -6.02078742157141980074e-002, -2.23564834051095007172e-001, -2.11945176731716089513e-001, 3.47905852363242062975e-001, 2.37121891901330567043e-001, 1.82992530239941025849e-001, 1.98047781207474800358e-002, -7.14478692315992508499e-002, 1.45573188648911888698e-001, -1.29175484365501080930e-001, -1.23997335359743693362e-001, -9.50416087929670666545e-002, 1.52850055239893950487e-001, 2.48606308739499681781e-001, 3.37392780919185619748e-001, -4.17190384761260361218e-003, 6.99537859487246727053e-002, 8.47959097484971141556e-002, -2.04348582037083253971e-001, -9.55258676986021071365e-002, -1.93223492917017514170e-001, 3.82240066631584607393e-001, 3.08256133473158000502e-001, 2.60368818365571741413e-001, -3.18213620040357220153e-002, 1.48994925658924911444e-002, -6.85803504109014361312e-002, 1.34391806437061302887e-002, -3.92540340926815153888e-003, -7.74493903952330059459e-002, 2.21537082033509302725e-001, 3.40618477706087274814e-001, 3.45852917019087324757e-001, 8.59729701583690497646e-002, 1.86355573970765076020e-001, 9.69242050638692842490e-002, -1.01025369942373571819e-001, -1.39518444484794459926e-002, 2.60473344378053389692e-002, 2.80013671501201044656e-001, 2.57153046937569462749e-001, 1.54468737374016534813e-001, -1.65167244959904119250e-002, 8.01545330227606406259e-004, -6.72328902648829940247e-002, -2.23108868824142991816e-001, -2.80672403682155402471e-001, -1.85432583262042066652e-001, 2.79324089918634832497e-001, 3.05779399249485550616e-001, 2.88573995708854447173e-001, -7.59725861354337284048e-002, -1.56869967885083540227e-002, -1.01205529372995848419e-002, -1.37045429821857328578e-001, -1.38655515126296896566e-001, -2.82708526445509152059e-002, 3.83689611528485019498e-001, 3.33542426963820914931e-001, 1.59222580313808703689e-001, 1.77582657902813217943e-002, -5.36334271903305334628e-002, 1.49045763864122104980e-001, -5.65926271767093341802e-002, 3.17516437222208139368e-002, -6.12456532637014675058e-002, 2.68897664428090488187e-001, 4.19860172166515666081e-001, 3.07732225349125643188e-001, -8.70005084672279827007e-002, -1.51450617312474083986e-001, -1.60069517681150595700e-002, -1.76948654893532841825e-001, -1.33224342092492425982e-001, -8.68750632487126500658e-002, 2.15714599695018410808e-001, 3.49733306994555903646e-001, 2.14768800971346485174e-001, -1.25925596356348978855e-001, -8.52055660077302989830e-002, -2.18639925389462405625e-002, -2.74878499250866104031e-001, -2.90839148112186085537e-002, -1.09822613873397867401e-001, 2.00918216908140961907e-001, 2.84901439335888406745e-001, 3.22654945265568926516e-001, 1.44355151299638412299e-001, 5.29541097758173678889e-002, 1.29220930273954426326e-001, -2.14297497151154314743e-001, -1.05408327913819141464e-001, -1.73678454075761989905e-001, 3.36190130878741555431e-001, 3.77476669938454911790e-001, 1.64635024763077786325e-001, -1.80092344938272058696e-001, -1.00455396115886219643e-001, -8.62182062040311170126e-002, -5.80641310697207618796e-002, -1.49533611769344682019e-001, -7.09685903494270873236e-005, 3.19143197443194692742e-001, 1.87540616624050970884e-001, 2.35879313486519498477e-001, -1.03908470774604494435e-001, 4.17372413478461073977e-003, -7.71648841795726132819e-003, -1.53538328270844320889e-001, -3.91481457504131089009e-002, -5.45461348020169212170e-002, 3.87815463661415393837e-001, 2.89960519878693090412e-001, 3.28611310751855956180e-001, -1.03187769792553410420e-001, 2.43620556756811539045e-002, -1.61720421045992608644e-002, -7.55014111171573853998e-002, -1.77967558192085650859e-001, -1.66533588013525996052e-001, 2.33267443496694509841e-001, 3.70081957470594136161e-001, 2.73635624838671209780e-001, -1.50306019309268096285e-001, -1.15887637848635635662e-001, 4.36304068764014757464e-002, -3.26069658363526193590e-001, -2.98645971086636319303e-001, -1.41266286577806987612e-001, 1.81006440149857200650e-001, 1.23368393898790243424e-001, 2.58365429016560343989e-001, -7.73753415373958502999e-002, -1.12068975196551151585e-001, -5.74455893540575246448e-002, -3.85948475752682720885e-002, -6.83561735993988145443e-002, 4.29633681715735696316e-002, 2.02976133367639671734e-001, 2.65172213612600349286e-001, 1.69980625113370115153e-001, -7.15178095415438253024e-002, -1.19458940603149026821e-002, -1.08942688528124807107e-002, -2.35044331945908180348e-001, -2.26552269513866366690e-001, -2.57281381576693612967e-001, 3.23185796958233795273e-001, 2.23418320598809005961e-001, 3.04161318983805217808e-001, -8.75378040769553000811e-002, 1.34731891840124656801e-001, 9.14737992959533813275e-002, -1.70767460384080388414e-001, -2.80545502856397233060e-001, -1.66615491981215252393e-001, 2.11911516330686888754e-001, 2.70383253124872546813e-001, 1.60144739514856332407e-001, -6.18135948410469034803e-003, -3.98792373234427288686e-002, -5.06729685533994084201e-002, -3.83382455274879629936e-002, -8.91734724876292600415e-002, -1.17573678770848594199e-001, 3.43598980336647763512e-001, 3.39249496382627191426e-001, 2.12629122659428321240e-001, -7.77891774009648040433e-002, -2.15396502071705436832e-001, -4.82894675749880111781e-002, -1.67537526943651815525e-001, -8.72041179994481052695e-002, -2.27415020686744490108e-001, 4.03506988596548765713e-001, 2.89781578910695558626e-001, 3.01667865766821974294e-001, -1.65731218306536635942e-002, -5.94685443735622001893e-002, -1.27249649500156741810e-001, -6.29110113515447214733e-003, -4.44747823988703508413e-002, -1.30960566483888818379e-001, 2.51753214451502393967e-001, 3.32991814500939065091e-001, 4.43292982274006597265e-001, -4.24313813160133654345e-002, 1.76668182596727944833e-002, -7.08871062241926419567e-002, -1.05318453882853713122e-001, -1.53243062118082307155e-001, -1.44492248647713678045e-001, 1.73630170658027327413e-001, 3.86303651780194601262e-001, 2.82764892800890732527e-001, -1.63784079536045124037e-001, -1.65007978480781122843e-002, -8.12732655108135831901e-002, -5.00629758175663366893e-002, -1.35421311901182950255e-001, -1.10934596095164789142e-001, 2.30963525539991859636e-001, 1.96362885582968160758e-001, 2.81718029048864004871e-001, -2.52763531266766323935e-002, 2.73693936259791293156e-003, 9.62153774154841240351e-003, 1.09715283230934126241e-002, 2.24001100488119102294e-003, -1.49155945981117532551e-001, 2.62820399489090250622e-001, 1.12507530903156127700e-001, 2.54012797976080562101e-001, -3.39093659736115424219e-002, -2.28273455380668295611e-002, 1.15338571669168679645e-001, -1.28713759675134153948e-001, -1.35964681756924304912e-001, -1.04718436398288969325e-001, 3.73651874404670958363e-001, 2.96301768277144050856e-001, 1.88861700075679678212e-001, -1.15633751395499612125e-001, 6.12157078605858953613e-002, -2.63737568165511773038e-003, -1.19988805429949371706e-001, -1.43990077452183340423e-001, -1.17573579220408161450e-001, 4.06696294158802540419e-001, 1.59424999249450721761e-001, 2.53263174254732936763e-001, 8.27372508581881577205e-002, -5.81097045483365270968e-002, -8.70093290922212547756e-002, -1.22485440368896705832e-001, -6.27717690883061452123e-002, -2.19970286574615786490e-001, 1.02241920911094824609e-001, 2.08182178269232909251e-001, 1.31615288312994294095e-001, 3.95716829294889063662e-002, 4.56737142638722198873e-002, -5.09416556000586093211e-002, -7.83526521219161942167e-002, -1.27233070712418322445e-001, -8.51524866150750875393e-002, 1.89530846971085437103e-001, 1.56565172998744950306e-001, 3.35149014062844474715e-001, 6.18083281110861290641e-002, -8.90254692043253720302e-002, -9.53188458754420930852e-002, -2.19242521640721499399e-001, -7.44377215984561718676e-002, -4.37487101580932083444e-002, 2.14582716070135182118e-001, 1.70950702299958678942e-001, 3.08577288571319219290e-001, -3.94804706445812877980e-002, -7.67577697618915862771e-003, -1.32828916944016280077e-002, -9.57231227695292119506e-002, -2.56486399502397210970e-001, -1.81762501160892514518e-001, 2.07019527036317985136e-001, 3.63767756247130258362e-001, 2.87922746542943974735e-001, 1.08489399445331549665e-001, 1.33458322184615507666e-001, 9.55756064774615325674e-003, -1.11799173490770231698e-001, -2.81654563407436497879e-001, -9.78878300623429314919e-002, 3.38423556977961337289e-001, 1.85648983806471074010e-001, 3.20411670090245792597e-001, -4.24264816086186921651e-002, 2.25943250744218421255e-001, 1.95080294926406050404e-001, -1.87740349585061916393e-001, -2.35086373699234407741e-001, -2.91940522741243102534e-001, 2.06799037895392667785e-001, 3.01017069062760656006e-001, 6.59431274417448115566e-002, -1.26209201778047536147e-001, 2.45817870020538370435e-002, -3.42183608658063881380e-002, -2.44790699626640295694e-001, -2.72409529136111772107e-001, -3.71396811162303275289e-001, 2.93004804744230962221e-001, 1.48409944723202347205e-001, 1.08417628831875917372e-001, -8.72011203768920661883e-002, 6.39559548619297452143e-002, -1.26275778544163164163e-001, -1.49609865922733425991e-001, -1.55870305359633670728e-001, -2.51293777956545505425e-001, 1.27684403852634242860e-001, 1.68569054361988268642e-001, 1.90931791106683845793e-001, -4.10876847468356204418e-002, -1.86446540364388901878e-002, 7.27595177823748607594e-004, -1.57412588827452071261e-001, -2.85998158364439092338e-001, -2.60167996239448084950e-001, 2.52943240073810471369e-001, 8.10788721630568004484e-002, 1.36560613130140479088e-001, 4.67110994135388618576e-002, -1.76934609595792047276e-001, -1.65215556584387163186e-001, -3.08457324043614589115e-001, -1.27933705932765817703e-001, -1.86444527008002319812e-001, 2.64601281577235059039e-001, 1.60967112298031789219e-001, 3.60597433555860491516e-001, -8.47841317304566383095e-002, 1.32697602495526062460e-001, 3.45391816944946375423e-002, -1.07947792560867533718e-001, -1.53258509038122131551e-001, -9.75034045166273122263e-002, -1.71186506286745698802e-002, 1.75614133844248038185e-001, 1.37676723390373206835e-001, -2.32012235750583634131e-001, 1.43918052120968094354e-002, -1.47618744667502632684e-001, 2.85238256405560497431e-001, 2.38451945458417496893e-001, 1.46582099317779288548e-003, -5.40384540482751335455e-002, 8.61068441670780667513e-004, -1.90065766869043112353e-001, -4.05981619246404079604e-001, -3.52381051527148325686e-001, -2.08249076781808262204e-001, -6.32114583248616357380e-002, -5.10141008388049835287e-002, 1.69180371399184126258e-001, -5.27311836823587731793e-001, -4.12354166328227467186e-001, -2.85891994814062910812e-001, 4.12472289876496429895e-003, -2.63074621957825813268e-004, -2.78767589198934961914e-001, 2.19082394714717076933e-001, 2.19155003828465061444e-001, 3.10245267742733032978e-001, -5.32141340812507634972e-001, -4.47103350933283127944e-001, -1.59635705420262646870e-001, -3.34750751873124585689e-001, -3.81126237576363380288e-001, -3.07964559672055104844e-001, 2.43510726232712859662e-001, 3.72636586459503538205e-001, 3.54859405850604936461e-001, -6.48883543337696155895e-001, -4.73613406188342467296e-001, -2.79647004680261712650e-001, -2.45847539928343433724e-001, 3.89997922886296394251e-002, -2.15749526713650330301e-001, 1.96742184726342361767e-001, 2.45929195317829668577e-001, 1.98223279788371842258e-001, -4.48109227529390141687e-001, -5.49209066068329643251e-001, -3.44684756909765521726e-001, 2.26082762467555875574e-001, 2.67604600624210209325e-001, -1.64701427143432194145e-001, 3.39196159821155196479e-001, 4.69497897586880708065e-001, 5.60954488825445074518e-001, -1.67860339178008355354e-001, -2.70556578798562485932e-001, -9.82501132621652339960e-002, 1.45694760515692606218e-001, 3.26500129576448305802e-001, 3.70468459444440845196e-001, 4.65590515794531700777e-001, 3.68001393351674643828e-001, 4.52086686072825705285e-001, -3.12826591886555427369e-001, -1.58766455789780186469e-001, -2.11052412724617943773e-001, 2.76643774310857716581e-002, 1.70324016078693796228e-001, -6.83356517927799639311e-002, 3.11017991170398855338e-001, 2.57929383395716749217e-001, 1.59673348212657495448e-001, -1.36495512189172385487e-001, -3.88726036655746148840e-002, -7.40850140031397985663e-002, -6.66746726801867861667e-002, 4.99175741913508372316e-002, 1.36000401830802669645e-001, 3.13153636394976286894e-001, 1.16445532301150331267e-001, 3.21378469340842021218e-001, -2.75462281050955992701e-001, -2.23982601676931930568e-001, -1.81159022804552816144e-001, -3.35231253822822206079e-001, -2.33216755888314003498e-001, 3.27983103911265796993e-002, 2.77108297198259689864e-001, 1.62426547267294163479e-001, 3.61635265006822081979e-001, 2.14473208176294040384e-002, -8.21841059997540784865e-002, 1.25213297371392168200e-001, 9.41430317332342531111e-002, 1.41170917098974862958e-001, -8.32241354665125970813e-002, 5.64189563143120742517e-001, 3.45013268432979192113e-001, 4.64896100143646962000e-001, -2.99894173185301426976e-001, -2.65457977507956799368e-001, -1.76495847670876088165e-001, -3.85351772232205500024e-002, -2.18730969660159618728e-001, -2.10873135588558580089e-001, 2.61081993349406960014e-001, 1.50806747823350822957e-001, 2.56552788507207363278e-001, -2.85747438126154273963e-001, -6.27029107104905836234e-002, -7.62273510955412264556e-002, 3.58161609443175335543e-002, -3.94365300797662535204e-002, -7.88395621182000350124e-003, 1.49800413604470106232e-001, 3.47161804357806802468e-001, 1.81059317986969725567e-001, 8.42827922587099653828e-002, -1.79943365381183689733e-002, 4.04869861161536309657e-002, -1.27584196749667450055e-001, -2.01463570546737080758e-001, -1.85939781894057271083e-001, 2.57097356461102322100e-001, 8.98714162084122691887e-002, 3.35233376024397233817e-001, 6.62603838162253572230e-002, 1.30718936373168587162e-001, 2.10574316152951995784e-001, -6.14807197930393178886e-002, -1.91218166857362592559e-001, -3.02775906661171934076e-001, 4.95689696840365401354e-001, 4.39858630473741130107e-001, 5.70496718098432609168e-001, 1.54855997662976085927e-001, 2.97966394004902657144e-001, -8.72337512222810251838e-002, 7.55263163815375754284e-002, -1.04150669398819104017e-001, -2.77732026153167776972e-001, 6.93331147008508508200e-001, 3.96262307170683891755e-001, 3.56769724686876399389e-001, -7.43759708423558929535e-002, 3.60019514793211078962e-002, 2.57201046596408133826e-001, -6.86620323964079182222e-002, -2.62552444665707707117e-001, -2.58287262513884618986e-001, 2.49186957101355605060e-001, 2.32746838423504326387e-001, 4.84572874510338647003e-001, 7.98597748451467109865e-002, -2.31014279549111058165e-002, 1.80132199468636594597e-001, -2.58462359839439881348e-001, -4.37276876033757699869e-001, -1.53497389452492694062e-001, 4.96685037797715889241e-001, 4.25440871398998887720e-001, 2.32608234717587042395e-001, -2.82969817096750897445e-001, -4.52003850562775894018e-003, -2.10963137153859003892e-001, -2.08718356164307922151e-001, -6.21265963117152153483e-002, -3.94519767254935260770e-002, 1.94565181273205961565e-001, 3.03741967269153700926e-001, 4.39521699887541306140e-001, -2.52680684444865133464e-001, -1.23619005799362371989e-001, -2.15402700681742553801e-001, 2.32391205624184582490e-001, 9.46982942893589002553e-002, -5.70390337186299223315e-002, 2.58178253311348582244e-001, 3.05276161897745756946e-001, 3.51368941119813760210e-001, -1.75891331203068546074e-001, -1.78979586346818181353e-001, -1.48425944420438576943e-001, -4.65760759766587553732e-002, 4.63379975021269152613e-003, 7.18460794382702327976e-002, 3.76759974160942090471e-001, 4.74820106377990380775e-001, 3.19525794934233386968e-001, 1.73399546211795041462e-001, 1.56872339995683535152e-002, -9.61693162668981194052e-002, -1.99022470551025953966e-001, -1.78541008705595943828e-001, 2.85593456056496726447e-002, 4.75748815774364397502e-001, 3.04225863746465319259e-001, 4.69341475615142389444e-001, -2.23843731469236612019e-001, -7.09286007542235669154e-002, -2.53316096632181353421e-001, -2.62232903996995558860e-001, -3.36294997259456163174e-001, -1.09607291970005404913e-001, 5.71235371302247996184e-001, 4.00740159662610007096e-001, 3.68523048674347541986e-001, 6.92429200148700074724e-002, -3.42481964324843068948e-002, -2.25400183709770385310e-001, -1.97829872365509917831e-001, -3.29273418485346636153e-001, -3.02986483538460971143e-001, 3.57585709447464206168e-001, 2.60761916770324786441e-001, 3.41312953065897206617e-001, 2.55992098863441874812e-001, -1.46006534325948900133e-001, 8.91264977480179382274e-002, -2.20214445404530778649e-001, -4.26161451442583050220e-001, -2.95855524412960368963e-001, 3.28128998153410844640e-001, 3.81711371414268030300e-001, 2.76304252350675683125e-001, -2.09190166535016333627e-002, -1.84860086726782030242e-002, -1.97381286203316408390e-001, 8.29852777715880396414e-002, 9.23069459109008144670e-002, -2.01921374713780105159e-001, 2.89724798570461183900e-001, 3.91773425791638318927e-001, 3.68618673700218668632e-001, -6.32315690311620586667e-003, -1.46422554064409501939e-002, -1.54497114726937251339e-001, -1.77100863464725644114e-001, -1.58151658167151487611e-001, -3.63525174314421051225e-002, 3.55941846739420142409e-001, 4.99878442125879840496e-001, 1.88911143017863047966e-001, -2.39284430778370221793e-001, -2.45548921735502578834e-001, 1.94208639833886725912e-002, 2.33230998666120542540e-001, 2.04516544157672924831e-001, -5.67140700681482701206e-002, 5.10670996416665801121e-001, 2.28719604440915796895e-001, 2.29920915555560850807e-001, -1.59075171069400972401e-001, -1.38895524579465495796e-001, -1.83749956222920202142e-001, 1.25722258323982150063e-001, -1.15624012751693650003e-001, 2.29985538734537531269e-001, 4.42542537855036333116e-001, 6.06908198538471888028e-001, 6.53169512714043887236e-001, 1.57477813442344988237e-001, 4.41127392852112137911e-002, 2.34209067342671765910e-002, -2.08499465921802018542e-002, 1.27674306018337110902e-002, -6.08950091551064276452e-002, 3.48362664133519239762e-001, 3.65992874383927635495e-001, 6.95968697609508635260e-001, 1.28208898538701099312e-001, -2.13939584156602802256e-001, -8.62674487751570878702e-002, -2.58473507746699582288e-002, -4.82795567318320337225e-002, -5.87791606113947234791e-002, 3.89117072790603313326e-001, 4.03653767908446869939e-001, 1.16736276539598310409e-001, -8.54050722486718455473e-002, -1.90796340510908601917e-001, -2.51608395044657151551e-001, -3.06223203578337765940e-001, -6.14517138861603307021e-002, -1.17294383693890766351e-001, 4.12908734176125946647e-001, 1.20332480887708551109e-001, 3.85553383359409307385e-001, 1.90206730075912683331e-001, 1.05154128011414257915e-001, 1.02747533125603487947e-001, 1.19863786882295042524e-001, 3.51401473284448040424e-001, 1.91495971305752077374e-002, 1.91929956508389731873e-001, 4.15023566166141055778e-001, 3.63849812041269149443e-001, 8.32054351420917492899e-002, 2.64587012614239502906e-001, 3.99825405851914408850e-003, -7.64402971727663471668e-002, -1.52329852432507954763e-002, -3.19491311473267425303e-001, 3.97731524788727919262e-001, 3.04513077014933353226e-001, 4.37675126253468826931e-001, -1.80220722202999228401e-001, 1.04756776424931183356e-001, -1.14256131190539705900e-001, 8.57832193280610028063e-002, 2.00831601701596529352e-001, -1.19129749820934424664e-001, 4.61097624863366584158e-001, 4.41557390329985866018e-001, 3.50744672357829134768e-001, -1.56863534170974316950e-001, -2.80176910837596715442e-001, -3.03086791812722300410e-001, 1.96393465931401389746e-001, 4.48958683972946470675e-002, 2.58645972915398369985e-002, 3.23245490530941703700e-001, 3.42474794776608748581e-001, 3.05018193926393788029e-001, 2.72728347257640384160e-003, -2.06318785321645964403e-001, -2.24564849929816179319e-001, 2.36213007079856124326e-001, -1.38027897303969679377e-002, 1.70535242588280955278e-001, 1.24898463201515139143e-001, 2.13712796375024743911e-001, 1.26784304088419397250e-001, -2.72375456977404506453e-001, -2.82404515247735576899e-001, -2.25234745257123225581e-001, 1.81047762823579150293e-001, 8.57193177832383107484e-002, 1.82198774264563823078e-001, 8.99316187910640940650e-002, 1.26523969400532815266e-001, 4.00052485169068328119e-001, -2.00943037557426817941e-001, -3.02772256259470740059e-001, -4.24845227375821643534e-001, 7.56267410210746254817e-002, -1.54608504202548152628e-001, 3.71018846904213467353e-003, 4.01378949453452649188e-001, 4.32590880377869135831e-001, 2.60531986052902841955e-001, -3.04237155323536290208e-001, -2.95947340834663674691e-001, -5.19698756328680677719e-001, 4.42964749121603107440e-001, 1.92883977197185196850e-001, -8.42940373643622370414e-002, 3.06021058814059554454e-001, 4.56691361151524644058e-001, 4.03453788046796879563e-001, 3.95884962193808406794e-002, 3.17737794240025406278e-001, 4.04544106355476273951e-001, -4.26153400162364026649e-002, -9.19954688456709329669e-002, -3.87723429338046529646e-002, -1.60106279592099887132e-001, 8.24472926892610841199e-002, 3.57054756182166421752e-001, 4.23253225036710756246e-001, 3.46514619133564683029e-001, 4.07060598964181730164e-001, 9.53329999059947391649e-002, -7.03205517189162548908e-002, -3.11316753284422376158e-001, -4.09843265108604526414e-002, 1.59434555070771061258e-001, 2.24863636494543800426e-001, 2.32727564378111179133e-001, -1.46226826476755205481e-002, 1.14534154457084175194e-001, -2.88450889269143584404e-001, -1.08478713727143474821e-001, -5.44868953000427758138e-002, 4.05916242738532440093e-001, 4.83649445186726090196e-001, 3.54490351880239529248e-001, 1.33150359498366531452e-002, -1.59775988038087762844e-001, 6.26782601056302766246e-003, -3.95827500401837450994e-002, -1.73367659507521948425e-001, -3.31041226746907724099e-001, 3.15932469692312256626e-001, 2.27672378893302301828e-001, 1.25266006470641011461e-001, 4.23419230882891989287e-002, 2.61449855682097498377e-001, 9.17952932018685774374e-002, -1.60279801196028914845e-001, -2.69198393614150210951e-001, -1.32575269912270615746e-001, 4.48362362405024472700e-001, 1.83375468395089058493e-001, 2.58284698874938600799e-001, 1.05201559190902182994e-001, -1.47588145271800696978e-001, 5.18175059708128812885e-002, -1.79019710459017905579e-001, -8.11380911192781106855e-002, -3.18804125752317035758e-001, -8.78459090889100596700e-002, -2.16217684111392992319e-002, 1.37827097060925912730e-001, 4.40282217214434667962e-002, -1.80508400829400526832e-002, -1.59481599029861448313e-001, 2.60554000119461504070e-001, 6.81685149214035779330e-002, -8.90408112647658178673e-002, -8.04301600355696900968e-005, 8.65219998751321772712e-002, 7.21133170817326168978e-002, 3.19475602132945693534e-002, 1.15263496727062486613e-001, 5.26154218334989667860e-002, 3.96036106913592172996e-003, -4.66245184516547207798e-003, 1.01643773243297388942e-001, 1.79614806189250464374e-001, 1.92735469874656561995e-001, 2.89921010735169570882e-001, 5.58959677401206361802e-002, 7.75583847827533978680e-002, -9.94504342249480366434e-002, 8.66441136919740423350e-002, -3.70025909263197949617e-001, -6.83105248357225441902e-002, 2.09952871767183114893e-002, 5.32394391405543801477e-002, -2.92150345948987179290e-002, 4.15283382125174321819e-002, 1.89899755585127477664e-001, -1.05677890784203563218e-002, -1.63339015877791510212e-001, -1.34787435700477659095e-001, -3.45963417007132845171e-001, 1.72109911724645597841e-001, 1.58083220808166530214e-001, 3.43948524050471049485e-001, 3.02989601832509211632e-002, -1.35730995006937294606e-002, 1.13181904711224246007e-001, 1.38002342421045143261e-001, 9.48641661138469594050e-002, -3.06281309391200795567e-001, 3.53718664424736498053e-002, -5.95695596758561152217e-002, -5.10803555314166268797e-002, 8.04373090287201358839e-002, 6.82865715781029447573e-002, 1.51564458920973116340e-001, 1.91326522693683748200e-001, 9.71891185380040628639e-002, -2.81400119138910054239e-001, 2.51466833937838765700e-002, 1.43379561971028690603e-001, 2.26849044968772915742e-002, 9.22840173062594026909e-002, 2.67512569724594584386e-001, -6.60355617914059889184e-002, -3.86331543140633615341e-002, -1.95706315272405978467e-001, -1.07926052053844728773e-001, 1.32147874856349240025e-001, 2.57907734658064435873e-001, 2.01683126479737517833e-001, -1.33339907088930204049e-001, -5.94861082687761569265e-002, -2.16148548379909516415e-001, -4.90669508775782615972e-003, -4.05117726425957037917e-003, 3.79774352488504718384e-002, 1.73586079774182278079e-001, 3.13937986497852539181e-001, 2.36938987925832622583e-001, 8.81030530572226439068e-002, -1.09179169807093370825e-001, -4.55372275917790836353e-002, -8.62485805894288720674e-002, -5.04332938421507559479e-002, -7.44884259457875702592e-002, 1.97443682239631435049e-001, 1.05084117453081354876e-001, 1.26819301126879502295e-001, 5.89134109485695868502e-003, 1.32713247252126104181e-001, 2.57205850138555958129e-001, 1.61052858857116051872e-002, 1.78530292767902498685e-002, -9.79710626366561559974e-002, 1.41469810420079084023e-001, 9.78601740861098912116e-002, 1.70382271237852073176e-002, -6.74151632039358683635e-002, 1.45965038005519909259e-001, 9.19063329366823639210e-002, 2.92824991915157539779e-001, 1.45505464970927284041e-001, 3.72226923291301525776e-001, 1.41419962293104096301e-002, 4.08136063700691997802e-002, -2.31482438516937005790e-001, 1.42325122952188659609e-001, 3.16643412180015668134e-002, 1.28224892953433727838e-001, 2.30031303768054862235e-001, 1.45423132932551796292e-001, -9.22737380770865256441e-002, -2.89730738463720750853e-003, 2.82205245847010122162e-001, -9.79775520664264015780e-002, 2.93925773093335118702e-001, -2.98422078680750588187e-002, 2.19728843090684688999e-001, 1.15052106855277353620e-002, 1.38715071637334347310e-001, 4.87568993707877818000e-002, 7.30695061708531712341e-002, 7.22161850767112645233e-002, 2.11519728677065921296e-001, 8.26814860864058809309e-002, 1.54067487299813787871e-001, 1.75648767189282767331e-001, 1.21760969453039186172e-001, -5.51366937528966968851e-002, 1.55632531875107560371e-001, -1.03606784356414308168e-001, 2.00805036842013687193e-002, -7.57035667664907874208e-002, 4.67993769816262613487e-003, 8.37422954353796433757e-002, -1.27042680669697705120e-001, 1.47740075487401173460e-001, 1.17985603134755631660e-001, 2.64525294276903522039e-001, -3.10155057175874222797e-002, 1.51179038079560321833e-003, 1.30338032960404331950e-001, -1.35662416317179151948e-001, -2.73909432903797489534e-002, 1.54790992301317931190e-001, 3.20804985793373964587e-001, 2.47326729424215074893e-001, 4.21253749103938868181e-001, 9.30921313565124530776e-002, -1.73227927132644565766e-001, 9.98781561597637257410e-002, -1.01835393344444254116e-002, 1.85575449028882621949e-001, 1.21092926370723732998e-001, 2.34251203913067779228e-001, 9.88171885540136268888e-002, 9.32041840441599489520e-002, 7.04956637090313892324e-002, 6.07226638762572226704e-002, -1.79526653019147219847e-002, -8.12345370177212575125e-003, -8.79302064750829975859e-002, 1.94589689750819638814e-001, 2.38628579075848168412e-001, 6.82141788629955503342e-002, -5.92424758769927450874e-002, -1.45862298076526897272e-001, -1.22733155091293722611e-002, -7.77512344963832667533e-003, -9.29908854663827333376e-002, -3.69076736240826069890e-002, -9.94411219412162511455e-002, -2.97513009535628029922e-002, -1.40265511518736923913e-001, -3.62665062362895179032e-003, 3.14141991629699801614e-001, 1.86318156997699269084e-001, 5.08324353544719956255e-002, -1.09358847549653470654e-001, -1.22281215875918169989e-001, 2.35917993453756240363e-002, 4.04086022756565410585e-002, 3.13176269052242092772e-002, 9.16630138011338690962e-002, -7.46414545310796345712e-002, -1.43599264102296127199e-002, 5.23437575827676096485e-002, -1.43843042661084469236e-001, -7.94254687953381138810e-002, 6.78547189747774198709e-002, -2.78858361000697586862e-002, 1.67593331741365092480e-001, -4.03110419496557764729e-002, 2.53000112148623577946e-002, 1.09050434216000163845e-001, 2.90425084692207680082e-002, -9.68506556737503271348e-002, 2.02581359296367322087e-002, -5.00596841159838892854e-002, 6.15938935905416887207e-002, 4.55123964942025921454e-002, 2.43142058983414378892e-002, 2.42775125929228056954e-002, 1.27063410545148997022e-001, -1.73789554099075538307e-001, 7.86880795628383117313e-002, 1.01193628356040302152e-001, 1.90832949668390983167e-001, -2.83098995793536721555e-002, 5.05153987108131544148e-002, 7.41189664599245789933e-002, 1.55019275674640993889e-001, 6.65248751189297243824e-002, 9.42778801133795363310e-002, -2.03430652005222339929e-001, -2.25637197453918525447e-001, 6.07591189337642299806e-003, 8.22181936215581471439e-002, 1.48747766124780606001e-001, 1.23415973677206969317e-001, 5.98151080409758881262e-002, 2.51502043871875691217e-001, 1.47629457309868122872e-001, -1.99006275843645108470e-001, -1.13700252830227332979e-001, -1.77961905600690001306e-001, -1.57967918821410480135e-001, -3.06273631663665814318e-002, -1.56014473218059113169e-001, 2.00224711553227324723e-001, 1.42156497791980418466e-001, 1.61516065354550875099e-001, -3.82989525517123327591e-002, -7.14465950647089204084e-002, -1.15008058379388281023e-001, 8.93634748801102746230e-002, 1.76901367572095374880e-001, 7.92809594937283063087e-002, 2.27424278557749631746e-001, 9.96196958041180857801e-002, 2.37797702333616439718e-001, 1.76634554507020730130e-001, -7.12473795381096675072e-002, 2.22768475258646111992e-002, -2.15739799158618128505e-001, -2.78885417635526405844e-005, -1.60030438724836077125e-001, 1.66057224625140692487e-001, 1.90594298311278331770e-001, 1.51720759474927469057e-001, 7.03107874862612947098e-003, 1.47586189167555920099e-001, 1.53333268746845108321e-001, 3.26898988725440597936e-002, 4.82119570862287044610e-002, 5.58466071130574379100e-002, 1.99096117633600605545e-001, 1.36896177253083783931e-001, 2.00143846990447432654e-001, 1.59586267457582170470e-001, 8.39675411127314419435e-002, -1.27522094277286862640e-002, 7.10783756935095267782e-002, 2.56682521992717960213e-001, 2.22715166099135553068e-001, 1.20737714232529436131e-002, 2.08667445333209883307e-001, 7.74186086442158888365e-002, 9.69481607292438651857e-002, -8.85521853211909543147e-002, -6.87803046795297870486e-003, 8.02854578993827394662e-002, -7.33763635785765044178e-003, 1.98771434547385134062e-001, 1.17909202004362431704e-001, 3.78589892344592887988e-004, 5.73833645148697363281e-002, -3.25527424902796666539e-002, -1.34511124082037410860e-002, 3.50262065025510535565e-002, 1.92630580924600912363e-002, 1.99425198342960352527e-001, 3.43157142350525801167e-001, -1.06862536719608477997e-001, -1.07168772478533499970e-001, 7.32449198747616575522e-002, -2.31812615238675634455e-001, -2.81568039703592315481e-002, -2.53722517926475377159e-001, -1.22298409563449936299e-001, 3.47252151062828404160e-002, 8.32195759227451342666e-002, -3.19030738709047828605e-002, 4.84102947091912538813e-002, -3.13893839670476293424e-002, -1.56581905242366009601e-001, -7.49299655536493289243e-003, -1.35539958844995561682e-001, 4.09102115816660394376e-001, 2.87068175723229401797e-001, 2.33875538901000240566e-001, -9.44790659461407084097e-002, -1.71467608264227910908e-001, 7.19808859340923257175e-002, -1.57418578955329985236e-001, -1.97803092674130126527e-001, -1.54125638300966733008e-001, 2.53502029105675992515e-002, 5.13676220248283632586e-002, 1.57246895574476491797e-001, -2.14963537480569559512e-002, -4.31338173458255674797e-002, 4.54962184044298348362e-002, 3.74788738171670174348e-002, 7.76101511301460350589e-002, 5.36866208502064859442e-002, 1.71904615175398955973e-001, 4.17810900290452660877e-002, -3.80870058851255147148e-002, -4.34149462634565580510e-002, -2.29190980235492343386e-002, 5.77126855438157629341e-002, -7.45829564329885952301e-002, 2.16561568832844414390e-002, -1.27638428087145866865e-003, 8.07775227737906331704e-002, 2.00139752559339856308e-002, 9.52148515695400293746e-002, -8.82140379546739461514e-002, -3.31615526569219720709e-002, -4.11440883142093968838e-002, 1.96289281205995314039e-001, 1.14609627406538364114e-001, 2.05133419360765900663e-001, 4.45728720970901826082e-002, 1.55552089143608851529e-001, -9.55728703326055306633e-002, -1.48019448115101315278e-001, -1.26923297011956814906e-001, -1.33053349977914014968e-001, 2.42066976459856225690e-001, 1.66206218817705225765e-001, 2.01625100017324559998e-001, 2.57632968074378125578e-002, -1.29830547648324915594e-002, -1.23499455541082187038e-002, -2.06463616686281964396e-001, -1.79725367514476791486e-001, -2.44830246739971418846e-001, 6.35156336245761010684e-002, -4.79603129176970413572e-002, 6.34076163610002990767e-002, 1.21625060766295284287e-001, 7.89608832703107138551e-002, -3.27087300252536031242e-002, -1.05444513098148145991e-001, -2.70742642752858433952e-002, 1.20425280261926819642e-002, 1.72130588440934123584e-001, 1.46267917165862487705e-001, 8.94785631055823732494e-002, 1.06606338174759437964e-002, -3.00761339063453161935e-002, 3.13275196942213104978e-002, -1.49918206482786212086e-002, -8.77395144644750046847e-002, -1.65163676109648077661e-001, -2.69665284002354073423e-002, 1.39824776023168229067e-001, 1.12114124475895748922e-001, 5.83205403144196193876e-002, -1.19365821626531296018e-001, -1.06625132707364692064e-001, -2.61484687626039546959e-001, -3.04489229574071262885e-001, -2.53578067351245717287e-001, -5.22784815669519870029e-002, 9.96564633098248886522e-002, 1.01318050720227301187e-001, -2.78442686135678928172e-002, -2.09547642632222530512e-001, -5.25146803928728811428e-002, -1.74366028417082513657e-001, -1.82797041785447034190e-001, -2.41649173174018516708e-001, 4.13177670211528139110e-002, 2.35793834417316813812e-002, 1.04431210426793406182e-002, 7.46602276888369414953e-002, 2.73675855656707774088e-002, 7.33379568026069073028e-002, -6.95477832948645652289e-002, -1.09293273038046950818e-001, -8.82658033933187147202e-002, 9.56471290062932827380e-002, 2.55724892930339828268e-002, 7.91050871937434840753e-002, 9.66246919991593927746e-002, 1.72686088286310539253e-002, 7.36121201580550582610e-002, -1.14083407755863175392e-001, 1.08662427706636855601e-002, -3.02410523943050346674e-001, -4.62031647933973804721e-002, 1.19407575295885179378e-001, 8.56514549808928687957e-002, 4.26954984811195592531e-002, -2.68095621814767280655e-002, 1.14248147319608861494e-001, -1.27095302318361719207e-001, -2.22600355195906873806e-001, -1.09850499810306284632e-001, -8.92143275363074944595e-002, -2.15224820900502024357e-002, 8.92598318876426793933e-002, -5.88215534481260141075e-002, 1.10958818743959186648e-001, -2.62200281731670356566e-002, -2.55913940185982444198e-002, -1.71745206536466327174e-001, -1.50472075974553476385e-001, -8.20189286047218746312e-002, -5.31748482073675435289e-002, 7.32405520613860078205e-002, 2.27929415584444926279e-002, 4.89103284794781545397e-002, -1.56186703147015715221e-002, -5.23197044600139729575e-002, -1.90461880936415056675e-001, -4.72012734449703697664e-003, 7.15922638384543785772e-002, -6.62139590965882679496e-002, 1.10190640930029157274e-001, -4.48491920808875565996e-002, 9.74233825653668117361e-002, 1.25295524358911336549e-001, -2.02761929294567211368e-001, -1.67762759233647112955e-001, -2.79014275757135554734e-001, -1.51515324278608337627e-001, 4.28139140293122208436e-003, 1.01503755118800262358e-001, 3.51370223818725513354e-002, 5.32143851168413728470e-002, -4.26264404253097776640e-004, -3.22825744650070065034e-002, -1.78211291960405943113e-001, -2.05817550227840789789e-001, 1.17376431315852500226e-001, 9.10613396257067553297e-002, -9.57344254012096884665e-002, 7.53516081036163937190e-002, 2.44882603239765128667e-001, 1.13230481831117266167e-001, -2.93209768691437222543e-001, -1.47821651518317970231e-001, -3.14314355240032927696e-001, 1.19735095102454947025e-001, 1.30774888664559552076e-001, -5.93233384111123279725e-002, 1.22653162920996150476e-001, 2.27511996785587811143e-001, 1.98785258910123135978e-001, -1.21968391384262214716e-001, -1.78618863833084173809e-001, -2.16783650174364017627e-001, 2.01597692006369004492e-002, 1.17125535550276313468e-001, -5.94843547800774294365e-003, 1.54028896862352077113e-001, 5.88318406763944506954e-002, 6.02178447338454006510e-002, 4.39213275017678872469e-002, -1.76941766913223635926e-001, -1.09848565105520060148e-001, -6.77118279641889531106e-002, -2.15931647272436209872e-002, 2.20298304519829998838e-002, 1.29604263589929380451e-001, 6.72943844835773019586e-002, 1.00560434119875849457e-001, -4.69697472133780088988e-002, -1.20867190553202413783e-001, -2.91305327920033441114e-001, 6.02192318944557575255e-003, -8.78428092257221987404e-002, -9.09056022044349432143e-002, -1.84149087890024473757e-002, -6.49546942555981471346e-002, 8.62830130047344823208e-002, -1.07136093228180226400e-001, -1.52158097890188859225e-001, -3.05603641284720450866e-002, 1.37790413094764807589e-001, 8.17353659938610185853e-003, 9.44148729676603931660e-002, 5.54721490832267433158e-002, 3.75308319950125521269e-002, 3.81792105619459046228e-002, -1.82668333992686365841e-001, 3.85066038114917491564e-002, 3.20336069803175763071e-002, -6.81632313175881549006e-002, 5.96911164852287901006e-002, 6.65034883614024213694e-002, 1.30556276175668645179e-001, 5.27401870966724001244e-002, 1.19552794335589466362e-002, -9.88682576855195727195e-002, -1.00400707688402493489e-001, 2.66387041830056549296e-002, 5.51236810782763861361e-002, 9.85609275322199690494e-002, -5.33675215544799075307e-002, 4.42383155569348041070e-002, 1.68958512901497798220e-001, 1.46561642580603584962e-001, -5.40006324766664907999e-002, -7.65762204847909716543e-002, -2.61478898097773249098e-001, -1.30982447933614160052e-001, -1.52374043112944376754e-002, -3.57846424663439549585e-002, 2.50890798770029427311e-002, 2.52623331920426297259e-001, 2.40322248495549450897e-002, -1.54087280368236739791e-001, -1.23943769011878326958e-001, -1.91700576502776443011e-001, 6.24447287314043517070e-002, -5.22253472412455843621e-002, 3.29057425334572870024e-002, 1.66778615333162516521e-001, -2.44165739602380527096e-002, -2.98178939806066772844e-002, -1.10304492581347515778e-001, -1.67262325466688871467e-001, -1.25313375116424791100e-001, -4.41528931244245248511e-002, 6.41150505210609511497e-002, -4.07107187951746343768e-002, 7.97402878766933637111e-002, -5.69502944015211481910e-002, 1.33953637102999484343e-001, -2.83997863985908871598e-001, -1.86848819860709031149e-001, -1.28958160098776530855e-001, 1.07743086299092558078e-001, 1.67552599034037158487e-001, 1.69902970277840015267e-001, 1.28100900974673775901e-001, 3.86705200548533023497e-002, 2.81562700868762255668e-002, -4.87005596890567396540e-002, -1.25168482439106887316e-001, -7.20173354097786710959e-002, 2.66364192711348479747e-001, -9.55072068999303358527e-003, 5.95142427419724923121e-002, 2.43757134868283794997e-004, 5.50288529517280258774e-002, -1.37851165388019544777e-002, -4.35164954867217901313e-002, -1.10195718588464552923e-001, 2.39960785283988564665e-002, 1.48448294278579140393e-001, -4.53980934345960818188e-002, 2.15561424841882176562e-002, 7.90042420519687510483e-002, 1.16880474409149434645e-002, 9.19190322387431202333e-002, -3.45569415426670231706e-002, -1.19664659487267885374e-001, -1.94293974513321449082e-001, -9.04615054742664709275e-002, 6.95314466555715521290e-002, -7.42163930507325347863e-002, -1.72230062662523282502e-002, -4.47922589365155471297e-002, -5.66582220341753511894e-002, -2.18681075273755021193e-001, -8.87527520579555473379e-002, -2.21004406254954099964e-001, 1.38827598299547799732e-001, 1.78653398730470952538e-001, 1.95385453436880018874e-001, 8.97299590639964381178e-003, 1.82640141023931279474e-001, 1.68262166281360314724e-001, -1.31850334527487261793e-001, -2.44960881172196776046e-002, -1.85145493096400409749e-002, 1.51115740769965367640e-001, 9.60832524310098468057e-002, -4.79586791991703717541e-002, -6.55456611827140711579e-002, 1.09883890029526601340e-001, 1.63117633603751116533e-001, -1.02991486673000801066e-001, -9.09329341460813761477e-002, -2.02411996033326824218e-001, 2.04000375136777101215e-001, 2.24727627232685051029e-001, 9.03084740717675915622e-002, 1.21400971161351831085e-001, -1.00163855782462525752e-003, -9.47987614972588266138e-002, -9.65990891625680137000e-003, -9.87492312734114668915e-002, -3.75332639475520479788e-002, -1.38057410860702406245e-003, 3.40966179394590410134e-002, -1.13128357407175222926e-001, -2.43383938250787912327e-001, -2.11530453257727346639e-001, -2.14014602868078440689e-001, -1.43394091522529021354e-002, -6.71867399754162569758e-002, -1.43174280743879056566e-001, 3.08258430456423947186e-003, -1.04907043614458822534e-001, 1.10370723776087781287e-001, -9.39142968395605473586e-003, -1.44653199395770731828e-001, 3.24719808818536015416e-002, 8.84724514118642307858e-002, 1.50843381932566300563e-001, 8.35404266692202912559e-002, 5.84960695001482816613e-002, 1.67877581688282873085e-001, 9.07031440153880236243e-002, 6.90286078673082448276e-002, -9.07684225847574521762e-002, 8.33834173591067179254e-002, 1.45032771203103226509e-002, 9.54156865491884997876e-002, 9.13149656927981223653e-002, 1.15593135088470522209e-001, 1.31456249926408127136e-003, 3.95113759398483671559e-002, 7.15961068915077492036e-002, 8.60349288826420949272e-002, -2.54918391066618552077e-002, -1.03082745249827634204e-001, -1.04225747787242140063e-001, 7.06479072968233812180e-002, 1.20215129606169928919e-003, 1.74333879049799300720e-001, 1.08920756252868816683e-001, 4.10913743771411030248e-002, -7.78484123974117064870e-002, -4.06243340358668561518e-002, -1.85838431189999479798e-003, 1.34273668138924856530e-001, 1.09293832391925499481e-001, 1.37885940661383654682e-001, 1.27854638997945857515e-001, 2.75467169731313799019e-001, 1.35805939636655326197e-001, 1.42190680539446834274e-001, 2.39029372361382663748e-001, -2.70796029342604063772e-002, -1.71018493850267544465e-001, -7.98829904153543213230e-002, 1.18586466058638359544e-001, 1.75873032302618331757e-001, 9.65096645876058478741e-002, 7.47044011034105337465e-002, -1.32524211343662712270e-001, 1.59498304500747777046e-002, -1.43142150540593149355e-001, -2.44807762404540635304e-001, -1.97388602047689043495e-001, 2.51345239747758797400e-001, 4.12548909228752924694e-001, 1.56135644318989103008e-001, -1.89919274923012942891e-001, 1.35324557611748108599e-001, -2.24716632093057200326e-001, -7.78428260274909716854e-002, -4.88531271410897818819e-002, -1.68463237793858716662e-002, 1.63027463130032274075e-001, 1.87717642110129007138e-001, 2.09076968601583423890e-001, -1.65142738894516361015e-001, -1.01855953721767478193e-001, -2.39842680852365118527e-002, 9.09420548278692675304e-002, -1.46911015711559678198e-002, 9.91244421786498935978e-002, -8.78041544985128097345e-002, 4.99178225510761922057e-002, 6.57817329516612314677e-002, -1.89964104589581718463e-002, -1.77062736974717208072e-002, -2.55537014543845530934e-001, 1.30506917865200772200e-001, 1.94267950923589477474e-001, 4.26158100712604459570e-002, -1.97420527867900263974e-001, -9.83504166514604510896e-002, -6.02503031256456864084e-002, -3.17271138805687635820e-001, -1.20101838023063040017e-001, -1.61582971404579028851e-001, 1.84521596616767161181e-002, 1.70903835738063863969e-001, 1.31868804878837730943e-001, -1.62896572124512029056e-001, -3.34121932741091032248e-001, -2.76453585012496061424e-001, -2.95707225969151388245e-001, -3.07830304435594837020e-001, -3.71980638592679380139e-001, 7.72745098790513784692e-002, 1.26255746923248257652e-001, 1.62207709118520337910e-001, -2.69746670521043230284e-001, -2.55015208439817953057e-001, -1.71246228250018783790e-001, 2.35361785151360664026e-001, 3.14887416630395766681e-001, -1.26585375321422999306e-002, 2.20664991081965411457e-001, 1.62336030295496119846e-001, 2.79725500170748875295e-001, -4.34291776535868714881e-002, -2.98871169426417164494e-002, 7.18037337484410120858e-002, -1.98994513319371846283e-002, 1.59078315634159278558e-001, -9.03872944777443509956e-002, 2.87188289255542017475e-001, 1.80176449410155842257e-001, 2.21791797967067189079e-001, 5.73607951536257987257e-002, -1.42386043325236771873e-002, 3.44780432610427151063e-002, -2.00371908244461688353e-001, 1.30813537306664839921e-001, 2.36770519185534218665e-002, 2.44403509651623496168e-001, 4.72183197640988205901e-002, 3.93853644027860327892e-002, 1.82940705862362912315e-001, 1.94709617782573313205e-001, 3.42713397582937936980e-002, -7.57338884960000180424e-002, -1.23845688133555162369e-001, -2.53809095728322164920e-001, -8.45670535093867858922e-002, 2.01545742428412527625e-001, 6.99860082805833089159e-002, 6.21844649305709207265e-002, 1.06608820211929869459e-001, 6.12999210849069983698e-002, -1.98967644980050484271e-001, -1.09547007047320787976e-001, -1.77051251497483769226e-001, 1.67976281348060640930e-001, -4.14809086460502726701e-002, 7.87231416603850209235e-002, 2.41412551515925499768e-001, -1.36662335893745958554e-002, 2.48517043208072274663e-001, -2.15552200885858954993e-002, -1.79754924794154141710e-001, 4.18268962196243418439e-002, 2.68153912401725424974e-001, 1.98316154216648249387e-001, 9.66385106156551071388e-002, -3.05213078823500551240e-002, 1.64875217113785998979e-002, 1.56920883130238941749e-001, 3.98525057015750860945e-002, -2.55705276462009079008e-001, -2.52618061419579986726e-001, -2.54297749395429005526e-002, 2.84214147831237046518e-003, 2.24063528695640695743e-001, 1.08291638242216159416e-001, -1.69271461406481846246e-002, 1.35911512676509665942e-001, -2.08796464730576336599e-001, -4.25220100430110520273e-002, 1.68737425350895753340e-001, 1.23343120799845537561e-001, 2.14549534603912767095e-001, 1.34781602784444620724e-001, 1.11106014138362782506e-001, 1.23147366679565911651e-001, 2.13792544270545115115e-001, 7.06237166759330209365e-002, -2.39689146251826773470e-001, -1.45179649956793138665e-001, 6.97297730670826537702e-002, -5.26589249654292809733e-002, 5.72216784079617856590e-003, 9.45446059995328907943e-002, 9.70352091134736166600e-002, 2.70630372108432659672e-001, -2.09962373181024203328e-001, -2.54029533817427710662e-001, -1.52758149085431671477e-001, 8.42462263707086794762e-002, 1.16446842429550265208e-001, 9.95931311775025140953e-002, 2.43960138804502402188e-001, 4.04212448730482842851e-001, 2.23718465126288512668e-001, -7.27988155123111685407e-002, -1.83651842784297192335e-001, -9.80379940240785202610e-002, 2.09334258300020920052e-001, 5.08647361255134961011e-002, 2.66020685286266933556e-001, 2.62576290006808654720e-001, 6.81397628950837219719e-002, 3.01926992046358699806e-001, -2.02802007420282759398e-001, -2.25778540242104752700e-001, -6.22792040703302254845e-002, 1.98123314707760983522e-001, 1.51724127172021161503e-001, 2.44939190008835072643e-001, 1.50011258646722100973e-001, 1.60355078404304740580e-001, 2.60445360712695750394e-001, -1.72398051112251815553e-001, -4.76322924689225379868e-001, 2.95411281753454393884e-002, 2.37126500938209833214e-001, 1.45851644240649169770e-001, 9.65866182678728479871e-002, 1.30215831879287702311e-001, 2.33364971984764413282e-001, 1.95819781897258654579e-001, -1.26779464747591164020e-001, -1.27687520192085735005e-001, 2.16868519586612025496e-002, 6.15560601907942442357e-002, 1.40797204083578209044e-001, 9.05006980011512224271e-002, 1.98560249549505907218e-002, 7.23151506266668936407e-002, -7.08138349576254155782e-002, 9.05471699759224091242e-002, 2.48847658746805949770e-001, 1.19579362387948487378e-001, 1.13360273864619706674e-001, 1.92361831195463961475e-001, 1.47934891159841180874e-001, -1.68937700163012023691e-002, 2.69444605395183334196e-001, 2.05665451639038154852e-001, 9.76453276826765720342e-002, 8.35617894302862485034e-002, 2.39717947932292750612e-002, -2.65425272301807665953e-002, 1.65024164609948037485e-001, -6.64620784005348214096e-002, 3.89108684357161782597e-001, 3.38259387664700261755e-001, 1.67646388508827792752e-001, 5.30764497469914248162e-002, -1.79617435864985131033e-001, -7.99639168727374685663e-003, 1.01147725265737051248e-001, 2.23044630276128197366e-001, 2.60912297755403532751e-001, 8.04081785129485138164e-002, 7.03326363683113436887e-002, 9.77988014251988946324e-003, -1.15726021691088282184e-001, -3.18923385495488598274e-001, -1.92678856010975535495e-001, 3.69643858493693411305e-002, 1.89979191703513822231e-001, 1.26584683032005290704e-001, 3.67161898420838239687e-001, 2.74075889147694318204e-001, 2.31817082946323610448e-001, -8.92766169722748054172e-002, -2.07366149616879158479e-001, -1.42263502184381357418e-001, 9.42280522180726776149e-002, 4.37570231628964939619e-002, 2.80637493873110044351e-001, 3.18908529147140462623e-001, 1.20148140267136951942e-001, 2.25038476649800256446e-001, -5.95055403647176336945e-002, -1.98415906821972659602e-001, -1.65011032751470609892e-001, 2.37654083358417561600e-001, 1.73381718657794670069e-001, 1.57314992800883429735e-001, 1.47328986717775278770e-001, 4.54958745183865823081e-002, 1.63486556138589061993e-001, -3.25661470973175257160e-002, -2.67977345043161174765e-001, -1.74462038560343535298e-001, 6.26105647450499874784e-002, 1.21753996985490248184e-001, 1.08002106798249827846e-001, 2.32836856311593565216e-001, 5.76189266850766212968e-002, 6.87363271579272266942e-002, -2.49700948692425317432e-001, 2.20012750419231878363e-002, 1.53489628548860806978e-001, 9.66214895985023636271e-002, 2.22247591667529442727e-001, 1.06680455965848894340e-001, 2.18975596555768314833e-001, 2.48586140668098282136e-001, 1.77761665115135414350e-001, -6.03165067774695095454e-003, -7.53279068025638626205e-002, 1.45822308941075395872e-001, 4.90169514938674222293e-002, -2.17133113472325681159e-002, 8.92489007070241813224e-002, 2.37810234282024052233e-001, -4.03140376548803691659e-003, 1.48518387513772304187e-001, 6.62984519491767732013e-002, -3.57337123762201669397e-002, -3.59118342029788178982e-002, 2.61033189031264378777e-001, 3.55711595973312200147e-001, 1.21503193561836808634e-001, 2.04982497319495471366e-001, 2.79425968212839159754e-001, 1.43293498420649506597e-001, 2.05904902317911447929e-001, 1.10054370631780043532e-001, 3.24082983244423656483e-004, 5.02529703826280829682e-002, 7.80448957401238679887e-002, 3.51948689065725461855e-001, 4.13842231711653851800e-002, -1.58084893732099475427e-002, 6.93618254534819483892e-002, -1.34376898870476435555e-001, -2.03099113441998685436e-001, -1.21605817060427015552e-001, 8.63624671065766624789e-002, 7.04058397901245053285e-002, -4.52161706471077909364e-002, 2.90393119228962853784e-002, 4.57729675002562785835e-002, -1.72516430613618765300e-001, -2.60844979395996212634e-001, -1.86847143276649529930e-001, -1.45476074471679872602e-001, 1.95319675159316086255e-001, 1.69428134108698197346e-001, 1.18709125366844553406e-001, 2.76845454044021888063e-001, 1.96606975926664290233e-001, 2.58847797008238234007e-001, 2.56223366248792439048e-001, 3.19129266217192508748e-001, -9.36028821934748456179e-002, 2.64457548005016196413e-001, 7.87920918229880473671e-002, 1.32722479200965710194e-002, 2.49345329253695208171e-001, 2.25536738228861138866e-001, 2.10023270643285603354e-001, -1.07780722184195237867e-001, 2.61178846502241462924e-002, -1.95314355065746347861e-001, 1.13859546874697254576e-002, 2.66969079471647219304e-001, 1.44030102463275938574e-001, 1.58102057462634837393e-001, 3.58355410256826489857e-001, 2.55004798645477148700e-001, 1.99078565480464958481e-001, 2.04656147659833476116e-001, 4.17476157459671759486e-001, 1.33421001089058161027e-001, 2.43286935338398235817e-001, -8.29814186084198157634e-002, 7.93900808384177952837e-002, -2.21644603802998510500e-002, -2.78112239388031978748e-002, 2.00793071022172774087e-002, -1.76973198767631595407e-001, -1.33507316535373621313e-001, 4.98789308364671613027e-002, -1.29594955940754125168e-001, 6.24298311615608531033e-002, 1.25955197481862096742e-001, -4.22138274416104710557e-003, -3.12227903881421506305e-002, 6.13608444240853340146e-002, 5.05241808911540690730e-002, 1.26412041603142122348e-001, -1.87301688337510457982e-001, -9.49462495584580887242e-003, -2.13748899028997879634e-001, -3.19162698401045871743e-002, -9.67900551663114089296e-002, 4.44103193812700400289e-002, 3.17247606019013597689e-002, -8.22862365092029840463e-002, 4.19766188951055108092e-002, 6.99885971484905111684e-002, -7.88759664980150654312e-002, 1.14189300231915313866e-001, 2.73975536301574416898e-002, -4.83518829502208938309e-002, 4.56254228896457933451e-002, 1.51717732212359707189e-001, 5.64468855130793867314e-003, 1.69364590046968133130e-001, 2.44049635063323888673e-001, 9.52064541911539219399e-002, 1.83634361838480364426e-001, -4.98589350518424956338e-002, -3.68752814814373164332e-002, -2.08928296803512991708e-001, 3.71904214036370750485e-001, 2.58534831350212324086e-001, -8.79643134843961227443e-002, 1.39803217283081232525e-001, 2.89416071918827122467e-001, 1.38454949434044127798e-001, 1.29773820951629009768e-001, -1.70581891409254504666e-001, -2.84399727168726190740e-001, 2.58802094982086144936e-002, -9.74184675039555247889e-002, -4.44455487558182565921e-002, -9.12465645993797702662e-002, -7.64411208053407953411e-002, -3.69056596508540890600e-001, 8.00636579534072870268e-003, -1.08457731073680757605e-001, -2.12461860263272322991e-001, -1.25568343301372731258e-001, 2.81538149622558742102e-001, 1.01634725018933294582e-001, -1.36263209979986227305e-001, -4.80981555443338940070e-002, -1.22654745743839874161e-001, 8.47004286232920372557e-002, 3.01890504889209154715e-001, 5.87498970920984631139e-002, 1.49621308760727683707e-001, 3.48054229461832731474e-001, 1.97113965335117047317e-001, -2.73994909935984076732e-001, -3.75229336600835183813e-001, -3.66631590584146849210e-001, 3.42201364405553154491e-001, 3.12505125623883328601e-001, 9.13817253257441369785e-002, 1.48731946073222903726e-001, 1.94574573516431093001e-001, -1.78089253500344768533e-002, -2.98136366676429898082e-001, -1.89337147171255187894e-001, -3.46658510128173391607e-001, 2.02925141352797711036e-001, -2.82868037623268259173e-002, 2.56461855943815930647e-001, 1.92083352210747571043e-001, 2.63949258340362202802e-001, 2.18073162378511570259e-001, -3.68183261448290666262e-001, -1.52301358739384329333e-001, -2.45996598501343782806e-001, 2.51148530521090040946e-001, 3.91729181169864937306e-001, 1.67047983589472259780e-001, -1.32196695686223136823e-001, -2.52728995197945505158e-001, 2.20318229796781478447e-001, -2.15042882224935477664e-001, -2.15661238898914142670e-001, -1.47993568105263678669e-001, 1.22632259122165632181e-001, 1.17337863730816227559e-001, 2.53692833960362740253e-001, -1.22837522488904962725e-001, 3.81209519857932180309e-002, -9.63645944729952241836e-002, -2.00053944791452803509e-001, -3.79482774284772339524e-001, -1.60635685157937829759e-001, 2.05966786698198456307e-001, 1.22867173648704627875e-002, 1.20441231145286403725e-001, 2.07659914096983172493e-001, 1.11249510902515336142e-001, 2.14038803411031458568e-002, -2.46717784259608885478e-001, -1.61228793327361202836e-001, -1.61357069456857210588e-001, 2.26291388987276166633e-002, 1.89026850178309502315e-001, 2.14677482800840729871e-001, -2.81085831160066169920e-002, 1.65360681745390439290e-002, 9.71530045243261392018e-002, -2.15989532198868593171e-002, -2.45015247385563295079e-001, -4.16381440178708803201e-003, 2.36699927001934817827e-001, 2.88199689927805882683e-002, 1.28922038799567456602e-001, 2.39005078155900330117e-001, 1.37160238911616327862e-001, 2.55604872724969955922e-001, -1.56404219848623488032e-001, -2.81606209806007701246e-001, -3.80526100703632741418e-001, 1.15376421511050777924e-001, 7.67747561323625093976e-002, -9.48342400623117115499e-002, -1.33234627196048283082e-001, -7.11894982577288976122e-002, 4.67046005288122498267e-002, -1.39354000391007509796e-001, -1.10210287972128007095e-001, -2.13323119058382165703e-001, 6.13591877134368191005e-002, 2.86533955856771646586e-002, -5.92074973638372498153e-002, -5.29395598734817424136e-002, 3.77593547377385319042e-002, 2.47012794821848208349e-001, -2.05734588256335948486e-001, -1.52077689233234863986e-001, -1.51642035519314821723e-001, 4.06342021920352708397e-002, -2.42075452750211590758e-002, 1.15549180562496370261e-001, 9.77905757342928949605e-002, 1.00559863530347029514e-001, 1.42046535723022004927e-001, -2.04995784155305699192e-001, -2.01210216892282078849e-001, -4.05577741236340993947e-001, 4.18063490661688852423e-001, 6.61023086829889694460e-002, 2.28109825562595514015e-001, -3.19750331749954208593e-002, 1.90357548529309278385e-001, 4.30482185123555391448e-002, -1.19418998428105244125e-001, -2.61779044990535669779e-001, -1.36848002646943162075e-001, 1.71772501259764925896e-001, 2.60921921442116011569e-001, 2.17901928375851844377e-001, 1.94030801805661567982e-001, -2.70764703573800405434e-002, 1.43233440054568117450e-001, -1.77641946818515278350e-001, -1.24589798152319519708e-001, -9.45999465917994331043e-002, -3.73258236232852577685e-002, -5.54395878163425268048e-002, 7.02694223135017920212e-002, -2.55903928575018924096e-002, 1.75774844603937246967e-001, -9.68435514636512839726e-002, -1.97277225063787226000e-001, -1.65580988425462316549e-001, -1.17641814025725516268e-001, 1.55524974797678017246e-001, -7.11311464099739082512e-002, -1.74868788166086704117e-002, 2.08192024701997407954e-001, 1.25688037378776318320e-001, -1.20179063888917414538e-001, -8.41720120304931124222e-002, -5.87057373253161568494e-002, -8.25463463097453192807e-002, 6.30111643004806210033e-002, -1.10265778887177423595e-001, 5.03479974843470332035e-002, 5.01284326234517421672e-002, 1.02744639695792949752e-001, 1.77450810077933146536e-001, -2.66175357148806135399e-001, -4.15868109009055741954e-001, -2.23820501257891907310e-001, -1.91329075036282020283e-001, 1.26472658891723949842e-002, 2.79951223735380207158e-002, 1.21215677841815076821e-002, 5.26544557118573605670e-002, -1.90380287154253979853e-001, -2.58051434169286664222e-001, -1.64475834755388183872e-001, -1.39536441555164897332e-001, 8.72357445585862228965e-002, 2.02528048500621282724e-001, 2.27798886765540886667e-001, -1.87760635809230858051e-001, -7.14918004479317553690e-002, -2.42067193702903443731e-001, -8.12828624837692997884e-002, -2.35110518500114856755e-001, -1.49037957380595109669e-001, 2.59552948510664238668e-001, -8.77815870421814609115e-002, 6.97219311493504773081e-002, -3.33270738829476831366e-001, -4.28191241637309483181e-001, -3.24666961835133160985e-001, -1.67715578822400540604e-001, -7.18356280428913366448e-003, 2.67882561927408544000e-002, -5.11983320150214294558e-003, 3.86926139504070523700e-002, 4.35874971039283860830e-003, -3.62037109273590451686e-001, -6.20610273701959792858e-003, -3.17983419155477065043e-001, -2.02410416948180016394e-001, -1.22575026433606723564e-001, -2.44107233819059382673e-001, 1.23645746233328829300e-001, -8.24599059002498052662e-002, 1.29891491126293390224e-001, -1.47994009780665763953e-001, 2.13772333949622250771e-001, 2.17942164131686710871e-001, -1.18833365996405468379e-001, -1.61237954515635523167e-001, -1.75632604545700815590e-001, 2.10563636575269719220e-001, 1.91445106185961416712e-001, -1.09786037556574761487e-001, -1.39266234081058259964e-001, -7.56161833409902534031e-002, -7.26184711588189757414e-002, -7.73690495180197890246e-002, -1.84811945055084414502e-001, -1.71489552366583114518e-001, 1.57120122857756949752e-001, 7.90408133537176260663e-002, 2.78081095282029899796e-001, 1.24766672271954051632e-001, 1.53612124310569198027e-001, -4.84832339389480422923e-004, -2.26374339906010246803e-001, -3.30992535681674027170e-001, -8.46261059812751376130e-002, 3.17972478054871054987e-001, 3.00431985074004148650e-001, 5.22305313835627546548e-002, 2.95034354642581403416e-002, 3.47306154113868545408e-002, 9.96812007150011877843e-003, -1.26156151795266069371e-001, -1.09875181669831539777e-001, -1.08520212650896993867e-001, 2.35862744571414900685e-001, 2.45257882993144132877e-001, 1.25751482449623197546e-001, -2.44675668740249423194e-002, -8.23686265557439789564e-002, -2.02244972558584673594e-001, -9.12664809648263131159e-002, -1.20742635168840012350e-001, -7.96285118162706924416e-003, 1.57984575962882012323e-001, 1.87761096830393270363e-001, 1.46459853430360165127e-001, -2.09939161143211927563e-001, -1.30005624360831323338e-001, -9.47535653947355477333e-002, -6.96067583888926311175e-002, -1.31414005291442537171e-001, 1.73049647676081601311e-002, 1.33981092963556033121e-002, 1.29780585984114626985e-001, 1.03593562536592492807e-001, 2.91358981502539068908e-002, 2.09405284317413981077e-001, 3.46093867858843634577e-002, -2.67717072918321752351e-001, -2.74540204709253388149e-001, -2.79363437988031815262e-001, 1.18771493897807708939e-001, 1.94957251433660716522e-001, 1.62620948319470104426e-001, -1.03140179544673915579e-001, -1.81468640794089780544e-001, -7.16819105054293248536e-002, -1.99151849979848277750e-001, -3.72847513544157960208e-001, -2.79986809946523085291e-001, 3.52156879829893909584e-001, 1.80555396965368847306e-001, 2.46135446911513372514e-001, 8.69138262374746506378e-002, 1.01959026340430261581e-001, 2.55032176645303365614e-001, -1.15722043506897603882e-001, -1.14320219370678696769e-001, -3.31365957531263854996e-001, 2.56030227978260693789e-001, 4.76450367719830694679e-002, 1.92917714362962594565e-001, 4.78560578180745044286e-002, 5.02786207435645601804e-003, -4.71913242194447815625e-002, -1.39247766246853782457e-001, -2.68860904489750196511e-001, -4.11813150950556816632e-001, 5.19862862470665682002e-002, 7.22331234848602038445e-002, 1.12679843789453476566e-001, 2.68893133865188871390e-001, -1.66149475011591434004e-002, 2.98209345848221674125e-001, -2.55761572449554497322e-001, -1.17798459429552734856e-001, -1.88203235641513755283e-001, 1.15907166841783898503e-001, 7.29459321632265345059e-002, 1.81808794835914916410e-001, 3.67044478490927963618e-003, 7.54120682115824898795e-003, -1.36074463976004672583e-001, -3.04970380606305546678e-001, -1.45011359259400340882e-001, -2.78290204949798503087e-001, -2.32417501699788177361e-002, 8.03362586837507719473e-002, 2.16730329984123532006e-001, -1.28295546034831314808e-001, -3.92710847348666070022e-001, -4.52962988836287994143e-001, -1.91637864691141329709e-001, -2.35578117554055943561e-001, -1.07680100396804270813e-001, 1.97573531563671966893e-001, 1.53886854413612744752e-001, 1.82426898421109706661e-001, 8.52873990827113931390e-002, 4.91619025823448602130e-002, 8.25926289415677139516e-002, -5.95711074980162375025e-002, -5.13424588934830727904e-002, -8.15203239627524389732e-002, 2.89079920388396971465e-001, 1.13353158229971787141e-001, 9.81470082008587263456e-002, 5.89651050538010160218e-002, -6.56260849529956835635e-002, -8.64170025244563044797e-002, -5.59287562525820694526e-002, -5.55771671730895394647e-002, 6.85672319478190933628e-002, 3.38478497390134913658e-001, 2.90931590348034452287e-001, 2.27946544084069446789e-001, 1.06391978227498795739e-001, 1.00614207835564711813e-001, -1.64935218472272382417e-001, -1.59201654625775207430e-001, -1.32929874745710899231e-002, -5.90253835665242587716e-002, 2.34405877584693306259e-001, 3.42879242867377476145e-001, 2.94549359202791349865e-001, -3.74714656404639301357e-001, -1.26505859737680970145e-001, -2.90808858350461774123e-001, -2.18813215819870232615e-001, -2.23644816686703190589e-001, -1.75185062307721156616e-001, 1.63419533505108210969e-001, 2.74125868784090620522e-001, 3.76114775512565224780e-001, -2.28033019041778500791e-001, -3.93672739459091425296e-001, 9.55636082185940122224e-002, -3.08993428009562365322e-001, -7.11131717642025096282e-002, -8.28081074715897869076e-002, 6.30397780843447025356e-002, -8.53238524250919255776e-002, -7.30240937945685064658e-002, 1.69870081659784538664e-001, 8.41817733572525345176e-002, 6.41857572866827846836e-002, -1.22270928616833363112e-001, 5.99680754104159156881e-003, -1.32729890069742034742e-001, 3.86571327168114819983e-002, -6.59235175510956838973e-002, -1.10829426277591833183e-001, 1.05792189162689526799e-002, 1.93283700452874851461e-001, 1.50768336242441236550e-001, -1.93419244357211000951e-001, 3.27068239531128346353e-002, -5.46274372632398405591e-002, 7.01314352749590752545e-002, -5.31693349208985435728e-002, 5.28958848013836510638e-002, -1.09283319946364032571e-001, -3.68481005496928623599e-002, 3.87535378816652592571e-002, -1.35960236115724109052e-001, 3.26440081222729508448e-002, -1.30746552358657314175e-001, -6.43784408438165117738e-002, 1.51933177030389776618e-001, -1.14636429132395856190e-001, 1.58224127278136172947e-001, -8.00674810479386767081e-002, 8.96932761521703203478e-002, -7.20072748297811981999e-002, -1.85170616059234766082e-001, -8.33594154887868643566e-002, 9.11266746172251645985e-002, 8.82787695813008060908e-003, -5.61444291277437487753e-002, 1.00034817788415525408e-001, 2.98881394529489710643e-002, -1.99790337659474072710e-003, -6.58459087200700121656e-002, -1.97144567260918002205e-001, -2.28174148638592311222e-001, -9.52404556357548948142e-002, -8.07804025445030549069e-002, -1.32392420477660133910e-002, 7.66364875755520674749e-002, 1.50940437948802214096e-001, -5.57533218861757315366e-002, -2.39083070994708137003e-002, -8.15946510048198014875e-002, -5.15538683128138122691e-002, 1.20010348447628409363e-001, -1.62953328975125391609e-002, 1.22848437401482282749e-001, 1.03720209927510825798e-001, 6.50927514540649565511e-002, 1.16092284308829021833e-001, -1.91439606831042802293e-001, -1.39168780405002717737e-001, -1.08166651602213809147e-001, 6.50002705993772272874e-002, -4.52016860031680192678e-002, -1.60454260147635738298e-002, -1.20869346172250785587e-001, -1.86077415726950273767e-001, 3.72888661583881259043e-002, -8.53469736591880301368e-002, -2.99806623927864002166e-001, -6.11332910425261832899e-002, -9.17733484926590570296e-002, 1.44608042964678412678e-001, -5.37564980588404670026e-002, 1.81922743821934101982e-001, 1.88818868350237006881e-001, 1.84281642313055799010e-001, -2.15873808330744598738e-001, -1.17315006423044654316e-001, -1.10367153109204474415e-001, 5.19255117480784608719e-002, -1.40830897753537021000e-001, -8.43223294841428522295e-002, 9.91519510009026827646e-002, 7.78996244031502776961e-002, 1.16393891268315910481e-001, -1.30439794965658134585e-001, -4.82846303834839202240e-002, -2.08709726831785596923e-001, -1.34214890805707004473e-001, 1.56763660137399729599e-001, 9.12144694264381272752e-002, -8.14861085315758404413e-002, 7.99898208801267801560e-002, -3.22225168908618284092e-002, -1.62503797377559239257e-001, -1.99562869354801580846e-001, -1.87464674000845127333e-001, 1.00372695064095934780e-001, 3.94088584394711310965e-002, -1.12389670406670069691e-001, -7.61782817435426168329e-002, -7.60486837859392778016e-002, -2.94423415504658156361e-002, -1.88235803429979919876e-001, -5.50327857138207809928e-002, -1.02646818586367954973e-001, 1.89231791841706145640e-002, -7.08710389465801587905e-002, 4.90083594596502220009e-002, 1.03238066175524612067e-001, 6.60781735166591499553e-002, -4.50848925296112798544e-002, -1.62648608493687701904e-001, -1.50169935640234786245e-001, -4.17888000284548088992e-002, -8.64280068850929034108e-002, -7.65488575838025181453e-002, 7.28923322854560656880e-002, 7.53727947947424176123e-002, 1.70131452092012747102e-001, -2.52317043413066745272e-002, -1.97623468178457384337e-001, 1.69552743094990342534e-003, -1.62137724496678459207e-001, -1.43249589511885211390e-001, -8.54637015977056241356e-003, 3.32061092269697738510e-002, -6.14634876063205846941e-003, 4.23955889737140448337e-002, -7.64270970480135283104e-003, -2.47408986795630780886e-001, -1.74100600116352588476e-001, -1.39433184584170144493e-001, 9.27305269237803375670e-002, 8.16877584193655692513e-002, -3.08000631553725576217e-002, 1.34054174171191781140e-001, 6.60105151588986499567e-002, 8.38743485209482303455e-002, -4.64491311524611871775e-002, -2.00440527927220474291e-001, -2.37231707159432453347e-001, -1.52514904881480561905e-001, -5.40055621065418239857e-002, 7.86678847336115538713e-002, -7.36503959572832322955e-002, -5.14569047779011023991e-002, 7.00829037342882432693e-002, 2.32395199949983408128e-002, -2.06296059519087471301e-001, -5.74432831987778183547e-002, -7.15171794070723898518e-002, -7.60177216021892115938e-002, -8.01543428142293123972e-002, 1.24724225880941702593e-001, 1.14403063762169299178e-001, 1.06270093523084682707e-001, 4.83503198886033828258e-003, 3.23478319292463400991e-002, -2.11788696135904952467e-001, 3.40750488987927313556e-003, -1.00448425147917630440e-001, -1.23291121247601723893e-002, 4.75603560152929732974e-002, 1.01328278363783108595e-002, 4.34096606478262259099e-002, -1.66802929078738795821e-002, -1.04651767439670806414e-001, -2.94727230785753913089e-001, 2.88114710107406392370e-002, -1.27306156731645837843e-002, -8.49170085637272614720e-002, 1.19165670181324567789e-001, 1.29255333004759470628e-001, 4.17413309419303740766e-002, 9.45983252992419788863e-003, 5.99398634349871603511e-002, -1.05765887479555537043e-001, 7.29339729315495594042e-002, -2.05914716477605510073e-003, -1.66235424403423509565e-001, 1.17037409572543188441e-001, -1.52714492369539628358e-001, -1.25455964879621628683e-001, -1.40020211959986595751e-001, -1.70115672775878218337e-001, -1.13200330768513421353e-001, 1.12053698182164124253e-001, 3.04921700155957389744e-002, -3.33559617951763587307e-002, 7.04888125995210834684e-002, -1.84006491942964381381e-002, 6.10439612790184063518e-002, -1.45027725384655938740e-002, -1.25601684002866170742e-001, -1.18160083161507837440e-002, -6.19191620146787406742e-003, -3.04645708035922446744e-002, -8.14976142394750191489e-002, 1.56916583727246650160e-001, 1.10865491008227097861e-003, 1.30016788847685471620e-001, -2.02819764598950985635e-001, -4.26318633913378153277e-002, -3.45373774831343530178e-002, -1.70526916259297584011e-001, -3.78774783841094170311e-002, 1.08734607198092511626e-001, -2.76361105725355105101e-002, 4.82426334505835149868e-002, 2.39606768335693304239e-001, -2.60295907679904958698e-001, 5.25155270656151810377e-004, -2.39325862996714572306e-001, -5.84733577458305398000e-002, -7.87934387871385387425e-003, -1.33163070985804682378e-001, -3.91048220373675734646e-003, 5.19052383253352095371e-002, -8.97732192978485943335e-002, -1.74403364228874091513e-001, -1.43715941236196992348e-001, -1.40311705638598877011e-001, 6.05259983847136195934e-002, -1.25629423437868981139e-001, -7.00392305344833959735e-002, 1.71518407088278895811e-001, -5.32222309972209123297e-002, -6.17751139530298837288e-002, -2.45760287414457628818e-001, -1.34678063308263817888e-001, -1.69615566463762940108e-001, -6.61771506541719983785e-002, 2.12196805598947463301e-001, -3.71415259894233851234e-002, -1.88641608044116081133e-003, 8.89113155831221108061e-002, -1.01357309168074449790e-001, -3.18818519108680850649e-002, -5.77635303250224330096e-002, -2.08630687662665348370e-001, 1.19057350946413412207e-001, -1.63272547623240053827e-002, 1.74650538516901210340e-001, -1.10114151645177765770e-001, -5.59370526619783689504e-002, 4.18394166489144750387e-002, -3.45426732246923162695e-002, -1.75325017138580063758e-001, -5.89064466203496825414e-002, 8.26737521891889176606e-002, -6.75169356241943630081e-002, 2.95527763653467105687e-002, 7.51490282735917392021e-002, -3.98184834684892768886e-002, -7.05585618000417885698e-002, -1.34921447943437744499e-001, -1.11899519899705868209e-001, -4.09032453283189947890e-002, -1.12213135306379996337e-001, -6.62367865782119147333e-002, -1.48676277078048452163e-001, 3.09778958657650578187e-003, -6.91920620811766612368e-002, 1.82463503612425061162e-002, -8.42112866369696955182e-002, -2.11609062666371278150e-001, -2.33770123671123652986e-001, 7.07893349270465321865e-002, 1.50948735694773433780e-001, 6.19072808064191210109e-002, -1.24746386259020472509e-001, 1.55580052198845991684e-001, 4.25680643877730455205e-002, -1.11059406643635408263e-001, -1.94292353031535414143e-001, -1.32588694199087336889e-001, 9.28534289328950407372e-002, 1.44461925711510591475e-001, 4.61219808805161807230e-002, -4.41899225331530837169e-002, 3.47658990024909408945e-002, -3.82414707924840086006e-002, -1.26772723934282127711e-001, -1.94254764534452395441e-001, -9.05845400997768862572e-002, 1.66426592590915925496e-002, 5.23806778825803513039e-003, -3.31120772602694693476e-003, 1.50470372766802917841e-001, -1.87687095881965054778e-001, 1.33105098642941954701e-001, 1.66944258834447398221e-002, 4.24435192654699158799e-002, -1.05907432450819044556e-001, 7.71549641555047266417e-002, -9.19607275769019211209e-002, 5.61838872429074390191e-002, -5.79360322410391315184e-002, -2.20565112987734061878e-002, 2.78938099382781933000e-002, -1.53691842059987510138e-001, -1.02301660935317034751e-001, -2.08557472851742115028e-001, -5.53930907757211980769e-003, 7.04977290932559536030e-002, -2.94752422852203425918e-002, 4.69314137709711601265e-002, -5.08235163731869596382e-002, -7.89585357822158301344e-002, -1.79663297317470077585e-001, 4.50250768737972678624e-002, -3.98773391737443985705e-002, 1.82631653798367377117e-001, 1.35655110432211720162e-002, 5.45369778959586999634e-003, 2.99051484347589262291e-002, -1.16810686568973448596e-001, -1.23051423142814275215e-003, -1.14902134110511144893e-001, 1.30621448911058229969e-001, -6.19911603592031082433e-002, 1.47755214839920989700e-001, -2.82258754530234426405e-002, 1.61060296295387289645e-001, -1.02342427772076763337e-001, 1.05284908054113848785e-001, -7.20641554693337085813e-003, -1.05388590214397670497e-001, -9.22893031706577549045e-002, -1.55407479427576347003e-002, 1.32399316806076139397e-001, 2.04260620543278287320e-001, 3.63856433833655568133e-002, -1.15552024130302091742e-001, -1.25967809249560525053e-001, 2.50711370331749977547e-002, 7.00715576525772487759e-002, 4.31466930667522632903e-002, -9.29039985421380859476e-002, 4.04646121465525587801e-002, 5.11538052753353067459e-002, 1.25854508894583716483e-001, 9.21229931735096860268e-003, 2.46385146403259765180e-002, 1.71140908868621544059e-001, 3.94630079800853059147e-002, -1.58829270499819791285e-001, -9.90385215831795368002e-002, 1.03673057464399837047e-001, 4.92300543036426341281e-002, 1.08968306970822700896e-001, -1.15941188003439998866e-001, 4.31619920133370898324e-003, 1.75412335870898133949e-001, -7.10419761972379271153e-002, -1.60844460310444414830e-001, -6.55589310463138286167e-002, 4.37343720339333774660e-002, 2.10642238421406863269e-001, 4.50549402250929251212e-002, -2.28536045472063180373e-002, 1.32750224021796897622e-001, -9.55902118655239663170e-002, -2.51053583843415362153e-001, -9.72930080404598024435e-002, 4.51173700800646601539e-002, 2.33080618677064116406e-001, 7.34174756366551967135e-002, 6.01001922934416444450e-003, -1.07582478380004703533e-001, 4.89265938823059344694e-004, 1.79072047160446279346e-001, -5.48785195102439796178e-002, -1.89434501431612715983e-002, -5.06566370220556394521e-002, 3.47522424270694171855e-002, -8.50573247016443573232e-002, -5.06491466039616297645e-002, -6.88644175886601456194e-002, 1.42195959112010692632e-002, -1.66421263571327138209e-001, -4.26062616576450767236e-002, -4.87859100060755168649e-002, -1.60447287997258714043e-001, -5.72712305171843155671e-002, -3.81404068396750048353e-002, 4.61675958746355225015e-002, 3.27622208519081914435e-002, -1.60109569414094821127e-001, -1.40027813582732571507e-002, -1.88557149301863735680e-001, 7.58668806659783256929e-002, -6.69397965460585137043e-002, -6.61432671128265314842e-002, 1.40563161842989642336e-002, 1.68127210027798512648e-001, 1.38807652805086265135e-002, 1.53410686986390792930e-001, -2.99698562133284274189e-002, -1.58708887341317272934e-001, -1.26351452112964834917e-001, -2.26733416693821222820e-002, -1.25813742578986705045e-002, 3.68311325076217943586e-002, 7.51182733130947161149e-002, 7.61986540045025972923e-002, 6.32301207344186932957e-002, 3.47601489461163704053e-002, -8.24697534275930649317e-002, 5.24389491345833846925e-002, 8.50282370899284600796e-002, 1.92465130384025032151e-002, 8.93478886950521272725e-002, 1.47454741471060690738e-001, 7.56159047042044424325e-002, 9.19702801086193372226e-002, -3.00293642348061495806e-002, -5.70397893801694658156e-002, 1.07458249111171716406e-001, 6.48070244756641933304e-003, 7.26592109115871964686e-002, 2.20866279712784524536e-001, -3.79249138481398684331e-002, -9.91851262266637140330e-002, -1.81145056319675533049e-003, -4.65862069456027330649e-002, -2.50256757196503261398e-002, 3.26589656944424877594e-002, 3.81554552163862678582e-002, 2.99918694628254434154e-001, 1.86448193977410248134e-001, 1.33836894623099972312e-001, -1.05799705844023345103e-001, -2.96658058318543318976e-002, 1.46187554741652098178e-001, -1.22303831034680551837e-001, -2.54864377761851307325e-002, 8.21641064475118060306e-002, 4.75327174775850361255e-002, 6.55782289788220812410e-002, -1.47138918594405445489e-002, -1.78289267385804417465e-001, -7.97753875875930190675e-002, 1.45288594449671237818e-001, -1.27643529623269413875e-001, 1.26327236597046699274e-001, 3.85646019562122591151e-002, 2.53161162520465554682e-001, 1.76317195988754921165e-001, 1.14504248352111467901e-001, 1.78718691106168670046e-001, 1.88918511400500178932e-002, -6.20923195125493848634e-002, 8.33816094081862163589e-002, -2.25839751583587766692e-001, 9.10801527223720347459e-002, 8.84847678583975949529e-002, 4.10048292494597649283e-002, 1.47609597186457830453e-001, 6.02042987052685829585e-002, -8.21968292540554840153e-002, -5.11036012804460832576e-003, -4.76663407150342138818e-002, -1.01029502668303641788e-001, 1.00984856004412926200e-001, -1.30693752722591510773e-001, 1.10094831866123094022e-001, 6.77200378532436669810e-002, -3.43228414893313391043e-002, 4.34796404054846805098e-002, 1.00318562555287163485e-001, 7.19012811800254364458e-002, -3.41031871526213462009e-002, 2.24774256091242533029e-002, 3.37474696591825162884e-002, 1.74373595724233915183e-001, 1.86258285269811807439e-001, 2.78371645556316354986e-002, -6.44209364225286351680e-002, 6.94299265736459392251e-002, -2.71542120066213012175e-002, -3.04512885951128513262e-002, -1.59890115743089519795e-002, 9.47205488995962602283e-002, 7.02184065981739657936e-002, 5.36685386946415959875e-002, -1.14225063097057905059e-001, 3.88019126517625684292e-002, -2.34849541362518760002e-001, -3.50151567882143188726e-002, -2.22218044088187474672e-002, -2.80206345253643171467e-002, 4.67134502236560417154e-002, 1.63845118007200474253e-001, 1.49569663072308456364e-001, -5.85633603978892997022e-002, -1.34620268816152688363e-001, -1.20922722532790669070e-001, 3.01655236577957862332e-002, -3.60242089694451025905e-002, 3.12890237185423983335e-002, -1.90664882443836170012e-002, 6.80847878109236276378e-002, -3.07897667209520563975e-003, -1.43827434008327426085e-001, -1.45895687353329445157e-001, -1.88065263081262958045e-002, 1.30607815693328573742e-002, 2.95788430837387802952e-002, -3.84733407463843726792e-002, 2.63477866269262173127e-001, 2.59089378694521976776e-001, 6.56303345251701975016e-003, -3.77036475269238377517e-002, -1.27095116476366953862e-001, 7.41291791576678682496e-002, -9.88163016944731548152e-002, 1.69217204538697651994e-001, -8.70530315302754376106e-002, 9.83855542267708244042e-002, 3.35587778792906660241e-002, 2.50375086873893926143e-001, 2.63729659564903018421e-001, 3.60258777342091704443e-002, 4.38202824691672696011e-002, -7.79174628211298098135e-003, -8.44300898092486228064e-003, 6.84811855409445113807e-002, 5.27555187451229229412e-002, -2.19081713695179914475e-003, -4.80750205720733223003e-002, 2.22416408885290822761e-001, 2.30245495835903701831e-001, -5.43683899099493342377e-002, -1.42918207874177305428e-001, 6.58147772192240049227e-002, -3.72750302867922642114e-002, 5.08609957758840991460e-002, 1.49658576337251353339e-001, 2.38308926327442001381e-002, 3.74192777937790779785e-002, 2.42535377094008602894e-001, 1.48777109112662564439e-001, 2.53953981666032897746e-002, -1.80238835440963363066e-001, 6.10558955044757240005e-002, 1.53703423000311673041e-001, -2.60329838170846455947e-002, 3.48684274047674630514e-002, 3.22450089409012236041e-002, -1.55484086509509206175e-001, -8.81445454440624442949e-002, -3.21773163561112005016e-002, 1.87773631327928486323e-001, -4.07020988032301966886e-002, 2.12345162844807117120e-001, 1.40655515605589365169e-001, 2.06727347558830321095e-001, -2.77507339923588502995e-001, -3.07849582392348497528e-001, -2.28345510827000441889e-001, 1.87685579810194985706e-001, 1.46066090865596215354e-001, 3.88438773842097930661e-003, 8.16841335086170017288e-002, 4.23383640164576649512e-003, 1.12295924073115144237e-001, 6.92240613773554558374e-002, 2.03256518132061796134e-002, -4.62416114949458362249e-002, 2.20133032822972529718e-001, 9.27886338101454460903e-002, 1.77721371195549898703e-001, 1.66828398083037787725e-001, 4.53074481945746621037e-002, 2.05571857805040225653e-001, -4.35320907096723858087e-002, -1.82941192311246031421e-001, 4.83225360012351917716e-002, 7.92038118233299726079e-002, 2.52170436025917266143e-001, -5.53133993853849939559e-002, 1.11833746059167321585e-001, 1.25320952656858886076e-001, 2.21776051703619275779e-001, -1.38461553863272079923e-001, -8.07652374976735726309e-002, -1.78323749664030334339e-001, 1.35267885408897232946e-002, -5.20721898731800053595e-002, 4.99683966895792183727e-002, 3.21124439496185548615e-002, 1.70187300265480817574e-001, 3.94790865605977453479e-002, 1.80928769160941638194e-001, -1.25760320266182307192e-001, 2.20301760306124388977e-001, -9.86896515614978375730e-002, -7.59079377624542195324e-002, 2.04574091582018571800e-002, 2.12198258249461757519e-001, 1.22239257729026967736e-001, 5.86432951798203996874e-002, 9.22492692246105472353e-002, 1.16072382069172655439e-001, -5.92104733841733038568e-002, 4.56414065052074824358e-002, 1.13588523839527957837e-001, 5.04522701622233185614e-002, -4.84901185958999600412e-002, 5.52834668558734171340e-002, 8.97140240473625616424e-002, -6.33053696580053535531e-003, 1.97831319022552278020e-002, 1.04253643146925908947e-001, -1.03178363053541027883e-001, 1.70297319834958660323e-001, 2.14675247045346649644e-002, 9.93878569779326342948e-002, 7.49294398931968641531e-002, 2.12922876888248846505e-001, 7.50097943240287112765e-002, -6.95033971764708879970e-002, 5.24802627608854099783e-002, 2.23532149459791107393e-002, -2.48078040262201954258e-002, 8.14873993743921998245e-002, 1.45177893074402625251e-001, 6.43905712544861896784e-002, 1.61062001080474914705e-001, -6.01263025917179588786e-002, -5.42139042741818406868e-003, -1.28688261934429476474e-001, -1.50894008689396091905e-001, -3.59280631915310302849e-002, -5.86827259743434581640e-002, 5.30116580500131426290e-002, -1.38109569812115886428e-002, 2.04928881792984796117e-002, -1.84250183811407147738e-001, 6.68848734416559592697e-002, -2.94614442976476407360e-003, -4.63259020672534896357e-002, 2.77090310563212621764e-002, 5.90910119047069748444e-002, 2.81699676121523079342e-001, 3.02872045507606574288e-002, 1.75736053806385239540e-001, 1.84082763003941655977e-002, 5.66367866343413309260e-002, -1.08383394510282352052e-001, 3.39750566825739591659e-002, 6.37706221740293038858e-002, -1.48118059077727792783e-001, 2.18298739247689610465e-001, 8.37161849360104071138e-002, 1.28378469920873650167e-001, 2.94130559895804666315e-001, 3.08868288558718728787e-001, 8.73015190725661416327e-002, -5.60743707148494904824e-002, 1.95256234865184806482e-002, -3.70747467733555241542e-002, 1.00044752187825380929e-001, 7.02918187950062611780e-002, 1.74407374383221708269e-001, -1.21474725392203192209e-001, 2.83259830201996243293e-001, 1.38164047853735427740e-001, -1.14059920305422834996e-001, -4.98576612838250443627e-002, -6.19581218852516962814e-002, 1.45536558259254100722e-001, -8.50297412074924041647e-003, -8.25950846360237918298e-003, 5.67609740081959704416e-002, 8.43309215145589610718e-003, -2.13615961201446581674e-002, -1.87888219585438498438e-001, -1.62678125867002948413e-001, -2.08895972312234889934e-001, -4.26237407844492974252e-002, 1.19870770900630793654e-001, 1.53111513691189249364e-001, 6.03790618036595186369e-002, 1.39870966596679982552e-002, -9.83227703445612444266e-002, -6.53672764786140114701e-002, -1.11186273351009973220e-001, -2.38201524478834136822e-001, -5.67754267631336434485e-002, 6.45430272028032075982e-002, 1.44068637978941899158e-001, 1.90155966693294070646e-001, -3.51020031076929167613e-002, -9.03169731828040583954e-002, -1.69635932279360052144e-001, -2.77148523836870164239e-001, -2.12532923534500040041e-001, 2.52508558096932386738e-002, -8.92744693969141217549e-002, 4.75228456003275248620e-002, 5.07286957294308116229e-002, -1.10457424530238212945e-001, -3.02749192306360969881e-003, 7.55684328968868335163e-002, 2.68835574413621089529e-002, 2.30085539555976992254e-002, 4.05898038198688748679e-002, 9.96285839164902931042e-002, 2.67496120106809100181e-003, 2.06740789145392650505e-001, 1.99728494024954988939e-001, -1.87829480848252378111e-001, 1.00609410347320349377e-001, 1.64079439115571212859e-001, -1.73261171147904690509e-003, 2.35659444191299083382e-001, 4.68148124449215108367e-001, 4.58955387511679080426e-001, -2.36631897539094832039e-001, 1.28503206229647920500e-001, -2.35926643260859297824e-001, 1.37062074240633047228e-001, 1.69036195846261894093e-001, 1.88951272543761150668e-001, 2.80319242680724056704e-001, 2.48724825188957027189e-001, 6.39399598278092007320e-002, -1.86781837341680606590e-001, -4.18218239792441159874e-001, -4.44079212330120265406e-001, 1.30066506759802719140e-001, 1.78736736868131795841e-001, 3.12943337435297286309e-001, -2.72050920099742077340e-001, -3.33858350171783835325e-001, -1.84271804267726380111e-001, -2.10951938430594676532e-001, -3.97952962971390988844e-001, -2.57145439276009080132e-001, 6.33432967013446979188e-001, 4.23716257298740961446e-001, 6.51503680712577248890e-001, -4.86063372878042410097e-001, -2.68525995314479293263e-001, -3.21735501356078867907e-001, -3.74690497188875593082e-001, -4.31880008526963343751e-001, -3.90024705538293492424e-001, 4.66012098206070313200e-001, 4.48236614137234368194e-001, 5.39907907957882460259e-001, -4.50352956099610790552e-001, -2.07182590685996648183e-001, -3.59332923614506527521e-001, -4.64318429013907851832e-001, -2.24514244231975967914e-001, -4.12210936715832587662e-001, 5.23403384428711260234e-001, 2.55214423147048230511e-001, 3.92940873834016157762e-001, -3.34558808164009291453e-001, -5.76887397262427326083e-001, -5.37667662794696910034e-001, 2.83215383847470081324e-001, 1.98058761583080000790e-001, -3.86944611676799166133e-001, 3.94079736316978623822e-001, 2.39674169524956126587e-001, 5.09688012302840887102e-001, -2.21980422940429925061e-002, -2.85758154857731483389e-001, -3.02800936575421508756e-001, 4.87601937885565495101e-001, 2.54311997833676584069e-001, 3.89524501896877373142e-001, 4.80111538233064960579e-001, 3.65128968327039893360e-001, 3.97741186243629807340e-001, -3.48783214671183561251e-001, -3.84938524327318523643e-002, -1.33278054337004181473e-001, 2.67023251181812970589e-002, 1.40394180697307718875e-001, -8.98327659635402009375e-002, 2.68653281166090773802e-001, 1.86626404822741481793e-001, 3.10306436188835188528e-001, 2.00828496399940714667e-001, 4.09749112005072628484e-003, -5.45947308129142785948e-002, 5.44916613260185795850e-004, -2.70292415825054088696e-001, -1.66270559023853764513e-001, 3.27209084733461053052e-001, 1.77395371023916531561e-001, 2.34538321416144002196e-001, -1.20143699968257161581e-001, -1.46718424641323508251e-001, -3.20524059631244417901e-001, -4.76505577519516165808e-001, -5.16965886203649804820e-001, -3.45194539953701751145e-001, 2.11921123692980634123e-001, 3.43947471778251134822e-001, 4.62722193553138483324e-001, -5.36964081818856603379e-002, 8.98340966330106877047e-002, 3.10251253736668453076e-001, 2.37133974471027512976e-002, 1.18084450227264908806e-001, -2.35610265963811821299e-001, 2.34265874676372637397e-001, 1.32631618402895140596e-001, 3.50222023867898246685e-001, -3.62030287604145573077e-001, -1.59402248765796311636e-001, 8.74611321812761438599e-002, 1.42388332562640440582e-002, -2.36843799433212154337e-001, -4.59378515308233925651e-001, 2.57056174461415487542e-001, 3.07357609210958504509e-001, 3.16474539147496070068e-001, -9.08365029265937734548e-002, -6.47030886008458649972e-002, -1.43755228522393863066e-001, -1.22587398197392893895e-001, -1.97115914946833004073e-001, -1.67540702818330278223e-001, 3.80471147494431616298e-001, 4.45954003640450014068e-001, 4.47218825605060099626e-001, -7.99227976776406695558e-002, 1.40663383017655598678e-002, -1.27189300680161876400e-001, 5.37812430192252804995e-002, -3.33847083307049319334e-001, -1.42378364298697768220e-001, 4.17293507564798715759e-001, 4.60989234612082798836e-001, 3.03803022906211861454e-001, 5.46647062179320131214e-002, 1.86083544401305145399e-001, 1.04421267944206030975e-001, -2.08764139096806189411e-001, -2.59255570935169876723e-001, -5.33454426971306405747e-001, 4.67207217227647353397e-001, 5.32701538192937862348e-001, 5.67518111916923806426e-001, 3.12791964461123450647e-001, 5.04513771112211184544e-001, 2.94060204660535173815e-001, 7.67713360187585319716e-002, 2.78743925576210123049e-003, -1.87273450599263174832e-001, 6.36802834187358168805e-001, 4.99182989159080048314e-001, 2.54284909171085982127e-001, 2.08804335793675688304e-001, 1.60531469358411699178e-001, 2.72923796721815492550e-001, 8.02377249085894639347e-002, -2.11536765727344616694e-001, -1.05882885636801836460e-002, 1.55959450007673389171e-001, 2.72979775163190219178e-001, 1.39738533260934272295e-001, 1.59936563422574701265e-001, 3.67918750069588240681e-001, 2.38480122782302982054e-002, -1.67090192795273456694e-001, -3.85415247580653208548e-001, -2.03207988088082935896e-001, 4.21423283258778980098e-001, 6.01539748899972637197e-001, 2.85668528985678515930e-001, -1.77973403903117985414e-002, -4.49375698932100303695e-002, -5.18192062039422168818e-002, -1.34403665779314868134e-001, -3.28624225902047623071e-002, -3.07596769466032433915e-002, 2.47416137000761982012e-001, 3.07485317864622464956e-001, 3.75709545257190635770e-001, -1.20005693983728886631e-001, -3.96833598784100821666e-002, -7.69628049354378340752e-002, 1.94558221072329950996e-001, 6.41782693818002542008e-002, 5.27289633223037706999e-002, 3.14047366987499521063e-001, 2.79053307753313828421e-001, 7.08139488877682632406e-002, 8.03165612784898230725e-002, 2.28184568788385888638e-001, -1.38941375320324939091e-001, 1.31815640043752096977e-001, 1.88767653615367070330e-001, 3.41244830653353981020e-001, 2.31869042725268703631e-001, 2.06866845859061038171e-001, 4.30258464889753000637e-001, 1.15728511459398455963e-001, 1.10121288549799134504e-001, 1.01687135047221766104e-001, 2.51575611582620539686e-001, 6.37075461810979073833e-004, 2.64584044522272576749e-001, 3.70035311355450036164e-001, 1.56974573765296609995e-001, 4.74545856967369727997e-001, -9.30075293533403624213e-002, -1.13193911497088857410e-002, -1.05056236596961463658e-001, -8.45497874590803583095e-002, -3.21676766053950624613e-001, -3.08386617921899919281e-001, 4.92489249682888319271e-001, 4.17597400833496890105e-001, 4.02140341896385200560e-001, 1.26905671064492381328e-001, -6.22863376233726701026e-002, 1.28075085403876326451e-001, -6.57271961290710471371e-002, -2.66660990528971908464e-001, -2.90342718823094980696e-001, 3.10762458282049292002e-001, -4.83571264742156149696e-003, 2.28988570538092045537e-001, 1.25619143586314721550e-002, -1.02946358948653712839e-001, -1.06019230984637127801e-001, -1.78718959804717497653e-001, -4.10763401721350451812e-001, -2.08439037461705445331e-001, 4.64937240326904921428e-001, 5.31674156824443078229e-001, 3.12621215713106137546e-001, 8.29129681236595063309e-003, -5.64046661862854931124e-002, -1.99162287686333316916e-001, 4.30565024875162460916e-002, -4.43706058695514660162e-002, -2.26262282851884266588e-001, 2.01992435652568191884e-001, 4.04275019281181868802e-001, 3.94419209028463280120e-001, -1.27678674873051678507e-001, -1.11048468877983128045e-001, -2.05409467981446380858e-001, -3.90074560359138858279e-002, -5.65260845803140926646e-002, 1.34029960950548449050e-001, 2.58547054317218472086e-001, 3.91169364044458234275e-001, -5.13364443146249252448e-002, -1.14649641246576547426e-001, -8.58291360544444908998e-002, 1.67139307652089640077e-002, 2.21889679101524656124e-001, 1.59360147622871317630e-001, -4.44406555202940256599e-002, 4.23201530702034312004e-001, 3.44609468243347372152e-001, 8.84984873835391594454e-002, 1.30301777582690514468e-001, -4.72696658147072415468e-002, 8.08647690152103498784e-002, 1.05628405417464682481e-001, -3.08178842044873335659e-001, 6.26729374959835022763e-002, 7.33222994301282682272e-001, 5.23363367116331801299e-001, 5.56291297099592685349e-001, 4.44439032849871865083e-002, -1.18817830216612976835e-002, -9.41977609279712607693e-002, 1.33964466640608209635e-001, -5.90055379907759858238e-003, -5.75734437584833960710e-002, 3.62563837877638517337e-001, 3.73255669877207707508e-001, 5.72683453745874260221e-001, -9.24260524961130064403e-002, -1.07246448052579601562e-001, 1.78067113364586276925e-002, -8.66094616374178324913e-003, 2.35515121829367492234e-002, -2.00846624637484927334e-001, 4.69229825339650574723e-001, 6.02593746864563573062e-001, 3.89736342635794319467e-001, -3.11411176816134560585e-001, -1.57191331802409101082e-001, -3.77832890528363773974e-001, -9.28020048444680584199e-002, -3.47712299930779816792e-002, -1.08178773705454214782e-001, 5.02987684362031228780e-001, 3.06865529045478369063e-001, 5.00488545733793310788e-001, 3.96275370559850459440e-001, 1.00958587749386069499e-001, 2.61207303965776016508e-001, -1.17296706045270648922e-001, -3.32088911496915620281e-002, -1.47189538780635897908e-001, 3.39574518735205999054e-001, 4.22658928624174090594e-001, 2.19884003103322428485e-001, 7.55577707112784907606e-002, 2.02304880536560094395e-001, 4.56639966849644099445e-002, -1.32660102131916562973e-001, -9.30750175228760717738e-002, -2.53037524491186660569e-001, 4.06537043999873892730e-001, 5.53737768106547068037e-001, 4.53804303476280423979e-001, -8.67939635740720416557e-002, 6.62425716164319888790e-002, -1.10395190213987900996e-001, 3.06486305936910265191e-002, 3.06141269496939649741e-001, 3.44926150432096956244e-001, 4.61668758573063442441e-001, 4.45489640743861881056e-001, 2.37114016760627960290e-001, -2.75620619561931456953e-001, -5.22506592837314376432e-001, -4.23292554501849382920e-001, 2.73368132636641579525e-002, -7.35898626826946185286e-003, 1.17713290919463878237e-001, 3.48754279519963295009e-001, 3.01796090566419372703e-001, 4.30259124763782030421e-001, -2.70874146438219720601e-001, -1.94410362814440101920e-001, -3.07698390401281385298e-001, 2.37795524741608976793e-001, 3.14727800819299075030e-001, 3.53550853208539961336e-001, 1.64478951623325847509e-001, 3.36578392313546387316e-002, 1.63623817014325406705e-001, -4.26395521058736404196e-001, -2.34769908403347687953e-001, -2.71791169047208569509e-001, 2.99952704170295625374e-001, 3.20304129799641956744e-001, 2.01038443403139588384e-001, 1.65956402071488262617e-001, 6.56783113576932670030e-002, 2.67021029498002493430e-001, -3.19579127567303056257e-001, -3.05363387898371585472e-001, -4.31296433704707715684e-001, 4.53676804576439496319e-001, 2.93432275382330409741e-001, 1.64160397400564705972e-001, 3.40174004799080609285e-001, 1.33461563279318823350e-001, 3.43986332322092469571e-001, -4.88070007666256744372e-001, -3.27710710282702766261e-001, -4.39131219696062946589e-001, 4.28587614733704436176e-001, 3.27855787960424305272e-001, -7.93361041619532886271e-002, 1.96082427452046320626e-001, 2.19199856342635418516e-001, 1.49005204481126363181e-001, -7.11253800670839986253e-001, -1.09537138198736405670e+000, -9.63612018438433137746e-001, 1.14848679682095597410e-001, -2.00433567283729241471e-001, 3.18891766099208717744e-001, 6.71787633567253045230e-002, 2.25861205319540681025e-001, 3.41771210721301788027e-001, -6.26730586967272129684e-001, -5.69762454010153018835e-001, -4.99037824786907002750e-001, 5.60184204991896361747e-001, 6.93120957005751936464e-001, 5.63238110722163232147e-001, 4.13855605862441799925e-001, 5.54267507895082056635e-001, 2.36670174520323656209e-001, 7.20951401502889083206e-002, 3.13327540085202915776e-001, -9.80214126455814308003e-003, 1.75343174236774534958e-001, 3.85915323769592366610e-001, 4.50262170451277088379e-001, 1.45218409661408198730e-001, 1.05785364874644016719e-001, -1.79647279160258105390e-001, 1.96463299332895552363e-001, 1.73207033328369702785e-001, -1.69944328414999068499e-001, 4.55133382354518500890e-001, 4.36856549027835550092e-001, 2.29281271084472437760e-001, -3.47649049778277485778e-002, 5.17687980886951601422e-002, -2.09892478375615754160e-001, 1.34994201709582400950e-001, 4.73936409244051781720e-002, 8.73138019995881899116e-003, 5.20619453280314004040e-001, -7.32943405367277589502e-002, 2.69405735869819251693e-001, -3.95167853623743306479e-002, -5.08182991466352429466e-002, 1.81757773146854484381e-001, 1.24376475170045464047e-001, 3.84787700204721527797e-001, 3.50702721713465004338e-001, -4.99326909847233046946e-001, -3.17673746934599821046e-001, 4.68850012549106076598e-001, 5.08426456423751414737e-003, -1.26285207136610622136e-001, -1.90911476310116956512e-001, -2.37321968058631260767e-001, -1.06704362375796418805e-001, -2.40238828970540885255e-001, -2.91529517394742920811e-001, -3.95665460080906750129e-001, -2.93371699446025979707e-001, -1.76697644638563244879e-001, -2.46482474416948427187e-001, -2.33105689908592907111e-002, 1.42186729304550757425e-002, -2.08216297290603868930e-001, -2.85458148959110868947e-001, 6.25845996302129975453e-002, 6.03343020082227968204e-002, 3.21962214437898408548e-001, 1.95857973338381091688e-001, 2.96308925459934924262e-001, 1.58350496886637770455e-001, -5.64971697659452432028e-001, -4.00745740150071139141e-001, -3.15833173698969904564e-001, 6.67216704434602132789e-003, 1.88645038983803581267e-001, -7.61260050759622469707e-002, 1.87115793979669958746e-001, 1.18437064901899188896e-001, 4.54005796548115764244e-002, -3.58234013143134799595e-001, -3.48925129688659463323e-001, -1.75885967520037184153e-001, 5.08375645703549206011e-001, 4.88874380319488932578e-001, -2.32208946148906858475e-002, 2.82648721150515258582e-001, 2.28002592006013665715e-001, 6.39794496851564392648e-002, -1.24683999077638885122e-001, -3.47275646327584841533e-001, -6.81266192054969299541e-001, -1.40748504027162130159e-001, 9.08079726784609964074e-002, 2.50023534097520649944e-001, -2.25945996149497008165e-001, 1.34277574675294886219e-001, -1.59696237291988951679e-001, -4.61669359481883395668e-002, -2.35773313051681837615e-001, -2.87979438144943200584e-001, 1.83325853363468765922e-001, 3.70237508943667192884e-001, 1.86598309654288696535e-001, 2.63308900109261223577e-001, 7.50913677498499104734e-002, 4.40238978716453663309e-002, -5.10251729564218825530e-001, -5.82163699701498948968e-001, -4.81302410121910217988e-001, 1.33473752435218639967e-001, 6.48746986223764365853e-002, 1.62764191678809941322e-002, 6.72263109732515184991e-002, -1.39054780113805370734e-001, 4.60748243402519450096e-002, -4.71996970567647611272e-001, -2.52662968870851545322e-001, -2.84932787537928722266e-001, 1.93533702256889483806e-001, 4.89761220675501929289e-001, 4.07023324108190809323e-001, -6.47230766290378400907e-002, 2.33281092119429100951e-001, 1.42612764087140908575e-001, -4.90959982923887205963e-001, -6.48090876080280264837e-001, -5.29834719262677111828e-001, 3.47263099791045970477e-001, 5.01492445325521729593e-001, 9.18074583312422531911e-001, 2.20463328250784310058e-002, -5.09014690988537077398e-002, -1.19552095938113264739e-001, -7.52535517269257936412e-001, -8.15247749578790092961e-001, -4.89115205046582512960e-001, -1.79794997480022228364e-001, 2.11749060071363015556e-001, 2.91718298382903307164e-001, -3.09495597454177817642e-001, -1.42872023728921382357e-001, -1.16171190769114973662e-001, -6.34275105061840149823e-001, -3.66822835753168929873e-001, -6.35048486424735880718e-001, 3.21645121910067999238e-001, 7.04936846867319499843e-001, -1.74559897636255428877e-002, 1.11278449226606693245e-001, 6.07755917334063672230e-002, -9.14051711320362780810e-003, -5.56009166163705437214e-001, -8.20453407711217663767e-001, -6.19271638800077850462e-001, 3.99899536408494127304e-001, 6.59464520763703987427e-001, 2.55953505620479193627e-001, -3.93586456063653999937e-002, -3.92700528177471822056e-002, 2.97744709821704950370e-002, -3.55138758246650754202e-001, -3.49868379889942182626e-001, -2.21877821786781920244e-001, 2.97018971211192417403e-001, 4.02741802979927898676e-001, 8.60605249073541356264e-002, 1.49148777501873386342e-001, 9.72718504552018137232e-002, -1.31514556993019698927e-001, 1.25158443367752419961e-001, -2.33241497015052701158e-001, -2.04309151583955100895e-001, -3.90976165089206684211e-001, -3.50587179442753360536e-001, -1.62132613522792207172e-001, -1.36290757920476644782e-002, 1.52771076629377722256e-001, 2.25510650682840402270e-001, -3.19936938600378251163e-001, -3.71299039051043666682e-001, -2.00328625633603096823e-001, -1.75380396410564326493e-001, -2.23364478433377172673e-001, -3.08731620865885181271e-001, 1.41586887879930262146e-001, 6.95654949565846503212e-002, 1.11818263684751298404e-001, -6.34342981400203731468e-001, -5.99642120067734762934e-001, -4.11509782249984079616e-001, -8.74845644016137569121e-002, 1.96848453359980468669e-001, -1.75251672444006162399e-001, 4.28913484373972669905e-002, 1.77781165567477833500e-002, -8.01213587762693024708e-002, -3.41722851630055446392e-001, -5.37501016037552514781e-001, -2.25031430087013151198e-001, 2.15522170499681448019e-001, 4.92613685094796194264e-001, 1.84001581820491255659e-001, -3.12859182903553245669e-001, -4.83583877864874819852e-003, -2.47853052504118959165e-001, -6.80720816897921410238e-001, -4.57933907967927600335e-001, -3.67812432294138513811e-001, 2.64289150697926689126e-001, 5.30483198670110067674e-001, 6.11517513605119300557e-001, -1.58376076572580321011e-001, 2.76817066159471547593e-001, -9.79357728567910867934e-002, -6.49493724681819095679e-001, -3.08023140093066361000e-001, -4.49806707176367448486e-001, 2.17992750366153675845e-001, 7.10024202898254186422e-001, 4.42198982043589428059e-001, -1.33032707900960972536e-001, -5.93723137632714767498e-002, 2.42345579049635939661e-001, -4.83772631734808944426e-001, -2.91856961753852617303e-001, -2.22696244281667482534e-001, -1.31236963997066524712e-001, 3.90638125443253519942e-002, 5.01744436672726834558e-001, 1.26577302227470489537e-001, -5.30066200254124195168e-002, -3.20302965995561197965e-002, -2.99616592089194666571e-001, -2.81101330693115381010e-001, -2.70105141371384860349e-001, 1.86756612603968669140e-001, 4.34493535763259830507e-002, -6.45677304265461354804e-002, 1.30785831012252606875e-001, -3.16954524393927405956e-001, 2.94841511846714865452e-001, -4.12091234205207657126e-001, -3.31741932933507288617e-001, -6.04862185853968448157e-001, -3.84858836594786868357e-001, -3.89933494706850125588e-001, -8.13337010392113125834e-003, -2.54267916086147113819e-002, -1.15140817216793034383e-001, 1.66070491935756570090e-001, -3.74665475028716832284e-001, -1.99394187282753154733e-001, -4.18500067971381006782e-001, -8.27639348003153946243e-002, 3.29661150338448727393e-001, -1.17826355949348815511e-001, -1.86600931721142976327e-001, -4.43413186376551471390e-001, -4.72489240723848735737e-001, -3.82940823891293191661e-001, -3.04884579713527281708e-001, -3.90556919141397673734e-001, -5.82914852836474706166e-002, 1.18192522115066530469e-002, 9.12319627605132632553e-002, -1.03755631239926801590e-001, 6.95522356295336791066e-002, -5.68542606460644583954e-001, -2.92333947213543166033e-001, -3.50440521302921081936e-001, -3.68992823819433268806e-001, 6.03820457801328494551e-002, -8.66584378741047378636e-002, 2.59716410790536478270e-001, 6.77240092492508438671e-002, -4.20713426244476596666e-003, 2.61875047861160115126e-001, -1.58137687422262585013e-001, -9.55154945731978843870e-002, 3.06473617680864882096e-002, 3.05360752520135392274e-001, 1.10242327078320087597e-001, -1.78711742018179756131e-002, 7.70621553176359941340e-002, 1.03098457137106191972e-001, -7.75027639552935965206e-002, -7.95858347300459234575e-001, -4.92357088522516694873e-001, -6.78612927982205738076e-001, -1.70570618326621015193e-001, -2.45998665625648399446e-001, 3.66347269631473626550e-001, 8.78474547566958710587e-003, -1.29334989165239583331e-001, 3.14344742208004235273e-002, -6.58132098657134290143e-001, -6.03016045639210296336e-001, -4.53283897917622025098e-001, -5.19600476393353716276e-002, -7.81279369741556956042e-002, 2.42000186827757951535e-001, 1.42984090328126034475e-001, -1.12543878478670367205e-001, 8.09847990382700222423e-002, -2.62074887098901476712e-001, -6.34207058493667319432e-001, -1.73477693207021943511e-001, -2.88956552513404719973e-002, -1.78449238285686151428e-001, -7.16322408130753846001e-002, 3.84049081291540084226e-002, -4.06792591547730578161e-002, 2.06098613341540781718e-001, -3.00444902536781799363e-001, 2.74506978413829975938e-002, -2.42716040812127678561e-002, 8.57848474734871635494e-002, 2.29673655235626772431e-001, -4.69723310601071128434e-002, 1.32118519520628835417e-001, 4.13864056517271247659e-002, 1.78500645236831900764e-001, -2.74043043934439956022e-001, -4.82736462600488885899e-002, -1.66336847820353322946e-001, -2.28686619599826751470e-001, -2.18174480505740869818e-001, -3.10390631691211726917e-001, 2.26613845814333414452e-001, 2.36140455766763818213e-001, 3.78326058550357335886e-001, 5.24492075070564361949e-002, 1.28949085244106420589e-001, -1.00258077741964338192e-001, -3.69998993520899710497e-001, -2.01151596386678656325e-002, -1.32134383623713713707e-001, 2.33234316772583771815e-001, 1.14982464861406188938e-001, -7.64075451920401549355e-002, -2.48190226376125394614e-001, 3.31073368892637470706e-002, 3.56665568392382642537e-002, -5.42899878307401606570e-001, -2.04886077648867348522e-001, -3.35250161527162804376e-001, 1.47822801400518694798e-002, -3.21926239585916748598e-002, 7.95342398437126757438e-002, 7.76320097608017289925e-002, -1.80418439755311620434e-003, 2.97423779576299063265e-001, -6.70261390096119180626e-001, -5.85160526293939442510e-001, 2.32430180873111513762e-001, 4.34412694665841578323e-002, 1.42034693076339957850e-003, 1.59003856648314706446e-001, 3.16474359751064138191e-001, 2.89466913901532230113e-001, 2.95297960134987158565e-001, -8.07344132821721516269e-002, 2.04913955934660808877e-002, -2.65511435853632259130e-002, -2.00220971233638772580e-001, -3.15422763709100550944e-001, -1.50489662201810592279e-001, 5.33615119762661072045e-001, 4.27625915725189265082e-001, 5.36646738174144100064e-001, 4.32987537862711338588e-002, -1.39413877337277031243e-001, -1.38989849020072442354e-001, -1.66251983529009189633e-001, -3.85447433446316600758e-001, -1.27740678578258354259e-001, 3.32745171813070061972e-001, 2.65949030071844061407e-001, 3.48539768482002465522e-001, 4.28610891685492143011e-002, 6.29477108241627697494e-002, -8.81742552372793281235e-002, -1.97116592081701957895e-001, -2.10697129699232599265e-001, -9.07227334629599757587e-002, 1.61355231437227492064e-001, 1.23433106852275320531e-001, 1.43987589032866625249e-001, -1.66742011836242716438e-002, -2.14986026189980417023e-001, -1.27629589962383604984e-001, -1.12486726535638265068e-001, -1.70649669148492527659e-001, -2.24857340674290945293e-001, 2.72905657125862954882e-001, 3.38157299635227781565e-001, 1.00504890833398807803e-001, -1.34955900089070740533e-001, -3.92335689761893827154e-002, -1.12510952649521989155e-001, -3.23490268604650244022e-001, -1.72878701807098605903e-001, -2.34753884672983748061e-001, 3.01206268463641346766e-001, 2.90792099203703247046e-001, 2.47654186589330971291e-001, 6.84871274970228621770e-003, 1.50272908023992179949e-001, -1.54387924865920539430e-001, -1.01174930202938051504e-001, -1.23845191772424548238e-001, -3.51805913519091573161e-001, 2.14444436649480485446e-001, 3.72016158059608914588e-001, 1.78284506277917476069e-001, -8.62493433092566437470e-003, -7.19206655419733775769e-002, -6.20903024569411515765e-002, -2.25647863504177204064e-001, -1.51878328935279277578e-001, -1.90158303138312972935e-001, 3.57435022036025951131e-001, 2.68333443919796077459e-001, 2.17144937282413130752e-001, 7.84410033838704549847e-003, 7.21097535349904741886e-003, -6.81283374655562989908e-002, -2.93259149014825581947e-001, -2.19885343478158329367e-001, -1.39931876088896511856e-001, 2.41973483906730818527e-001, 2.48653042509551197581e-001, 3.33723016338820288595e-001, -1.17830235429671054126e-002, -5.85822209329487503249e-002, -1.98269636921169056798e-001, -3.31552729312936445005e-001, -1.26385761738872420823e-001, -1.48767288658552432334e-001, 3.04421139325625311756e-001, 3.06971408998954864433e-001, 2.81861483535534751432e-001, -9.85039387259456222790e-002, -1.28070242179998128318e-001, -9.60452382902557549871e-002, -2.19439902322086682895e-001, -2.88804267937993464077e-001, -1.08824381699780717292e-001, 2.13895513717035079537e-001, 1.71172755177243229863e-001, 2.54100431101210999518e-001, -5.39631070698998599466e-002, -9.97157397172776238659e-002, -6.23920848890056889413e-002, -1.08973101289890780818e-001, -1.56485641445908235658e-001, -2.53903247251711539079e-001, 3.39778278155085988743e-001, 4.40648804017914785813e-001, 2.11383609823091594970e-001, 3.88443729871393861330e-002, -1.31564706689567684217e-001, -1.49301479907909002282e-002, -1.48492956501163758665e-001, -2.82638795120661201477e-001, -3.45411227250892738372e-001, 3.50005171976107920528e-001, 2.98925161757148172281e-001, 3.60125213651319220354e-001, -1.43488268550577030558e-001, -6.48722139304533096382e-002, -6.47217858502162762813e-002, -2.38168779052003842800e-001, -1.87600938478257428521e-001, -1.51978544962186268297e-001, 2.52675832355937490803e-001, 2.36247278725054493664e-001, 3.82863279144095181028e-001, 1.59224926435723064533e-002, -1.28965283138831710019e-001, -1.22881253519941918695e-001, -3.40265025299115453361e-001, -3.49449490820039954109e-001, -1.62847541423600195021e-001, 1.74824531742041683335e-001, 3.64311084162144693810e-001, 1.76054123222869896015e-001, -5.92165176036074034083e-002, -1.28966385410977352199e-001, -1.61038711228132180864e-001, -1.77615847303926849277e-001, -3.10833569041705670699e-001, -7.09305225830058616587e-002, 3.62085743182683161834e-001, 3.57157578414854071092e-001, 4.16789520164184468243e-001, -1.26511147478301000380e-001, -1.02205605170345686927e-001, -1.04800738212493360635e-001, -1.63768571004249213763e-001, -2.37892531277379443155e-001, -1.80471371801243007926e-001, 2.93055832616741285257e-001, 3.36435041167750248370e-001, 2.59919785714860906989e-001, -1.25573521293598056037e-001, -7.10866670019405649805e-002, -2.53931480932514629101e-002, -2.16802193482524774293e-001, -2.89885949064610515258e-001, -2.93974902451585418106e-001, 3.50781159542679688013e-001, 2.13311118028810337011e-001, 4.29763864080828728031e-001, -8.20325709181831397299e-002, -2.94098770449715447850e-002, -1.27485931160294441167e-001, -3.09020253786577991928e-001, -1.46214289608371628137e-001, -3.91708104824291081236e-001, 2.72294859635903940820e-001, 2.28491486450527497842e-001, 2.84139585015338036467e-001, 1.95469087648307733585e-003, -8.84020730488296047067e-002, -2.31974285831593116103e-002, -3.15588584717976239347e-001, -1.85954213097831888568e-001, -2.19292500854400135291e-001, 3.16459210019873093955e-001, 2.23384670161760418017e-001, 3.77970298499227141953e-001, -1.29457583343533244591e-002, -1.47957939900006602355e-003, 5.68722068849134704260e-002, -3.88479671513975499675e-001, -2.81998660675189138924e-001, -1.98774788131027335680e-001, 3.67206976155648734395e-001, 2.55699912170017029656e-001, 2.97856302932633321134e-001, 7.65199813021486124898e-002, 7.99160635684315473481e-002, 9.73192623524335997942e-002, -2.80171682496191343237e-001, -1.95563265516181611359e-001, -3.91930027992040630469e-001, 3.38197383629386227888e-001, 4.04528498574064421245e-001, 2.17792114580448725736e-001, -1.94792228284383049652e-002, 3.10768086004483759521e-002, 1.40343184533801901281e-001, -1.87952479314882292538e-001, -1.70239395825138500884e-001, -2.35450524335256705655e-001, 3.04534052642119412724e-001, 2.95558340177101197543e-001, 3.79436430912611588617e-001, 9.26443383452238145015e-002, -1.71578487044125288508e-001, -1.06905231297966626935e-001, -1.38245074593195210744e-001, -1.11410115396900863405e-001, -1.19679762573055945007e-001, 4.76609428324880401995e-001, 2.48548664977664313103e-001, 3.21361958519548129853e-001, -7.89088231119549482484e-002, -2.18616261654850124740e-001, -2.55516453836704626745e-001, -1.97955168126279473784e-001, -1.79243509695516667346e-001, -1.79859914250011021508e-001, 4.25500897777317477200e-001, 3.51207248576795305617e-001, 2.40354990229589560169e-001, -1.03100489046791282677e-001, 3.48329120149283438801e-002, 9.38792761580882206829e-002, -9.96205582409942780320e-002, -5.44966009575745466420e-002, -1.03197454568017737975e-001, 2.32522301359639249618e-001, 2.79882814312821859293e-001, 2.70607884465146997233e-001, -9.59767257580044080845e-002, -3.05655782272787508724e-002, -1.17099270032285665555e-001, -3.37190573918306368828e-001, -1.94085587550767296738e-001, -2.74913431983664136027e-001, 1.46999878504120801148e-001, 2.91251350568093980709e-001, 2.31976567126109922690e-001, 2.12412857908088822945e-002, 8.12887407730726180288e-002, 1.41591415049143548588e-001, -2.58016661324288354429e-001, -1.50038317524026548755e-001, -1.63088112215636765745e-001, 3.26635140437655457912e-001, 2.06769557459394542898e-001, 1.54443604525111577441e-001, -2.27369658195400205225e-002, -3.94430163223284321883e-002, 3.81963637795126459418e-002, -1.97968705000646311154e-001, -3.20669713333116335185e-001, -2.24555008879770034991e-001, 3.27347912236269633635e-001, 3.57454762483809418416e-001, 2.77956742474040341406e-001, -5.34880422531191918045e-002, -1.96096634957429127866e-001, -7.52449282101203265061e-002, -1.39066788169149996301e-001, -2.61096135422364372669e-001, -3.31097361057683781116e-001, 3.52671927978324695196e-001, 3.09590278099811377910e-001, 4.02929901179181260140e-001, -1.32970455851663480612e-002, 1.19058763349035631740e-001, -6.39643326266926409707e-002, -2.94162338412415069744e-001, -1.42389048732618483939e-001, -1.60945354738542045769e-001, 1.51073545858841418177e-001, 3.13440308650354659825e-001, 1.87032369973008122388e-001, 1.90326235114853914432e-001, 9.32601593072352602620e-002, -3.24962746000357835530e-002, -1.69960587992785933098e-001, -2.05835999284213644334e-001, -7.38369457647296695280e-002, 3.96640929710015188725e-001, 3.59419119983272639107e-001, 1.44533557451829053342e-001, 1.36100898215008453418e-001, 4.36106569756663509096e-002, 2.52015470040507089111e-003, -8.28378726126016845521e-002, -2.38641247121584076929e-001, -1.18297809968960651594e-001, 3.27776667414716726956e-001, 3.41660220283553250908e-001, 3.45428128597159378455e-001, -1.56049664764769148440e-002, 7.82220598198986455385e-002, -1.98460626510971321901e-001, -2.74702869375819003217e-001, -2.31986746911427094142e-001, -1.92179555446090888360e-001, 2.24639771546651018097e-001, 3.81243535031674241065e-001, 3.71589540342620427982e-001, -1.13383561335525989699e-001, -1.64688181409706618785e-002, 1.83475937325074459072e-002, -1.33899594850692277292e-001, -2.50236979634037681741e-001, -1.03649058899462534478e-001, 3.57997263779044561094e-001, 4.20643228108531164189e-001, 2.21635191405091913630e-001, -3.91886971226871327900e-002, 9.11633755914694893230e-002, 2.38285955074747368698e-001, -3.34626154956112531469e-001, -1.65036351797409330810e-001, -2.99110579986651081708e-001, 7.66959935033936779369e-002, 1.21168926650185096450e-001, 6.32443885174958919659e-002, -3.65421388984068160055e-002, -8.60603988895624824607e-003, 7.89837172283472804812e-002, -3.33394716340634833518e-001, -4.82161098804520460437e-001, -4.35168868841231737399e-001, 2.08915768700623283305e-001, 2.65096635916112322029e-001, 2.46063604596696877680e-001, -1.89335304528767817134e-002, -1.72959170774993863107e-002, 1.00024947463091479563e-004, -4.04718823859639809104e-001, -3.59709416124849579166e-001, -3.45289422681130997450e-001, 1.77192429699175563185e-001, 7.97283926564660433423e-002, 1.56460624658101343787e-001, -9.60322355862906901214e-002, -4.08568972117088619056e-002, -6.77642965824957616006e-002, -4.76398604685636273270e-001, -3.24633421753979078961e-001, -5.11941446389785670412e-001, 1.75245614933591337126e-001, 1.21868218771278805090e-001, 1.44800537621419034284e-001, -5.86859632895286691123e-003, 2.23795915476585130510e-002, -8.85089938287579869325e-002, -4.47017500018747016011e-001, -2.24548065012233760696e-001, -3.53646010463199822471e-001, 1.19980907582529258693e-001, 3.05875990439034739499e-001, 2.00652363230286928664e-001, 3.84292918428330160241e-002, 4.06393553926832976075e-002, -1.00165402953073717773e-001, -3.48175107549585194366e-001, -2.18923032663529720798e-001, -2.02148034389653369347e-001, -2.30043252761103045323e-001, -4.12748296277392234810e-001, -1.97363557745027451418e-001, 2.26091978013806850500e-002, -5.58591359613651722293e-002, -7.40569716674097933140e-002, 2.45402831645772256941e-001, 2.06184121431310041217e-001, 1.08721805289886550017e-001, -1.11249464443915604961e-001, -8.52919378421307661231e-002, 4.14467226403152713687e-002, -4.72473058412742827339e-002, 1.67683503133576411459e-001, 3.39005711972282033906e-002, 1.37980650933172167838e-002, -3.28113992480445690325e-002, 4.36033808827831215194e-002, 5.59715152439565072351e-002, 1.68922276649362740342e-001, 3.67560417451867627037e-002, -1.30857825451665774757e-002, 1.11834250292451933828e-002, 5.64978053018224263271e-002, 3.73655534890438636997e-002, -1.32728958819900599853e-001, 5.34328888772006432850e-002, 2.60472454015816090589e-001, 1.19797601748711166070e-001, 7.78784661231588515307e-002, -7.99196295915840237978e-002, 1.23472781412185095284e-001, 1.08251272808229340172e-001, 3.22072529550160163714e-002, -2.10401922105248190276e-001, -1.90164946134012580181e-001, 2.37869271977546009600e-001, 3.63069582496575837816e-001, 3.68045671847167799040e-001, 1.02469448266950813320e-002, -1.32450815020360157526e-001, 1.57448074440839136390e-001, -1.65529988582481912829e-001, 1.15127416543451006198e-002, -1.08290056707766854660e-001, 2.07266279356011773327e-001, 1.09973277295336804849e-001, 3.75708964716284066210e-001, -2.82713656270269786397e-001, -3.79201552690367427179e-001, -2.05839053135965788233e-002, -4.57532641489305433313e-002, -2.60205346419430383342e-001, -2.49873377553512965310e-001, -1.71797010476210820773e-001, -1.03911446163849716107e-001, -5.99074664678877696899e-002, -4.34880398714649230030e-001, -4.89822939606898544174e-001, -3.83011940476199408412e-001, -3.84438163140050248590e-001, -2.15092230970779757504e-001, -2.40825179699529559607e-002, -7.83021777747111014101e-002, -5.18654670283624427696e-002, -8.83642888319222941096e-002, 8.44559148680093935146e-002, -2.57612452943979053366e-001, 4.75763019861942266370e-003, -2.20823150802353374011e-001, 5.46786258893762686095e-002, -1.80593408558937573716e-001, -2.72782404487236063151e-001, -2.03365854549249214234e-001, -2.28385666788054692011e-001, -2.56831580740247478190e-001, -2.31316952665946186374e-002, -1.16635446301088602228e-001, -2.57451822827458286225e-002, -5.46188986586758906672e-002, -4.26279144443970914313e-002, 6.38312613803725531492e-002, 5.77593970899574690736e-002, 1.15164525224403929693e-001, 7.29609412302192061883e-002, 8.30987634884331471952e-002, 1.24466908461834668831e-001, -1.29903089967909973756e-001, 7.46589450798208244253e-003, -2.54702225795452839863e-002, -1.15713223641438184286e-001, -5.22140034110578701854e-002, -1.61391692498384559107e-001, -1.69977480832300756330e-002, -2.55684853767511668932e-002, -3.03095104145752677893e-002, -1.73366036752928942555e-001, -9.11443298194053175276e-002, -7.92170353212291178391e-002, 9.64740906505188594577e-002, 6.65905732306421443978e-002, -2.12929848804398386131e-001, -1.71793466318444970620e-001, -2.09894342315262343382e-003, 1.94399947179519222429e-002, -6.04885846975733165731e-002, -1.33374855870766056976e-001, -2.59156642006619031271e-001, -3.82630325025868911482e-002, -7.09553611209767648438e-002, 1.85706750333371299611e-002, 4.57643628033606864047e-002, 4.97974480080427758799e-002, 6.59786021205068570067e-003, -1.09866548378620365600e-001, -1.00354845006049464562e-001, -1.16431690673929180702e-001, -1.09041331125545301606e-001, -2.10718120048475732187e-001, -7.90046984892324583027e-002, 1.07665413359081946210e-001, 1.41855123146246986376e-001, 1.83968635697613874802e-001, -1.34388474940828700488e-001, -9.52166617507263328413e-003, -1.25513978753391108184e-002, -1.55328338682552052896e-001, -7.83258333287770031061e-002, -2.68713407384772062780e-001, -7.89740416887512869382e-002, -9.01925721267121910212e-004, -8.00813906582195228490e-002, -2.29184373796433082937e-001, -2.63786967284942330814e-001, -1.76338667168120938333e-001, -1.78488354555186218287e-001, -2.64666399703949672961e-001, -1.32101479269618155010e-001, 1.19900866962308214059e-001, 4.24591117184194150047e-002, 8.59532861354415644861e-002, -1.86452201826016378261e-001, -1.80773673698184256242e-001, -1.00156975491162841818e-001, -1.92221408844678282035e-001, -1.27283875969749965540e-001, -1.15759288104060067970e-001, -2.67689778680482923234e-002, 6.36330356474488489926e-002, 1.42213677623268863748e-001, -2.13274582548908964164e-001, -1.11388818387606225446e-001, -2.67879086239484698329e-001, -2.22524663937712585682e-001, -3.64792857558237204607e-001, -2.27522483399902497592e-001, 1.46041426389885875547e-001, 2.24935767886527249182e-001, 2.11013058860394620009e-001, -2.13814028867575334214e-001, -2.15376165717338585726e-001, -1.37457385502757739593e-001, 1.04839038941241698144e-002, -4.23999055144434061626e-002, 5.96715426399872031493e-002, -3.53277903558043976373e-002, 1.02500158295430063293e-001, -1.41111452035695417173e-001, -5.14802600370295460053e-002, -1.77864172410470422481e-001, -2.06695237898085304451e-001, -8.12703387850192840794e-004, -2.28248246972163303103e-002, -7.07761365125340879967e-003, -2.34652410998853283575e-001, -1.89999703543215103796e-001, -1.93592438289441087784e-001, -1.08677196703308956427e-001, -2.31782598060505967696e-001, -8.43569669623887019583e-002, -9.47076792364400302238e-003, -1.25131435998535212040e-001, 8.25115834300806233470e-002, -8.55311828410747383711e-003, -9.77984144773732799738e-002, -8.71560926226689486329e-003, -3.92860639500408947988e-001, -2.45685305276074406056e-001, -1.16597569381039087300e-001, -2.31135184963740719644e-001, -1.56366207003899665429e-001, -2.14193078762284130206e-003, -6.56199258445993721667e-002, 1.58190448012428125368e-001, 1.44226709593337221182e-001, -3.58576349095281951551e-002, -7.28238865448622985088e-002, -2.54818808915367733814e-001, 4.95384890863941607098e-002, -6.96459794865245812590e-002, 1.20675361518744986289e-001, 4.45807070070151911789e-002, 2.35144478486350394508e-001, -4.52190660073790162699e-002, -1.60263896300346125878e-001, -2.09211478031438941061e-001, -3.38519326743535686752e-001, -2.01258674407548049379e-001, 3.96644405769762953273e-002, -1.00415760298847495102e-001, 6.13953865421300176708e-002, 1.44099773908888340035e-001, -1.30397055196739275473e-002, -2.53284655772002334495e-002, -1.16297801781671539256e-001, 1.10645363887980656067e-004, -2.19698262272496780412e-001, -6.88612670955853767296e-002, -2.03777390220598736414e-001, -1.32969055257963097993e-001, 9.88291603423744613455e-002, 9.70167226116115805068e-002, -1.54387776134358334357e-001, -1.42286104190152556948e-001, -1.21625747897801932823e-002, -2.05459580896744820055e-001, -2.20586399381914127771e-001, 1.91451818035492590808e-002, -1.32331407684668582968e-003, -3.84697845277927885643e-002, -7.56490364208444732164e-002, 5.03195681278078496557e-002, -2.19055680446991370147e-002, -1.26392839837151743643e-001, -5.67260287564951698469e-002, -5.48464719981066120558e-002, 8.30314228698737638590e-002, 1.25362870293291323032e-001, 1.88186064994256413430e-001, -8.66396618479785274314e-002, -1.25938693238079185699e-001, -1.45186277758692472428e-001, 2.71562350376251329664e-002, -4.76330607069535335446e-003, -9.48769736585735046219e-002, -2.62628893351505687814e-001, -1.35171479118128989860e-001, -1.22094021644560429829e-001, -7.97038972964296543733e-002, -1.30129632773346409769e-001, -2.33360124372722105290e-001, -1.03280990339668990452e-001, -2.58263001422954052710e-001, -1.51837882425627596072e-001, -5.14813347908446572454e-002, -2.46156531369063985570e-001, -1.92956178144162937560e-001, -2.87026369124760205587e-001, -1.80967269972074545903e-001, -2.38716169441324871370e-001, -2.40070400402619010816e-001, -2.02709666474246347212e-001, -3.24828626312337886972e-002, -1.35462540656446694953e-001, -2.96720334597189883130e-001, -1.64256779092622845484e-001, -1.86061008526214460845e-001, -2.25202633369962795795e-001, -1.05474734355296653754e-001, -3.64943962643054675699e-001, -1.11847185085663242132e-001, -1.59632553362112572515e-001, 9.06712964187456928189e-003, 1.82337547931037208260e-001, -1.30379152357545033403e-002, 2.24608966883966476580e-001, -2.42769090699642225983e-001, -1.46475878452569041599e-001, -1.69548171906741595993e-001, -1.28156653929159224103e-002, -1.41190165935878436665e-001, -3.09265025932136394804e-002, 1.66706767737578920308e-001, 2.40871179931299028709e-001, 1.05267579626831669914e-001, -1.89557116674114484178e-001, 2.59036834865167993336e-002, -2.32197935018530698947e-001, -4.14996983826900256442e-001, -1.21430759380765654343e-001, -2.99575363326647303719e-001, -1.17960103654655007466e-001, -2.34527973187120708509e-001, -3.75586527273442244423e-002, -3.02946659174943610029e-003, -1.03982209327257615894e-001, -1.59505935985833680046e-001, -1.48288524134316035408e-001, -4.90784720163562226958e-001, -1.85934439860701544722e-001, 1.06683917067617262120e-001, -1.42094438969852573246e-002, 4.36340036928859198451e-002, 4.09764916607161244766e-002, 8.88920450462863352692e-003, -1.26024913534821203509e-001, 1.15737014391573602573e-002, -9.34250143310621367077e-002, -7.77950402631382709195e-002, -1.42908610189649343258e-001, -3.00562657064027627385e-001, -1.34975872241940381135e-001, -2.34456914715663239379e-001, -1.38368110750061529268e-001, -2.53639978272546695592e-001, -2.33862119574632959518e-001, -7.95262439580113750237e-002, -1.15139000747996558816e-001, -4.83413356681979405893e-002, 7.42506179001115040883e-002, 7.87626290172279697188e-002, -7.09242502408094915856e-002, -2.31361946387233889666e-002, -2.73250955198799605483e-001, -2.03482745251542501697e-001, 1.22284862345257844263e-001, 4.92667441930033297992e-002, -3.62444303554762203845e-001, -1.80636742975766345642e-001, -2.89667173622116469467e-001, 6.34585633310354585435e-002, -2.69041984312982998540e-002, 1.47830934288104787200e-001, -1.06157149641874157253e-001, 8.54757030315107281526e-003, -1.92460807478671766524e-002, 1.09973644603192088898e-001, -6.85995351546648257646e-002, -2.04449604924070132972e-001, 9.79230203116416286768e-002, 1.75901335844923234486e-001, 4.39480985211799374257e-002, -6.23891983589324322645e-002, -2.50279622348107896879e-002, 8.38241668078385931961e-002, 3.69135655918938123538e-004, -9.65800747999328579319e-002, 2.86910709958473481018e-002, -2.27074082471358268398e-001, -2.69609847275851355342e-001, -3.47708260511290112582e-001, 1.93254489471790698307e-002, 1.92046528336715788265e-001, 1.19559756982629758482e-001, -2.17821966733804772698e-001, -3.61129242400050121109e-001, -1.54677617688458567818e-002, -2.14556158167839516882e-001, -1.84810002616885155069e-001, -2.16020013294029422646e-001, 4.67465597516890860041e-002, 1.24010815529081247499e-001, 6.21601141020904010559e-002, 1.65294085271392082737e-001, -2.36554371129686392961e-002, -8.25165021510609053568e-002, -1.37047012746008112227e-001, -4.88182397232625464589e-003, -1.23703720268718481146e-001, -1.06835813967161080348e-003, -7.54841916968430753920e-002, 2.43505234441281255553e-002, 1.30590349344878342563e-001, 2.15172748807731462062e-001, 2.52383750033898096587e-002, -8.51393555579820215939e-002, -1.93328485602276799182e-002, -1.88830583953881692150e-001, -3.91968960068215591108e-002, -4.00909216234547130520e-002, 3.30594225374583189359e-002, -3.83335931722535577792e-002, 6.15158889411494408384e-002, 1.19869124056484158136e-001, -4.20766167914312372300e-002, -9.61486717868054036051e-002, -1.71523290515089882335e-001, -1.09448542781233684740e-002, 9.96148530792167197223e-002, 1.50635166986168370085e-002, 3.70227203258851516113e-003, -5.82075258832446054691e-002, 1.56881212283546650488e-001, -1.31750131048236990283e-001, -7.89179460497783122168e-004, -7.42399930355006898441e-002, 5.56631244677933262333e-002, 1.02370126199985589377e-001, 1.46321599973795402061e-001, 2.75139526990397544071e-002, 1.29021598458457370517e-001, -7.10847024665892113227e-002, -7.57825857715736794784e-002, -6.20052088398894037102e-003, -1.04884556207297086061e-001, 1.38504483123576493941e-001, 1.05705461978582812566e-001, 8.24499052040001778434e-004, 1.27680520978925404751e-001, 8.94600860702931682811e-002, 3.46520846439939550487e-002, -2.87028126592435324504e-002, -1.18432193143677089164e-001, -1.18230108143723477987e-001, 1.17501630798588593829e-001, 1.39432524603180063583e-001, -3.28116685920768142229e-004, 8.30254892276056782885e-002, 9.69877753878375936658e-002, -3.97487192020007859550e-002, -1.56652076548208951667e-001, -4.04488956513058064979e-003, -1.83887477950936739646e-001, 1.25926682636672920834e-001, 3.36069680428325717747e-002, 1.84977596853587972214e-001, 4.09217122426665524948e-002, -9.14744193983198783382e-002, -3.30959349278007186612e-002, 4.25673052775686552862e-002, -9.64148587868298989623e-002, -1.99276906110274557027e-002, 9.33156517333781632129e-002, 1.23020552127876034443e-001, 1.34343246796525817022e-001, -4.67615692511400837805e-002, 7.68105004043330846786e-002, 1.56741484924352525443e-001, -1.64219932534040463645e-001, -1.85501924895946190830e-001, -6.60652896588006660616e-002, -2.03581494479859112512e-002, 1.52877644942188445354e-001, 1.67638251847182978560e-001, 1.73163545673543695091e-001, 1.04477254936952063114e-001, 8.72585673039447257127e-002, -4.93139745669181270293e-002, -2.92573906859684811088e-002, -1.47330460217717534865e-001, 1.39011241361640086600e-001, 1.55167040253858384835e-001, -4.43883794335476165871e-003, 4.78731626107274238491e-002, -7.52808349376668378694e-002, -1.28803207645757887556e-002, -9.33900754730229709644e-002, -6.71108821331870969429e-002, -2.46667106758379356402e-001, 7.38067089926356945107e-002, -4.12708569199266156469e-002, 2.20204025122304513154e-003, 6.77257970470729053769e-002, 1.14388645031221425352e-001, 7.79110660112126984789e-002, -7.54292551077125894565e-002, -3.31272655212385414014e-002, -1.27256326036478795150e-001, 1.55757271163545606835e-002, -5.01937507142882557987e-002, -7.03690097083360319163e-003, -2.02868835120849442394e-003, -6.03453806046008248143e-002, -2.80091540950306687463e-002, 2.65108026616222361427e-002, -5.64776418754253245469e-002, 1.32671443099804092086e-002, -8.09033834445065450081e-003, 4.99783177795990671277e-002, -4.06128450581265398878e-002, -1.74490013391241094443e-002, 1.02344599230416541391e-001, 8.00384700382098523974e-002, -1.18066562381565140494e-001, -1.47699463926943580505e-001, -7.13195657981082892229e-002, 3.72263153068358512710e-002, -1.51399202084083299436e-002, 9.49744747790488980099e-002, -4.22201435410326370024e-002, 1.71983001357191717107e-001, 5.05315034767006010519e-002, -6.79533010050056562878e-002, -2.15163950795841024677e-001, -5.60974086174747671452e-002, 3.39521045581165359373e-002, 1.32535889383981836387e-001, 4.13057965952254857456e-002, 1.13433566478530103994e-001, 2.31216478640161524072e-002, 8.35553518596403310692e-002, -2.21162050547313665527e-001, 3.56041898205126730592e-002, -2.35099614834371806182e-001, -4.80931838009926101996e-002, -5.05919271066852804797e-002, 1.13295625127673132981e-001, 1.49537070068701677394e-001, 7.22147307668906390798e-002, 9.58081683889449586822e-002, 5.19870644606452991798e-002, -1.03414260840907018535e-001, -4.28504229297047845026e-002, -8.70293215598320485382e-002, -7.77897468934368174764e-002, 6.68079574413971838398e-002, 7.29458561407385353004e-002, -4.46553156511293944386e-002, -2.11332671918950266293e-003, 4.86920355069138527382e-002, -6.99905962854363017378e-002, 5.49369929848221652535e-002, -4.83217303697856467859e-002, -5.35297798482953293697e-002, 2.67769407513060893333e-002, 2.45044390023178043636e-001, 1.43973202662353694237e-001, 5.33009974022788518555e-002, -4.11909923772646874296e-002, 1.84473065879343540996e-002, -1.35566394581152188659e-001, -9.08439099725870391477e-005, -3.49640582190882398539e-002, 1.67744835517132304115e-002, 3.68637621951506677664e-002, -5.04547598080012787980e-002, 3.73401264656380020741e-004, 3.78821945122018860497e-002, -3.71911235816683519162e-002, -5.79459586760829731267e-002, 1.27870429981101207950e-001, 1.54133336717512059444e-001, 6.95208907277124754653e-002, 1.15543237922026129083e-001, -7.70200302954352072904e-002, 1.25966098744134086251e-001, -1.85437780490882130058e-002, 3.60144749726974341963e-002, 4.79063713391337589464e-002, 8.25310782537685694304e-002, 9.91091014367449368860e-002, -1.16346483385369528496e-002, -4.00082439924979785251e-002, 4.19803230065346894007e-002, 9.94444746763355480468e-002, -1.34072624626221686972e-001, -1.32919294536984727850e-001, -2.55618034798520410433e-002, -3.18234989100827717068e-002, 1.36175976853501468078e-001, 1.24808541283328244820e-001, -4.58595801927211554894e-002, 1.41614907676270940229e-001, 3.27552081552466289871e-002, 5.10443105317706230517e-002, -1.46953224743401389407e-001, -6.61072734500198645052e-003, -5.36165012737647855845e-002, 1.43449669590138162434e-001, 4.33628360817604405208e-002, 1.10820646359597860253e-001, 4.81143412850114429724e-002, 1.50539550580520403722e-001, -7.05766228465309342077e-002, 4.77182373836802179584e-003, -1.14348520742443213183e-001, 1.63352244401783371075e-002, 1.50804669928972762127e-001, -3.47306009062192666548e-002, -1.08078217094792899955e-001, 9.54533305916233087984e-002, -6.85724331467450209932e-002, -1.37857090954343952660e-001, 1.12224764694861603442e-002, -6.13888194281623084114e-002, 1.13762589253525447930e-001, 1.09502148995458306602e-001, 1.24482959065963239009e-001, 1.65740911528924547702e-002, 7.85999848540134965491e-002, -2.39781907125087984101e-002, -9.91873622284609041122e-002, -1.08968240239958824578e-001, -2.64133552945514209209e-002, 7.82167783377375053222e-002, 1.92489553727381634829e-001, 1.94442337388181230029e-001, 1.06732100703966492627e-002, 6.12060747599161639187e-002, -3.33691069202961335116e-002, -1.57548126135861638053e-001, -1.44770217735391670821e-001, -6.57159587928438267135e-003, 1.91176835445121984236e-001, 3.56106842109527033102e-002, 1.98234579377659619892e-001, 5.94826936239866640999e-002, -1.23035716258943550461e-001, -1.86867042182161380293e-002, -8.30104555323676607248e-002, 4.16899250841818863611e-002, -1.30970816694356090304e-001, 1.94059105262528203140e-001, 1.48337635136707002292e-001, -6.90764930275730021370e-002, -2.03006484868220385409e-002, 2.10731293076374288920e-002, -3.52843661966617330727e-002, -1.20160304083241548101e-001, -2.62467712773875906651e-002, -8.43260676161302624720e-002, -1.99712500426203511117e-002, -1.97063203739097914102e-002, -2.47771230267150484317e-002, -1.58117935850299075329e-002, 5.56371328616878102480e-002, 1.09624302988264213377e-001, 6.11817290470956232085e-003, -1.30344603911924428186e-001, -2.81593544795351174992e-002, 1.94748196917076316081e-001, 1.09741310235170488885e-001, 1.01098770509212163016e-001, -5.27489295405622130031e-002, 9.82265517652505248947e-002, -3.00506413495738693153e-002, -8.29946540188014336703e-002, -9.37870779950705640848e-002, 5.76055658411404533648e-002, 3.52571495432464146469e-002, 1.65200686111560496316e-001, 1.68792249479002287593e-001, -9.65573553302107173701e-002, -4.12475619324122119713e-002, 3.81693191039976301160e-002, -9.53873428598275840962e-002, 1.27525943982433435930e-002, -4.64396599173008545192e-002, -3.52464389911522632884e-003, -3.15014843456782947517e-002, -2.49066203611493647285e-002, 9.64761292821865179548e-002, 3.42654693656925385392e-002, 3.14483304184821968463e-002, -1.67995659606344160952e-001, -1.02873132864725019830e-001, -1.73202429672555197060e-001, -5.99817561222666176257e-002, 1.34400409954071653473e-001, 1.16294179719881540791e-001, -7.63132343972389021181e-002, 9.50011438954867226681e-002, 5.18695266694563575371e-003, 9.05654271064694482707e-003, -1.94657750708854965227e-001, -1.26768695276530340976e-001, -3.25274871720796707186e-002, 1.29470723667102688426e-001, 9.52020501233575289213e-002, -2.52374825808249075854e-002, -6.25501006343728016557e-002, -2.45192353670550464151e-003, 2.43942723290800946023e-002, -1.17883171561071642408e-001, -4.55176358873040226571e-002, 2.09920099471138765779e-001, 1.39403517028830803426e-001, 6.06091395544541416962e-002, -4.73091242062426906023e-002, 1.07085045150781571488e-001, -2.28436603644874385022e-002, -1.45117628803819120886e-001, -4.95348562119747939936e-002, -6.72822327404721254318e-002, 2.08442216096413557302e-001, 2.29767111976617692537e-002, 2.65333322734546961374e-001, 3.65875700065452155729e-002, 1.09110557689214709987e-002, -9.81683935791958783845e-002, 6.00795723536050596536e-002, -8.03892711131268394853e-002, 7.47067147727492886222e-002, 5.42130435391975085135e-002, 2.28478241828839967464e-001, 1.52662071360592677127e-001, -8.83448401463860916172e-002, 1.46108637398779904470e-002, -2.07180180287324065824e-002, 8.48769973038340924676e-002, -2.99538188472655703132e-002, 3.56365891208067359086e-002, 3.15519702964239074847e-003, 1.45292449174810212043e-001, 8.48741090484555343876e-002, -6.05294157641799671771e-003, 5.31621135080474413459e-002, -5.49992823059510457795e-002, -1.16862024946268489023e-001, -1.15295290261091615269e-001, -5.66122635852960159886e-002, 1.19810851054980752051e-001, 1.71874465607306320392e-001, -8.30935426803809107366e-002, 8.42395626816487830268e-002, 1.36743488155943171414e-001, -4.59832506281264014047e-002, 1.42490901899645361350e-002, -3.47491949766415911260e-002, -4.70230771727148388894e-002, 3.53505911733464350810e-001, 8.06101786637527073509e-001, 9.05658750091669184634e-001, -1.63759644504121448794e-001, 2.88051069241529511533e-001, -4.77300796955133888044e-001, -7.87074751286433449415e-002, 1.14931713339527369344e-001, 1.78068260158159713535e-001, 5.66103154777947370491e-001, 4.33199715778820160228e-001, 4.30488218423593083095e-001, -2.46932898263375083525e-001, -6.27025050301884046000e-001, -7.07341053466438496322e-001, -7.10258356159655102058e-002, -1.74724811404102536860e-001, 9.42988430327640347883e-002, -1.71124766830864638578e-001, -2.89419124872220823175e-001, -1.87310589137096888956e-001, -5.54420492589869362554e-001, -5.65213904355851615158e-001, -6.48937016272177702447e-001, 4.19081279388404170927e-001, 3.45181456799943608971e-001, 5.93637834300396849407e-001, -5.28909779799357382402e-001, -2.50339958577564913877e-001, 1.42283106127544262814e-002, -4.88906255087986185703e-001, -6.18968033251817706386e-001, -3.21016676617389806747e-001, 4.82227575894606852458e-001, 3.44063244095262121824e-001, 4.73088554323071674990e-001, -4.10133744718469805957e-001, -1.92034998030642695133e-001, -3.23500782411442588948e-001, -6.34202505478561162633e-001, -3.54382166569605971951e-001, -3.75029017685875154520e-001, 3.46000141849112874404e-001, 2.81877598540608120814e-001, 3.09268057010456842715e-001, -5.16522253761817373707e-001, -5.20865849602029418186e-001, -3.66026591680051749389e-001, 3.13021679251998918847e-001, 3.89848992424899842835e-001, -5.74211729471683418602e-001, 2.75249837592748403114e-001, 3.43266102823450491854e-001, 4.45016329873498595049e-001, 1.60768364788118761632e-002, -1.34273836994190820526e-001, -5.59226111933324582237e-002, 4.62786260088269230106e-001, 3.97929851629738429164e-001, 4.43029520094741890990e-001, 4.19322615742808102457e-001, 4.57599468966339240072e-001, 2.81926326614346467458e-001, -3.47287006831344946534e-001, 7.38272786314078527381e-002, -4.21823572613321123859e-002, -1.31244396876832813970e-001, -5.52623107791399351130e-002, -2.17424695041148474672e-001, -3.25204655542074977381e-002, -2.38454281216273517030e-001, 1.67892371173986698629e-001, 3.72746430489956870336e-001, 6.30656557821462487867e-002, 2.17456681478367636062e-001, -7.36259467907401654596e-002, -1.36992127457611412300e-001, -2.26611104719916078842e-001, 7.67706888861817704495e-002, 1.84017898093983917063e-001, 1.20166496980603387801e-001, 8.80674796120512887176e-002, 1.04270047293489126483e-001, -3.27649978939764774388e-001, -6.40320050136966356646e-001, -6.78520892841841694043e-001, -3.97556353691204622525e-001, 2.88502022071878833076e-002, 2.69418901672801691660e-001, 3.49766313876739065591e-001, 1.10518320409725603892e-001, 2.13519896234544481750e-001, 5.81070393817954333748e-001, 1.01499911536285680747e-001, -6.19947924140962051964e-003, -4.11873227553238518972e-001, 1.71032751176891484324e-001, 3.15124407879149651124e-002, 2.23366318808389668904e-001, -1.65717609792593228990e-001, -2.54354779086247428932e-002, 1.00636987386888934748e-001, -3.59178063285287910156e-002, -3.12309365407078542987e-001, -4.14788673319355427616e-001, 9.04826067123000454817e-002, 4.83480488319377871287e-002, 1.84169684785724846465e-001, 2.20401505966811128712e-001, 4.66675515481536407059e-001, 1.23926162117258958917e-001, -1.75036357465244762910e-001, -1.03248319430333246327e-001, -2.11783232815217048461e-001, 2.37647167745995480104e-001, 3.33598323775631644406e-001, 4.11971652097580853802e-001, 1.99452461856946733354e-001, -1.35398793520334737028e-001, 1.33428372036498960052e-001, -1.71580927974287700266e-001, -5.72065901167965629170e-001, -1.71708893605186735387e-001, 2.63648684225105567336e-001, 1.65878031997727326541e-001, 1.86564809445336099447e-001, 2.62162337665937439368e-001, 2.08233743527711540056e-001, 2.99371460343716866426e-001, -4.43330973610885914482e-001, -4.05652174039590640575e-001, -9.33294554532621556397e-001, 3.09599776341975663208e-001, 3.82274582174103316756e-001, 2.14347475363379114111e-001, 4.76536411331914988576e-001, 8.68531794567044324040e-001, 5.05272686473997589829e-001, 1.42156946425484098651e-001, -1.48969310553702938282e-001, -2.24414676619898112442e-001, 5.11670976447069603132e-001, 1.72370298916340619622e-001, 1.46800832746461551448e-001, 3.30858341272869282967e-001, 2.84652337934961419119e-001, 4.11848066389969846846e-001, 4.81553926174778795799e-002, -6.26056019752536552225e-001, 1.02168036996896846591e-002, -7.72726732701356760352e-003, 1.51634935951663496478e-001, -2.87057786914527504618e-002, 2.69875741805254087957e-001, 6.47271628565585399606e-001, 2.75972722599045705572e-001, -1.62255109654731055624e-001, -4.97727131110938469938e-001, -2.50947712299099456867e-001, 1.91394454486600446019e-001, 3.83617849220379669717e-001, 1.09150933470407870973e-001, 2.72654909483607821308e-001, 2.60087213447609044703e-001, 6.16760430976154155891e-002, -2.49486540892467356656e-001, -3.78793305023312432134e-001, 7.57385396691500484279e-002, 3.35936177789290663087e-002, 5.43316731245969547492e-002, 3.03297987815165148717e-001, 2.20968957695220121623e-003, -1.23264322287183411553e-002, 4.20858174276220187160e-002, 4.74619298763251262763e-001, 2.33689510932183541758e-001, 1.92683940727525537806e-001, 4.49982055982442105679e-002, -2.53446329656374091943e-002, -3.43603668068492990040e-002, 1.91904557495975902626e-001, 3.31077462064247207696e-001, -1.16757603208457565180e-002, 4.12793618068617751415e-001, 5.55975158635093835713e-001, 3.30490660269021019335e-001, -8.63615278630059865494e-004, 2.04233470044501153051e-001, 1.34386917141465972447e-001, 5.18245165104067595507e-001, 3.94515632208963074046e-001, 5.30582787998339799884e-001, 3.90370672126932882762e-001, 1.66958833908176507155e-001, 4.91813396170304228949e-001, 1.28241990695660473820e-001, 1.95397428763294273013e-001, 2.58633509472061595691e-001, 3.11312444873628690889e-001, 3.46569623231069989799e-001, 1.54392354395784942023e-001, -9.64169111725038940897e-002, -2.26271632028287400518e-001, -2.49599925622090323962e-001, 2.79232100290105145213e-001, 1.80341269581399510358e-001, 3.56700862020754072557e-001, 4.25286028669657867329e-001, 1.97747080038823352943e-001, 4.35130058999122770746e-001, -1.34984677993851102940e-002, -3.22965956586520996918e-001, -5.03398978488383552765e-001, 2.24141910350723616574e-001, -1.24976367837649149362e-001, 4.53674108035161671726e-002, 2.77977659371734187044e-001, -2.15518157000920279609e-002, 2.36902752584252640489e-001, -1.16912856010537843932e-001, -5.65107461829186474844e-001, -2.34389333508718128440e-001, 4.82759037045761396634e-001, 3.68503957540086690692e-001, 1.29412787303181564535e-001, 1.88691125760090117058e-001, 8.54291330266922915859e-002, 1.18193964657234890092e-001, 1.77554424072236621823e-001, -3.32796979437803650687e-003, -1.79787762035079290435e-001, 4.19921236847960264310e-003, 1.66697509471122912172e-001, 3.12091673822805115712e-001, 8.34078528161435323041e-002, 7.40826986558327238441e-002, -1.70042154850087411100e-002, -1.45425777692697155707e-001, 3.09375499935322234579e-002, 1.83634357842393874938e-001, 1.90871645003714784927e-001, 5.79811948146456090925e-001, -7.62062776346688897089e-002, 8.99463545587433077610e-002, 7.75373341502478274911e-002, 2.83338369445057303153e-001, 4.13094651641377930140e-001, 3.38039239134319269287e-001, 1.12530528832074053214e-001, 2.69675499128475271160e-001, 9.17927187002845063057e-002, -1.45576652561122649177e-001, 3.50334975859203756610e-001, 3.78446371453264526763e-002, 1.71928867042486721584e-001, 2.09092116967530855520e-001, -3.43419197824563871002e-001, 3.16882059895629120128e-001, 7.36804100692267871509e-001, 5.33909971048988518660e-001, 5.48904224878527302600e-001, 1.56970466108764222790e-001, 5.63314971608190120933e-002, 1.42113141293908201712e-001, 3.38419038075045475189e-001, 2.00682577377390009010e-001, 1.88370808474571133084e-001, 3.24771894647876813167e-001, 1.67524668408477545034e-001, 6.91439682611874939511e-001, 6.19751894157714380840e-002, -1.10094414695432699092e-001, 2.14740738916379576839e-002, -7.68770229580807012981e-002, -4.10148278800891163964e-002, -7.11490384213505910882e-002, 2.52962195950203305728e-001, 3.49689478790446262035e-001, 2.04568754432987748304e-001, -1.70349804870945087387e-001, -2.17110320019958336069e-001, -3.13156016836890704891e-001, -1.63745949869813500754e-001, 7.79719588621010789575e-002, 7.15724851900144953820e-002, 3.86673596840439115496e-001, 1.83397864180123437716e-001, 5.28389992335945302138e-001, 7.15004449693522503573e-001, 2.88005615808170856162e-001, 4.96901260551169177138e-001, 1.29204739871103563287e-001, 1.69377566643767740739e-001, -3.84583318920989014611e-001, 1.78483988827102396657e-001, 2.72918318607041521240e-001, 3.05503959214890818963e-001, 2.35518701378821498915e-001, 3.30837282268806653907e-001, 2.20112385364713974978e-001, -1.34761213504587806788e-001, -7.68172569529072118977e-002, -2.34478453365031758171e-001, 2.83415857638052881562e-001, 3.32833640478665371276e-001, 1.87800447609432236140e-001, 1.34686408727106354810e-001, 3.16546225382717871799e-001, 3.65911429437911425722e-002, 3.15990540371350436821e-001, 4.51276430476489520682e-001, 3.39397281410225681864e-001, 3.52796283504210106408e-001, 4.49359452438580830869e-001, 1.19830569127707536881e-001, 3.46357362836352961066e-002, -3.41860520723713257052e-001, -1.70948448350740772606e-001, -5.18031491337696790855e-003, -5.16621556604750648001e-002, 2.81801640479742987466e-001, 1.87583299755920029916e-001, -3.51438970445154125199e-002, 2.77763336124783766223e-001, -1.03192489307265294896e-001, -8.07824084887849916403e-003, -2.05960108954870629860e-001, 3.08444465834107395263e-001, 3.36347832757108777813e-001, 4.98928408286428259899e-001, -3.57860586157160223686e-002, 2.19567784046681771515e-002, -3.20562264758168902201e-001, -3.48898379741920450225e-001, -2.39636035675030029113e-001, -7.55747689795381177857e-002, 3.55206183791730523147e-001, 2.14611497281292223915e-001, 2.49619022591762773633e-001, 3.69649122370472940635e-002, 4.39852741148585787978e-002, 2.79343682337529874982e-001, -1.35282050367832584747e-001, -3.95687563694186450469e-001, -2.53510672152152172210e-001, 8.99052679037244284466e-001, 4.08814304417300711236e-001, 5.23074350816201127934e-001, 1.83565476768187768597e-001, 1.82270990135063926108e-001, -9.12162519056467641088e-003, -2.96063738155629030402e-001, -4.71068439740793543091e-001, -4.81207619057779201199e-001, 8.57169626737253942395e-001, 7.23904482129585913341e-001, -2.02569677706182366128e-001, 9.81813824967851800363e-002, 1.59816096523803352625e-001, 5.49042648768444663254e-002, -1.51173541166079172804e-001, -2.42351503913090876585e-001, -2.12112570105298520184e-001, 2.81648085763036126750e-001, -7.30796631310944022619e-002, 5.57074642523032112496e-002, 1.25967478747912087211e-001, -5.79023222812145247490e-003, -1.10944635298221312009e-002, -5.76227924057317944517e-002, -5.96578122518495457260e-002, -1.87548090235563867656e-002, 1.10475250429539470498e-001, 5.47621604515082516240e-002, 8.69197493222887002107e-002, 2.05869625700029652837e-002, 1.77946170088365190898e-001, 1.95100010661821005042e-001, -2.08986305816032502669e-001, -1.69721161435965384179e-001, -1.73855260325012223044e-001, 3.76268031318170801530e-003, 7.44839990246752153835e-002, -6.36255802484838109412e-003, 9.84050069663827825517e-002, 2.15588242341217872777e-001, 1.03328593280328784321e-001, -1.05805607822586467126e-001, -8.71057837555990893685e-002, -1.07532270967315393695e-001, 1.07779914500883478023e-001, -3.96939081783676851745e-003, 9.51291293181683039748e-002, 1.71008227312708205314e-001, 2.69806789710373591540e-002, -8.57562833034364035978e-002, -1.88041526030794908797e-001, -4.54172742789502661975e-002, 2.87577601045364353305e-002, 9.79906349792143693822e-002, 2.01353027585658511667e-001, -2.27608385989409786609e-002, 2.33321330556458678140e-001, 2.12107089004371196506e-001, 6.04185194452308352298e-002, -3.72855281704745009086e-002, -1.57269848369056969295e-001, -4.91172761524104467545e-002, -6.66481876537146911144e-002, 1.65160743238419727152e-001, -6.50476124001097416594e-002, -4.25193342941961247017e-002, 2.62672086229897537579e-002, 9.70927524525659335630e-002, -2.22507588427400121445e-001, -1.89298527832828411555e-001, -7.18382289356443437534e-002, 7.78876875038369276272e-002, 1.22603333951153917886e-002, 1.56600490256923213783e-001, 3.06283116726818564757e-002, 1.29334637768153182247e-001, 1.13101721745608341241e-001, -1.61552593557047013961e-001, -1.46062366231304086028e-001, -2.00947348496066297008e-001, 1.37700756812921931704e-001, 8.24382364309526327606e-002, -1.39317154865487968091e-002, 4.66555159925441664814e-002, 7.71754554862508906909e-002, -1.32812179682651552298e-002, -7.73317979599517646427e-002, 2.45831483247688185878e-002, -1.75651832317666373173e-001, 3.49718788756366166792e-002, 1.38372619645632910501e-001, 9.90339882722970216156e-002, 1.46404600101008974811e-001, 1.02500882855062092069e-001, 1.03620231955018307635e-001, -7.05866333170479531844e-002, -7.84593519372395048483e-002, -1.33951970935476755153e-001, 1.26883568405640551058e-001, 2.06307758601641216822e-001, 4.93827183215968176788e-002, 3.49008587825709593044e-002, 1.54921037328500654784e-001, -4.10381742021718870506e-002, -1.41078730559521525745e-001, -4.45035909622561731691e-002, -1.44792531043780939304e-002, 6.73655198764872269884e-003, -1.59572737698701651310e-002, -8.70264803721547547388e-002, 3.80954564020279176639e-002, -7.97193586273024640265e-002, 6.42048047126779625193e-002, -7.97898534345961446546e-002, -1.34890116244977653626e-001, -1.63083929682411643558e-001, -2.94843945287118474469e-003, 1.45810991611952017744e-001, -3.78401307112970000657e-002, -3.26228892838014289390e-002, -4.72893431529891328235e-002, 1.65604463861134532099e-001, -7.85711870210965696026e-002, -2.23052185282148679457e-001, -2.66742656571651637343e-001, -6.49944413239753222833e-003, 1.33306222239048810518e-002, -3.22767848784880975743e-002, -3.24919292856384739343e-002, 1.14012712757868964197e-001, 1.82697372425599191548e-001, -1.73951676647301656242e-001, -1.98880451940083191609e-001, -8.15225739141542740662e-003, -5.18922292234440946102e-003, -3.05299870154865440885e-002, 1.01704714616295363583e-001, 2.32179896794656344394e-002, 6.33919748305186519198e-004, 6.44904345861820188501e-002, -6.40544294794068297394e-002, -1.23752609970510407678e-001, -1.58565158494022334645e-001, 4.59016811196446342103e-002, 2.38650491824053540002e-002, -3.24667263625439128649e-002, 6.46903047742952153065e-002, 5.87283133176293159483e-002, 7.34918040795078664207e-002, -1.11188620008952090967e-001, -1.21767231128434114118e-001, -2.37354147312854396601e-001, 2.24492794659394340195e-001, 2.82763283047714863994e-001, 1.74299916250574449261e-001, -6.97818876131664489471e-002, 8.59354384295792084192e-002, -4.65496234714094306306e-002, -8.65875443161606000997e-002, 2.35864231630559841035e-002, -1.07691495312389820538e-001, 7.12494309373760681403e-002, 1.91585874350180457304e-001, 2.21754853536674984005e-001, 4.11521041290884570518e-002, 1.34073753449739485610e-001, 6.40001848904108022742e-002, -3.85557442985289960946e-002, -3.55110892789456226992e-003, -1.23430658600281198400e-001, 2.92241175930074738309e-002, 4.95287057433404787066e-002, 2.97599539413552563460e-002, 2.27062293875503640184e-001, 1.11119785007667809529e-001, -3.48920013457303043736e-002, 3.48880279632965981454e-003, -1.22217280265515815252e-001, -6.31800227545641496230e-002, 2.09689592099939231540e-001, 9.93784082088500497765e-002, 1.19743967595017458683e-001, 1.60283060556591250290e-001, -5.45023258518558956220e-002, 6.19778078919657957058e-002, 2.00821207859579811683e-002, -1.19584706634038112627e-001, -7.50019090696895651682e-002, 2.45605851287271186034e-002, 4.14897018843301407243e-002, 5.25126815204539423854e-002, -2.20942343166643899444e-002, -3.94582288270294775923e-002, 2.11643426070707747766e-002, -1.22993727680976439043e-001, 1.81649000585871744917e-002, -1.74145993013054972698e-001, 4.56245039489656528664e-002, 3.71591592086500596692e-003, 1.34978156259519865845e-001, 2.55842867827066203570e-003, 1.63456971698714426111e-002, 2.10402162495071515247e-001, -1.46975067848411529436e-002, -9.64695554149415518408e-002, 4.47605916928919198017e-002, 9.68661400217728507656e-002, 7.69409711590936934433e-002, 1.34294750506412458035e-001, 1.43417890303830952714e-001, -5.90073381482141556820e-002, 1.99373944155428889369e-001, -2.08930227758699210705e-001, -9.84903890234881951304e-002, -7.36579930690698658768e-002, 1.46856697265377256212e-001, 1.07784595659093776487e-001, 2.61480373883803740576e-001, -3.15444257627449653469e-002, 9.01209666698380151839e-002, 5.81349635314051191304e-002, -2.30677688496469607271e-001, 2.64103850796846839621e-002, -1.87149738591831427126e-001, 9.62844029961511527205e-002, 2.83888772441730719009e-001, 2.57846254187576062744e-001, -1.23737011480756858850e-001, -8.69923295096678844684e-002, -2.26089729840460718080e-002, -6.18216792240206119979e-002, -9.69118031456819573055e-002, -1.26864791642759711099e-001, 1.17475718972098089332e-001, 1.24148274154105203726e-001, -3.77574525624901277676e-002, 3.22760509504706680217e-002, 8.25899684683029794430e-002, 9.67434659597991020163e-002, -9.13449870949283176946e-002, -5.06968530989927931851e-002, -1.77337021110132941892e-001, 1.08447550390253472097e-001, 3.36607006916843365385e-002, 4.88388908070315763688e-002, -2.54588613765016555379e-002, -7.74000250046526644399e-002, -1.09091318674042810771e-002, -1.20557928351363984748e-002, -4.35085765425369183634e-002, -1.41417817355255964751e-001, 1.10202302220133510624e-001, 1.08341937896839712874e-001, 9.35087609855083518040e-003, 1.55232512909289938063e-001, 1.01520579720446632588e-001, 7.88766977054645157530e-002, 3.61185737410002274950e-002, -6.40337574947545812298e-002, -2.01363470336974291486e-002, -7.92296334694586046332e-002, 1.93085698862208122659e-003, 9.45945524097242390615e-002, 1.58209035506003209415e-001, 6.92602874401156282103e-002, -3.79976291912188573682e-003, -3.05095054983871780130e-002, -8.31691339993955169874e-002, 5.46720176960940260069e-002, 7.24710757210944300777e-002, 6.38466780170364456293e-002, 1.64037243553483536029e-001, 2.58609846591754330425e-002, -2.18309880048478330283e-002, 3.27350790829871451937e-002, -1.61141742682614413917e-001, -1.73965444480497277713e-001, -1.11042847161443580806e-001, 8.49783657440964373952e-002, 1.06168117496016067847e-001, 8.99011634454089936241e-002, 6.32860486882112910356e-002, 1.65565502449961793330e-002, 1.15720970635205991361e-001, -1.35484534993314559292e-001, -4.12199101277729157422e-002, 4.78200251254457323058e-002, 5.55603446271106388155e-002, 2.13274439657520381575e-001, 2.25337326127658721386e-001, 1.16492487876170031091e-001, 1.51379050127774771040e-003, -3.48366773222226087589e-003, -1.33428940541369833728e-001, -4.33922063503725252698e-002, -1.49072667473233083646e-001, 1.29740580309255809643e-001, 1.23285149589691833683e-001, 1.06531337566475106660e-001, 5.57638082936973145110e-002, -2.81198896028559443272e-002, 9.80340042984884779687e-002, 5.65492901638356242067e-003, -7.91112431702419294233e-002, -6.88208117855069884117e-002, 2.19439194583127189508e-001, 1.85083979211201204995e-002, 8.67483517385196495342e-002, 2.31014768908430229155e-001, 6.85269485715445277052e-003, 8.52118822961864530452e-002, -1.86399397487666984574e-001, -1.53400090044911119325e-001, -3.86891054681693241646e-002, -1.16426410756526682588e-001, -1.12168126489174513338e-001, -7.92990934272558706253e-002, 3.71933777472904514294e-002, 1.85895301630784853808e-001, 1.83235946490127900310e-002, -8.73364348162599390957e-002, -1.07821582339973423559e-001, -1.76766038146442650003e-001, 1.64809117848170649800e-001, -9.06299130496763805098e-002, -7.44386212757304627230e-002, 2.74147395873374610797e-001, 3.23025953256776132694e-001, 1.20042188280068587436e-001, -8.48836445118685521682e-003, -3.96826875958410166256e-002, -8.57082408170239534728e-002, 4.00581694437448631446e-003, 1.47633951689439796295e-001, 2.65310610087907405852e-001, 7.20042422814449051272e-002, 1.16836661393811047649e-001, 2.55051594205145282235e-001, -5.79966383126447881935e-002, -1.89710053299616848710e-001, -9.96880374409548214443e-002, 1.45958844493786349394e-001, 1.06744807966064211846e-001, 2.49481507577168276635e-001, 1.91761557044378527781e-001, 1.90911076383485478480e-001, 2.04756337239443947373e-001, 3.62553115491820454608e-003, 1.16644802607921878324e-002, 1.71196272591503939609e-002, 1.01532834725645060292e-001, 6.58887329117961717539e-002, 5.52425778674545883695e-002, 1.30096136332559370041e-001, 9.30387885482968912676e-002, 1.88699583999047154625e-001, -1.64381838179069816874e-001, 4.09776032465922757098e-002, 1.78007205411160399078e-002, 9.78944837397721367989e-002, 2.30594056846710221409e-001, 6.63263087432391928999e-002, 6.52733921437986721464e-003, 1.15145718456267920349e-001, -6.04304954954246187349e-002, -7.29775330532935889716e-002, -2.89347123802106941104e-002, -1.04632703511858382583e-001, -1.03111842775689584173e-002, 8.21415357257512107614e-002, 1.54238148815994624563e-001, -1.23466575273796751178e-002, -1.35588691454282234128e-001, -5.94871096782263325542e-002, -1.19296850122037070840e-001, -9.57008050970665630208e-002, 9.61832848124527378664e-002, 2.39626100788357915272e-001, -8.97442440051900991449e-002, -2.18388693870116779028e-001, -1.09812466845136083582e-001, 2.99948133021218574235e-002, -8.41831267337716099286e-002, -5.06157969652725886478e-002, -6.01473767380646673342e-002, 1.44126846315482476379e-001, 1.57174503562678036239e-001, 2.16641329397514764699e-001, -6.73267760063169379281e-002, -1.49731805795803418757e-001, -8.11767151495532482408e-003, -2.28712137074054133734e-001, 2.58980151713445405637e-001, 3.33480479296776266551e-001, 1.49263677375581271800e-001, -2.45157110883659656864e-001, -1.04750634993415844831e-001, -1.93019705241374489590e-001, 2.63973744891447328897e-002, -9.52048079801628976959e-002, -6.98215092035444906404e-002, 3.92938116102788670414e-001, 2.63840573995995586465e-001, 2.19691709547070235242e-001, 8.20182125158868888248e-003, 1.56338904428605013353e-001, -9.82042372901339444269e-002, -2.18309125585773505795e-001, -2.41266059186966391747e-001, -7.79325340113733444625e-002, 4.08047200030427326123e-001, 3.63047874581454654841e-001, 2.04079067022070126391e-001, 1.64952147242272556538e-001, 9.57265842394043053876e-002, -3.05587358197745191657e-002, -1.31634741582540876204e-001, -1.34529873597501625770e-001, -1.56364574742515777261e-001, 3.40847252832093883246e-001, 3.83660106059711625281e-001, 2.72254627873729115883e-001, -1.50586369813545367657e-001, -3.80095198647608101261e-001, -1.68691793295263625652e-002, -3.40933867459179473780e-001, -3.71854385825156896761e-001, -2.03184101053323240560e-001, -6.24811249517183975311e-002, 8.15897597412922614968e-002, -3.14776092879227430837e-003, -5.08927353176909236243e-002, -3.84576654703388365331e-001, -1.55921322650250365055e-002, -4.68700518358226625448e-001, -4.29259787144064874909e-001, -3.73567686688368372216e-001, 9.29134438012186036904e-002, 8.06923201243678195338e-002, 9.73148305212250958052e-002, 2.62696242103812073465e-002, -3.47572665581305118021e-001, -2.46258024120556001657e-001, -3.45836171561635707938e-001, -2.99538665352931832153e-001, -2.38087876386967045583e-001, -5.00296139386881069666e-002, 4.58322940428315395156e-002, 1.49122571693809602422e-001, 9.35462644003443588581e-002, 1.33861808819278976790e-001, 1.13907816005086925948e-001, -1.61543815451074768141e-001, -9.72392293137251534363e-002, -1.64587805909177098407e-001, 1.16164387478666142339e-001, 1.79195453382448161017e-001, -4.03735704894273503274e-002, 3.27972337166509864126e-001, 2.16001586413100021833e-001, 1.83765420386063443869e-001, -1.52155282707078148841e-001, -7.72902565416349607297e-002, -1.21839866469157995232e-001, -1.69777088718892882335e-001, 9.16552676543801875253e-003, -9.15557640622357282734e-002, 4.74640414180957717627e-002, 1.11155776591727165070e-001, -1.23842558916418113424e-001, -2.95758275503548162533e-001, -2.39218473784673757443e-001, -3.26176420253289467421e-001, 1.19663413593269651880e-001, -9.26950078907704949627e-002, 3.39452691436213926934e-002, -7.00332917660783510483e-003, 1.89383474373414795178e-001, 1.51844535418726028775e-001, -2.73529369373564257284e-001, -1.25785593810244927804e-001, -1.96630144173299270527e-001, 7.83984908305975503051e-002, -4.26028743673402057746e-002, 7.62235123993655755426e-002, 1.85159052917438393671e-001, -5.05280690497144219231e-002, 1.59540520224500936841e-002, -1.71030139067079867132e-001, -5.38313491802435289957e-002, -8.30362921661735586820e-002, 2.10566970359514354927e-002, -1.36511972126010017181e-001, -6.43443650052266669093e-002, -6.07026732639795243984e-002, 5.73734788919854354905e-002, 3.67131673924522144992e-002, -2.63934105750944336677e-001, -2.42052415210876420426e-001, -1.53427845154761099966e-001, -3.70514174361161602311e-002, -2.36318107029527650631e-002, -3.73434295021446496787e-002, 2.23610801471987641342e-001, 1.22423505521725456413e-001, 1.24650861627112863328e-001, -3.04692938322766837533e-001, -3.14497709727460161844e-001, -2.43686137804082436631e-001, -4.35205457378285559544e-002, -3.29275412335305883715e-002, 6.50386630086953743124e-002, 9.80215884925051267329e-002, 2.60731927843655064692e-001, 1.56978033882328671389e-001, -4.50273701961740324684e-001, -3.30920099641024756387e-001, -3.47365970839708160245e-001, 9.45151321126868615430e-002, 1.79908358699825188243e-001, -3.61095398843305839809e-002, 3.27857049388038945814e-001, 3.23152430170189297609e-001, 1.91685451635768527856e-001, -3.58239404890941026682e-001, -3.18490652176563859843e-001, -4.52383733634405926782e-001, -9.41066127910710342741e-002, -1.32956128512113497253e-001, -8.74298486813769176740e-002, 1.60284823880787796746e-001, 2.16052787702371684730e-001, 2.22529928460966780479e-001, -2.18170894677682580820e-001, -4.05083299829826104510e-001, -2.89700116082663994277e-001, 1.42956245259242397533e-002, 4.34505005746786618359e-002, 5.41594094099645886886e-002, -7.20756338821932490690e-002, 2.00070589696678041713e-001, -2.69274826608089309921e-002, -2.09301119266783630657e-001, -3.95528639195162901032e-001, -3.67467262105949543649e-001, 7.38357900579205556069e-002, 6.64828148267839064145e-002, 2.43073733159221039291e-001, 9.44668162622324947275e-002, -1.01491813589780821570e-001, -5.24257329632168145306e-002, -2.84459432472761952759e-001, -1.93650633646723080439e-001, -1.93209351620224512036e-001, 2.47012570727870806042e-001, -2.41108854539169893683e-002, -1.08749270087783247996e-002, 3.56070242788051743998e-002, -1.40655150613159724005e-001, -9.05211856283659049849e-002, -2.68215831576565422179e-001, -2.23260289370042303014e-001, -7.96234688518085709230e-002, -1.77574470626143177121e-001, -7.61925928921714928910e-002, 1.16192944366886499741e-001, 1.51580470411614098847e-001, 2.92173217490349412806e-001, 9.32099249209327462840e-002, -2.46389845631189763342e-001, -3.88104940140490239919e-001, -2.74016635269839048394e-001, -6.78769339257335145577e-003, 4.34033662033529443747e-002, 6.88019078385432442113e-002, 6.34651568420268458182e-002, 1.35295916692034445816e-001, 1.36418299490167510557e-001, -2.71354849441758916306e-001, -4.17531879500114777581e-001, -3.05057010410999140948e-001, -1.90110424179299825065e-001, 1.03606379321743019561e-001, 2.31881534720300042096e-001, 1.60243419017394722603e-001, 3.08301342915424936297e-001, -3.85476768768491379058e-002, -3.18852314285910931613e-001, -2.97358902538061797838e-001, -4.59024790452441378008e-001, -1.84428734106126451797e-001, 6.36851034744931668308e-003, -1.14162853823677357124e-001, 1.33303873761679875232e-001, 2.49142044681223834290e-001, 2.16078788545162742141e-001, -2.17939767239301862567e-001, -4.68192867971430282115e-001, -2.17209508804195677856e-001, -1.02235751943887218096e-001, -1.21741040204340136843e-001, -4.22182612228466438986e-002, 3.79198964228641188789e-001, 8.31779824268618211969e-002, 1.08748032246556774680e-003, -3.51641727323618258350e-001, -3.75076227761485525569e-001, -2.59700158898708899358e-001, 2.63204471677808624075e-002, 7.30427174384465967977e-003, 1.16491869796376643076e-001, 1.36465511119883281532e-001, 7.63636678463180534893e-002, 1.93597329882993635097e-002, -3.02319190031697049292e-001, -2.82726425283955584700e-001, -1.34176979414430880277e-001, -4.77452259830334693747e-002, -4.07894487052378462710e-002, 9.52881108186656028414e-002, -2.26818253886838627764e-001, 3.01147135669087850918e-002, 9.62596533433821982539e-002, -2.66636698179274933551e-001, -3.48815045927118816405e-001, -2.53704896370701149522e-001, -1.11031590266525106991e-001, 7.19759401789664410298e-002, -3.89473539004627083981e-002, 5.14209492217130026415e-002, 2.62321247697813508815e-001, 1.44688491685333701919e-002, -2.88505420188932881764e-001, -3.67691637208237553924e-001, -3.23056723387068422948e-001, -1.93646631300196464531e-001, -5.86624612381990706567e-002, -8.72638059381253411440e-002, -4.71405694007191594652e-002, -4.97332686958001021771e-002, -7.56297007710391988589e-002, -3.40858870436094751888e-001, -1.18274721428724138850e-001, -3.18491792190728040257e-001, -1.72835623519456103858e-002, 4.16284202744101640425e-003, 1.30684475686909384873e-001, 1.35909610127245440020e-002, 1.04122932200572185235e-001, 2.27187947371128379226e-001, -2.78389750013926684513e-001, -2.37151353560322186720e-001, -1.58900654609436309261e-001, -1.19781477372123135172e-002, -2.56587026692222004709e-002, 2.45862407345211420040e-001, 1.99414157185129031769e-001, 3.85220764897917650194e-002, 1.37621564622984082771e-001, -2.00108336506646777853e-001, -8.24648201925105017729e-002, -2.09248608080441184098e-001, -7.08247877911383633132e-002, 1.18754770237681689382e-001, 1.25730959970629607714e-001, 7.78433575473992667160e-002, -5.07394512057273844308e-002, -3.63714370826399456191e-003, -4.19933780661167696535e-002, -8.97793025592599075457e-002, -8.63506257133459520503e-002, 1.15954047424140496356e-003, -2.03349537034224758791e-001, -1.09015206726554736427e-001, 4.20453252938345831136e-002, -1.16933709710587974140e-001, 1.37158670335352672609e-001, -1.44430803763875376111e-001, -1.88691148265592079092e-001, -3.22360146146537518419e-001, 1.13940564988772394944e-002, -3.91238501004852971127e-003, 3.14642120370243749683e-002, 1.10681640597619965205e-001, 1.08611031377618596355e-004, -1.22545160554468221537e-001, -1.94901362695881097409e-001, -1.90339972388697514782e-001, -9.41274442055752696978e-002, 1.28613938779288117242e-002, 5.71550091753596778421e-002, 2.27227408816460668683e-001, 4.45297292499355276685e-002, 1.72847772096295482225e-001, 1.84170280456304652494e-001, -2.08556941952758700953e-001, -2.30089992214691008154e-001, 3.10634689972965442883e-002, 3.80790223887475798303e-002, 1.72882250294373679411e-001, 1.62357154703892531122e-001, 1.76640548778452866063e-001, 1.86267367217138352098e-001, 8.99328802486647552183e-003, -2.00955764474038900413e-001, -4.66470598279312888973e-003, -9.78137585890609569106e-003, 1.88860270152824832879e-001, 1.42476410519631307983e-001, 1.61877674198819182516e-001, 1.85395376038321096912e-001, 4.15544994539163159430e-002, -6.35990421386339738197e-002, -1.34859463371723747871e-001, -1.01377963369762656015e-002, -1.21186530855916782534e-001, 1.16590051486281584547e-002, 1.90066364708622287383e-001, 1.28825685918582094613e-001, 1.89721593321321185810e-001, 3.05986403332992873416e-001, 1.93839602040627501101e-001, -2.61557807062502645223e-001, -2.65010498605357858182e-001, -2.06745570363448066820e-001, 1.81589304462853207145e-001, 5.70666034612731104536e-002, 8.14662491751764750170e-002, 4.87264624348066957560e-002, -2.44316288269930209642e-001, 1.82146763967947822316e-001, -2.55969802336839136192e-001, -2.09392036969771405674e-001, -3.79477841623008127492e-001, 1.94671626995005175864e-001, 4.44398956317256732529e-001, 2.39824994488923554092e-001, -4.17984534559699000278e-002, 2.04663821802563150598e-001, -1.30844206994292999724e-001, -8.33080926288938816704e-002, -5.52567998651068842397e-002, -1.91319521684676197015e-001, -2.13017708125080897086e-002, -5.71018385681577103630e-002, 8.66572169006091935772e-002, -7.24494480418086839180e-001, -6.74732571909002709631e-001, -4.17193612399767210785e-001, -8.59604145226785243405e-002, -2.56853736958432277149e-001, -1.96913775605683481762e-002, -3.99909005035464448774e-001, -4.35313719324726511317e-001, -3.79363316907696312974e-001, -3.44419401617605369648e-001, -4.53854635543383067020e-001, -3.42146633208106232260e-001, -2.29065022991209454872e-002, -1.39958939545235944157e-001, 2.34281119832014966820e-001, -4.68539752544955945268e-001, -3.61153346549712039870e-001, 3.24277629250643364966e-002, -3.40793205356305084486e-001, -5.13994095921508464819e-001, -1.17635215443995133633e-001, -4.78539440088186253386e-003, 1.59921823807902485637e-001, 3.10254381853728000706e-001, -4.89405827935384452054e-001, -2.94574457348964591219e-001, -2.27943762849226488898e-001, -5.19973357125671498125e-001, -8.61135138772194629053e-003, -2.60606574558405912345e-001, 9.32769113205499794672e-003, 2.58861694336549763573e-001, 8.21365066230222845567e-002, -5.27835771942239517784e-001, -6.60829316775819131102e-001, -5.60550740241766876082e-001, 4.04469443540422968209e-001, 4.23009394419149697963e-001, -1.17827938854810215785e-001, 1.38542204760603665514e-001, 3.34592731398538567600e-001, 3.04183452125154518697e-001, -1.06868463687178158472e-001, -3.57993665616778838912e-002, -1.85409037259650286145e-002, 5.28191461401761458427e-002, 3.20314888784026585711e-001, 3.53835701066200436493e-001, 3.23235877253523595787e-001, 2.36097776654701302368e-001, 1.69459079935096873504e-001, -2.48934465854968395293e-001, -6.00553386642425912623e-002, 8.99349090579913412746e-002, -1.73380901917341484486e-001, -8.62216528637369666876e-002, -4.39016925477302755176e-001, -3.27435059868356956314e-002, -2.30227321624882935724e-001, -1.72999212818420011750e-001, 3.03684242401523307731e-001, -1.76330808206918605852e-002, 3.12676704812086328489e-002, -2.98904833682417159224e-001, 1.94009247792449081305e-003, -6.44244035501978645764e-002, 6.65018495246693930323e-002, 1.13950683513744779884e-001, 1.38433930730437193546e-001, 1.35642345612936227051e-001, -1.02751762868441898213e-001, -1.80110948576506613161e-001, -6.03049063488237169217e-001, -5.20748438048245443355e-001, 1.74757550005135264826e-001, -2.07399484173501930107e-001, -3.73272465155907659518e-002, -1.37016883172800085777e-001, 6.75696998848859808895e-002, 1.65957111614917995901e-001, 3.59715926812567310389e-001, 1.67539137255296038953e-001, -9.39603971313989344560e-002, -1.80828295088899665410e-001, 3.31205446835220462809e-001, 1.22093037178320165670e-001, 2.11428204061118035773e-001, -9.50170706773250245414e-002, -9.35273338625580846761e-002, -2.12694837039900580544e-001, -1.68800922928196206474e-001, -4.01397157041279095679e-001, -1.57885106171542083375e-001, -1.63330663953941607192e-001, 8.71505263564984200553e-002, 1.35863861757048842716e-001, 7.48985284127231254470e-002, 1.63262658506089952670e-001, -6.38093042042730540508e-002, -1.37946278445707504190e-002, -8.79193519764195352550e-002, 2.56111298459890113222e-002, -2.22966082702892977666e-003, 3.19327658800329927669e-001, 1.25551773489229384628e-001, 1.36878673146055479526e-001, 8.56998870074445612266e-003, 1.62994781811882427647e-001, -1.85228618010610468492e-001, -3.97942094925087586077e-001, -4.56767723527589208921e-001, 2.26262289947881278795e-001, -1.46898988512496192493e-001, 4.02825011112834183158e-002, 2.92612080579315814166e-001, 3.89337307499596996241e-001, 4.11807052220540259491e-001, -3.56284936381652261872e-001, -3.89514378861898213913e-001, -8.94350392512134328982e-001, 3.06559323193730859369e-001, 2.84335844923512659488e-001, 2.17812158500731878341e-001, 4.73112815225512295392e-001, 5.14703426441044720185e-001, 1.64721081937382884952e-001, 9.52137449169811016236e-003, -1.14358212053851646117e-001, -1.68436480678532118915e-001, 4.19477036006420722636e-001, 2.37187544528612737071e-001, 3.56845672869042007669e-001, 2.72151347648749042385e-001, 1.96480475316026054200e-001, 3.27334137801312152760e-001, -2.37594913595742446288e-001, -5.99789983274032989513e-001, -2.60546740710932200891e-001, 8.07261472429216669910e-002, 3.46525822531887628397e-002, 3.14396511116686427911e-001, 1.71856500871003153863e-001, 3.43145159479438910388e-001, 2.22995335324412458089e-001, -4.27288054803048988894e-001, -6.89200428958250510547e-001, -2.49477953050172174265e-001, 3.01951910845097593050e-001, 3.17671808252512732906e-001, 2.01912956624503869829e-001, -9.67923645175443325694e-002, 1.61431249136591126181e-001, -1.14942630389245181721e-001, -2.10971823102021671659e-001, -4.58058800353952355611e-001, -2.29524215397316766474e-002, -2.40048492086770454135e-001, 1.53690055036213635287e-001, 2.52569865908468915716e-001, -4.06981133613042667108e-001, -1.79621756927733091345e-003, -8.21418354941941819547e-002, 3.79922877947411086197e-001, 3.58634460485406592056e-001, -6.76774828092265856583e-002, 1.55248320242953707915e-001, -1.47171346072141571992e-002, -1.01108788774835964275e-001, 2.79002746695975967217e-001, 1.46610223303616449275e-001, -1.64416280619742796731e-002, 2.41056726904663926048e-001, 1.54104386734613435506e-001, 7.21967543692808438882e-002, 9.38376906660128434767e-002, 1.49059428556063799931e-001, 1.27451920041213376256e-002, 4.62229972411003053878e-001, 1.69373489411665328896e-001, 1.78526654495469644379e-001, -1.07515222460946302530e-001, -3.02944497243059773783e-001, 1.70690686520487439060e-001, 2.45915737993330857369e-001, 2.00373385491273037218e-001, 2.82960746262960916031e-001, 1.70057160026991616153e-001, 4.76732481807295369047e-002, -1.71475923893715881396e-001, -4.34554904743803371847e-001, -6.54211061551871586595e-001, -4.63393382844725698622e-001, 2.19071967696389396929e-001, -1.20975879676600665824e-002, 2.59596936102462816365e-001, 3.26174935643252839057e-001, 7.81638265580538033062e-002, -2.51799492579383756008e-002, -3.58100346158605087332e-001, -6.65893121649384300831e-001, -6.52681300542742759419e-001, 3.82061494007537472140e-001, -1.62458538947190700430e-001, 2.00076636209014807610e-001, 5.59916006191937376535e-001, 1.14612806325052343781e-001, 1.67579241054442579228e-001, -2.49676187473869548583e-001, -5.00964152877424129251e-001, -3.46768266473974240416e-001, 8.43610087199424679705e-002, 1.29469253195141020818e-001, -1.50510907812853395038e-001, 2.22858221866034905689e-001, 1.13368250244214111011e-001, -9.86107670949227244073e-002, 9.82069555502354668564e-002, -8.41018831588012660827e-002, -4.93716116317749309506e-001, -1.27774893571942521620e-001, 2.01956475639541804812e-001, 2.87176827879283058653e-001, 9.38412707915740745834e-002, -1.64469841088608625945e-002, 4.36703903469884621713e-002, -2.05315457485989533160e-001, 6.16579201038422522463e-002, 1.20354558394037858271e-001, 1.59215204095909917958e-001, 3.13133813854134079868e-001, -3.81224172549152265366e-002, 1.28320683815994124322e-001, -2.60401733167939207492e-002, 3.31371663850232422988e-001, 4.46287376891872478168e-001, 2.20837597390569184697e-001, 3.76803300027762355651e-002, 3.45505080334289282895e-001, 2.40092434630191725597e-001, -3.30273460415958022840e-002, 4.06205989998232250282e-002, -1.73011184229868691942e-001, 5.89666376740415748570e-003, -9.96170652612633489298e-002, -5.32485943007182882525e-001, 2.35327148409373090865e-002, 3.00552780107144035249e-001, 7.66909486483900559861e-001, 4.93359490453566085222e-001, 2.93035468827272216341e-001, 1.04564081759941585048e-001, 2.35362886362754958336e-001, 1.10076873789826348848e-001, -1.36088193390576123187e-001, -1.05252248653388294497e-001, 2.53926509257291932453e-001, 5.54895796877641622746e-002, 5.51479384303490971497e-001, 2.93687214733236390263e-001, -5.98176566611271220975e-002, 1.22087066667745408610e-001, -9.28197810126107775153e-002, 3.19736740090534668490e-002, -2.49837070887351186954e-001, 1.28986843835433573346e-001, 3.04100045941884222778e-001, -1.49219215913421798803e-001, -1.18167100480737530255e-001, -1.04688616356828329002e-001, -1.92137354766969803421e-001, -4.43788320007637404618e-001, -1.72692157114387234706e-001, -2.94617579009742031060e-002, 7.87243010525844610914e-002, -1.60151753352744431746e-002, 1.59152362699323257633e-001, 4.28333288221807606533e-001, 3.57055398723725714305e-001, 3.46649576221180200086e-001, 1.97338413236462284495e-001, 1.09772317459504040182e-001, -4.78923963657898299484e-001, 1.22031572977049820872e-001, 2.84696025691406562341e-001, 2.43313424197562133688e-001, 1.58439844273587288059e-001, 2.52547409013733292760e-001, 6.00284124329547377763e-002, 9.14206359868716816885e-002, -1.67739126348951141099e-002, -2.38483428154936782928e-001, 2.29605312102057618207e-001, 8.61870939606348002160e-002, 2.22616992448913808555e-001, -4.67701164152440340693e-002, 2.99920312541854028332e-001, -2.44001770053793365367e-001, 9.39368175948013528487e-002, 2.11648473412217208445e-001, -9.08296596648100057481e-002, 1.78533925223586686926e-001, 2.60599929635335181288e-001, 5.73656993681425711462e-002, -1.00880823474283828900e-001, -4.14149842319873784380e-001, -2.88795510997768012373e-001, -1.45656130177173659401e-001, -4.19294326502160988324e-002, 1.83861605774633563026e-001, 1.62487574223550007568e-002, 1.78983852012065652870e-001, 9.24182360989065226908e-002, 6.26005958640585627450e-003, -6.61124885012985413768e-002, -2.13011438743941156071e-001, 1.84362626564207043867e-001, 8.77118376461223786533e-002, 3.11647614431089410580e-002, -3.04109897437566424616e-004, -6.12213342072513988512e-002, -1.54048394811118732894e-001, -2.32486085995441765784e-001, -3.59069478329951619067e-001, 2.18435396871731225821e-002, 3.59536713611337765961e-001, 1.33006156406812625637e-001, -8.86354602096353638707e-002, 8.87620424902185595206e-002, 1.78995166019739471164e-001, 9.04630811803507489666e-002, 3.50864975745101637453e-003, -5.33945106185738871396e-001, -1.19213236802561350913e-001, 3.22413480035045829641e-001, -8.74376235498594694961e-002, 3.16817772093102967279e-001, 2.29611737283976879986e-001, 2.61673360740545812853e-001, 3.17240281670621682153e-001, -2.60232521725856813521e-001, -3.45549454644854259211e-001, -4.30013255500667435083e-001, 6.75532498456101970774e-001, 5.50962634212998514371e-001, -3.02405268605341503996e-001, 1.39325432505750912426e-001, 1.50308472745362436962e-001, 6.12932744398326095903e-002, -1.64676900797607300708e-001, 1.87769078987016002635e-001, 3.06273311832546857314e-001, 1.39624193106199695480e-001, 1.62028170241763275206e-001, -1.89259045270104148129e-001, -4.71359406829186255994e-002, 2.54580529236247410374e-001, 1.05564609861883568209e-001, 5.23193644700733137554e-002, -3.82381127114735236416e-002, 1.95680395512632110400e-001, -1.93080220033438942906e-001, -1.84002770361098938467e-001, -3.22607972778150675630e-001, 9.62074688557913206000e-003, 2.87052848624461572069e-002, 2.94713380209066733162e-001, -2.46337357130356787716e-001, -3.90899551547296775222e-001, -3.65677909171338799688e-001, -1.92486186750265408918e-001, -1.90518232038368928727e-001, -1.59649259717063174424e-001, 3.96721595548173211476e-001, 4.69073238190048813490e-001, 3.59481091662501528461e-001, -5.50826355596884420507e-001, -2.10837235940791983824e-001, -1.07524429371409296907e-001, -2.30120648885759754299e-001, -2.67810385232498560093e-001, -8.28921023125702427503e-002, 4.52130223767313821348e-001, 3.79967706813977401659e-001, 4.10304353146542677422e-001, -2.15431764901680533608e-001, -1.62237197437552410628e-001, -2.79862620091856528770e-001, -1.74995654869857242275e-001, -1.08895055021185571675e-001, -3.91113990399575700563e-002, 2.83252437848256377606e-001, 3.28015504182699924041e-001, 2.55603760826797032912e-001, -4.53496541939415742650e-001, -2.99234735409189267497e-001, -3.57673364137514215866e-001, 2.13216933563060262458e-001, 5.75989012318477849872e-002, -2.15880174926200069097e-001, 2.17018129392459929727e-001, 1.73277282634775681158e-001, 2.64741021383336549988e-001, -2.76112287799856970238e-001, -3.38671951299652218559e-001, -2.90992385771900063940e-001, 2.78054349204877204738e-001, 2.15796751380295026568e-001, 2.25088257661368112972e-001, 2.13255623417445860923e-001, 1.62003467184497429443e-001, 2.21640991927520403237e-001, -4.12881576642502579055e-001, -1.76618334932812891258e-002, -1.42734274250205961376e-001, 1.25906161041506481357e-001, 2.02257039656069045885e-002, -3.71478932337038214584e-002, 1.50763121294401225558e-001, 1.03312158337126813734e-001, 2.33920130985686924863e-001, 7.71163776080221186060e-002, -1.87705404829372313191e-001, -1.71416379008492963942e-001, 1.28953031828955039240e-001, -2.62858933170453806794e-002, -3.95210330532765122258e-002, 6.50242686394935237582e-002, 1.26507736949786259162e-001, 1.33094075106316045431e-001, -1.83285488737908758283e-001, -2.13142822149473498694e-001, -3.31972041455634914175e-001, -1.83818836109276934065e-001, -9.73976361203424401136e-002, -1.15608210478390510678e-001, 1.40369065910482038184e-001, 2.39895624916115463021e-001, 3.16854287370655685052e-001, -3.89550806106612301782e-001, -1.49105165595908417675e-001, -7.73139228524867133663e-002, 2.66020479312715829590e-001, 8.59076540442170605294e-002, -2.10935126989264254416e-001, 1.51363495300495365381e-001, 4.81499606795509765833e-002, 1.81620313046784109812e-001, -2.68452666612788382050e-001, -1.35502853003956119649e-001, -2.57689989514728212683e-001, 1.21507874203881968689e-001, -7.10343613250981331664e-002, -6.07693780911817485468e-002, 3.20688819871625466207e-002, 2.69640628054234943178e-001, 5.34015068851513494130e-002, -9.17607691257692897890e-002, -1.24420204492453178452e-002, -2.10966400728049452429e-001, -1.16757377695104067050e-001, 4.07881301785885802547e-002, 8.28704222582647559436e-002, 3.00062532433457263004e-001, 4.24166905079053302430e-001, 2.60730153225055272248e-001, -1.47998291304864360018e-001, -2.72201857221199494674e-001, -2.12206310304180190140e-001, -9.15628407015141865255e-002, -3.46941043116456154793e-002, -1.10000232109035672723e-001, 3.11501047944577502680e-001, 2.44839374610333226912e-001, 3.29053151649214836727e-001, -2.78179804834412347514e-001, -7.10371405838551989165e-002, -1.01456752903817698508e-001, -8.27635604119220519292e-002, -1.27301793150740166771e-001, -2.34833232558955717906e-001, 3.54555795652910621385e-001, 1.08723234482598199446e-001, 1.34992475246825255342e-001, 2.87809683146407445375e-002, -5.99941732269071437145e-002, -1.70646055016949571570e-001, -7.58208862566075308953e-002, -1.05484912612306358515e-001, -1.78737677016513163419e-001, 2.90313748423921325070e-001, 7.68070127995337248450e-002, 1.98428294347854361490e-001, -1.06710248995939116501e-001, -1.02125137202804749936e-001, -2.31722865338734207441e-001, 2.18501942616981414957e-001, 2.19722474509295821743e-002, 1.36923061457527611706e-001, 2.81072556046688820652e-002, 2.09431097453385457741e-002, 1.34412309290349696322e-001, -1.50560246999839525417e-001, -3.97057389006162039791e-002, -1.12096610457120632320e-001, 2.00469033284673796291e-003, 5.48772908214983645703e-002, 7.84368559428364198194e-002, 2.49292155993823871807e-001, 1.71517604952441060640e-001, 1.58677830669098851590e-001, -1.03049627133721483085e-001, -1.86874831948882075272e-002, -1.10028469631256814454e-001, -3.58846644478253914978e-002, 2.37590771433434932991e-002, 4.35412878454443028065e-002, 7.05473510612403820197e-002, 1.58646000529301500759e-001, 1.99149001451590479395e-001, -3.15372993977373006214e-001, -1.84680066053883845667e-001, -2.19125811806376469271e-001, 2.30891870193151937940e-001, 2.55519565480070764973e-001, 1.56535827177099740037e-001, -6.00281563494454162289e-002, 3.02482040730480544743e-002, 5.20291841592518053417e-002, -1.14079274813091602336e-001, 1.77667695753363401659e-004, -1.33741450339585815632e-001, 1.91915030642304501596e-001, 3.33536462073218964441e-001, 2.26751192980052751480e-001, -1.45054724441403444513e-002, 3.99263375801176267910e-002, 1.48624372876599908366e-001, -4.82062360771332576448e-002, -9.02634129403993429319e-002, -6.28571429414972460137e-002, 2.61422161104553574251e-001, 3.06508415751951424078e-001, 2.78256339638260241642e-001, 1.39912126574635947707e-001, 4.76843233955614592690e-002, 1.67201877771810364370e-001, -2.17684736618225349591e-001, -3.21483422816066441441e-002, -1.07642449749121196789e-001, 2.11087160670088112846e-002, -8.57159315314379027795e-002, -8.28032427940948445588e-002, 2.33540406055536248209e-001, 1.79417517682991134453e-001, 3.10187629011931143008e-001, -3.65290448204386275499e-001, -2.78407679207603286908e-001, 1.91218726482879457229e-002, 7.81259574634945580529e-002, -9.10457691726770240725e-002, -2.01088220992468535986e-001, 2.34739698473556357428e-001, -1.46564599732057210257e-002, 3.71142678340828993666e-002, -3.33403679214041737122e-001, -2.30501667624774336796e-001, -2.79351750167128820568e-001, 1.88297739497109234419e-001, -3.03281438282834270304e-001, -1.95975717012485013691e-002, 3.55506514404730467049e-001, 2.93574998294139299926e-001, 1.83163062897473333246e-001, -4.53962534275079432344e-001, -2.37167564449819096017e-001, -4.75111217490623349846e-001, 2.79959934306258095837e-001, 2.84052977424126384953e-001, 7.17394830748708106638e-002, 6.90384265769834609694e-002, 7.98982995504210202764e-002, 2.00423695506565496816e-001, -2.72807901624356141657e-001, -2.73474728124689370201e-001, -3.02699061868094421168e-001, -6.29339213035147587716e-002, 1.87544092186975264180e-001, 8.90056106761052609477e-003, 2.01080310439690157498e-001, 2.83986239567345588597e-001, 3.19934152901180657302e-002, -3.52204789064311685198e-001, -2.68668701775128138109e-001, -1.24630446364602173737e-001, 3.57975539800339026542e-001, 1.56693724802771439109e-001, 1.65607062336825157367e-002, 2.65035786339683832047e-001, 8.31889759777714871136e-002, 6.81337132769206793581e-002, -1.65654773550705902707e-001, -3.29687042093161131184e-001, -1.73388772326543511015e-001, 2.61430311415399074804e-001, -1.20129218503757351222e-001, 3.63364167039239627233e-001, 2.58769627987307293537e-001, 2.69627416465612002039e-001, 4.50842040438222957377e-001, -2.39860334190216961670e-001, -4.40243957199774715860e-001, -3.05184105723132370613e-001, 1.43226625522787365252e-001, 1.87926642813435018642e-001, -1.15446558284730188548e-001, 1.78838180654719458573e-001, 3.05647487659981453856e-001, 4.08687439681591657692e-001, -5.34735500993685941573e-001, -4.16429803598112213692e-001, -2.73861083082019285406e-001, 1.33076794350756560936e-001, 5.16786473338259610966e-002, 9.90766040873639480813e-002, 3.04110467572923759416e-001, 1.82614819798539385065e-001, 6.60085356790258009907e-002, -5.48384567767145281181e-001, -2.86087517556426862431e-001, -3.54163770924281029462e-001, -1.34897938957766666546e-001, 1.99302498243791509358e-001, 1.60041344467849400157e-001, 2.56557438250077651798e-001, 1.64928352596701660593e-001, 3.62992007999754173753e-001, 1.47858881021009358481e-001, -1.09114453567863159411e-001, 4.71634170583954404066e-002, 2.01320048968387926847e-001, 1.64539488548364171150e-001, -5.49635154286598065498e-002, 3.63627332000363082121e-002, 2.60483759818558091581e-001, 2.71687490976262435716e-001, -7.51951024663660150260e-002, -6.34502459445037692021e-002, -2.80231635131829359686e-001, 1.27690136624751204852e-001, 1.10518834549178254778e-001, 2.28100116986574341649e-001, 1.70622163303080665031e-001, 3.64871191681762185866e-001, 2.87435302502630274368e-001, -4.13801311371158220265e-001, -3.05427819368387087895e-001, -3.24787578203500681973e-001, 3.30812968933673678951e-001, 2.89926229255531520135e-001, 2.65136983476145116079e-001, 2.13668268319035625780e-001, 3.29740420181633075991e-001, 2.40664164430400756567e-001, -2.42751868389289443551e-001, -5.28119409884909685182e-001, -4.19851081462995268101e-001, 1.42376074446804223861e-001, 2.37590882593355479102e-001, 2.16411172172824350923e-001, 2.79503031133864598967e-001, 1.85533010378154283870e-001, 2.69507786947919658616e-001, -3.61951981059452865264e-001, -3.01858874278730426877e-001, -3.06255076884968002737e-001, 2.32169393816239771899e-001, 2.48830442390166911570e-001, 3.96176287401175053482e-001, -4.47926416305228919379e-002, 1.36442529208877533220e-001, 4.69697138604265596040e-002, -4.82722078236985596700e-001, -3.20708034961756149883e-001, -2.23836105079322528200e-001, 3.40101155189951875890e-001, 7.08445545157494749322e-002, 1.60682745851172897877e-001, -8.03071966352178895354e-002, -3.59088152184005790502e-002, 1.49584380439824943254e-001, -4.12501844575412834892e-001, -4.08134411741030933563e-001, -3.66294493311173474659e-001, 5.72240274199099507868e-001, 2.29250157973750340323e-001, 3.47735247701669802911e-001, 9.97174589691008084191e-002, 1.04436470251948049226e-001, 9.48299473612763677011e-002, -3.40297179004439065420e-001, -5.53528443726963081950e-001, -5.47332530270901562730e-001, 4.16739707768247591435e-001, 3.66082725830665811628e-001, 1.38420162395683055134e-001, 3.18794712814299205372e-002, 2.14209727880065002592e-002, 4.09502440610413284694e-002, -9.08190446018807412409e-002, -2.71353238322579237707e-001, -3.62296629981075368754e-001, 2.10459119369280217571e-001, -5.57743151857289232165e-002, -1.24252934662928502668e-002, 6.73531998096896754313e-003, -1.53010377774521283412e-001, -5.92608732037551572125e-002, -2.73345303040863130128e-001, -1.48706137359153167665e-001, -2.49470431750472648735e-001, 1.87630395597100846361e-001, 2.64915982476127909173e-001, 2.13883330974082741527e-001, 4.90667686786173534719e-002, 9.78777076452407579499e-002, -2.13802805152038505332e-001, -4.88793013978181950518e-002, -1.43309337024260683921e-003, 1.13348748496572171440e-001, 1.29820098019967217207e-001, 2.70165610438968806228e-001, 1.64111728679477431037e-001, -3.17316916501012347140e-001, -1.41156837560643649843e-001, -1.73271532332377159458e-001, 2.85573017050275657081e-001, 7.77003525231600572498e-002, 1.09632627216891903599e-001, 1.95341026249945176607e-001, 1.71575920927155955997e-001, 2.69453998121302829016e-001, -3.12185827261624249118e-001, -1.52829323604569689010e-001, -3.48210734380162478807e-001, 8.27148499854354068983e-002, 8.77481271600673989886e-002, 1.81486081341900751251e-001, 2.41818542323672641681e-001, 2.88197147475077408707e-001, 2.73192442424857406813e-001, -2.41745812104681379040e-001, -1.72321552876046557579e-001, -2.42446765439203654191e-001, 2.68693059570273354297e-002, 8.65470016106272416190e-002, 1.09956432810280876899e-001, -7.00452339609325541625e-002, -1.94120594911532301508e-001, 1.30318784329249565124e-001, -1.31907776812297816704e-001, -1.82641717203416292792e-001, -1.40840561792061419455e-001, -1.10029727975435531739e-001, 6.40413809829560726206e-002, 4.22249835787567792678e-002, -6.67502122122239083257e-002, -3.04324627151371374101e-001, -1.36998235191969353064e-001, -2.24748003167272919489e-001, -3.71769149357113970478e-001, -2.83122108624613455508e-001, 3.01368560803955930216e-002, 4.10353785865391409993e-002, -5.52347809033124012568e-002, 2.17021029436386160560e-002, -2.06033137543856770257e-001, -1.92675827581454406356e-002, -2.80930197838796191778e-001, -6.36105983594194429598e-002, -1.49797004477982359516e-001, -1.73927321784575067420e-001, -3.16583360847905725954e-002, 1.06055255796855971151e-001, -4.62961791781671336277e-002, 9.10538226820304663622e-002, 1.50562087845444642076e-001, -5.51018041278598172394e-002, -2.50988296587133064008e-001, -2.49664311032580465977e-001, 5.44930137777728321180e-002, -7.70261617266289767142e-003, 1.24037934429054474972e-001, 4.03274504774826902942e-001, 2.01198157400620331048e-001, 1.38758699108962602065e-001, -1.70054655698723466983e-001, -2.17648839329510318530e-001, -1.98772681460056110936e-001, 2.87802203915568828585e-002, -1.52541035512856693046e-001, -8.60041527015356216390e-002, 3.30971598788187063023e-002, 2.67267916868232360481e-003, 5.68223163963788285152e-003, -2.13924428217240530925e-001, -2.58493232141882245401e-001, -3.37261821020783725267e-001, 7.05577311316040595157e-002, -1.26730079977457554818e-001, -3.38579080329167109512e-003, -6.03396443999349649245e-002, 2.02616430303392797141e-001, 2.56313611884729286583e-001, -1.03828553498507600295e-001, -1.97342392097241664528e-001, -2.31986506788789736966e-001, -2.15818281041441545343e-001, -2.19130968412918708532e-001, 3.39441475390395291933e-002, 4.93344584231611149594e-002, 2.31927948100760145111e-001, 2.58584500590212651439e-002, -1.63547487929753709857e-001, -1.95483995276550220899e-001, -3.26988784559797796003e-001, -1.07018317627932374458e-001, -6.94139806720883711932e-002, -2.02155721276813499232e-001, 4.78782832827309087764e-002, 1.52336946032624931391e-001, -5.01738463038755369561e-002, -3.29252952294030731828e-001, -2.13672053298320507864e-001, -1.92305285761708133485e-001, -2.88944076514366154917e-001, -1.84964384807255188825e-001, -1.58234645210101554369e-001, 1.19982069250204576027e-001, 1.62233240342110174304e-001, 1.99937587885409079336e-001, -1.87687475128750336228e-001, -2.42723855610344763090e-001, -4.72857967718046390271e-001, -1.26618211199580332771e-001, -2.97518734780166160814e-001, -1.13963557553773853215e-001, -3.60342284153711764350e-002, 1.16476999484489779357e-001, 1.71402141075066488662e-001, -4.25552104289554922190e-001, -1.88141521749854573331e-001, -3.81610363054818824136e-001, -9.29655163340500773073e-002, -2.05827059852164068188e-001, -1.63898848767028038065e-001, 2.83240165336074017910e-002, 7.33399466129241173196e-002, 2.44090123896659877412e-002, -3.51540122947492442163e-002, -2.14688505660872441805e-001, -1.09850600587610161551e-001, -2.94827248591508106479e-001, -1.49125132711461522161e-001, -2.66060626280943512967e-001, 8.10216966433883328813e-003, 1.67760103681761335581e-001, 3.92068346343015516897e-002, -1.90650473958696692334e-001, -2.26103112789580507069e-001, -2.70760706701683395714e-001, -1.58350052954476766542e-001, -2.23458290414217969344e-001, 2.91788573919103157162e-002, 1.19531120680054711580e-001, 8.61457816540668608329e-003, 6.28814206957210991566e-002, -2.03370250489888881873e-001, -2.65806165502143365575e-001, -3.76718440037232482620e-001, -8.21794842627360938581e-002, -3.75888251746939183739e-002, -1.33245443791225576247e-001, -1.04028304767237636530e-001, 3.17778923047023695303e-002, -3.48407859686940477029e-002, -1.75301116225808711890e-001, -6.58256011540278157534e-002, -6.43624661180349361134e-002, -1.83147840079598306362e-001, -1.54180257595888138555e-002, -1.65282711453915598376e-001, 1.40874331862944041083e-001, -5.11916217061005665578e-002, -1.17829694583431579535e-001, -2.05361914693693276002e-001, -8.74831826625864089619e-002, -2.39557647184209215885e-001, -1.08306272825801786636e-002, -1.55346180206921737066e-002, -9.35920120868863475438e-002, -1.18734812442166763613e-002, 1.38471918290438478216e-001, -1.27207946152194550926e-001, -2.55196201562128910378e-001, -1.20783364642445545378e-001, -1.11321336307797724707e-001, -1.21121585906174930591e-001, -1.40922670855162884829e-001, 1.42598737359183446588e-002, 1.08996263634638379525e-001, 2.71456256834880282902e-001, 2.39152484218326799592e-001, -3.04143252061073343651e-001, -2.88460161541094328719e-001, -2.85625194805618098925e-001, -1.16114819971674526622e-001, -1.40743750426472052917e-001, -1.20529186106450525440e-001, 1.98410350374349869762e-001, 3.92221962761508738393e-002, 1.18747678656975441669e-001, -1.87254690182505262319e-001, -1.96502425279902359634e-001, -2.52048419078319922704e-002, -8.92372298619704129585e-002, -1.10763545516318936968e-001, -1.68546834929323291474e-002, 9.35871990173093581955e-002, 2.39637023360805806460e-001, 1.06147810918506713823e-002, -3.69239485839059300432e-001, -2.36004234797343864782e-001, -2.75641963504513365368e-001, -1.36412542805910613763e-001, -2.11498261314322540116e-002, -1.38642117230247191584e-001, -5.09121523493489686052e-002, -8.92779127818422307827e-002, 6.44225977690727064084e-002, -2.91689371661646934530e-001, -2.50048400033414108812e-001, -1.55796442376774285643e-001, -3.70581484689064266647e-002, -3.75741775317781903296e-003, 3.54468249556109255005e-002, 1.81635214644004922002e-001, 2.04069702357510540658e-002, -1.05372512939668622201e-001, -3.01564959111112695922e-001, -3.86680485165223741806e-001, -9.76244255189710058440e-002, -4.57777771442351502640e-002, -1.02467859538129243968e-001, -1.16489283985553471190e-001, -1.60415548978628363930e-001, -9.55798429560739681854e-002, 7.65427485261843676412e-002, -1.82794317335578104800e-001, -1.17097093771330706957e-001, -7.04338784202881706964e-002, -2.96110976901137711026e-002, -1.34451489517746242131e-001, -2.85219986939399443651e-003, 5.11572037816689431655e-002, 1.14497718109454721391e-001, -9.45538705477768637309e-002, -3.38363998332254334311e-001, -3.44275371797191476197e-001, -3.49936319611375057370e-001, -1.27934096443478501071e-001, -1.70072654707508819083e-001, -6.92996558350196800724e-002, -2.62682010859866324481e-002, 3.43882500628711479385e-002, -5.95221861141853880728e-002, -2.83325864487216083631e-001, -2.68625295498067573341e-001, -3.83740103924592734774e-001, 1.38180291655751019686e-001, 7.03345114329915754858e-002, -6.73814001245523763739e-002, -4.53834963176229719273e-002, 9.21364364575013722325e-002, 1.80588699127449736626e-001, -3.28134078674050366775e-001, -2.02369914134291783991e-001, -5.93926750462332661562e-002, -1.38090671655379720884e-001, -8.94854964722832484092e-003, -7.20329799879643878358e-002, -1.13042392629474089394e-001, -3.11166092220940340707e-002, 1.74398203804811330331e-001, -1.05663959912937130414e-001, -1.86427679254319106361e-001, -1.01077743922299109758e-001, -2.92189786925601824308e-001, -8.18876569869298048809e-002, -1.12518554570319687103e-001, -6.25132219140554085124e-002, -2.76436864325839137813e-001, 7.54539243162219430694e-003, -2.61507736440108225218e-002, -9.70912819243531788338e-002, -7.86004476614686892200e-002, -1.50047956314266844879e-001, -2.88821595731525826434e-001, -2.40294656224152469726e-001, -1.02758111224323933630e-002, -4.13360184984577702649e-002, 1.90380242907049135326e-001, -1.43808588455644592585e-001, -1.38567805307253405500e-001, -8.09140681839918968210e-002, -8.86741864277024866015e-002, -1.82189054372424913408e-001, 6.85720173987903504342e-003, -2.63584408766931566070e-001, -1.74916879960213378364e-001, -1.60279337308688762942e-001, -1.54482392840489979324e-001, -8.77942248032544669822e-002, -2.34920955755327121039e-001, 8.07539812504795839754e-002, 1.29476426988199222468e-001, 2.18321453394620584865e-001, 1.78782391148924746371e-002, -1.09471028767160871026e-002, -6.05427301233721210094e-002, -9.34316011402189783297e-002, -6.79402715788260946894e-002, -9.94723008976517580892e-002, 8.06861620018383685071e-002, -1.06886640173867331766e-002, 1.23382875442135553357e-001, -2.15104871112436653313e-002, -6.16213647601525291164e-002, -1.19712526284064590953e-001, -4.19999160198696805391e-002, -7.96661179688775041019e-003, 1.17056682607887346803e-001, 1.47392914655353562958e-001, 1.04037884634458795141e-002, 2.23592487936130068782e-002, -1.17122652154309767059e-001, -3.00538143259130169360e-002, -1.15132370190637656204e-001, -2.00911048199434949524e-001, -1.48270201768321757685e-001, -9.01310106094138641097e-002, -2.24630544754165634158e-002, 1.20138907044280221492e-001, 4.40804911658384812601e-002, -3.04900057954017034145e-001, -2.21598586483633369637e-001, 6.33773617631517571791e-002, -1.80892831384040275733e-001, -4.61663577055656595971e-002, -6.59293812575810628251e-002, 8.23903748811556091436e-002, 2.27591608086719188186e-001, 1.64064158540292465149e-001, -1.89267716542323022333e-001, -2.74321510141991353748e-001, 6.10493229912443119423e-002, -1.61810851096074265199e-001, -7.93398811380838092644e-002, -1.36893473671691384697e-001, 5.65761804127287715183e-003, -6.81035862094329785821e-002, -3.13634469269468141306e-001, -5.94344334508299584896e-002, -2.86518724727927498463e-001, 4.51170406100397970717e-003, 1.50371331627816434695e-001, -6.94178568021532743648e-002, -5.27700342911226541465e-002, 1.27627050680990949960e-002, 5.21864465202826702944e-003, -1.03011969185384397174e-001, 1.29234734843475723709e-001, 3.00980444454962525747e-001, 2.82810578706898352319e-001, 2.58987843600527734012e-001, 2.16566662136265908334e-001, 3.01911454047410154899e-001, 2.04949395443155157892e-001, 3.01059090777526017213e-001, 1.75596975036828001349e-001, 2.58948181378419295395e-001, 2.39307549623090254354e-001, 2.97671454566401760822e-001, 3.46073855606169253352e-002, 1.80861968489119985526e-002, -1.88895786777580287907e-001, 8.61953608759577077914e-002, 2.00274967278110421764e-001, 3.31792994209408886874e-002, 6.60868885931147204138e-002, 2.38507232962492515815e-001, -1.95183160181772799580e-002, -1.61539938991632936460e-001, 2.23404916902083305885e-001, -3.90137502721929416150e-002, 2.76194307899216631719e-002, -1.35286428350716358970e-001, -1.82603376097499853215e-001, 1.80616573129794094621e-001, -6.58925508225576272991e-002, -9.59363671906831028124e-002, 1.28248184050693575520e-001, 1.17660108970570720377e-001, 1.25575843242085982698e-001, 2.55988157934238902413e-001, 1.85390705011258455359e-001, 2.13437812092747758452e-001, -1.01874876035977557365e-001, 4.71987509657492004811e-003, 2.01612742972889946724e-001, -1.63540242322985120149e-002, 1.49358755141544785605e-001, 1.19487275477977883398e-001, 1.01005558389157590327e-001, 2.02705753223007600905e-001, 1.84252263734567163500e-002, -1.27409371392213782714e-001, -7.17587348900352306469e-002, -2.20085568254279356770e-001, 2.86507461305336164070e-001, 1.84001975400151729367e-001, -7.76694459694431214164e-003, 2.08000312278585924863e-001, -5.92396944667876942936e-002, -1.47706711102808391223e-001, 9.06082081877981893037e-002, 2.25734962053029036833e-001, 2.26704321957002241650e-001, 2.43271705598713361418e-001, 3.42347682667754338315e-001, 1.49347032194108636505e-001, -2.11413403475119721087e-002, -1.88132306932281903600e-002, 1.37601718289811519869e-001, -6.90163905752328166177e-002, 1.32075930776136163391e-001, 1.11637823876765157616e-001, 3.23813219121161177672e-001, 1.37447994519093452670e-001, 1.30014698995603417142e-001, 1.26936476278123960837e-001, -7.65864438691878507415e-002, 1.42384540605292986282e-001, 1.59309097534003352159e-001, 9.00198278433669146770e-002, -8.49700061945353191106e-002, 2.53162806533179962631e-001, 1.52832803695300306623e-001, 8.14885376232131752872e-002, 1.97706045920542888839e-001, -5.12068045009375777399e-002, -2.48521545024875917251e-001, -1.19325852124230399887e-001, -4.36301136443230097584e-002, -3.07763712207842696222e-002, 9.34453321222751265296e-002, 1.68355634056894076789e-001, 1.73981564471807931271e-001, 2.33654806195025238624e-001, 2.00627679120349761144e-001, 1.14310642703660425568e-001, 7.30390924840065760421e-003, 2.09319922754099309314e-002, -5.54005304780879961890e-002, 1.63291299550563789866e-001, 2.95740916036280665491e-001, 2.43264356460886593814e-001, -9.56111862062656997496e-002, -2.78330608187689843014e-001, 4.01879349233835378441e-002, 1.62044771410136012602e-001, 1.61958163414472437747e-002, -1.75272171512409861982e-002, 1.87358182987451604706e-001, 3.77441694961625565097e-002, 1.31030753908053049228e-001, -6.26776529286738465219e-002, 6.72635911106067314186e-004, 2.25987646752674742334e-001, 7.96655587452557018002e-002, 2.40850600702281203436e-001, 9.74338899509815115074e-002, 6.24386452361888784346e-003, 7.23356636116350565358e-002, 1.11591871130249875588e-001, -1.35646184035356692776e-001, -4.42128974910939651077e-002, -9.44982325866843830831e-002, 2.56683049033423149599e-001, 2.16235526173371939151e-001, 4.45623557033168471442e-001, 8.09416231882936765274e-003, 1.34129525310061864518e-001, 9.30215125465032877106e-002, 6.03146535082207113643e-002, -2.23594162159594156414e-001, 1.11600867880679882616e-001, 5.93554248032353709563e-002, 1.77129654304717526481e-001, 5.61723497249112455054e-002, -1.11760949638539039408e-001, 1.75205110396163300790e-002, 1.18197090835625281957e-001, -6.72458987726967521992e-002, -1.80795838287530902244e-001, -6.58432660695497523617e-002, 3.44974258232740790819e-002, 1.90791028482061586491e-001, -8.89412398192294395560e-002, 3.01339168763785802962e-001, 1.11184713572697518869e-001, 2.83068127570185290587e-001, 2.75751779517872039338e-002, -2.41371701302576013859e-001, -2.43575481925569041486e-002, 6.62333453024819412969e-002, 1.83108301168704495909e-001, -3.61098241483353036771e-003, 1.07567624115128379625e-001, 1.83010977111371153647e-001, 2.26659994594326758000e-001, -2.36516816221735010073e-002, -1.22771501254949719217e-001, 3.21876749238399484376e-002, 4.22076347039393312555e-002, 2.22464795459106273734e-001, 5.24791993329541961444e-002, 3.05710809236626468444e-001, 2.55063238283150472974e-001, 1.88214825662932294659e-001, 2.20428974886146600287e-001, 7.74193565526992422132e-002, -1.05496866300260547233e-001, -2.98340221294802088181e-001, -1.55765981156659433227e-001, -1.18303008231693304597e-001, 1.96752834534207582395e-001, 2.94260115821060042052e-001, 2.80294351360085236546e-001, -1.00123537391432634869e-001, -8.92301707059331705718e-002, -9.39735635962433424329e-002, -2.88176477522561647060e-001, -1.70375394009296160514e-001, -5.03073751570317501125e-002, 3.23751294598634165034e-001, 1.94902210562428679363e-001, 2.74145354370969096536e-001, -8.21136102297836401043e-002, -6.42230610672867158195e-002, -2.37229851681770909089e-001, -3.09431319823620043508e-001, 3.69101364538310036667e-002, -4.51300774509879987217e-001, 1.28000968140690757346e-001, 8.84483311272743349951e-002, 1.14730841791761198345e-002, -1.29499355713140501534e-001, -2.17244609900168639260e-001, 5.67687786257476331708e-002, 1.39061089375935420520e-001, 1.02983994936177422619e-001, 1.73227248094072028284e-001, 4.17906590715548739712e-002, 2.20685351349371783325e-001, 1.67571490255388644286e-001, -2.67953121437968094787e-002, 1.13897415150916059279e-001, -2.02656160294559906099e-001, 6.03479163012644037600e-002, 2.23809171764559194928e-001, 6.20879765773625025282e-001, 7.50653491506698133939e-002, 1.80052293007667368885e-001, 4.03456611860473907116e-002, -1.12086369126068535751e-001, -1.18907129824247809191e-001, -1.02598429955701314631e-001, 2.04664658933481624636e-003, 2.02537324003728036459e-001, 4.31919967640900237527e-002, 1.14331150502047854123e-001, 8.09924716145335454875e-002, 1.26448928111492997495e-001, 5.50921732422209910196e-003, -1.49063751703487346045e-002, 6.37551960185564758898e-002, -1.80306793020090977420e-001, -1.07684155506121620460e-001, 3.00567533890347127201e-001, 3.56144316710634956102e-001, 1.89105401556835917010e-001, 1.94109535054637322160e-001, -5.55043958801054310159e-002, 1.13767609319612370000e-001, 3.84743549543309498739e-002, 1.54330585460618315355e-003, -3.04388659511105781619e-002, 8.85187817074181704236e-002, 3.23901826055544128646e-001, -8.20452077246255385978e-003, 3.18960030617188416979e-001, -1.30528825369957968139e-001, -4.68374035685943726492e-002, -2.31492365635208030561e-001, -3.34118850243956155843e-001, -1.43949913560048076144e-001, -6.46442521961270305519e-002, 1.58578846579691540297e-001, 2.09481831640094151581e-001, 2.74979458558477607433e-001, -5.17147554890150934481e-002, 2.27908301745671615368e-001, -9.64841283520393583339e-002, 1.69811978806799435127e-001, 3.57923265500093734648e-001, 8.40275000230870372508e-002, -1.02601892827987456469e-001, -7.23761784190501133995e-002, 8.44252921463916200517e-002, 2.42109547553377470186e-002, 2.14682320699903533834e-001, -2.77640061108675659240e-002, 9.19416240383276739401e-002, 1.50607317070907631429e-001, 8.32428762252934023591e-002, -4.96640250825230444853e-002, 1.62428827332312175624e-001, -5.09856637136315848924e-002, 1.61637694098326872849e-001, 2.10134724488043711510e-001, -5.03613675493588541787e-002, -6.06575908152373471927e-002, -2.69464991457428817978e-002, 3.16328671878908854187e-002, 7.09989597218219359309e-002, 2.06463016320021591765e-001, 1.62699353425348608448e-001, 1.17314604052372400966e-001, 2.21077396248446550464e-001, 1.58863139202747388756e-001, 2.66643555298545609222e-001, -1.76280492410410993820e-001, -1.50657644690898647605e-002, -1.74388358226289577613e-002, 2.21849659165608559253e-002, -4.80814486341513275258e-002, -8.01715961427980766674e-002, -4.83553999982445983918e-002, -2.17272680577601268181e-001, -6.25620340182931333750e-002, 1.41738464024310732020e-002, 3.87157597046913048988e-001, 1.91838507817587329563e-002, 1.34397266816579680215e-001, 1.53160585319953440608e-001, 3.93460446427856616602e-002, -4.31440794648977124504e-002, -5.38354755882084964891e-002, -1.39298145745415519192e-001, -3.98814909484954335794e-002, -1.07959119348953011541e-001, 1.44437918004608173428e-001, -7.93762681647617041047e-002, 1.90395238588404874802e-001, 1.18645522745600320857e-001, -1.89669778721080900530e-001, 4.74871133046601487382e-002, -1.58444381346435986258e-001, -2.63097850325913262814e-001, -1.25824665720348338738e-001, 1.10905632535129167193e-001, -1.63433241419246068349e-002, 2.99203183325540411630e-001, 6.67603192094569503068e-002, 2.37663362968303065736e-001, 2.69296547669240549094e-001, 3.08319496949273422204e-002, -3.21424182258689475344e-002, -2.20928501403313104490e-001, 1.02309922154273619244e-001, 2.06589215018852273564e-001, 1.51465008062742129136e-001, -2.44965789131246954036e-002, -4.52349886223883390635e-002, 3.19997662839143354185e-002, -1.31212746009981371526e-002, -1.80620183898798497557e-001, -1.20651053261734322875e-001, 2.17025647078149142022e-001, 2.27423129561086068140e-001, 2.68055579058087911637e-001, 2.55067676324079395389e-001, 6.36050926461972782056e-002, 1.14710235582030473100e-001, -3.20424763881665908283e-001, -8.31827487667841786179e-002, -3.84728844332992078736e-002, 1.75692956932428978600e-001, -1.59883663100958313408e-002, 1.31575562213522317956e-001, -4.15152647751111728014e-002, 2.66865178892483956297e-001, 5.02292469637150434947e-002, -3.18703394712739396244e-001, -9.54658210234833048968e-002, -2.70283709807092653588e-001, 6.67519313461862884296e-002, 2.83890445879718053557e-002, 8.60373423152482053045e-002, 7.34643200285632069768e-002, 1.42546769483515356480e-001, 2.19506696780097598776e-001, -3.25945945847172680043e-001, -2.41212840627941266236e-001, -2.07029193335429226308e-002, 2.14939301460722514969e-001, 9.96161929821809538632e-002, 2.43615409931771609298e-001, 2.43132241146490936379e-002, -8.24590842190277978352e-003, -2.78734792886829452208e-002, 1.18766079964108234313e-001, -2.75916563325733707468e-002, 1.59337633040410459051e-002, 5.58150207156341698900e-003, -2.54467683697232938123e-001, -2.51535155721571035414e-001, -7.74805868370176537008e-002, 2.91253138866089389403e-002, -1.15517356660453721084e-001, -4.03448043933150590767e-002, -4.54815183283363358435e-002, 1.73860971741363501408e-001, -1.38986821084047668107e-001, -1.86288364322971189413e-001, -2.85257419064167072609e-001, 1.94555696277485916379e-002, -3.49086305858457082718e-002, 1.63539531564026452415e-001, -7.40371662633439037160e-002, -2.89668684990703334536e-002, -6.87587699976094091081e-002, -1.04341572466480722592e-001, -6.76333196141452874794e-002, -1.76521899617365307655e-001, 5.99122067729630225497e-002, 1.24553806930659066721e-001, 1.22915049209075338821e-001, -1.22699230471303585843e-001, 6.97632549636856558184e-002, -5.13942511635302355308e-004, -1.27304555828360616010e-001, -1.94437510200309748853e-001, -1.52159307562330509134e-001, 6.89162826155953756047e-002, 3.39975942183446365463e-003, 1.35855494445972224682e-001, 9.81636436852462018754e-002, 1.12516889677740219988e-001, 9.31723107134669464857e-002, -1.72183406360267382551e-001, -2.02546247993015293698e-001, -1.65700628387941056863e-001, 1.08480879129389473636e-001, 6.06860577898215153292e-002, 9.11023916756702745179e-002, -4.23885519207995928315e-002, 2.67315891579328543393e-002, -4.28123950367036223974e-002, -2.22789952089282317083e-001, -2.41580967579064276318e-001, -2.73444851457417370533e-001, 2.47928450853562368228e-002, 8.62566095959679465799e-003, -6.15340059496057162347e-002, 4.59556534872826161209e-002, 5.62893679362787280329e-002, 1.12576479491493700036e-001, -2.37734150327321008822e-001, -3.80555401703420947968e-001, -3.34181331428686667628e-001, -8.95958547737229771268e-002, -5.81216012067099843663e-002, 1.92422884110469843977e-001, -6.92119982977333209062e-002, -1.60980536850007655003e-002, 1.78506861466089343515e-002, -1.83898515773598503209e-001, -2.19030337507624212057e-001, -4.56347410672272024712e-001, 8.07525219416648232240e-002, 7.23000544851307297423e-002, 1.36283580920819824556e-001, 1.19923232067867414213e-002, 2.21808794875307038752e-002, 8.73749204109083715819e-002, -2.51214907372596607527e-001, -9.20167249323833036367e-002, -2.64147968164114510525e-001, 1.57157755825805128813e-001, -1.04349952326636130628e-002, 5.39740083914471563409e-002, 7.61807512414473669837e-002, -1.56909381511678748533e-002, -9.30219561478078660333e-002, -3.10122611055918095957e-001, -1.59776297998390326427e-001, -4.24392824715892069687e-001, -8.36297366265527503115e-002, 1.66447557216915509315e-002, -1.17403870347469914404e-002, 8.25156883385329692482e-002, 5.56084934975270978041e-002, -1.73839984522372800746e-002, -2.52922762258181887951e-001, -3.70660789148407832094e-001, -4.22649703353811634354e-001, -6.83177259904981931671e-002, -1.21244575496164047612e-001, 1.25727578833992131857e-001, -1.01579438610264610743e-001, 5.72940048392593589965e-002, -4.12907425754551306654e-004, -3.12684041250123612166e-001, -2.85211738170422723915e-001, -3.01406411902785442702e-001, -3.40318093055657286405e-002, 9.27304359228460356457e-002, 4.03946859438864547265e-002, 4.29936701563702616813e-002, -7.01818915320212427522e-002, -1.41159821574678184808e-001, -2.67577121242695170622e-001, -1.38862574482728706737e-001, -2.26861848729914494793e-001, 1.92805140513641809497e-001, 1.12484853209790097717e-001, 9.58069015570589266328e-002, -4.41313293906592934990e-002, 4.50134014527308959353e-002, 1.78471492960719929632e-002, -1.15947103586907324102e-001, -1.75779307538923568188e-001, -3.13133154586948625475e-001, 1.89332949556799377822e-002, -5.12680109050620419486e-002, -1.99622575820764744381e-002, 5.19762420131376842725e-002, 3.37772826856365185333e-002, -7.15924911516858109017e-002, -1.63334002185858723211e-001, -1.94438218210363500393e-001, -4.16870363003503940913e-001, 8.67527580418295668485e-002, 1.17462948709753767229e-001, 2.72885198165413629667e-002, 1.05593957379725184031e-001, 2.42518378325235733906e-001, 5.62231891147581472334e-002, -3.29280013509923419335e-001, -3.17153524213880266824e-001, -3.52613355993838362146e-001, 1.08075567382290516072e-001, 1.58714347274047477832e-002, -5.12797854784795281713e-002, -1.68127916311568842422e-002, 7.01718849279830414467e-002, 2.01876076003538254544e-002, -2.08780275928872049995e-001, -3.43734541594482245763e-001, -2.03814185369374206713e-001, -1.07602633871988692671e-001, -7.65168522488079896199e-003, -2.31130341351674373218e-002, 9.39070305056406567923e-002, 8.96104848778137008658e-002, 1.75515047731095524819e-001, -2.66986080198616249071e-002, -9.04442574717736896828e-002, -2.23955618872528711139e-001, -7.04942372804847477985e-002, -5.94673236147348696634e-002, 1.52901295545719601021e-001, 2.46984160283653282619e-002, 2.09774381862783715347e-001, 1.20785831093930179359e-001, -1.35210652522961383148e-001, -1.82975084894487188825e-001, -3.48423912654037937209e-001, 2.69454633336501589436e-002, 7.21024115427211925722e-002, -4.13907284899423799640e-002, -1.52023388085235824224e-002, 1.36787567506269386319e-001, 5.36918273917527180683e-002, -2.06663604205154061155e-001, -1.91095476911202322157e-001, -2.78937854824338804516e-001, -3.80295334841471779908e-002, 1.47712371591773417023e-001, -8.81847037899197716548e-002, -4.74901803634728142400e-002, -3.01724161730479722987e-002, -1.01912910210936499822e-001, -1.25928394300143742246e-001, -2.56405531252660801034e-001, -1.25740658692332363255e-001, 9.31578749133968042617e-002, 4.06619769617520658567e-003, 1.44214993549168779552e-001, -7.42344556579756786885e-002, 4.56475987962245803586e-003, -2.15111921195349532765e-002, -2.07715047049766815546e-001, -1.55556617315010553559e-001, -2.18764604491168329625e-001, 1.50277807381449003687e-002, 4.22738165860139791796e-002, 7.17482016020798141209e-002, -6.52152988763549379403e-002, 8.12148909471434032881e-002, 1.62485087882691892069e-001, -1.59676132575863549690e-001, -2.19017957103932986440e-001, -2.03450618378355596594e-001, -6.42729185142935782737e-002, 1.46873451477319866276e-001, 3.81471662876072675763e-002, -1.59327894100607936334e-002, -2.67087892108247501599e-002, 1.59830461639810572638e-001, -2.21654146409921815053e-001, -2.82883247499451262463e-001, -1.99391442058065471166e-001, -4.90158655262930495478e-002, -7.91913365080294806564e-002, -1.08521478237933399758e-001, 6.46770179667530836776e-002, 4.01225526685664857229e-002, -1.35425732927953013096e-001, -2.72519542079051046990e-001, -3.09809806714289148744e-001, -3.16739525888788786556e-001, -9.75075791123343055267e-002, -1.36988908657025478671e-002, -9.97020964335728065997e-002, 2.44302437313570930399e-001, 1.03606271160502153017e-001, -3.78124981532077866775e-002, -2.59805403367226739331e-001, -2.73964137715907107840e-001, -3.73481381269948120583e-001, -1.45164524486749140636e-002, 1.07025253497854036522e-001, 4.62834492356997209694e-002, -5.02766457531929594066e-003, -1.38921124478774225125e-002, 2.31117183604772694072e-002, -2.25061802250557857485e-001, -2.19768754937814003725e-001, -2.79972744028313569320e-001, 6.92832916418540389891e-002, 6.73361368553964528827e-002, 1.39449042581778759331e-001, -6.55461793463073538746e-002, -1.63191902640357211496e-002, -3.11415500796093612512e-002, -2.71050652101497202562e-001, -1.32685570180938516849e-001, -2.32053492400902561243e-001, 7.15790773786223466502e-002, 1.13478539947025891532e-002, 1.14319362920597675237e-001, -4.21795355280847397705e-002, 1.31329385224868422366e-002, 1.71893518566238384659e-001, -1.05206988779781060450e-001, -9.67429975848333734145e-002, -1.97736677591712706192e-001, 1.63502159829395365964e-002, -1.78819161563796256986e-002, -4.65866863277057674519e-002, 8.60720634630263298215e-002, 7.29065011039696769107e-003, -1.63961427087586861240e-002, -2.35534050857901855469e-001, -1.97782920488602770304e-001, -3.15581650196186114243e-001, -1.68857255562979632901e-002, 1.11799011229224434794e-001, 3.57581858143370817649e-002, 8.53356695758970135168e-003, -1.50261900817572589817e-003, 1.85906305813905908808e-001, -2.03720867192181576133e-001, -9.90132907212276647257e-002, -2.64409936519176436143e-001, 6.38922616642305929435e-002, 9.76664092461530242151e-002, 2.65102088271327966662e-002, -8.64406423739354778935e-002, 1.23755990181068545319e-001, 9.52113386097508257455e-002, -1.20583179346551758182e-001, -1.43802509602918154874e-001, -3.16915848008360478971e-001, 1.93357792195947675307e-001, 3.64445668063003158643e-002, 1.67781247678472772433e-001, 6.38618287843570747730e-002, -9.81012439289755400207e-002, -2.11002036987048991606e-003, -1.10419822037801346193e-001, -1.72116162640469971823e-001, -2.35558845764126917333e-001, 1.72310648151959601437e-002, 1.18224116053432873330e-001, -1.19273342958273576020e-001, -5.22223767079744299879e-002, -2.12037571103844357800e-001, -1.52633566654115371275e-001, -2.52803509276274707140e-001, -2.80334760295190332791e-001, -1.30703190483658887588e-001, 6.22836725646725014593e-002, -1.20711621516937067655e-001, 1.07407226858881169052e-001, -9.37564357591781291634e-003, -1.79394217706900671594e-001, -1.60835556699327961172e-002, -1.17843275407798403487e-001, -3.19256927932265758760e-003, -7.62134044981759850579e-002, 1.42633420299728724823e-001, -5.66337055822002805039e-002, 5.42609360570050769379e-002, -8.04164183960954098707e-002, -2.60293703953916773230e-002, 6.16816472161385506712e-002, -5.15757795701050208992e-003, 4.85653652751400627396e-003, 1.86187627099998198599e-002, 9.07823918046141986604e-002, -1.85902365330288289746e-002, 9.79564570360925701564e-002, 4.39180508887530157702e-002, 1.19258234432642315492e-001, 9.50482756301115200293e-002, -2.16703166370794453321e-001, -1.93691817384558762072e-001, -5.41716363646443516133e-002, 5.45506027110699912019e-002, 2.51016381488621764806e-001, 1.99076951067624685621e-001, -6.57608683189520593082e-002, -5.90021683027690951873e-002, 8.38544644511938358500e-002, -1.97747046924522884570e-001, 6.06796778778375539565e-003, -1.50935865797702739588e-001, 2.45440504668419628986e-001, 2.28104331952586225629e-001, 1.46813400395090387640e-001, -2.10860921913190307864e-002, 1.68889908726646553738e-001, 2.50927316641174312506e-002, -1.14379566680638922183e-001, -1.63334242942785229369e-001, -1.59044709847429827088e-001, 2.85342139904343206069e-001, 1.83117955662570164321e-001, -4.51537600059404506392e-002, 1.65435530447519268948e-001, 1.43589855727858338452e-002, -1.44092636789945136716e-002, -1.07620026416359024224e-001, -3.00008107727716133439e-001, -2.24461017725005596013e-001, 6.02218699888030844711e-004, 6.30621739805574121895e-002, 1.29528828090522990513e-001, -2.68093092114982181617e-002, -7.28119933232155569502e-002, 4.38009929892264615603e-002, 1.69881207412538731694e-002, 3.09005578758967079656e-002, 7.98555662682315023360e-003, 1.46827953838336938697e-001, 2.06565362863130180804e-002, 9.45694633605346363092e-002, 1.27051474495726901548e-001, 5.06687297275227981064e-003, 1.91938915495536710498e-001, 1.26724988421566847618e-001, 1.86953942495667713164e-001, 1.31753222399103447904e-002, 9.86249987680085787867e-002, 5.65194897755486244662e-002, -6.97937236820825313011e-002, 8.74964470464683341522e-002, -1.32498782565261707944e-001, -5.05694576107975635182e-002, 1.97126659165419076958e-001, -2.52289466652974303518e-002, 7.24024002286047796417e-002, 4.91836529846143444972e-003, -7.09541978283997343269e-002, 6.08830508539141487812e-002, 7.99627387057123273362e-002, 3.99783198911068671233e-002, 5.84911935506447558386e-002, 2.20733798234442543662e-002, -3.23873432121307355813e-002, 4.41964858402697224893e-002, -4.54356665832085296342e-002, 4.48495506627982695735e-002, -1.26976709834380335762e-001, 1.42486153490829492441e-001, -6.38852380730807883902e-002, 3.36496351567054791110e-002, 1.28242849424863303298e-001, 8.17592216477262823116e-003, -6.30319670366333989486e-002, 6.34669956573689492130e-002, -5.24345657881087195973e-002, 1.94650809772731366032e-002, 1.70290954583755788088e-001, 1.48172322854829202621e-001, -1.00889960981456500155e-001, 8.30243519762936532658e-002, 5.49661373176619019731e-003, 6.61057030928834110650e-002, -7.60182081317096469686e-002, -7.90477180874546991873e-002, 5.12767813018692591998e-002, 4.94413137928789020448e-002, -1.08608626473282093849e-001, 5.39986652269292422696e-003, -6.23922435531293253369e-003, 5.30372951258127126040e-002, 5.43320739394625717988e-002, 1.10829626996897731561e-002, 2.97526123468365918945e-002, 1.09526170582846471557e-001, -1.47484139686795939772e-001, -1.64352445196192832599e-004, -1.03132984398155269634e-001, 1.06846480178536609729e-001, 1.07555416012148855748e-002, 1.34118995511587846270e-001, -3.86347777355705718216e-002, 4.90429009107638119724e-002, 5.48541863289713632623e-003, 9.30626748442151680019e-002, -7.90641718189279227996e-004, -1.00929659923628435581e-002, 9.75823629524686236847e-002, 1.52443660530652475016e-001, 6.50920986885255431487e-002, -2.31623191709418637524e-003, 2.64150400883877284341e-002, 4.56704091505800019446e-002, 1.56729677559886391991e-002, 3.69149085186755848698e-002, -8.54831763543012351780e-002, 1.60497702190950997103e-001, 1.81297182950875684915e-001, 2.07632494876275330853e-003, 2.01739420849217331033e-002, -7.06803459396964095518e-002, -2.43222863104473677187e-002, -8.11554362334921536304e-002, -6.05175138342683369141e-002, -4.12851411147680188996e-002, 1.01461832289793774109e-001, 2.91353114821415494495e-002, 1.53188728063523424069e-003, -6.87916032792570131260e-002, 9.88493412195905751805e-002, 1.82462095513002096892e-002, 1.24408816153503937185e-001, 3.57377658602340275706e-002, -1.74109232890531817617e-001, 9.10822068339563611916e-002, 3.15610309161764440722e-002, 1.07665814952423166684e-001, -1.00426843414240102303e-001, -1.23151713336507179219e-001, -2.07103572445864435314e-002, 1.54995875113144998547e-001, -1.34733910514727734525e-002, 5.40152186612553320000e-002, 9.59319902518473294206e-002, 8.09931909607403549556e-002, 1.91684822901279694474e-001, -1.53411130432596076734e-001, 4.36405932641029947749e-002, 4.61056621178105932590e-002, 1.41199067176971865267e-001, -6.72632341741864342444e-002, -5.09754938642488150680e-002, -2.82233631249079637560e-002, 1.32109342040743510394e-001, -3.67937725832528789160e-002, 1.35596711729985240635e-002, -8.93312979793362826886e-002, -7.81786744096531205361e-002, -3.05847686388010936431e-002, 8.89809628221487070032e-003, -6.05824218975297215661e-002, 4.38322704060279469407e-002, 1.76381573513867628833e-001, 1.65913966239888049925e-001, 5.39196580840488604025e-002, 9.82979497605867141852e-002, 1.27448224432967854858e-001, 4.29155030423470779111e-002, 6.61203410996439311376e-002, 3.25637974526282875098e-002, 7.88119429217614547722e-002, 1.50297760074397573904e-001, 4.76366350932964158216e-002, 2.95369502481212381495e-002, -9.06335106029369091951e-002, 2.39472569405023393008e-002, 1.02542840150956188205e-001, -2.16716777768701344964e-002, 1.51255392247446121545e-002, 1.92680191833571407001e-001, 5.48466459273246921546e-003, -3.68707733476628801705e-002, -2.20258748270079421361e-002, 4.04509474329566992568e-002, 1.03318996677768684678e-001, -7.70185161862984857262e-002, -8.61257310078220872374e-002, 6.88372626119528995686e-003, 1.50628787186671248000e-001, -1.62323059306982396544e-002, 1.85943088681429530284e-001, 5.72379737485697592803e-002, 4.31209568600332462246e-003, 5.37633427215097603469e-002, 1.12274780773875246243e-001, 1.30274531049092701096e-001, 1.38800503869273506030e-001, 7.34841482814330287932e-002, 3.66370779124147658012e-002, 3.29740853854371268605e-002, -2.31941435711936413955e-002, 3.29831776024852030282e-002, -8.02861142742478522960e-002, -4.63587582343569643006e-002, -5.34597834972981647561e-002, 1.05709044507397362245e-002, 1.83474581483209275845e-001, 1.47704982219423047729e-001, 1.84773444630685734769e-001, 3.83428427237495761393e-002, 6.57166883236093429810e-002, 1.77899374821486495890e-002, 1.31687516686958744350e-001, 5.24467608724151906907e-002, 1.10095124001008570769e-001, -9.95087977493484647507e-003, 8.85808655130673749944e-002, 1.59726631876601419917e-003, -1.08727460830564837124e-001, -1.10041483098555692086e-003, -6.09807100831686876852e-002, 1.00147605559056676605e-001, 5.52820035281589711174e-002, -1.21640231116683872337e-001, 8.30831633189217932944e-002, 1.44466977902211711482e-002, 1.67132395496662505829e-001, -1.07883239705233044403e-001, -7.02800274288278709056e-002, 2.76080895888892799417e-002, 3.26503196017504451754e-002, 7.75177767589190491737e-002, 3.15581433797721758183e-002, 9.31578815191098086324e-002, 9.68387208269033267216e-002, -5.17106583499482574950e-003, -1.42269880672128451460e-001, -1.18828084323419694290e-001, -2.41769776165345964825e-002, 9.81438239744947121812e-002, 1.13014960411360790293e-001, -1.04334104268339160348e-002, 1.63768711421622470414e-001, 1.70838652986643968479e-001, -7.31737947102440843689e-003, -7.42674174862130165309e-002, 8.79038940056612316809e-002, -3.20582469945270287504e-002, 4.64043519463470180431e-002, -2.10345355433835638770e-002, 1.18045434352277850421e-001, 6.52433244041856763573e-002, 3.83461297268246487091e-002, 1.42338596108764370296e-001, -2.83150541687079045083e-002, -8.09346040884007661420e-002, 6.40364162703595807269e-002, -5.30207887130515406748e-002, 9.89659753553012895566e-003, 9.39814284738911542849e-003, 1.76448062886544604355e-001, 1.33054992729994325806e-001, 1.39153481196226475047e-001, -4.32103842997362819212e-002, -1.18544440121448227399e-001, 1.46581082464951372238e-003, 2.76065042122506515421e-002, 1.73971016353323057468e-003, -6.98615474124204688389e-002, -1.67212648448563337700e-002, 1.96795283196952774940e-001, -1.21833435163978959226e-002, -5.21617087783738109241e-002, 1.28841805763931505080e-001, 1.19046806572208323932e-002, 9.24270443320776291518e-002, -1.08811065614015392566e-001, -2.72959662709670956154e-003, 7.25399881725452277959e-002, 2.12560252564117063701e-001, 8.43098149312289657509e-002, -6.55276451874047954904e-002, -3.86693962981071205631e-003, -3.11968545074684001916e-002, -1.11414363791070669674e-001, 1.19349008071308756995e-001, 1.16976836951803983555e-001, 8.93686552783871657191e-002, 1.47536465869918323457e-002, -6.29452764754283161652e-002, -7.14973170235294885888e-002, -1.58011961211109552838e-001, 5.78626540424106994287e-003, -8.03664513186139461975e-002, 6.96148881576651862302e-002, 1.76649360036976697808e-002, 1.85829759747531464420e-001, 1.41526660453783394850e-003, 5.52162834849144260052e-002, -8.44534974628707510447e-003, 3.01534501159249346269e-002, -1.06336334235214539923e-002, -3.17624740407785252638e-002, -4.87500749237003601355e-003, -1.64538383666983117903e-001, -5.76866861160328578406e-002, 8.02403277377257070913e-003, 1.48892193375821324519e-001, -3.97259076960873661055e-002, 1.30451643550217009915e-002, 3.11398781952030127840e-002, -4.47113813417295488661e-002, 8.86018293397862893856e-002, 2.72714734847192934175e-002, 1.98743473405250087316e-001, 1.06105688554531382706e-001, 1.06249845816767454765e-001, -1.09782400487327166938e-001, -1.09096064867943098875e-001, 5.99977896591747869581e-002, -4.76972391605479661969e-002, 1.08194175366893192980e-002, -5.92508607814669907565e-002, 1.74890374179501428831e-001, 4.93992401157398661193e-002, 1.00309289703296722340e-001, 8.34520831405624191612e-002, 1.68468293961891099619e-002, 1.05081514528112388018e-001, -3.19535253694639559408e-002, 5.61626565880514374424e-003, 2.54488119051280783922e-002, 1.32133934129390923085e-001, -5.66037263141903612684e-002, 1.47250017320449927416e-001, 4.27127110566948020587e-003, -2.39857206805443000375e-002, 3.30369463809343372196e-002, -4.30606667035699636203e-002, 9.93074304270488150692e-002, -6.14470767404973194914e-002, -9.41384630096230440310e-002, 8.58497266323149377243e-003, -4.00716793594191739158e-002, -4.72912449991696320906e-002, -4.01944201370897508108e-002, -4.82514991887096691969e-002, -1.26949106496398289590e-001, -1.33304014446561952534e-001, -4.71476358917689158945e-003, -6.24325137469084259778e-002, -7.91087428334573267152e-002, 2.89234459769174487298e-003, -2.76859988459730275989e-002, 1.24292823538253563442e-001, 6.90415386660298835420e-002, 3.68132997583736493175e-002, -1.55418570761600455254e-001, 1.92002774563403769137e-002, 9.13195142512262386658e-002, -2.28594914774629398568e-002, 6.46477825512094123050e-002, 4.23294086673822820416e-003, 1.11413001200529118706e-001, -5.09558381460976372868e-002, -3.41103417591935645370e-002, -1.39573133083205069838e-001, 3.66189295510993134686e-002, -3.67720012302888560329e-002, -3.65656155423879636324e-002, -6.06752778381865589055e-004, -5.73188325943613519176e-002, 6.00142083660759953490e-002, -9.65216826292792096087e-002, -3.09854225003664517091e-002, -5.12218315712475308343e-002, -5.40358693072713683336e-002, 1.85835471126271689624e-001, 1.11588281776607720075e-001, 1.17858238718616392671e-001, 6.02349646730466689593e-002, 2.00125721536626548225e-002, 1.09522600283007767730e-001, -1.64703762770636030766e-001, 6.50599571611746446687e-003, -2.23807931333984376499e-002, 1.86951115001168260976e-001, 2.39153772723521632071e-002, 8.44727981070648725748e-002, 1.85603577022644766759e-001, 2.47544801350819215768e-001, 1.89770858750688442562e-001, 9.50761305900755387954e-002, 5.09786821738681325544e-002, -1.20186224074627354130e-001, -3.32289643062167114329e-002, -1.47859406276058896745e-001, 1.89468854367857986176e-002, 1.29972820334955996291e-001, 9.97745638278177970903e-002, 2.12445099193714070918e-002, -1.19815207174387261535e-001, 4.58018588456286790400e-002, -1.86887903979365888052e-001, -7.04016643102800127041e-002, -9.34372993856571049109e-002, -1.17041257678048030155e-001, 1.73516628296846553425e-001, 1.07852726725692224519e-001, 8.88254011388940195593e-002, -1.39156492218124511195e-001, 6.74748904259218768020e-002, 1.27589103441186374477e-001, -1.66538928251055845520e-001, -1.36270391729291118210e-001, -1.05893580446986643184e-001, 2.50765352480171954674e-001, 2.44184877290175933462e-001, 9.56286496837611688093e-002, -3.60127284163648392346e-002, -6.72184355302112845898e-002, 1.05739002652723540487e-001, -4.93868317342947560356e-002, -2.68075650115223058922e-002, -1.73943982767638311016e-001, 1.28883578314746283233e-001, 1.72214301339234571175e-001, 1.33928843847785139509e-001, -9.78010748966900433921e-002, 9.62158653445323863718e-002, -6.84475561546516175770e-002, -2.72904696435468906157e-002, -1.53595480949481083544e-001, 1.50379575838975772240e-002, 1.37970735928094251355e-001, 1.10896759772173725267e-001, 2.86584925259037830159e-002, -1.75572728814025386113e-001, -1.31389274803208888631e-001, 3.87506799010590291532e-002, -2.07820762759631710859e-001, -5.01641771431877506182e-002, -2.60713859143215986869e-001, 1.49619420518271976916e-002, 1.95995342763193136637e-001, -3.03055420165681318329e-004, 4.35865306527778231804e-002, 1.07061681209395159753e-001, 5.75992233547906254398e-002, -1.90687843461698425251e-001, -1.18565788398841520657e-001, -5.97638700451099194599e-002, 1.26085578671557528574e-002, 1.69989046548232769496e-001, 2.03230503004708490389e-001, 1.21532088900934615028e-001, 4.47230060330854189976e-002, 1.88904066139885445930e-001, -1.63251531045101427875e-001, -1.17710314221367087772e-001, -1.69802798882586564178e-001, 1.66317090681245505213e-001, 1.35457830821163444091e-001, 1.11759697059864826496e-001, 1.17937713277711381243e-002, 2.30262204673727273463e-002, -1.18276103980431229745e-001, -1.24932890871918347853e-001, -1.05672006707482502019e-001, 1.39535673087339533865e-002, 3.59095874410711030089e-002, 1.44122746117136435462e-001, -3.43647207417600367152e-002, 6.23628462578499492830e-002, 8.88701864806412250575e-002, -8.69041003632362168974e-002, -2.10572145091468154732e-001, -2.76737169288409634582e-001, -6.97814815423104944925e-002, 1.06335442179872355362e-001, -1.42143560783177446902e-003, 1.81723957284545739599e-001, 8.60775728793998218258e-002, -1.33457757383658476291e-001, -8.07393516586772386212e-002, -1.07500580924209554468e-001, 1.59874088539087369498e-002, -8.97119090305307509414e-002, 1.55995334942909347209e-001, -1.01202191050229258623e-002, 3.97492509092034138063e-002, 6.77143895653057551615e-003, 1.72380857476746307544e-002, -9.12184715299828169366e-002, -2.44770675791113778708e-001, -2.01541345754410392010e-002, -7.04244244479125675040e-002, 2.57940811404408110175e-001, 2.31579856929242683394e-001, 1.26420934020549408094e-001, -7.76477133299792454668e-002, -1.14526827106400969081e-001, -3.51663731470792037537e-002, -2.39973540645547822603e-001, -4.11242314032467456975e-002, -2.03698916147879161009e-001, 7.90088464308943000391e-002, 1.58472413480993806756e-002, 1.62643605862626300373e-001, 3.82665804007551665911e-002, -1.83951818178762521727e-001, 1.01692795534039343019e-001, -1.39534414036166315443e-001, -1.42150518736366859862e-001, -4.27500126031190377796e-002, 1.25311855590700321761e-001, 2.16130841317378336042e-002, 1.47044484997535057635e-001, -9.43709037124109556549e-002, -2.19411993409794614518e-002, 4.06997431897785991173e-002, -1.10763277745982574585e-001, -1.40190581130533231669e-001, -1.60613126121339294672e-001, 1.52796293002263078309e-001, 2.59450782860783588091e-002, 2.11912523222558372982e-002, -3.69785242134033839689e-002, 1.29611776036938380896e-001, 1.61527792330850572533e-002, -1.44669485781016553955e-002, -2.02057787779493486235e-001, -1.15775961776031874328e-001, 1.61505281641675824122e-001, 1.35035976492322018494e-001, 9.56671331750465203658e-002, 6.87017939841692848457e-002, -6.15225181486352690197e-002, -1.38365341185825801995e-001, -1.98891042656886035678e-001, -1.27347741211246756610e-001, -1.50602334420758432465e-001, 7.77418810921421260529e-002, 2.29081397171771006249e-001, 3.12411702198657319218e-002, -6.37239542475630804663e-002, 1.50022970625726392857e-001, -3.04757102864194294456e-002, -1.62663653180307538060e-001, -2.95800437472023725061e-001, -2.44555969893101049495e-001, 2.21380383204715203149e-001, 2.84991866249948211376e-001, 1.76760790962216224331e-001, -9.99202546161504917555e-002, -1.48089556836386554428e-001, -1.95175171890345916514e-001, -1.76008363964379022093e-001, -1.25877233389102616279e-001, -2.55513460343195164537e-001, 1.31694475926490306428e-001, 5.47410400929078597154e-002, 8.42405939635907513585e-002, -2.30027734937266019333e-002, -1.43676826966628867766e-001, 2.12833682071553315085e-002, -5.69185938086149284532e-002, -2.77516022520609806357e-001, -2.15490590336469556298e-001, 2.61916172080970788283e-001, 2.33281454169257967957e-001, 1.94734036069778237987e-001, 3.59941637113945361870e-002, 4.02042749045904354577e-002, 1.82670127750306152126e-002, -5.73558551184857878802e-002, -8.32110628494619614104e-002, -1.52109562274147930294e-001, 7.32290576698743922446e-002, 8.60646023927163356104e-002, 1.47199008912269363458e-001, -7.94043673520230947060e-002, 3.12792408682335959513e-002, 1.30805238417435187870e-001, -1.61001438963093324030e-001, -2.39719485350851913008e-001, -2.36197598349058818235e-001, 1.85483652538457416403e-001, 7.23324573974221535222e-002, 3.94141276216259349441e-003, -4.70308424708903369260e-002, 9.51885129622214304357e-002, -6.38735929090517712270e-002, -1.30512198160824793858e-001, -2.95552446923617095909e-001, -1.25662875379616373328e-001, 2.81278846670168058974e-001, 1.01423820119444521581e-001, 1.29666265504462863145e-001, -6.44267721056403230850e-002, -5.05131183927234688434e-004, -1.77356811170247319343e-001, -9.98169412873547851062e-002, -2.78426323850941237481e-001, -1.87147521722441728675e-001, 4.69607266265564121666e-002, 4.32111236045379376591e-002, 1.79911800120232251432e-001, 1.11554812659180158096e-001, -6.14183209763218135313e-002, -1.27355711348234479363e-001, -1.90803184338522918706e-001, -2.50891062026376621130e-001, -1.82662934590752362718e-001, 6.77915410907220100656e-002, 2.12148410026852168864e-001, -6.68674479215234165985e-003, 8.34650122257639404122e-003, -7.64781773584649084141e-003, 6.89108355206584088926e-002, -2.42879811829594449701e-001, -1.05643710118406938814e-001, -7.81707461303279976805e-002, 1.45358488963329320065e-002, 9.51210064616537925852e-002, -4.03722918512135556246e-002, -7.84470855354593571418e-002, -4.33211975283858408137e-002, -8.87010466514939477367e-002, -1.41900634143683701538e-001, -4.56562506427883735283e-002, -6.16777024211408453347e-002, 8.69814239491060042786e-002, 5.52436343983748398556e-002, -1.62024827227602724600e-002, 1.20311731298251442523e-001, 3.90177653258570455996e-002, -8.33691343753004687755e-002, -1.05521339422944157582e-001, -1.63511493215930586720e-001, -2.82097889922993338985e-001, 1.92668834564114599406e-001, 1.62042120207625289785e-001, 2.32923504425597310830e-001, 1.69058656504821630540e-001, 2.83946422992806995003e-003, -1.42810171136072722176e-001, -1.56377077540225756236e-001, -1.15468875635286086223e-001, 8.78795880655105013379e-003, 1.43642483296510387047e-001, 1.61720230403162273936e-001, 4.75766988155636449953e-002, 1.53648257083368683373e-001, 3.94083262441944776056e-002, -1.50220025155905462233e-001, -1.72761491863418797932e-001, -1.57532969450936061184e-001, -8.82241251523189218275e-002, 2.76268079038474679773e-003, -3.88122233313704032009e-002, 1.85239769760374539675e-001, 2.33509275553829498406e-001, 1.85084138681044285679e-001, 1.34448648825415406627e-001, -5.74784250226845344622e-002, -7.97140428399546463467e-002, -2.06149256026197380542e-001, 2.33021337874860373640e-002, 1.47370671729854213483e-001, 1.80249411052350289042e-001, -2.41675040310080080364e-002, 8.80446544339769654464e-002, 2.06330247528650322780e-003, -1.89431533721842210172e-001, -2.95060221783069120960e-001, -1.68720332632277453255e-001, 1.76085255631836662404e-001, 2.15751001618229604206e-001, 1.88643961421126299394e-001, -2.13608447627798604673e-002, -2.49168673118740427452e-002, -6.61461694069615524505e-002, -3.20733401084467364961e-002, -1.97290286298955730437e-001, -9.65915818549474974875e-002, 1.63704825801553627285e-001, 1.44692696381837460073e-001, 1.50205934584630218520e-001, -6.14356191336476176179e-002, 1.15831363650858637504e-001, -8.38154031301592411518e-002, -6.92265529427163045506e-002, -1.71561281315130050029e-002, -1.71497348138341859647e-001, 1.42676244838880694754e-001, 1.51482344285210901447e-001, 1.01926040603730908018e-001, 1.51083011933745625655e-001, 1.05380234276343423550e-001, 3.92907909444194791693e-002, -2.04384876945251869884e-001, -8.98404269617374823254e-002, -7.03891763437581273466e-003, 9.97781064238602299898e-002, 4.95949769222935529789e-002, -2.22646086319707933732e-002, 3.20241291208011175096e-002, 1.65085387593047416832e-001, 2.43658624019441438779e-001, -1.01932066084638089931e-001, -1.35279507839219020893e-001, -1.30381836514299853658e-001, 1.14465723574538019713e-001, 1.08651482335285917702e-001, -2.08767703515808054904e-002, 2.02896571167304473615e-001, 4.89825914168165871265e-002, -1.28866172888823168896e-002, -1.17433207046914275806e-001, -3.04043398178906951190e-002, -8.63669465211428372120e-002, -8.78746477796743113986e-002, -8.71322304512311268665e-002, -6.62995374633340572856e-002, 1.19395215654375982939e-001, 5.14554235802543447065e-002, 1.58628141738621442070e-001, -2.35932465695479015588e-001, -2.75482921851485318410e-001, -3.28020756072419372718e-001, 1.35483880450473298529e-001, 1.05692238120295267656e-001, 6.96187768114338162428e-002, 1.65018292842986719071e-001, 2.05980011486657399455e-001, -4.87453095566839217367e-002, -1.92415869119032578727e-001, -1.21115435654099309892e-001, -2.35083685727911217977e-001, 7.61928098358495425879e-002, -2.19851530612013880417e-002, 1.51922098178573938831e-001, -5.04395459214039294099e-003, -4.93636488423317698615e-002, 5.94590361423098998084e-002, -1.96169839221825709208e-001, -1.78586255739317467661e-001, -2.53746106031100260303e-001, 1.96672200289447207666e-002, 9.86331089749960393531e-002, 1.21444046331132989025e-002, 4.22811313355879667131e-002, -1.52795415001957674006e-001, -1.21117882092760226209e-001, -4.24520834518966605486e-002, -1.03261638688534412855e-001, 3.03714133023231559749e-002, -3.32717292489662849753e-002, 6.45123568658491353123e-002, 1.10612959759185600084e-001, 1.13386231331680902013e-002, -1.76709041325632004726e-001, -7.35973048168841598171e-002, -9.86093155265193310743e-002, -2.83281441800248348639e-002, -1.97685614347682697689e-001, 2.21943187265038165135e-002, 1.37724123686433341102e-002, 2.91285165176622430627e-002, -4.13054370667937584272e-002, 5.31071513888256782621e-002, 3.74200173804501295960e-002, -2.81758974164156017483e-002, -1.89552162065830288873e-002, 3.82360433520294445975e-002, -1.15093405826829191241e-002, -6.52119484804042914838e-002, 2.93139061477214156459e-002, -3.97633343988479590059e-002, 8.76559355147812913067e-003, 2.45111172350373947293e-002, 3.32456140965481511396e-002, -5.13320713437398004619e-002, -1.91661752313808164683e-001, 1.22097013382366961776e-001, -2.07913861847541098227e-002, -4.22103958166367074223e-002, -1.28509583968315577174e-001, 1.26479614045069993500e-001, -6.21700455732510995355e-002, 3.26218589583077075988e-002, -3.54619631294266065766e-003, -1.06814181883947270646e-001, 8.12626171108937339627e-002, -4.54855566947604678107e-002, 2.27272141576948362787e-003, -6.04643444833591128806e-002, -8.24152510946901672995e-002, 2.60277027806560907683e-003, -1.64406318286895364311e-001, -7.88306114865801460523e-002, -2.20145065483699831077e-001, -9.13930519794860646288e-002, -1.04606022973401501658e-002, 3.70265988779894320015e-002, 9.23413417565573796386e-002, 1.95957057557919700486e-001, 1.45390875020801640938e-001, -6.00603249743389897009e-002, -2.04438694475822940744e-002, -1.18631146190217709457e-001, -5.90347790494759119828e-002, 1.27619500645049205323e-001, 1.35137089740984012165e-001, 3.13213319134634238239e-002, -4.32935469364733871434e-002, 6.97789856067907408865e-003, -2.53792181196608679361e-001, -1.85734211339443539002e-001, -3.15209908216832979111e-001, -5.09555493409417636919e-002, 2.21844942536108119535e-002, 1.20002772792849807248e-001, 6.11208322003570572734e-002, -5.49583506888281364544e-002, 6.61881938311857376256e-002, -1.43640124707179572816e-001, -6.00201099702913909439e-002, -1.99406492940345542175e-001, -9.06007611338338486595e-002, 9.42362197408631516171e-003, 4.93294242656368217559e-002, 1.51367972516908783076e-001, 1.27167646942929535303e-001, -7.17644539007750575932e-002, 2.19472731618041809465e-002, -2.72509795110934954776e-002, -1.77398168289263025166e-001, -9.19967671197497588453e-003, -7.28282831732105784273e-002, -7.71287636546574405932e-003, -1.93260486631213271314e-002, -2.22623927163181009603e-002, 1.26407021360663233273e-002, -9.43689290907176597800e-002, -2.73970741602510836632e-002, -4.57116932558160951605e-002, -1.57209149529795727540e-001, -5.86265409049616728621e-002, -8.01969485033678097796e-002, -2.39263576882501778631e-002, 1.38982102325105466578e-001, -1.31946540943904278703e-002, -1.92624545057798024494e-001, -4.81657073055349049806e-002, -1.16100299183829455685e-001, 1.49338370031759787304e-001, -3.67312336310991471855e-002, 6.25481937338956545114e-002, -1.10419681502660654848e-001, -5.95930188815423991788e-002, -1.63451321516537323442e-001, -1.76380986433382937195e-002, -1.81063840691294136720e-001, -9.50535213051581090449e-002, 4.50805151247190283303e-002, 8.65776503960348359223e-002, 4.50751548170901517043e-002, 1.65670847426258073531e-002, -1.07207036390162616102e-001, -9.63979796234534780375e-003, -4.63900320053841491719e-003, -1.07391081302863053426e-001, -1.04369191479867756689e-001, -4.14214023176999318610e-002, -1.93753022700116281363e-002, 1.11197984231755600537e-001, 2.60453570396425859723e-002, -7.95942491984003436256e-002, 4.62071943778957008875e-002, -2.27118949366669820034e-001, -3.35046288705392394935e-002, -2.11580675104546644949e-001, 2.49159826179349980224e-002, 3.89312571445219676725e-002, 2.67599093306476881748e-002, 1.45788307823014967601e-001, 1.46602464444794439169e-001, 9.10971359570555139218e-002, -1.76151444244417504370e-001, -1.59298687825107698757e-001, -2.80728396702992627487e-002, -6.94574705504225342612e-002, 5.40325779674611338110e-003, -1.08017479067942470672e-001, 3.01229274503300378796e-002, 1.48717749793108987982e-002, 5.07343988265690562511e-002, -1.02360993835751354353e-001, -1.25228715747470270570e-001, -1.26045712996598613387e-001, -5.09403763499301394380e-003, -1.10538398411382269779e-003, 6.67717208185982097346e-002, 4.17792467786095023108e-002, -1.53029779373129171116e-002, -9.39909767005004705143e-003, -1.17658957706166356072e-001, -7.38150544443723216625e-002, -1.66400735879066480338e-001, -1.34388459710731850150e-001, -3.34002120599805052414e-002, 2.04408912486181704171e-002, 8.54666861753784895539e-002, -4.35311600393344030890e-002, 1.12458180806445415256e-001, -5.42501440453101654859e-002, -7.27790614910436006735e-002, -1.68696692005183918051e-001, 2.85540929036455885803e-002, -4.24887116458343150338e-002, 6.51784936634545453149e-002, 7.87711454359106139078e-002, 6.03594073309123152482e-002, 7.30412085084004014668e-002, -1.52704993595636856485e-001, -1.84631856599675930886e-001, -1.77781350748500016623e-001, 1.26003853792560349678e-001, -2.27530956524420666098e-002, -4.11302946580080347472e-002, 2.78627026618608539255e-002, -1.95172961124110838638e-002, -8.74730302317077296204e-002, -7.84628832354141853012e-002, -2.29968132130353886122e-001, -3.68246715515315459211e-002, 8.10771106308810218799e-002, -2.11462838713878595320e-002, 8.08019412613514009802e-002, -3.35868727825702458392e-003, 1.60034480333331702306e-001, -3.47789440445759601150e-002, -1.11211819696600294760e-001, -1.83925149300540546893e-001, -4.28228974865738354350e-002, 1.44213607280491065005e-002, -8.25829514007449388968e-002, -9.07793485276776057624e-002, -6.21581526436933914925e-002, 7.68323967504881966128e-002, -7.45359798611413965075e-002, -1.48494257408552571276e-001, -1.30338321874462315098e-001, -1.87356902982361517296e-001, -9.97430976027494434200e-003, -2.63966852185236397488e-002, 1.02164859869757623789e-002, -6.22916663295313907667e-002, -6.20660134186407780321e-003, -5.42821742094562464942e-002, -1.58171271929055778926e-001, -1.62005413062306452554e-001, -8.80421989152186668104e-002, -2.91571893121737209242e-002, -6.15299085142181814007e-003, -1.08703740560247130026e-002, -5.28198135054371367691e-002, 3.55478879899253571994e-002, 6.25947557234888818378e-002, -2.53436906210894374869e-001, -2.71848980066025924796e-001, -7.07511871563884786607e-002, -4.49374421946673111017e-002, -7.24479035607424048937e-002, 1.28481561268047134172e-001, 1.25864121472287510128e-001, 6.51363303459978476573e-002, -6.70478452523895485093e-002, -1.83971884778804939398e-001, -1.44784547925237205845e-001, -6.36173451602076722722e-002, -2.84586778641414440971e-002, -6.45268685545201114984e-002, 1.30515365048180370655e-001, -3.03109483505003066139e-002, 1.19794753302100182024e-001, 2.03447283374048659699e-001, -2.19030585148705901621e-002, -1.77386428602726020642e-001, -4.77648975904914549484e-002, 8.86913711603609933309e-002, 1.02570873481687627193e-001, 6.25847770632937810964e-002, -7.86732987596997224156e-002, 2.03731095603265688343e-001, 1.16937247495151414034e-001, -1.30886790986464301989e-001, -1.93440544486359888854e-001, -1.71336034672530529432e-001, 7.43510205684708574969e-002, 1.23971018857260362189e-001, 1.89928608803059603694e-002, -4.66788056985311047842e-002, 1.34786796463945313107e-001, -4.53634631406325539160e-002, -3.27349050784341982778e-002, -1.57039244941741401584e-001, -4.58642650991620687284e-002, -5.27285854321340591300e-002, 1.17942954202297084487e-001, -3.63646726432379704952e-002, 3.78132586581101520773e-002, 5.72513230306066558950e-002, 8.06084762002014232340e-002, -5.95658710064140561879e-002, -6.45438340665200199764e-002, -4.12052159938074424872e-002, 7.87039658434155325883e-002, 3.07002380847216579940e-002, 6.83480537782638203348e-002, 1.54998748283125570291e-001, 8.98422350568486294264e-002, 1.21037659013754364534e-001, -1.71043728141976630885e-001, -4.51053384783697414173e-002, -4.47422818581768352159e-003, -4.99942608172266947375e-002, 1.14794024839625113943e-001, -9.02098785541306930069e-002, -3.74090066306370164217e-002, 8.31680076717587757340e-002, -6.32197528631542327027e-002, -2.44794397645614059122e-002, -1.90736667671999482465e-001, -4.10522138075703757476e-002, -6.66958346040562727319e-002, 2.64061714523306737684e-003, 1.24490798163706603563e-002, -1.47227620192354496931e-001, -5.56352283456033880338e-002, 6.64520450503062846959e-003, -1.26986413585384455560e-001, -9.34241236793633411661e-002, -1.18139582427927124220e-002, -5.11096843698929104161e-002, -3.05295855964593416954e-002, 4.64058745717281367904e-002, -4.77602945928942181075e-003, -8.37504495881312080452e-003, 8.57904747165891962135e-003, -7.51529868039703535798e-002, 3.38244122099402464918e-003, -5.64178061645289746773e-002, 7.32258602488063403690e-002, -2.21525368937635774857e-002, 3.88808650052204773928e-002, 1.15874750909517196251e-001, 8.37407336609491750878e-003, -8.11511466063843389662e-002, -7.17234689873869901700e-002, -2.47877199007312185031e-002, -2.63089893995358987955e-002, 6.98893528915133371848e-002, 1.13961239147435958174e-001, -8.83280753232950910370e-002, -2.17473379568204443213e-002, 5.60117137773220724606e-002, 1.29943698894174342051e-001, 1.08019794162018609174e-001, -1.21528200629851243497e-001, 4.90841028277187382822e-002, 1.00337062178304098348e-001, -9.37154180758677235463e-003, 1.99162703096567965388e-002, 1.63399435613132082423e-001, 2.23214488335054320189e-002, 1.65178716749693699217e-001, 9.05436410127495178157e-002, -5.59958898940796784283e-002, -2.92094294458789122126e-002, -9.00343564587491873574e-002, 3.93755204094167407525e-002, 1.71272762856721563751e-002, 3.52693082789483011719e-002, -2.92159531874085776071e-002, 2.53276846821089106354e-002, 4.86951883417213460259e-002, -5.66973802839192062009e-002, -1.34243469678538562828e-001, -4.56948278673173641229e-002, 4.59989675686724372450e-002, 1.39588274832579489759e-001, 8.77335122250529203525e-002, 1.12111260546821259187e-001, -6.78055454209753327710e-002, -2.10902070931057561420e-001, -1.28711861677009459237e-001, -2.82533272276944413814e-001, -2.80499498613719644435e-002, 8.18013163356102052104e-002, -9.36015040484121894904e-003, 9.28236212592699685975e-003, -2.76852277233901496178e-002, 9.60347769495149550245e-002, -2.08986741365277867155e-001, -3.08724170608913661695e-001, -1.13063594739382156096e-001, -1.54610719323907720713e-002, 1.71288371487453294773e-001, 1.06165389251457291386e-002, -9.39747358988699266202e-002, 5.18803537585367860463e-002, -4.93292189512189241385e-002, -1.07200255901033936201e-001, -2.40348852484458738732e-002, -6.40623897786984364267e-002, 6.82871401118936016683e-002, 1.75145956654294221444e-001, 4.49946957352382395645e-002, -1.73021483966844004387e-002, -1.42616027063715677947e-001, -6.13640286807573716310e-003, -2.53059109213010016703e-002, -1.05018782132556831588e-001, -8.02712274152029281460e-002, 1.87165313279715889161e-001, -1.02005987306968658179e-002, -9.07108877492713155943e-002, -1.02202559552450347735e-001, -2.12172977065834045263e-001, -1.09036316478677675068e-001, 5.75814461303410657367e-002, 1.18928041478633048089e-001, -3.27661086985176347453e-002, 7.36702000226050479625e-002, -5.78651561535944644610e-002, 6.68466361411077375498e-002, -8.88167173699890982741e-002, -8.54210008445324686654e-002, -2.96843912834580166832e-003, 6.56295358332774914079e-002, 4.00181570413987997004e-002, 2.14094561254488696678e-001, 8.05477239274717676798e-002, 1.38249997773577715243e-001, 1.27073427894572099639e-001, -1.64705334517493307001e-001, -9.38594661220411852209e-002, -1.87195524862647788567e-001, 5.96262655272603581125e-002, 1.05994798729564132511e-001, -2.08244562833746413300e-002, 5.90410206861602740447e-002, 3.13915596148094042106e-002, -7.74647878121380861760e-002, -5.87058725460970209920e-002, -3.66358140256448291949e-002, -2.18158529472001122551e-001, 5.45618926236705048538e-002, -2.41947793547548535564e-002, -1.55365693516845704281e-001, 2.57660998915580294333e-002, 6.99721715682559974869e-002, -8.15584090498291114368e-002, 3.29737934356753581433e-002, 8.39577972574591380184e-002, 8.85143892438348817153e-002, 6.92285795532222303361e-002, 9.41933777492718338209e-002, -1.99542789356327507355e-002, 1.28254471696073013565e-001, 1.73085077950577592709e-001, 1.29226942197733590811e-001, -3.33123684182536905496e-002, -1.25378177485212127795e-001, -6.08836647521317428366e-002, 1.41142958341417157353e-001, 2.07358387732955506966e-001, 1.46064689480093962137e-001, 2.32947065875145686853e-001, 1.72868392225722977695e-001, 1.69362195398085002562e-001, 1.19656655235958184202e-001, 5.07782916330228525914e-002, 7.17831369713991945813e-002, 4.97633722063078806630e-002, 2.00999443457898323284e-004, 4.97925523540092909713e-002, -4.41169137222729122738e-003, 4.16979951529573011904e-002, 1.00043997249077407097e-001, -5.82125399418016789554e-002, -1.16305243523910278869e-001, -1.45126952802971415091e-001, 4.89623733778775868664e-002, 7.07987131765292904140e-002, 1.49494564157248321923e-001, 8.68958471288198419646e-002, 1.33709462034088139709e-002, 2.87306907693927679470e-002, 8.67694860315565141828e-002, 9.72124472629922742328e-002, -3.64678789372741077313e-002, -6.57652181824958104173e-002, -9.61584321733004870891e-002, -1.56648524757293933218e-002, 2.42542597348656858991e-002, 1.56314329021742665082e-001, 1.84634080651958382147e-001, 1.77561496733370599577e-001, 9.40689910108600257921e-002, 7.15198901828328625907e-002, 4.13776554326522744143e-002, 8.80321690978919935144e-002, 1.33896835826923327195e-001, 1.51015920816694959594e-001, 2.14363968220932094022e-001, -2.51654435067341034765e-003, -1.03177077649534432169e-001, -1.34422502627889794979e-001, -8.71895321411871315753e-002, 1.72274572766659722634e-001, 6.41588521740227963296e-004, 7.26882345804677060253e-002, 8.89944558908196542424e-002, 7.33289170648808164010e-002, -2.36364212841848539415e-002, -1.15622368229064576006e-001, -9.11608550893878155641e-002, -1.86112793609211346624e-001, 1.19262328529422270695e-001, 9.21819624178631391587e-002, 1.18438575564971559917e-001, -8.29455649352029006360e-002, 9.85879888126535153248e-002, 4.51121700802956382415e-002, 8.49984026241309975624e-002, -7.01045554961274297590e-003, -8.29974581651967552309e-003, -4.72776548235440824408e-002, 1.20405566859704910021e-001, 2.87056027034066681830e-003, -2.62757639195968541179e-002, 2.11973167870683820713e-001, 2.10065492921206437016e-001, 1.27694023331037104230e-001, 9.82144734911054584359e-002, -3.55357980975222753628e-002, -1.03977309863695757675e-001, 9.64314236489816900555e-002, -1.62170708367805685435e-002, 1.44415648223496034808e-001, -8.93932989643482917019e-002, 1.14353942918004880536e-001, 4.27439200603381141974e-002, 8.12499181700659378613e-002, 4.94717725128232602150e-002, -2.05138093329450890701e-002, 5.63885476207431970974e-002, -1.49146818960358782530e-002, 1.73629070457860495980e-001, -1.59538335491783492270e-002, 1.15681915500854583245e-002, -7.51125580452921270957e-002, 2.69962053470158072632e-002, 2.09500512400574642746e-002, -1.08635751311614542347e-001, -2.21703762228251007038e-002, 7.51617892639034196334e-002, 1.15667099464330791481e-001, 1.24062429361906749470e-002, 2.98256353182897934739e-002, 7.66303393197175497509e-002, -1.54890227150301755532e-002, 5.24699419578729814306e-002, -1.09333183625489785418e-001, -7.70231772576193129964e-002, -6.54165398988793556079e-002, 4.93863244148546320922e-002, 1.70899833101729320406e-001, 1.97768257334812846970e-001, 3.05151068164634560465e-004, 1.03335786819021321903e-001, -9.92823065894861550573e-002, -2.04594942070976957074e-003, -1.05303950670060902928e-001, -1.09491623031575502356e-001, 6.93505087402460779211e-002, 2.04967133510341403824e-001, 2.11519003659022264419e-001, 1.03385696184156508637e-001, -3.55058014011710165736e-002, 4.00356445825795215221e-002, 1.99383444841161466821e-002, -3.73726868758536417969e-002, -5.59030374797476609094e-002, 1.94315572435959288411e-001, 8.99015307211604858262e-002, 4.12745912119838256893e-002, 7.78227370344079516506e-002, 3.79720554574610388854e-002, 1.08493957586881364930e-001, -6.41884732386005518734e-002, -1.43242853064393438345e-001, -4.84369728966180385088e-002, -1.63816437786859329939e-002, 2.05592631377230855572e-001, 3.52368228903728597512e-001, 1.10671412205262484352e-001, 9.68129049890525811284e-002, -5.87937958857615294850e-002, -5.90776185924832830665e-002, -1.71339083854025797660e-001, -7.40249653955312864051e-002, 2.35845728252493010146e-002, -1.60411716189099015292e-003, 1.37958791946026476660e-001, 1.96995647803488577177e-001, 1.73808070037231671146e-001, -9.10667117608052537059e-003, -1.12963738195895682659e-002, -6.21364389365779284935e-002, -2.36123212208878524576e-001, 1.45664429244647675166e-001, 1.20384038509558921604e-001, 7.78355490938956590119e-002, 1.58654489880743682084e-001, -6.78933161228218867711e-002, 6.69787244587626978687e-002, -1.29423040657794169439e-001, 8.59643421406424412812e-002, -9.90696285542504717636e-002, 1.01220164320551239689e-001, -5.38352199173396314680e-002, -1.52751156998039688134e-002, -7.96499355223320021357e-002, 7.34005757876958486730e-002, 8.82356437759117956388e-002, -4.59381502323860102521e-002, 3.31208716639935524945e-003, 1.85010993094840009432e-002, 1.16446750690343492352e-001, 1.70386136815038169434e-001, 5.48271681959640183601e-002, 5.93725153405273292639e-002, 1.39624812695709976662e-001, 9.84232914832932209714e-002, -5.34510734112982957567e-002, -9.63873287113127530379e-002, -5.29044168229499539580e-002, -2.29365542370681962936e-002, 6.16435996444935317695e-003, 3.89662712881436792967e-002, -8.86966524510941350945e-002, -2.12347316522230045166e-002, -1.93282877831389456047e-002, 4.34890149963873540173e-002, -1.55755830894233282535e-001, -9.47091817845910899365e-002, -7.33390050206143562228e-002, 1.09693842364227689412e-001, 1.42163270186995149835e-001, -2.61506568529412501689e-002, 5.66329181423398386741e-002, -3.37346353533359219479e-002, -1.60431351300175939478e-002, -1.44810150891772432269e-001, 9.81958757338229461589e-004, -7.33224922407535034674e-002, 7.44295910821457431389e-003, 1.25499127697913298585e-001, 7.39402777057006771466e-002, 1.23416072148282360277e-001, -1.61410737114973273400e-003, -3.98623427013738013125e-002, 6.42987516121511504252e-002, -8.09136641476016355012e-002, 9.87869666594924367153e-002, 1.38964365554687691029e-001, 9.76077884423213470999e-002, 6.67176947653414821604e-003, -4.82101435679944470558e-002, -1.15234194558495404298e-002, 4.81896249013422164897e-002, -1.18526182838439627515e-002, 1.14978922984333736812e-001, 2.58276655266787870391e-002, 1.39214412600645841278e-002, 1.32321944828090010127e-001, 8.46461676238048216225e-002, -9.89825893886180085968e-003, -1.34614056513658701675e-002, -2.01059618715609539352e-002, 1.30837092089554213326e-001, 8.69983001227254415522e-002, 1.05117097896029673687e-001, 5.31754234181903776002e-002, 2.15412658145298224754e-001, -1.12443430027074811606e-001, -9.30338705647048708203e-002, -1.46441728299936905350e-002, -6.41981956590007701857e-002, -4.12030792142542290346e-002, 1.39062917946367853306e-001, -3.00049191668755391160e-002, -5.46579072247093469827e-002, 8.69535042571129013211e-002, 9.42869596509081711599e-003, 3.40605432878058472790e-002, 1.91562920011131357367e-002, 5.66558990696645684015e-002, -6.78328817078273776930e-002, -1.30076886187408286011e-001, 1.46991653033949985080e-002, -7.10966203663743051555e-002, 1.34689988723226850009e-001, 1.99178228927381240076e-001, 1.61739627189339013613e-001, -1.62593726655336709430e-003, -3.01732696410450980384e-002, -7.00674290674720978700e-002, -5.92889750666741252583e-002, 1.05579395020978072939e-001, 1.22806615590906748059e-001, 8.28556651477814765094e-002, 1.79466264014540937376e-003, -2.73151704736368690363e-002, 4.58925884451668875119e-002, -1.14198731428873587190e-001, -2.85624052772220533847e-002, 2.75449421526564111606e-002, 4.56944070670888338737e-002, 4.53617061360383627688e-002, -3.05232357397693457313e-002, 6.62157873391918255779e-002, 1.34185050977703418384e-001, 1.06157718481995386184e-001, -1.23619906843691174103e-001, -7.54190858806632197231e-002, -1.40750962597629758477e-001, 4.95373991574679997663e-002, 1.17932371047886341842e-001, -1.82466403118619530099e-001, 4.35188309642820236878e-002, 1.05151341613793955498e-001, 2.56899265095656935409e-002, 4.65339003285519040021e-002, -1.58551645992962231269e-001, -6.54075335388905748646e-002, 9.89315744831235632795e-002, 1.10673099028399057886e-001, -2.33948443211523526841e-002, 2.92445983066222714442e-001, 1.27003317226380779692e-001, -2.57343111092292256559e-002, -1.12024343982672539011e-001, -5.79093251359677069212e-002, -1.19077943674719383127e-001, -1.72066084383450876305e-002, 7.42333549366023942584e-002, 1.18536035443043211157e-001, -5.55250660031803705552e-003, 5.71839128198973339900e-002, 5.78602511261574539714e-002, 6.68899108548106080541e-002, -5.51223688720056947954e-002, -1.33547486801509823762e-001, -2.47739540485601372755e-001, -9.07694872272571048888e-003, 5.80194064959430044759e-001, 1.72224766441850640764e-001, 5.31682541251952966999e-002, -2.03153362164026435321e-001, -2.11623333911715671984e-001, 8.11204963506410442475e-002, 5.83732678423784623334e-001, 4.25805378839109793798e-001, 2.69451748803152646428e-001, 2.81110606194522216761e-001, 2.45681308741156873010e-001, -1.86894770354160438819e-001, -4.58332976595448804424e-001, 2.24458413590652647307e-002, 2.15629028005224460118e-001, 1.73667422895211809308e-001, 2.14923985976812031984e-001, -5.91808412816722043126e-002, 8.25319230856292884724e-002, -7.28920271254049900733e-001, -5.89037861404188678449e-001, -3.80995724998392071292e-001, 8.41731680669095205793e-001, 6.78506981127049324520e-001, 7.10968297239344071414e-001, -3.77113213484941631193e-002, -2.43807065722536797647e-001, -1.54805300258203271113e-001, -1.96580844270302895760e-001, -1.14165796725922211174e-001, -2.37809105504283385679e-001, 6.02859788217744108074e-001, 2.77557166777781527678e-001, 3.77187845895669726648e-001, -2.68043141181704899778e-002, 2.94642968620364875676e-001, -2.55652293521887841177e-001, -5.55756350819573419209e-001, -6.16916420953151800610e-001, -2.93302220067497010358e-001, 5.61391832862920714398e-001, -7.27229001197381152988e-002, 4.00961094393318673301e-001, -2.28198724195952468152e-001, -2.98327838934730027454e-001, -3.73064492574789685619e-001, -7.98180551129597654070e-002, -2.55321936360912271624e-001, -7.20499559337180017771e-001, -5.93528286349803285704e-002, -8.42708054064759543023e-002, -1.48458579059852241455e-001, -1.69148561270186542638e-001, -3.92379121896056781704e-001, -6.25531937128106174661e-001, 1.92831659763383428396e-001, -1.49382975448144106334e-001, 1.83892166967684761447e-002, -2.67530759235039883315e-001, -3.45106270405769535725e-002, 1.75323934532695853428e-002, -2.19624071749116134278e-001, 2.80524634209115941719e-001, -1.80862561525952980634e-001, -1.76835564500403746857e-001, -4.28589622903976952273e-001, 8.71675566105363369696e-002, -3.46923965583778304289e-002, -6.09956423737549741082e-002, 1.23807639451246176421e-001, 1.37048800573368073641e-001, -7.04979107433982704611e-002, -1.43138919528347896559e-001, 1.17903063157783205561e-001, -4.15121565566038241979e-001, -1.99400951061944192721e-001, -2.02434113556223566066e-001, 1.82359669592559947571e-001, -2.39545279244168324295e-001, -2.15488045908013126084e-001, -1.76350237149548616511e-001, -4.10691748533741352034e-001, -2.27955065741872187068e-001, -4.00330614468903889236e-001, -5.55093081335915727870e-001, 4.70085533684505493812e-002, 3.01647587480424646256e-002, 2.33899143043687307575e-001, -3.98079444127284909349e-001, -2.40090890382960553406e-001, -1.84618551356278033648e-002, 3.71542905113490695701e-001, 2.38723956963334926762e-001, -2.78617134142270794772e-001, -4.83745139885914554601e-001, -4.94014059657173598694e-001, -4.51941927583626223974e-001, -2.95912734733404847454e-001, -1.73766535245697351098e-001, 1.82738969278581908640e-001, 1.42007212533773546914e-001, 1.48884232248313985725e-001, -4.70364856249446516845e-001, -1.72033492857626868489e-001, 1.08862134279528038894e-001, 6.79928213005336623542e-002, 4.97328780013330841447e-003, 1.93375199642483702744e-001, -1.44508870091308916361e-001, -1.02513227075435725544e-001, -2.17767567227601904767e-001, -1.34127998528487279994e-001, 4.47282081168541401084e-001, 2.28500213765908372077e-001, 4.03134336483374433602e-001, -4.40233013864320565922e-001, -5.48024025113136192822e-001, -4.05384937155640390216e-001, 1.79724214127586837120e-002, -2.19930080494870061614e-001, -8.04678855538660253721e-002, 2.11407492130824437027e-001, 3.07596819576660074347e-001, 2.48263074702212926947e-001, -3.31463835199774237150e-001, -3.57401944014540229322e-001, -3.78849527973035005157e-001, -2.66095087945303065968e-001, -1.01501606652565412592e-001, -2.52738301473493132132e-001, -5.06547085920403331039e-002, -1.42028213177238654685e-001, -1.92627628353649799076e-001, -1.66905806395681477472e-001, 3.61117376988742896926e-002, 3.80369004993937886994e-002, 6.05724179435875517696e-002, -3.30936059247565889097e-002, -1.16653122325626565359e-001, -1.88869800860184344771e-001, 1.21553248304323152640e-001, -3.13068951154998054154e-001, -1.64453293868473016115e-001, 5.26001855493282224896e-002, -2.45931506244394026961e-001, 3.23645193897724448018e-001, -4.57904373404943582093e-002, 4.56994756084186326550e-001, -2.27412266203280449828e-001, -3.73567032511694707697e-001, -6.16955344811614403433e-001, -1.64173732625826046538e-001, 4.54850628356810518516e-002, -2.46203408699542908300e-001, 4.24542837423696417520e-001, 3.81733628953534256945e-002, 1.34162718694473520609e-001, -1.71660730916009030000e-001, 5.43475903354240855170e-002, -2.03380338407808419765e-001, 1.79225349767954789115e-001, -1.21008295383936356759e-001, -4.47983897798973282334e-002, -5.47041902916933636680e-002, 6.30010765054913879357e-002, 2.96852194124395174502e-001, -3.08027511870663933680e-002, -2.25224592956242114505e-001, 1.65063828761372266563e-001, -1.97616270793020243346e-001, -1.92916230975730240704e-001, 1.60136630380750405456e-001, 1.77025369637823642988e-001, 1.58395673920545543290e-002, 3.25808713776084057923e-001, -5.72018244550886789668e-001, -3.19734460834820155561e-001, -3.27235191360772281755e-001, -1.82542347857030190506e-001, 2.36453291538270798933e-001, 1.94244059399275061095e-002, 5.23198740168540954443e-001, 4.49770447828658048728e-001, 3.87136647151860857630e-001, -3.82724362180682731172e-001, -2.76034809339521902682e-001, -1.97842582805480032837e-001, -1.65137584296491418678e-001, 4.19884033225578490178e-002, 2.93271421231341922198e-001, 6.85865208984277718862e-001, 7.97247736758262548484e-001, 7.12073487264770710325e-001, 1.54540368365269110973e-002, -1.59252291368909421054e-001, -2.51821631423546181405e-002, -1.12049009092070425697e-001, 2.42908371050858412632e-001, 1.12239335400264511611e-001, 3.59382571165116571077e-001, 1.03773726639750964174e-002, 1.27244148281736579875e-001, -2.90739011767467914193e-001, -1.92530297140544481849e-001, -3.17689917452748937787e-001, -3.21790331845998867077e-001, -3.15524208530325922517e-001, 2.61374542570431356303e-001, 4.59630241512783199731e-001, 2.01837086083126504565e-001, -7.96065413887949990812e-002, -3.26116160431306756351e-001, -2.80401831857858219177e-001, -3.96590809846158964813e-001, -5.38239225395517384420e-001, -3.21705087598763983525e-001, -5.35791995554366740073e-001, 3.31209706132788994637e-001, 1.61825895280014279976e-002, 1.93920134345636707707e-001, 7.66097168874917272552e-002, -2.84046660243751879216e-002, -2.15776376120831087091e-001, -6.95314832350294342866e-001, -4.79920571862929246088e-001, -5.02360465792979549171e-001, 2.12390036739800724952e-001, 2.44274325041463180597e-001, -1.18635537044534146445e-002, -3.71244417282097338706e-001, -1.90209865537075029085e-001, -3.55276416373873360488e-001, -4.42358542841843338511e-001, -2.70403973226067684266e-001, -4.30079606803195790832e-001, -1.90198035400695714126e-001, 1.54611348722197977645e-001, 7.05584099483268084585e-002, -3.86038214226439080345e-001, -9.81954202272389449491e-003, -1.48985136366672765718e-001, -4.14833196275639193296e-001, -4.14952576172862575010e-001, -1.80215776427193330456e-001, 2.98873914361539372297e-001, 8.74635396242076507134e-002, 3.21314339262336823300e-001, -2.29963963670589771615e-001, -9.85073326447351987900e-003, -2.29434578341561445924e-001, -1.46673459438628361884e-001, -1.46857599177208780761e-001, -4.90029228373645778238e-002, 1.18992230165826953781e-001, -9.15487057843635959609e-002, 1.25603869248765376287e-001, 2.75482447008854436366e-001, -1.45949504908162802641e-001, 1.28911114133751975031e-001, -7.10078672891699902436e-001, -7.16399021871395813577e-001, -5.42760640756406953500e-001, 1.66777611740832637510e-001, 1.87467546463125744882e-001, 2.08144572631531465934e-001, 5.42066013056006004711e-002, 1.32290558720680823113e-001, 1.05366963953051645531e-001, -7.49433346827825919156e-001, -3.48945069573516397643e-001, -4.17416218943123085161e-001, 7.82873738196906837628e-002, 7.26321254151503226115e-002, -1.89675180014670624606e-001, 4.60225948261688208585e-002, -4.36966902342450572161e-002, 2.35495490624298003945e-001, -5.51576311105135164148e-001, -2.20715350712288260748e-001, -4.39721966584233070474e-001, 1.74983629641280946654e-001, 3.94765012303323337139e-001, 2.19947549952991622257e-001, 1.75642024236422583661e-001, 1.88946877404964547198e-001, 3.55580072872206442991e-001, -8.50875278772718068865e-002, -4.28955285198871438812e-001, -3.98475891848962329722e-002, -2.88577608234486526761e-001, -2.48327525867831383488e-001, -4.71928583712953597651e-001, 1.10825400550301544911e-001, 1.13961400149863181785e-001, -3.47325547732330319750e-002, -4.25936597440634279188e-001, -4.11931021713450085109e-001, -2.99522790124932658529e-001, 2.86740058913401880958e-002, 1.31786543761963415022e-001, 4.11776371793137974109e-001, 5.52436750169244261688e-002, 3.13558871741043354575e-001, 5.20462917790758053393e-002, 3.08947593260511521596e-002, -3.37109823557010634953e-001, -2.72698602382371924069e-001, 2.96196950534164504809e-001, 4.10991409213898650776e-001, 7.80075250484642768178e-001, -2.39137155505366905128e-001, 2.30580728661643960531e-002, -1.28184129006638891646e-001, -4.81552828114953035410e-001, -3.89926774214212346070e-001, -2.43453050592500386262e-001, 9.85703385981327034893e-003, 3.82931084652004677382e-002, 3.06469687272196811278e-001, -1.96650825033678026965e-002, -2.12174725883423731521e-001, 6.06275485912841430314e-002, -5.63535305277763742815e-001, -3.25711629180227335567e-001, -2.73822575288242053837e-001, 2.65571171201866906841e-001, 3.97382308845509513162e-001, 4.59415557643171379443e-001, -2.71661493367515050057e-001, -2.44612733993034403568e-001, -3.01123955881340887863e-001, -7.64978768155105459670e-001, -1.16295120308377672447e-001, -7.10653558955480879611e-001, -2.60985515689946510898e-002, 9.66613034347845595518e-002, 3.56769493347619814916e-001, -2.51296332715039039130e-001, -1.30658242342272024050e-001, -2.16909081174486345622e-001, -5.16716044203168189952e-001, -1.91731156235653774078e-002, -4.59009291028901367238e-001, 1.04908273764480397539e+000, 7.28666077169391468438e-001, 4.82901793826722436354e-001, -2.67519646385524445531e-001, -2.99668070549176879247e-001, -2.20312772041515170240e-001, -4.41616972528047990743e-001, -5.34276922544670962445e-001, -4.76054294893626051000e-001, 3.73849312860090488009e-001, 2.48201072977117714879e-001, 2.60851071202209752742e-002, -2.33039027732905329460e-001, -3.68756696978694009648e-001, -3.41349977715646346610e-001, -1.94124072996438551408e-001, -3.97657663739667155411e-001, -3.11397333962117495165e-001, 2.91529394389733534365e-002, 6.49860096950734128507e-002, 8.65658028580120614270e-002, 2.04606869894959714218e-001, 9.09547287412283689267e-002, -1.01593072939168943547e-001, -3.52849878425664176262e-001, -2.40176894774083216078e-001, -2.98195931893126042755e-001, -1.92173610577912809538e-002, 1.35398962617090418137e-001, 2.37284831565417464461e-001, 5.34087693929632817413e-002, 1.49460863113468345187e-002, 3.07370864106362648438e-002, -9.98888452104201990389e-002, -1.58564257384046752852e-001, -7.11974124356186573170e-003, 1.41117307882546005882e-001, 2.41638693102735585549e-001, 1.18260997800010397851e-001, -8.79152885240288700652e-002, -8.75695739039495796296e-002, -1.28808001680955519497e-001, 6.79959939211418895599e-002, -7.99223214507519541527e-002, -1.49616422292762063506e-001, 6.04621522520902218711e-002, 1.47805475743945341494e-001, 1.60314210590990713357e-001, -5.99123051390521924042e-002, -5.24407974714062308230e-002, -2.53000490700508562369e-001, -3.93085603878829750735e-002, -1.22123019373975821855e-001, 1.39955163235434804081e-001, 2.17763649086512051101e-001, 1.49349857344444780782e-001, 4.47626026348971958746e-002, -2.21544535442135620551e-001, 3.74422642406562755646e-002, -7.35520641602192409847e-002, 8.45159777932606715023e-002, 1.13473824938807282825e-001, 1.36903693540071980106e-001, 2.62092263256942514804e-002, -5.57509660383674748863e-002, 1.22772168313862159450e-001, -3.01937859522319156091e-002, 7.97475509432459400694e-002, 4.73652992531975111645e-002, -1.04449020676463152912e-001, 1.90641629119281614049e-003, 2.85635302680486112548e-002, -1.11480549573454643109e-001, -1.11365589123678604758e-003, -1.62690349898155645070e-001, -3.18075837258516083694e-002, 1.96023914332818776501e-003, -1.08748205423476559939e-001, -9.60157478262425173599e-002, -2.84253083577461651554e-001, 2.14641376277955701901e-002, -6.01595932256351051404e-002, 2.65371255034720643362e-002, -1.65608739809637271756e-002, 4.96749148115867462938e-003, 6.42175608609818048683e-003, -5.95325526719689482325e-002, -1.20704554949511461137e-001, -2.52228488574558151747e-001, -1.41697278225841633015e-001, -6.83420653374367526034e-002, 1.56316737722472814953e-001, -4.31301673981059688345e-002, 7.86953100329901011900e-002, -9.17544161402919639103e-002, -5.22438887664785842069e-002, -1.36091350208003308841e-001, -2.12218691393688763114e-001, 1.06103892660088343358e-002, 3.54443010041113337749e-001, 3.15646477550548087976e-001, 2.62310040295354929274e-001, -9.49524268852781488937e-002, -1.52115302235680427412e-001, -1.05748357351929778147e-001, -6.49345847083125128629e-003, -1.57672109546356964405e-001, -2.49134799772668585893e-001, 8.95182451113809077303e-004, 2.40229404556786263480e-002, 1.42584644154852713954e-002, 2.23406340736479643028e-002, 1.50181809348767431045e-001, -1.25330373142122308838e-001, -6.95427001097159297460e-002, -2.06846492780815606471e-002, -1.66977883738396365443e-001, -1.01921332310616688521e-001, -7.28768490064986285137e-002, 3.37570018647669223277e-001, -8.06045951418063733040e-002, -1.03938219744441912723e-002, -7.44767479707423851742e-002, -5.05870315212275378780e-002, -3.53562130522274281619e-002, -1.94072043536052063484e-001, -4.46458721631490598747e-002, 7.09777546240642626119e-002, 3.19283595573129769241e-002, -6.02758350101267603716e-002, -4.74178799314669968679e-002, -2.55063181538405681081e-001, -4.61824841111582659603e-002, -6.02760261695699864348e-002, -5.27831311683763515497e-002, -1.55286818124125858970e-002, 7.87036538256108003653e-002, -7.50440036684207195661e-002, -2.54171479254154050742e-002, -1.06686127568803232335e-001, 6.01250965366247752675e-002, -4.05889543049497425464e-002, -2.22511461430732027100e-001, -2.20861445232533176730e-001, 1.19857480173947608670e-001, -2.78682196577833968254e-002, 6.43987007833065061568e-002, -7.88668587491809236489e-002, -8.22193194118166215123e-002, -1.01189056803217408698e-001, -1.25335452928134222228e-001, -1.43099231444047680917e-001, -1.43597720982955284752e-001, 4.32385708695331091866e-002, -9.75886388431372320262e-002, -1.06447659880374578822e-002, 2.40592334124534283635e-002, -1.44939790979298821494e-001, 7.12084414346638300275e-002, -3.48618758940944170610e-002, -7.24725461759123806837e-002, -1.15467652076489110669e-001, -2.21465120736788062539e-002, 9.07758250143581996161e-002, -1.65835761164964234915e-001, -8.39398589462610755785e-002, 6.82448884275807798883e-002, 9.06495066103565061422e-002, -2.66718965712975819571e-001, -1.79883983526129831443e-001, -7.47576717254345296526e-002, -4.25901245991581883787e-002, 4.30520059130013732496e-002, 1.92682152103800657938e-001, -1.53557264645704377726e-001, -1.85677910096559178887e-001, 9.79065946269334491658e-002, -1.70024565717835501877e-001, -1.54785588178052435637e-001, -9.96382367623195874806e-002, 5.53213440216320517795e-002, 3.21310384234029383643e-002, 5.24555529154743724329e-002, -1.50144268846871941497e-002, -1.00040978876101138706e-001, -7.87017588285774186141e-003, -1.77008403548579634768e-001, -1.88015046129820145859e-001, -2.48700470837035420013e-001, -9.59760914137142429059e-002, 3.14588662091636397933e-002, 2.76038229783624258773e-002, 1.57633587643504269327e-001, 9.38170074186463198718e-002, -5.80536591099855420195e-003, -1.93166212660969338621e-001, -2.07332334867024209446e-001, -8.01386909745431669228e-002, 1.46462147364179572778e-002, -1.65384128318492390486e-001, -5.44635949413937239805e-002, 5.05219112736153899701e-002, 2.18834380298299699397e-002, 5.19623728146597317623e-003, -1.86431225091009927786e-001, -1.62286850965968065807e-001, -2.50902907654453055653e-001, 4.17558362463803234288e-002, -1.59610617152282086018e-001, -1.40305106387043965199e-001, 1.35767159909031751019e-002, 1.84138724194945792301e-002, -3.89084901813004438442e-002, 1.89515625406367071992e-002, -1.41001213484031662215e-001, -6.86200569419178479924e-002, -3.06292591543198371162e-002, 5.65048844052286475259e-002, 1.54672244773524064643e-001, -2.27649390980049597111e-002, 5.27578128735485957224e-002, -1.15877609070149906190e-001, -1.03397993301512919340e-001, -2.00923657118126403054e-001, -1.17976677777539284975e-001, 6.91382714875214687833e-002, -4.39792623559726175708e-002, 9.66179387326292216098e-003, 1.51678681954780542052e-001, 8.54132796240418268319e-002, 2.42351796741261893420e-001, -9.51690071415947635991e-002, 2.69295477428553343968e-002, -1.55848078788646982051e-001, -5.28931017892020557958e-002, 1.83726906945399975912e-001, 1.10680894836531595882e-001, -1.44594788370910054542e-001, -2.27345679868829336767e-002, -4.24488536608405089834e-002, -3.02064039298446072868e-003, -1.23930048953209363122e-002, -6.36648707919141992884e-002, -1.73774890346091615001e-001, -1.14243570282439199648e-001, -1.81050596131503344077e-001, 1.10363872747389693552e-001, -1.36061028345928567568e-002, 7.82807060070741383973e-002, -9.71095501260870325178e-002, -1.50957077837416304977e-002, 9.13667233649867417331e-004, 5.85668605459271143787e-002, 1.36020289789780923773e-001, 5.44017490962735092430e-002, 1.06356985593903136111e-001, -3.96800839490586421121e-002, 1.82045035330594656697e-001, -1.25809179394286957399e-001, -1.66746392091448019518e-003, 8.07540652263689495011e-004, -2.11522172316205292475e-001, 1.64666840621302719427e-002, -8.38712051785249351754e-002, -9.46976496567574974050e-003, -6.54750408562649877098e-002, -1.43480993289474174912e-002, -1.66697369479579887708e-001, -2.21994391169702293132e-001, -1.02288410587624944981e-001, -1.71269005435370907930e-002, 5.02662421160780456542e-002, -1.10067342449392840953e-001, -1.66430801597550664939e-001, 3.20371672187780426322e-002, -1.20792466813662305314e-001, -1.03417485182147661504e-001, 8.13876086939242099350e-003, -3.34344085282787320534e-002, -2.02720276029082685509e-001, -1.03705693932729658968e-001, -2.51309412728048450769e-002, 3.07443598845343335491e-002, -1.92137250438539325392e-001, -2.21643671302452806293e-002, 9.81226286542802861312e-002, -4.79507284079929360643e-002, -9.63780079864372807297e-002, 6.71682549536910811216e-002, 2.71388386955481696050e-002, -1.39854964963850580961e-002, -6.25471164105955573786e-002, -4.42682783005457006209e-002, 1.58716231946919202056e-003, -4.37560498862939184495e-002, 5.04156824118113730537e-002, 7.00309222711900936087e-002, -6.59796020867860818354e-003, -3.63059178338197563463e-002, 5.67467928550091579853e-002, -9.74782506973228754510e-003, 1.97806540741565020647e-002, -2.42106996080509451197e-001, -1.26675661232648867349e-001, -2.07338199071889689451e-001, -9.14714839614392399847e-002, -1.87518453405705401438e-002, -6.28040091384302057165e-002, 4.78497448018317325658e-002, 9.48997540129463273972e-002, 1.24816233555413609591e-002, 3.25051809549967542570e-003, -3.82918521306163661677e-002, -1.67473766742191970680e-001, -1.85068332908975008433e-001, -4.32896336366055886624e-002, 6.82633560737439387678e-002, 1.24017581993154407671e-001, 3.74997543565537341803e-002, -3.52099725515504849427e-002, 6.35495271171107739550e-002, 2.83973289588732510924e-002, -1.79649396191726096195e-001, -1.51784627564910790110e-001, -1.30423262322171634731e-001, -1.27115018228706133652e-001, -1.78636404672043169750e-001, -1.21043570406710876419e-001, -4.99468470032301062322e-002, -2.63966377803375104594e-002, -8.68637337296941786091e-002, 1.51304581872275412113e-001, -5.73721334096582644135e-002, -7.86988722045031813268e-002, 6.26402758188586011867e-002, 1.85660777740815907677e-002, -1.66264312401434966038e-001, 1.55696112192076074887e-002, 2.62314919011028095663e-002, -5.38743201300862853409e-002, 4.55989323082429259815e-002, 7.43731459393575100592e-002, -1.27370318137856042284e-001, -2.09446566528508154592e-001, -1.42634917942806388469e-001, 7.63216006058023976877e-002, 1.46384830455298847740e-001, -2.90828459759924391748e-002, 1.63351115268006080727e-001, -1.52322060067506648284e-001, 6.14266572503796431937e-002, 5.74156681790387729558e-002, -9.41112075878465237366e-002, -1.81605273201124350901e-001, 2.45311223614859408304e-002, 6.62848866902327471529e-002, -2.35424516203123976310e-002, -5.24161871710399768221e-002, -2.04722759356021875854e-002, -6.40891144970166248829e-002, -2.65120901451853574482e-001, -2.86951639712664630100e-001, -2.14234726420916773981e-002, 1.18493563847024627189e-001, 8.74182507913789652587e-002, 9.06518714290680260870e-002, 1.72607025223746567144e-002, -2.99684074495425376017e-002, 6.49245554704628996534e-002, -1.36512650908327842769e-001, -2.17820558596662910977e-001, -7.91928754162805198513e-002, 9.50495700447643587783e-002, -6.54840691556925549865e-003, 1.13092091472920347472e-001, -3.21106375224352799669e-002, -9.20367660753461241940e-002, -1.58313935385770043762e-001, 7.57191228239841862546e-002, 5.31307363719538128244e-002, 1.11789762412490667476e-001, 1.02921319949261180771e-001, 1.58730409810856926134e-001, 9.87964117468345531803e-002, -1.03062378479873206771e-001, -3.21360583681771436182e-002, -1.00010704677674436280e-001, 2.48831720239172327069e-001, 1.27942380122680637866e-001, 5.63220083174184038555e-002, 2.41606808674375284074e-001, 1.18132154268101946526e-001, 1.57700179545328500463e-001, 7.41215207521682545311e-002, -4.53304357919941044996e-002, -7.31436013870549305710e-003, 1.23997101655095157136e-001, 4.49680687502268527922e-002, 1.99298564643397096985e-001, 2.23751746040132620807e-001, 3.22815689836852659500e-001, 2.18790007510572925842e-001, 6.74537002863981743905e-002, 5.04538029769100240807e-002, -1.19747206883035445246e-001, 1.27779906921595493019e-001, 2.66136556687904868301e-001, 2.42655952570570120075e-002, 7.30926043327785740500e-002, 2.25257530177851494901e-001, 1.72344342027994090749e-001, 1.37067002415412614313e-001, 1.18529916237244126176e-001, -1.68326893526417997737e-001, 1.81842787427135277323e-001, -4.20175754476483781508e-002, 1.53199209932953078761e-001, 2.88054266624967192367e-001, 1.17435889770439685909e-001, 7.83649761653366916381e-002, 1.48443824727739537295e-001, 2.04055951725583446799e-002, -1.11285968951098213076e-001, 1.13432108288873990942e-003, -1.43122432617893910467e-002, 1.16472008267451535013e-001, 1.62208592472452978184e-001, 6.30229418779958000529e-002, 1.64570141670977887483e-001, -1.66406020426395073741e-001, -7.24160479454812044953e-002, -1.59818447768653275343e-002, 4.09993177388843776932e-002, -3.54824930351971754017e-002, -1.57930466185015709601e-002, 2.29970449823182002125e-002, 2.09037143128027930183e-001, 1.57959239587116273551e-001, -1.26487673231132941032e-001, -7.72818931966007816037e-002, 1.53164845651561007389e-002, 7.35149082706680334631e-002, -3.93251406221049731871e-002, 2.32560493420831043698e-001, 2.91424719335535709064e-001, 1.42516063140161353129e-001, 2.23305273692382344475e-001, -1.01550936706174918522e-001, 9.19669379891410558592e-003, -1.13301488126648936677e-002, 1.77162692012183514700e-001, 3.68438861321990218656e-002, 1.07382945662522003016e-001, 2.34734285494366479163e-001, 1.24785317260352746072e-001, 2.23739223920874141793e-001, -1.31289419555665504147e-001, -8.94663041398180945707e-003, -8.63588775792164253797e-002, 2.30061149552141797070e-001, 7.49704392058269247778e-002, -1.20199161216318337053e-001, 1.16601331472892796870e-001, 2.60897545891563664711e-001, 2.88341509055028200059e-001, -1.52463527453430502945e-001, -1.62950244046777298346e-001, -1.16167433697068389620e-001, 7.59698577972977573403e-002, 3.06809650474045673973e-002, 1.21667086697774678994e-001, 1.63535196906034768771e-001, -7.58660793117697709181e-003, 4.13359418881211262975e-002, -1.28108425530142872040e-001, 1.76506887568205171613e-002, -5.06826724646045403966e-002, 2.12390080248593016155e-001, 1.20647398067468561433e-001, 6.59570995127506110034e-002, 1.59943111745466604035e-001, 1.56853035226133086244e-001, 2.32793677695963013852e-001, -6.26386391707891565517e-002, -1.59983576224851709036e-001, -1.28094271166134504591e-001, 9.99519627550926742510e-002, 6.15647580771270103162e-002, 3.19012944573432606632e-003, 2.09551658408586555238e-001, 1.19145946059480839496e-001, 1.01141533678576034383e-001, -2.49181232844789518621e-001, -7.98591169311381812723e-003, -1.72265677681810336352e-001, 6.44041246837950692727e-002, 1.03569177953512794876e-001, 5.94403189312437546521e-002, 2.40276632575946974546e-001, 2.34345422529558838898e-001, 1.79371462899570593974e-001, -8.86464610700154198586e-002, -4.58998772627329174045e-002, -1.90746858513261785539e-001, -3.09560150547661967063e-003, 2.19720590947278943128e-001, 1.60739960016403116150e-001, 2.30737975095498454303e-001, 7.75311816302907547138e-002, 1.09251027963546860911e-002, -2.09530398849814225581e-001, -2.03153655129105492616e-001, -4.11711759901962279229e-002, -4.30553231653122044087e-003, -5.46069362471334526082e-003, 1.70098876377276442273e-001, -5.32949563150602202005e-003, 1.99347653163995247594e-001, 5.94173847719031075765e-002, -1.51624672581121888726e-001, -1.90499594363320617907e-001, -1.35802432923068927551e-001, 1.95937679164163935930e-001, 2.22447550658192411133e-001, -1.37147203345419008147e-002, 2.28354051934956253644e-001, 1.99254904928188841806e-001, 1.27350058029840618179e-001, 1.72032686910063422822e-003, -2.10602012357752693683e-001, -4.17114962590134086273e-002, 2.00323525089671078403e-001, 1.26361488253786569125e-001, 1.75596860812325700207e-001, 8.36811154859478517620e-002, 6.66270970293920405947e-002, 6.34017721644023063421e-002, -1.81075235662006839288e-002, -2.56482535443202652736e-001, -2.57935780421488305980e-002, 1.74693673350057421256e-001, 2.35179170586147151534e-001, 5.23743956160732312966e-002, 2.95413578933646059355e-001, 2.54083257404427886872e-001, 1.70475063759606693115e-002, -5.43303466767187173692e-002, -1.84265702689863086761e-002, -5.68220271226022102806e-002, -5.45121503305095837788e-003, -8.33867090307559150064e-002, 4.81918132599509635439e-002, 3.67839384044073153257e-002, 1.74553029736145781659e-001, 2.24321989070668581512e-001, -1.60827248196414585024e-001, -7.63846912063602112575e-002, -1.70388889651361008504e-001, -1.19739548428950598469e-001, -7.95942469013918092909e-004, -2.83810038202301634369e-002, 1.51254070489719227854e-001, 1.32482420197238576209e-001, 1.44553831758573086974e-001, -1.16307203120102037319e-001, -7.66442897400898409677e-002, -2.93899411527334786243e-001, -9.56143689507158306418e-002, 1.35968357289377450581e-001, 1.18686712444908328695e-002, 1.35695138045327151621e-001, 1.32644391200101546824e-001, 2.12436846590821279412e-002, -2.58562520892980207687e-001, 3.83032666067529350973e-002, -1.02743097632431654165e-001, 1.58037357978016490545e-001, 1.09208047290399623552e-001, 4.38298883497600030856e-002, 8.06843925051959620642e-002, 2.17408372885752043668e-001, 1.22427897044271788429e-001, -1.22775031957155542073e-001, -4.64785409617252329162e-002, -2.45399014485968708366e-002, 9.94216169288246465197e-002, 1.12256439914399736013e-001, 7.73365082663589609169e-002, 5.58013356456484171941e-002, 1.89091356016109102267e-001, 1.72299845871805606956e-001, -9.77452648600736634377e-002, -7.39006063697563303494e-002, -1.92588989847978370173e-001, -6.17788499472160315684e-002, 1.55129700046730545360e-001, 3.55338093012333572362e-002, 1.53354217477189136432e-001, 1.03896018213494603644e-001, 1.78738889619268565001e-001, -1.63361516911571885702e-001, -3.14695222377863181862e-002, -1.41371600605241731774e-001, 1.13189751911872797663e-002, -2.75801098233272624916e-002, 2.13258847071832652320e-001, 2.05738209229400614841e-001, 2.09383884395259151079e-001, 2.92661464105483451470e-002, -2.18196503988028089882e-001, 1.28845674930808812286e-002, -1.58761488007196749361e-001, 1.62171626750416020268e-001, 5.25777590638633468556e-002, -3.06174389134787096334e-003, 7.66407162469999736487e-002, 7.01537617444306232928e-002, 1.28569872534644885631e-001, -2.06966770915058023705e-001, 6.39185577408648251951e-005, -1.67742365558835121453e-001, 5.60197818102965428011e-002, -2.01899101058903601702e-001, -5.70147368401474896604e-002, 7.54844657810518765428e-002, 1.44726734552695662783e-001, 5.53754293339511760585e-002, -3.79105243250380842535e-003, -7.98349682984105801786e-002, -1.38655498223839768190e-001, 1.94244107248268016441e-001, 4.90081449988918824157e-002, -3.36213710473636726017e-002, 1.23619024295084263543e-002, -2.21841572461585825882e-003, -2.38430119903854480234e-002, -2.45966507897197345089e-001, -1.50372145353961511605e-001, -2.00460239164674647316e-001, 6.32145818931089953363e-002, 3.78229734657895833028e-002, 3.77574945156481101005e-002, 9.33547516579569663930e-002, 1.19803859341704746488e-001, 9.88809251527427018891e-002, -2.93600119015975546954e-001, -4.79730436140633487163e-002, -2.55636068308363217927e-001, 3.77658202764247843963e-002, 9.44577742088363730977e-002, 1.09107148177446253157e-001, 1.97642426011194860536e-001, 5.46776389693828593352e-002, 1.46472042553617148863e-001, -1.55024458347692239979e-001, -3.53824203001005463398e-002, -2.52005257260324022628e-002, 7.44416245511117097289e-002, 7.05713874691252102123e-002, 4.63577903101757768378e-002, 2.10428820856670223405e-001, 1.78035530429962951526e-001, 2.98548907744500324757e-001, -1.37315288441492683313e-001, -1.19284815153643808383e-001, -1.12240300443420468191e-001, 2.62532569599256415671e-002, 4.20888229447964959395e-002, 9.92892495650067319346e-002, 6.23922400014134750923e-002, 8.99081632366502403464e-002, 6.07625755237712616985e-002, -1.62829914919481510971e-001, -1.61105988057706372985e-001, -1.57124772180872368521e-001, 6.17558212294768080208e-002, 1.12708608810229121699e-001, -9.83377716546812025156e-003, 3.57514569691997751572e-004, 1.13779458156083340681e-001, 3.60468859789874335187e-002, -1.28631794924063180829e-001, -1.74665627361543229767e-001, -8.93350478521548474475e-002, -3.15871003414548573440e-002, 1.73201509521692081917e-001, -4.90844328866271578660e-002, 1.94719011404750674821e-001, 1.09702525859621063953e-001, 1.50011222914280428764e-001, 2.15666434923443596505e-002, -5.51274807554469059578e-002, 5.23441491575686868032e-002, 4.41281900220420325587e-002, -5.01231508218583157732e-002, -7.91743598660827746505e-002, 8.51268090493456919265e-002, 8.48332985720655907702e-002, 1.84009615084697902843e-001, -5.12623464155450014879e-002, -1.24390232136064510238e-001, -1.59493356320535295545e-001, 9.82251493363100469658e-002, 1.60600160897718391428e-002, 5.25681297024186908184e-002, 1.93911521070704612191e-001, 2.37764136345284204932e-001, 2.10062190379048080446e-001, -1.52814626315635831988e-001, 6.49517737635542935504e-002, 3.50006956992918562624e-003, -9.05076387369302959307e-002, 5.81589054845526517989e-002, -2.06458329058587346239e-002, 5.52000353266635240823e-002, 1.42090594468621156388e-001, 7.22138342055311521772e-002, -1.72174697407954879758e-001, -4.94127253808110226962e-003, 1.94880863130938407346e-002, -1.65076902548753734479e-001, -3.92343931553553251779e-002, -1.02153283773606315399e-001, 2.35634131077778724572e-001, 8.20275959927644904290e-002, 1.48366999737648053159e-001, -2.11555859832731349771e-003, -1.54473048262706247336e-001, 6.56095087223876605176e-002, -2.17389701907365756606e-001, -1.59178534590210363220e-001, 7.20453153933785922503e-002, 8.48369871039247186451e-002, 1.08054408795764684409e-002, 2.51712856254876632400e-002, 3.16610779004162568029e-001, 4.24048591453224543724e-001, 4.57761244165008462925e-001, 1.04272740394683816056e-001, 5.26812883211173588194e-001, 2.50530975575214087669e-001, -1.57756903380712243390e-001, -3.06668850854957993068e-002, -5.60996689927946348003e-003, 3.84333968736519926424e-001, 4.05483942122577156741e-001, 2.70074856013348296724e-001, 1.01823757988340340974e-001, 3.14533887072240281313e-001, 3.92268752017056798742e-001, -1.96473685272981979377e-001, -1.66156696787642943480e-001, 4.04271740236725749332e-004, 3.43603605350549401454e-001, 1.55118101067043545616e-001, 7.40114383424850391657e-002, 3.49450371784315594326e-001, 1.46863174602306578720e-001, 1.89552204271063146068e-001, 2.45918062891005206883e-001, 4.19535870664533225294e-003, 6.62936628047096215832e-002, 1.31880956523070524966e-001, 1.87463805639510483481e-001, 2.15344554415801275882e-001, 3.62720405165376402756e-001, 3.13701315487999898846e-001, 4.48538641841549512446e-001, 2.44008845492704906643e-001, 1.14321470082072496055e-001, 2.18839438266242830577e-001, 2.96504302777917283507e-001, 4.05325041342242342601e-001, 2.65456250750048583509e-001, 2.08414863738935807191e-001, 1.86823678180788405045e-001, 2.05535665261878247589e-001, 5.65667424179470829104e-002, -7.39946497981201489758e-002, 9.05977649957134534286e-002, 2.39552514181133019422e-001, 4.84501189954268607352e-001, 3.06135902807999626951e-001, 1.25314253350957249822e-001, 2.31943953051766821316e-001, 1.89312104858862989554e-001, 2.44556170122192578775e-001, 2.24004588026727097239e-001, 8.49801598977186350981e-002, 2.79451304404131184445e-001, 1.88022196640773797682e-001, 2.17169185686791971213e-001, 1.16414151402084636855e-001, 1.96846773625198784297e-001, 2.47404572950838952394e-001, 4.08425070095833342432e-001, 3.30731175247381159465e-001, 2.95488723469726100035e-001, 2.82943090517140949380e-001, 3.65017578477638993117e-001, 3.24061619833155345471e-001, 8.51054050447435650462e-002, 1.29319313976565875013e-001, 4.07273407593608180455e-002, 3.20269994478473873922e-001, 1.27974813168953038822e-001, 5.33356474182412720886e-001, 4.65542113439404159347e-001, 2.38060797179605238005e-001, 2.26380704707997731928e-001, 1.35154490548881900391e-001, 1.62199596707119086947e-001, 1.84837661145432458065e-001, 1.40853893931903506598e-001, 1.66070139053210358293e-001, 3.47335868128825844825e-002, 3.41581297919513748873e-001, 3.19172943147010224063e-001, 2.72785597135522306367e-001, -8.36616641197704125066e-002, 4.92238267233636034304e-002, -4.30692157724502019955e-002, 3.01032249616569991257e-001, -4.06869792717309691765e-002, 2.46107751739378044498e-001, 4.04735288016291272495e-001, 2.75556894805412899707e-001, 3.11554653100816980604e-001, 7.06341082174625350953e-002, 4.07853795402564167638e-001, 1.27231925534298045966e-001, 1.79509986414771727237e-001, 1.30865749795046448778e-001, 2.16352522719860329570e-001, 5.04513654336864125760e-001, 3.86297262531442142652e-001, 3.71309670907552680230e-001, 3.42335491964896321271e-001, 6.14860827977879512152e-002, 2.74392150821511304759e-001, 2.35496107350016081750e-001, 2.00876528224428578528e-002, 6.46494623988279754068e-002, 2.61058126378178934068e-001, 3.47052610752578649667e-001, 4.97695688257319357461e-001, 1.21782989170394873035e-001, -9.83636802763143552886e-002, 9.84127291324503744585e-002, 1.94421384037185146498e-001, 1.27452318107790313340e-001, 2.38089670300791755864e-001, 2.23967812675025551572e-001, 1.59808163440083056406e-001, 2.56806213237539993077e-001, 1.16310795876823344641e-001, 2.58897409394554856021e-001, 4.90068700202122911613e-002, 2.64243741938594733920e-001, 2.71289938154037901796e-001, 2.05939880323641355542e-001, 3.09446974231811333667e-001, 2.71812840396850885494e-001, 3.51382102421294528760e-001, 1.36825336321119372940e-001, 1.89653739910547375347e-001, 2.36818964914056517834e-001, 2.90996149306349760622e-001, 3.04732077564835890371e-001, 3.11731495976325045927e-001, 3.88712063839244670316e-001, 2.73821331232752318563e-001, 2.85788380703484889978e-001, -1.78509113248987605349e-001, -3.71015533208541026244e-002, 1.49876880374622045711e-001, 1.23954171413282562830e-001, 2.83941251077478196141e-001, 1.67756902588619555283e-001, 1.97369504218257246775e-001, 2.59024661964090519017e-001, 2.68545156875486190629e-001, -6.09145410760198735556e-002, -2.32423940773396099646e-002, 2.27391873059382798594e-001, 2.67759623693702375480e-001, 1.81741819239871871261e-001, 7.25273166481874703715e-002, 2.64611634562818331950e-001, 2.36519768482771397533e-001, 3.45802355845848674587e-001, 1.38693716574435077504e-001, 1.07332159075254424119e-001, -6.86871779320643860434e-002, 1.50302159307420440948e-001, 2.34288709051456517374e-001, 2.67511232662686726513e-001, 4.84546494874379118922e-001, 3.46408978341166906567e-001, 1.76726102605420876124e-001, 3.65716426161391050531e-001, 1.70158109854903871749e-001, 3.53430236434978672921e-001, 2.06927446086606486864e-001, 2.16824211750333589732e-001, 2.29316479463871430999e-001, 2.91484357198485921625e-001, 2.84450506604350505935e-001, 2.36287687770820542532e-001, 3.48878737007470685061e-001, 2.32969464810566934121e-001, 6.00316033084865516289e-002, 2.83715124688515230034e-001, 2.13147761117981671131e-001, 2.82279393231444020174e-001, 1.88491931629694631223e-001, 4.35464036153678180074e-001, 3.68971459619195807367e-001, 1.44871678007569587576e-001, 3.24192264935950935634e-001, 3.34765077371473152024e-001, 1.96956048945954115270e-001, 1.71694344000201587486e-001, 3.09674742330535435197e-001, 3.63249170627459705418e-001, 2.17199386856775089605e-001, 3.40152750894536948234e-001, 2.36159816046248777210e-001, 7.94494545232119070421e-002, 2.18941740993264993831e-001, 2.39161304908028227167e-001, 7.92146239204157553981e-002, 1.24789865454066076222e-001, 2.65053051238054102057e-002, 2.88912592763297337850e-001, 3.69454133051528410547e-001, -8.30247145757440768721e-002, -1.05154733998214094948e-001, -5.61122037916817820169e-002, 2.62943354586426536468e-001, 1.74852164065283366412e-001, 2.19330051239876894220e-001, 7.17607294859928940278e-002, 3.35606223576390638730e-001, 3.11395118186417851902e-001, 2.33555405295071433214e-001, 2.54620258979635694097e-001, 1.61801370156617774221e-001, 1.30520884664142300391e-001, 3.07634384991258107156e-002, 1.65501247818157032343e-001, 2.49868164701257111648e-001, 4.05717973507717211135e-001, 3.97817648056120964917e-001, 8.42470376027156381271e-002, 3.29477587564651168417e-003, 9.06556240976741228854e-002, 4.22112904821514700604e-001, 3.02851819135742994504e-001, 3.65512315626258077472e-001, 2.67651210023139407568e-001, 5.50520525941391003499e-001, 2.84928095415729720763e-001, 1.49273597967805038422e-001, 2.68287499647125504687e-001, 8.72084957971085011907e-002, 2.62129924077695808382e-001, 5.40314431715998855221e-002, 3.56795530686193573811e-001, 2.19060161687674476161e-001, 1.93586861114761255021e-001, 2.51605721360414091858e-001, -1.53988618277094591047e-001, -8.21666622870201451834e-002, -4.94785408814807647904e-002, 3.68191111362080714109e-001, 1.98377936727234249759e-001, 7.44574800746762403836e-003, 2.92311362119531237269e-001, 3.88888372256919856440e-001, 2.71868719779593759345e-001, 1.52281119294115502294e-001, 1.55598974069614121030e-001, 2.76914259747162855296e-002, 2.64693397638178229414e-001, 1.17271883305377452866e-001, -6.48734077137773541832e-003, 5.01932758702680725804e-001, 5.09009543332304970065e-001, 1.84333399336544245806e-001, 7.98920825735070644358e-002, 7.62808172962889663449e-002, 2.56653409477898497570e-001, 2.53909663389518425181e-001, 1.06999949748502284907e-001, 2.55491778629713395254e-001, 3.18070268236145370366e-001, 3.34466507781159050339e-001, 2.69415532312700711781e-001, 1.87334629525164858554e-001, 1.15622089227255919752e-001, 1.96121196906535788518e-001, 2.04288858749045260099e-001, 2.50718398694903865653e-001, 1.07925811367584570388e-001, 1.46910232468167450959e-001, 2.68058936455329410720e-001, 2.49948319260266449415e-001, 1.62393691112954791089e-001, 1.17368736322661468274e-001, 4.35673133602753059890e-002, -1.72247688608260819676e-002, 2.04912009469809641704e-001, 2.51729808317597780754e-001, 1.05376834143744213534e-001, 3.72053081117810768852e-001, 2.74731280715482251154e-001, 2.21557768435862223466e-001, 1.56420978641268942910e-001, 2.28601836220343551664e-001, 2.70330513883916045970e-001, 1.59637306281068924729e-001, 3.84946925401761785857e-001, 4.10329335529188876652e-001, 2.92674707763771024815e-001, 4.74344523285932628820e-001, 2.24397107467575074313e-001, 5.34974769472819286498e-002, 3.05140867567275063388e-002, -4.93048506417023482684e-002, 1.86320996492852580806e-001, -2.49180364807829041185e-002, 5.52003442398705468364e-001, 4.15946063550932054742e-001, 4.54974876321766641407e-001, 3.66572352148835434171e-001, 2.94556152993277420293e-001, 3.78394886308131728203e-001, -2.65011227859973004517e-002, 6.18740983202097916127e-002, 1.57025569826223537762e-001, 1.40018454863740621219e-001, 2.56259799831064616349e-001, 4.14712602463366442063e-001, -4.71360249650965568158e-002, 1.60489137979021867508e-001, 3.64562162965522129632e-001, -2.14044133022537497180e-001, -1.06395980564070666285e-001, 2.95154140984735351150e-002, 4.35852622260503752560e-001, 1.29856738502696078541e-001, 3.99592761560338960436e-001, 1.52600969290502347375e-001, 1.93002050033982304467e-002, -3.90937958286612721737e-002, 4.03909245927435156531e-002, 9.65658146913973836067e-002, -6.07563203493330997174e-002, 6.13635219386207464431e-001, 4.91956445179693502290e-001, 4.41430882922341893959e-001, 1.08856534279364688955e-001, 1.16642314966226359751e-001, 2.85787891244484559827e-001, 1.08062275044687128300e-001, 6.91063074854019743221e-002, 8.24533020847849906776e-002, 2.23028396705757914198e-001, 4.19793621471190259165e-001, 4.68119120644294173239e-001, 6.97885453455167059644e-002, 1.28442444355085172436e-001, -3.40973581810968678907e-002, 2.11192546670580294510e-001, -3.22560384967789841662e-003, 1.72556483109883224136e-001, 2.61004167744939896689e-001, 1.99319134746780007861e-001, 3.27993166868255012214e-002, 1.51339812148937238184e-002, 8.19781386453747595855e-002, 1.13487014867753546743e-001, 3.08622982569700610167e-001, 2.77665135442844934754e-001, 4.92460271836803409329e-001, 2.15325313056563216740e-001, 1.81800128836245217245e-001, 9.24762611127252220911e-002, -2.67371058442609013661e-002, 2.79320099474884564472e-001, 2.37676074921926994143e-001, 3.88254053919831865205e-001, 3.42117125471993521746e-001, 3.11387031457634577691e-001, -9.83183891285818595263e-002, -1.97867500335114104848e-001, -1.60471368532246139171e-001, -1.50907252121621121566e-001, -1.20030092785773312425e-001, 2.12592815775579577209e-002, 1.63038871227680903786e-002, -4.62624049259360153874e-002, 6.81355339129029041745e-002, -1.98490661525612788196e-001, -2.35208497163781088402e-001, -2.37807598516689783219e-001, 1.70836245359244548458e-001, 2.28329025613066838307e-001, 5.50466027460216958400e-002, 1.50452320172276693411e-001, 1.03145610639358148442e-002, 8.12651077761074175365e-002, -1.93956771945347189456e-001, -7.48392672921269347386e-002, -1.77877633598808093662e-001, 5.97275186663978052692e-002, 9.05363711814228810937e-002, 7.13240661999448577468e-002, 4.22122985207308634714e-002, -4.43030390561225395629e-002, -2.63714951966228725033e-002, -5.29850196165984124730e-002, -1.74946591422631386736e-001, -1.56804035113596529349e-001, 1.25842899261030732871e-001, -3.63442724382182207749e-003, 3.77054328078040706940e-002, -7.37563607838948309681e-002, 4.68743282176961768848e-003, 7.06063984248057330273e-002, 1.54854054418644016683e-002, -1.81950865907155007184e-001, -1.85881471280115763423e-002, 8.48251815395043712309e-002, -4.39688553696685330285e-002, 1.41045606587351352035e-001, 1.07242124689968035267e-001, 2.18970287886537766375e-002, 9.91419999676040053505e-002, 8.09897903783416139856e-002, 5.64538376696462149834e-003, -1.23428125675082864254e-001, 9.43985808029263878671e-002, 2.69054704588745467742e-002, 2.23983787985277127408e-001, 4.66789284723919326026e-002, 4.44412806089322584557e-002, 1.74395484099013897694e-001, -1.88069811405079390099e-001, -4.77898537090716488129e-002, -7.35400232553360400090e-002, 4.82924968636760758300e-003, 9.96396913086173945107e-003, -9.26967432279853370547e-002, 1.81809605917836070166e-001, 1.48280021536317530018e-001, 1.41088749890137005183e-001, 3.84423655319509338657e-002, -4.35215875425852462971e-003, -4.09661106706533037491e-002, -9.71991488206305626063e-002, 6.37507397480373411147e-002, -5.69455357323906882772e-002, -4.95657439750690244351e-003, 1.63834941138412487627e-001, 1.67312115844665598718e-001, -1.01332954660437096761e-001, -5.18673492374492443868e-003, -8.00149667551671300858e-002, -6.81898315181373171345e-002, -3.17387568971376141103e-002, -1.34045613416742259716e-001, 2.87562989163760232558e-002, 1.23617306613754862621e-001, 3.22024852848035170183e-002, -7.86486801690527842501e-002, -1.04000859528318619074e-002, 3.25754003184275039984e-002, 3.47519410533410066932e-002, -2.09276073753762274776e-002, -8.22917313541528527843e-002, -6.23727246187298113578e-005, -2.29232087682857792188e-002, -5.31186696343370345907e-002, -2.17632923717273052411e-002, -2.21804422191641703588e-001, -1.28169261152857733022e-001, -1.10399304445438301014e-001, -1.08886843009973699470e-001, -4.65759791846254711523e-002, 2.07097959336653036910e-001, 1.29711578331026672339e-001, 2.24235098269826876871e-001, 1.24339044677579963621e-002, -1.17571990599769540808e-001, -7.72557641646411941139e-002, -8.71537494913959265297e-002, -4.57428846195667010432e-002, 5.22588708427681250535e-002, 2.32858626999786044731e-001, 5.34370809022894424634e-002, 5.84049068206545229920e-002, -4.01473115430824173400e-002, -2.48486057513349428705e-001, -1.60300115008398441629e-001, 1.07053384477164992977e-002, -1.14308436003732055708e-001, -1.07974460074146003108e-001, 6.34949862051612939906e-002, -4.47386158977869236031e-002, -3.38072628977030137376e-002, 9.66648320710739375472e-003, -6.79803704322475138566e-002, -1.05722421995872215006e-001, -4.74269651265950623054e-002, 7.64005677144480033203e-002, -1.84129567726175995268e-002, 1.03825705350116370695e-001, 5.03862827068185387125e-002, 9.25099547607359379287e-002, -2.14132632964603969450e-001, -1.53341564312159728267e-001, -2.04586768302705140909e-001, 1.41885549181980652467e-001, 1.81140463481734348417e-001, 2.55591210437832339064e-001, 5.29137530278998916011e-002, 6.40009645930023352012e-002, 1.38212902629161416002e-001, -2.39353747006265271668e-001, -2.44525937604595400288e-001, -1.46527612780160354511e-001, 1.38365103063172734110e-001, -3.16349183067151026871e-002, 1.52493728190045779725e-001, -3.91283385526923419007e-002, 1.03607791092867274063e-001, 1.99787117629115600070e-002, -9.06605410021748131522e-002, -4.85049289736828453945e-002, -1.06379225314559483495e-001, 8.65747002746662837336e-003, 1.48180200823120694631e-001, 1.05068117578045558402e-001, 1.44100566424392034781e-001, 4.03058818488863795926e-002, 7.98824405452659702664e-002, -1.24101282466249074332e-002, -2.55209867682660573873e-001, -1.48001305468774796426e-001, 1.20134111385382227888e-001, 3.11913761538116715566e-002, -9.52343303960428988475e-002, 2.12039361054197100787e-001, 2.24063607890032448489e-003, 1.54925645021960017855e-001, -2.30260195349751783933e-001, -1.19038290595355256141e-001, -6.45131437886556496908e-002, 1.37560321315494366035e-001, -2.65444625355696871283e-002, -3.46395829511902259013e-002, 1.93491011618706021391e-001, 2.19032766142606388771e-001, 2.19323261117530081410e-002, -1.98086228307829681494e-002, 2.95531304620947482542e-002, -9.33445101172766938946e-002, -8.47039264474385156234e-002, -9.83452131580075661343e-002, -2.19473729577649295797e-002, 1.22172313406732138685e-001, 2.48014006734243064312e-001, 2.92943815513646343973e-001, -1.58412708675615687692e-002, -2.22649452367753158954e-001, -1.43875762520706163006e-001, -1.30588254499130362873e-001, -7.84217879599826278580e-002, -1.66871185517028508549e-001, 8.27447571846254004146e-002, 3.76547170543330075865e-002, 9.67048611100874422331e-002, 4.70531735197100408480e-003, -1.34530988859079714270e-001, -2.33329698214209818596e-001, -1.43685880315813752084e-001, 3.91021423943085852382e-002, -2.17303226938373117427e-001, 1.00255587552664740536e-001, 7.13871224596175912858e-002, 6.80324411250805977103e-002, -1.65429431129254178590e-001, -7.67570036650122300426e-002, -1.95588384823511457489e-001, 1.09129702190272181994e-001, 1.69287118258363955547e-001, 1.85506354619476371282e-001, -4.56874875434841593025e-002, 7.14310441068233825668e-002, 7.53736052006272611026e-002, -1.62567772936523025074e-001, -8.66743715365710515330e-002, -3.93119359441161941859e-002, 8.30246998707236949500e-002, 2.10460380647471106963e-001, 3.15454842384587264004e-001, 6.12508029490294800268e-002, 1.91607658837042421629e-001, 1.46638124255788083322e-002, -1.83436994508942019522e-002, 4.39095166666506539488e-002, 2.31610243809693763795e-002, 1.00119710531981806478e-001, 2.59387355205800695934e-001, 7.27228802677762700690e-003, 1.54274034885458322108e-001, 2.05204947800093628896e-001, 1.06598224296590882165e-001, -7.12066691047169575413e-002, -9.55938913658387345862e-002, 3.01107314985606944191e-002, -2.14980068857126310755e-001, 9.75519392203189842500e-004, -5.56283397785942712588e-002, 2.41149894307049278419e-001, 5.92027868421648034714e-002, -1.01546274460248553417e-002, -1.02973070894097282202e-001, -9.58685932216604974609e-002, -2.75985202562412405489e-003, -2.24517638144403341993e-002, -1.64165425190351155216e-001, -1.57855591385108212643e-001, 2.29917786570466631257e-001, -2.94931466253908584896e-002, 2.43910795399409047191e-001, -9.67844903026814223912e-002, -5.25118805034600899528e-002, -1.12196670425548983285e-001, -2.58384859040025754995e-002, -1.20063586895392329645e-001, -1.57263061350811861328e-001, 5.49856330631958503674e-002, 2.55591079302694479392e-001, 1.03533076069390606033e-001, -9.85242723898262229287e-002, -3.53341259287546921586e-002, -1.61355067286871406429e-001, 2.52909629596194812651e-002, 9.07850386305908280127e-002, -6.92504854046439022319e-002, -6.46009149548664729501e-002, 5.87294211650759775956e-002, 1.93089618585131246598e-002, 1.98635122932797718309e-002, -1.45021491147618133196e-004, -9.44726432752797905257e-003, 2.89019338574980667878e-002, -1.15371997689699065659e-002, 6.65607707179539098696e-002, 1.21401922777272630594e-001, 3.85326913677532037483e-002, 7.89928548530901934732e-003, 5.42777797095926189952e-002, 3.27041333829070635097e-002, -8.18540358711986881790e-002, -2.55380743487632067001e-002, -1.54207384980778711148e-001, -4.36511083049533274436e-002, -3.85688957136269133796e-002, 1.54838491546805984145e-001, 2.84657648842639061926e-002, -3.64220642971034708202e-002, 8.96070655572908381092e-002, -5.47740606630057330628e-002, 1.31134884715109478748e-001, -1.62379426614636723780e-001, -1.01135148210718728290e-001, 5.39139795420612577548e-002, -9.64235649318574868094e-003, 1.64385587947434214096e-001, -1.67164547516227418589e-002, -1.22082741308203179820e-002, -1.95331582849502499721e-001, 6.61636173219172507576e-003, -1.40739053415404012648e-002, 6.79561816320637390731e-002, 4.09809474445826035782e-002, 1.33614906279356515650e-001, 4.63172612452516785364e-002, -8.29814989976577349617e-002, -2.55767748693888685718e-001, -1.67757444250826559529e-001, 7.39361675277839191199e-004, -7.83515275901876945275e-002, 1.34137428892876359177e-001, 3.47690169874787929905e-002, -4.74956940951008557694e-002, 2.12674101450315511386e-001, -1.37735269807052473912e-001, -5.02523211765212377000e-002, 1.24100929922406674061e-002, 2.81547347420923708972e-002, -1.35218698557229375506e-002, -2.11794185836755827212e-001, -2.03567205027008757412e-002, -3.42104519407264995312e-002, 1.80017253231727930585e-001, 3.74696358878663648984e-002, 9.46414172891169719337e-002, -1.06736609175957911089e-001, -1.12892404149757860643e-001, -8.32302651497099921230e-002, -1.75045256927436609917e-001, 9.63246352315835496771e-002, 1.65058615780592360389e-001, 1.57127043495795593042e-001, 5.55254192815671857031e-002, 4.71779870053583814948e-003, 4.70725847175195374894e-002, -6.63571624246457880680e-002, 8.07085816560970115141e-002, -2.13750037934866236877e-002, 7.75644794300301004819e-002, 7.19601846159913793866e-002, 8.42469529545271517135e-002, 4.72600778732882934041e-002, -4.82072894396458617727e-002, 5.85297935468861909442e-003, -7.70330305407355558911e-002, -1.48865533207509892488e-001, -7.60651422201614468843e-002, 1.85212427728690676165e-001, 1.70995061405521925346e-001, 5.35681524117932739149e-002, -6.95282588530692080564e-002, -4.24487875108946720315e-003, 8.13442052856590408494e-002, -1.92363383491392148095e-001, 4.74418535969635540850e-002, -1.16188669674683955901e-001, 1.67037298942217193876e-001, 1.87895677111999281905e-001, 1.56962232158858322473e-001, 1.29882657150308167271e-001, 6.28131593436042912071e-002, -6.00046019117913588536e-003, -1.30956329751439337628e-001, -4.55136838478771149630e-002, -1.33006513454730131846e-002, 1.83980143424472913916e-001, 7.62915012644562462452e-002, 1.40917605251264843602e-001, -4.05606826710263712599e-001, -4.28732569738634383683e-001, -2.25734249298615158308e-001, 2.65141954995987749744e-001, 1.07720794969358144022e-001, 1.20511170551056187583e-001, -2.18088152731332363121e-001, 1.12018546920442635395e-001, 2.66196907525772019643e-001, -1.24374439429269623147e-001, -1.00496000882476108074e-001, -2.25953794700367249781e-001, 5.75390024380366016388e-001, 3.65332729471452677394e-001, 2.58916724284908694731e-001, 6.59209674693375519139e-002, 3.23046102758335618166e-001, -6.38629465889825782832e-004, 1.29130646206090854422e-001, 1.95226976991389078453e-001, 7.89399668986279640093e-002, 3.83130150331670374375e-002, -1.03987867866881453227e-002, 9.53083146174962259067e-002, 3.91087246873784433188e-001, 3.24453240018447497395e-001, 6.89675528293983153283e-002, 2.05814965570704722087e-001, -8.61325931999707902764e-003, -1.23728318701710943150e-001, 2.65491383442524875313e-001, 4.17693369060751218402e-001, 1.08475017437645884777e-001, 1.81185080245801571897e-001, 6.03341268027317995104e-002, 7.21170678955134064614e-002, 2.09595896280259264000e-001, 2.95467850043286350825e-001, 4.21375809081280805479e-002, 2.15625977625209019894e-001, -1.07319439322484416754e-001, 1.70115907296779167446e-001, 1.58567534899412387883e-001, -8.51617408207644144280e-002, 1.86145465789945258051e-001, 2.16256706255542295592e-002, -5.56751222390145655838e-002, -4.63522797357772131654e-002, -3.60814819055524371727e-001, -2.96998165399881719484e-001, -2.32782047929137619890e-001, -2.40402829204646423245e-001, -1.94134045486479778209e-001, -3.53787171227133379059e-001, -4.09547291545415803604e-001, -2.63050384526801295237e-001, -3.66195196421160606981e-001, -1.73363126270888290303e-001, -3.47689770885547810853e-001, -1.82189942966930307211e-001, -3.84240661858774534831e-001, -2.19198453540246473992e-001, -1.12395067555035546580e-001, -1.10033203139752455701e-001, -9.80086141372495667223e-002, -1.82301250900201688987e-001, 4.65044979426281410162e-002, -8.62478841630894832448e-002, 2.21790666922522000659e-001, -4.66667625718492490305e-002, -6.99120280542996509060e-003, 4.97362162728661946764e-002, -1.83886741605718051495e-001, -2.11166747353253164698e-001, -2.12815277969671118319e-001, 1.85862882121775790933e-001, 3.60082981701889404125e-002, -7.71822565649878528093e-002, 1.88279506233893501044e-002, 1.25813943400973599074e-001, -2.08280371477969739047e-001, -2.85903931042241377103e-001, -1.75790514917420176433e-001, -1.13916347792331465461e-001, 2.58706538641107985921e-001, 3.01857939935409935739e-001, -1.65919381745463195843e-001, 2.66648984838880227788e-002, 8.05558821376400335801e-002, -9.09455618781431808506e-003, -2.90619490869824526058e-001, -4.12540315353017716937e-001, -2.51316087970735180246e-001, 5.39842516070704603326e-002, 1.29553655995789884781e-001, -1.15884396095853159370e-001, -5.26614642226492901678e-001, -2.92468576899459542506e-001, -2.91698303052753848963e-001, -1.25955524031462068324e-001, -1.19671905544588615816e-002, 9.00093976792698396983e-002, 1.18283982866221312746e-001, 3.18418777468464697655e-001, 6.29872549048113711256e-002, -1.99284533235558669606e-001, -4.51227214244583549330e-002, -1.85016964120269383764e-001, -2.41469484360378988663e-001, -1.05393030030637102623e-001, -2.14657653524348096541e-001, 7.55155849537761381107e-002, 7.91925975992553571325e-002, -6.19503615351631106711e-002, 8.76125921467795915065e-002, 6.25522759637714940995e-003, -8.24383281518956262390e-002, -5.48857969476897578076e-001, -4.66402276324028197685e-001, -4.53312733609824103365e-001, 1.27231386870159973723e-001, 9.50746426241110553779e-002, 2.58634848834453312527e-001, 5.03065907795604283503e-002, 1.07050247618819510675e-001, -1.77899563123782335217e-002, -4.66403542918628288838e-001, -5.71503827703846445374e-001, -5.41566662304512558279e-001, 5.82076114946720596377e-002, 9.91522656590985151936e-002, 2.80015020031322781069e-001, -1.62597671684058669994e-001, -2.16827732168890924269e-001, -2.92021262320330932116e-001, -4.47338024019489688410e-001, -5.82862543212463335429e-001, -3.83601016986329201863e-001, -1.50088325682002643457e-002, 2.22549205625470758463e-002, 2.52398825624006062363e-001, -5.58161878561728164172e-001, -1.17365419746248950128e-001, -3.11112384707604716638e-001, -4.22325444137309879977e-001, -1.90553129990711528352e-001, -4.40505576232299245198e-001, 3.69232077168651584564e-001, 2.09300918671993158027e-001, 1.95229766437355234387e-001, -1.86297939647507931893e-001, -1.45213534536210053805e-001, -4.09794619223557421428e-001, -2.64885800153438710769e-001, -4.72352530993296715334e-001, -2.56446254636461978826e-001, 3.11499766162053715046e-001, 3.70331731655615614685e-001, 2.26599750500427243871e-001, -2.95425129954586807024e-001, -7.45748047987053186425e-002, -2.10005742089654723337e-001, -1.16752241613644336393e-001, -2.97633502216544276742e-001, -1.56689161799200477043e-001, 2.18470847794076716841e-001, 1.48892951266317935533e-001, 2.32951856662404532816e-001, 2.24526143097179067820e-002, -2.85458446076819305492e-001, -6.66928104273090960330e-002, -8.99344058312727817617e-002, -3.40844689510356679829e-001, -1.10257259994286482829e-001, -1.65507882406400963493e-001, -1.65832011626270148241e-001, 1.56423593309257952244e-002, -3.49361309198907843410e-001, -1.20346542156270219781e-001, -1.47990612724157838409e-001, -1.86511025413037850873e-001, -1.78487335164090210604e-001, -2.44988582678844796225e-001, -1.66096956509067077146e-002, 9.27568245261087137576e-002, -8.28829212869824777377e-002, -2.63899162503277773251e-001, -2.59516016013946082541e-001, -2.64031172262736424372e-001, -4.39832616738595527650e-001, -3.92134786297170634395e-001, -2.25135157892437209881e-001, 3.61495134768876180686e-001, 5.49891902040046898215e-001, 2.07860077152091426989e-001, -2.60101731567648264409e-001, -2.38618184138097516600e-001, -2.24712355739076330430e-001, -2.39578916683232501228e-001, -1.76947808083388002931e-001, -4.36574973104908933830e-002, 4.80066761455837209827e-001, 4.06618766523451524719e-001, 3.65207441042637914741e-001, -2.54820403716191523635e-001, -1.89774838733538647739e-001, -1.49428229280323565664e-001, -4.52002227561226044283e-001, -4.47994270380648429430e-001, -8.26212587915528817728e-002, 4.20761427444995006475e-001, 4.78775489001752041496e-001, 1.40985385054906292579e-001, -4.35322876345632159278e-001, -7.99080991447428251595e-002, -2.39614915903255148999e-001, -7.28317526706829809768e-001, -2.89299470425608662438e-001, -5.26581936921221682724e-001, 3.44397018652821018669e-001, 3.35551853421774182173e-001, 2.54504694669413611408e-001, -2.58501091762944168462e-001, -1.72628248871622702598e-001, -5.40276288344338287417e-002, -6.11069227871909648186e-001, -5.08251675248740486524e-001, -4.51412075439645843478e-001, -3.96496164015487789767e-002, 1.36667951153426170396e-001, 2.45370899948804954693e-001, -5.15177842880554376359e-002, -1.40498491205755665634e-001, -2.40391743518800243828e-001, -2.93306651167033360927e-001, -3.09195950604901126368e-001, -2.42291656820192879973e-001, -2.44859745552325480666e-003, 5.56457396416936839190e-002, -1.70417962523167071387e-001, -1.26748880791318019323e-001, -1.72407933672126728597e-001, -9.96234934488660212049e-002, -3.96552564433782284148e-001, -1.62229695408923985100e-001, -3.79934698629501854672e-001, -1.63572156111203265150e-001, -2.42966718954062299574e-001, 1.51743892337753982780e-001, -2.79541867845791214275e-001, -1.45162510675853922981e-001, -7.13593815000242576163e-002, -2.51676044645858687510e-001, -1.77439480742032584804e-001, -2.80114435775508041626e-001, -4.17842803202144383312e-002, 1.26277891068205139202e-001, -3.18353111832960777861e-002, -3.17812413722851905273e-001, -4.50279278782806602344e-001, -2.78253627949170578848e-001, -5.23521604274627350151e-001, -4.88395278519634601366e-001, -4.50753773078984620870e-001, 1.98437903883083105461e-001, 2.33493623423237428582e-001, 1.66104028136039916230e-001, -2.92465337896271881934e-001, 4.45603281961304553693e-002, -3.18729227001745829551e-001, -7.76610231755819890864e-001, -4.86795322991360024378e-001, -4.34442658035064266375e-001, -1.77439821281604806491e-002, -1.67623213168242891913e-002, 1.18462458207290635692e-001, -1.84120576288349269145e-001, -3.57780944847072401860e-001, 1.08642860428882104262e-001, -4.81465545158512531199e-001, -2.21101872527028869841e-001, -2.37223320519242414361e-001, 3.75824029817140414789e-001, 1.66595040587241949304e-001, 2.67329073978003484147e-001, 1.00333509823862132571e-001, 4.80526774840898673880e-002, -1.33227620737033397580e-001, -4.51143330610536907876e-001, -3.93617307561340168398e-001, -4.51665752826297950406e-001, -8.79847704606982194964e-002, -8.06909261844653974416e-002, 8.01130253959625865390e-002, -7.38774200838112488077e-002, -4.14877760082352914361e-002, -1.89745936844270324251e-001, -6.03909752400361932168e-001, -5.67319445459432247780e-001, -3.22815858747262152129e-001, 4.64710518271196429407e-002, 4.51005758850628116208e-002, 2.86790968838979420941e-001, -1.31680035561744901429e-001, -5.52121755701396946248e-002, -2.34919358984282289349e-001, -1.86370985234281527632e-001, -4.90117615123811078970e-001, -1.17906326738861214065e-001, 4.61136774263941548457e-002, 1.53556054333519112487e-002, 4.15469467093908029209e-001, -2.14474307526133223245e-001, -5.42276939912287592183e-002, -1.84140763710627736183e-001, -3.78034239811040229107e-001, -1.65314731301285294807e-001, -8.07732624066354459869e-002, 8.16061815597143337675e-003, 6.15006233006313712819e-002, -2.00436661918735152532e-002, 1.07769211329377861963e-001, -9.17176100960192808298e-002, 6.22040971811925885726e-002, -4.29404883552960747739e-001, -2.46745877077138492384e-001, -2.76578581227341580018e-001, -5.71049536433803229390e-003, 1.41822190551831511796e-001, -7.51532115153603734459e-003, -1.28882902067388560585e-001, -1.44959237393656320547e-001, 4.14858267651847384405e-002, -2.64176460495441689513e-001, 1.10870614626955674153e-001, -2.23496703570272986505e-001, -1.68447056060658267862e-001, -1.59201586093255631482e-001, 1.64956844364005841136e-003, -9.67895174519937534496e-002, 1.82802121822908773818e-002, -1.25305081968908355039e-001, -2.22221741266801997572e-001, -7.29989294358720456485e-003, -1.54023930156603733321e-001, 3.24363922271805660280e-001, 2.98682023094994586465e-001, 1.49281325349744312808e-002, -2.73551310909488920586e-001, -3.00024251803083397139e-001, -1.10684978349545562470e-001, -1.64246682969984930667e-001, -1.31391643855416878628e-001, 5.93434244862349746796e-002, -2.31142452074502957604e-001, -5.91740226497778770698e-002, 1.60774641061469547587e-001, -2.09071377609243047591e-001, -2.38460736586715904561e-001, -2.35846367507694554266e-001, 3.74578176090310299706e-001, 5.35854015724577581459e-001, 3.07806288023881269300e-001, -3.67730165449010160117e-001, 6.15256861956443648620e-002, -2.75043075334398423593e-001, 3.57649925044083993875e-001, 4.02736425968436229095e-001, -6.21488954555074468722e-002, 9.26990777257519493748e-002, 6.57787596151570286285e-002, -4.85162022457777050710e-002, -5.14951258020951763150e-001, -3.23674841450162897871e-001, -2.15740387168516289940e-001, 5.16114659052965552011e-002, 4.68003167833604995229e-003, 1.46272918905820226154e-001, -4.25473912259567987881e-001, -4.66138795083983870082e-001, -2.20131127157778383463e-001, 7.75990422535118989922e-002, -2.48542382784844972932e-001, -3.44413062243106693483e-001, -1.02382779051788566638e-001, -1.36121492695108536886e-001, -5.99056364002554311843e-002, -6.32797923046551025195e-001, -4.21601211922206120519e-001, -1.81229883604788505336e-001, -5.32984338973672477913e-001, -3.86330897037524323423e-001, -3.55815218842637615015e-001, 2.59516685623302323371e-001, 3.04897696517098415470e-001, 3.09294557328024632969e-001, -7.19526908808208798263e-001, -4.31263412516221911197e-001, -4.60493901750137601958e-001, -3.95884264374805505682e-001, -7.30171465454118318039e-002, -7.00879293006778508746e-002, 2.47918007478968666080e-001, 2.93023812921796966702e-001, 2.44677433133648897234e-001, -4.18480757023732941047e-001, -4.19809452334384825001e-001, -4.38591586916758091608e-001, 4.41150491144847056724e-001, 4.97222669297634922714e-001, -7.07602094150482363588e-002, 5.99018603061474808058e-001, 5.22442371318250331491e-001, 6.19427613785671460356e-001, -2.68044911696628355979e-002, -5.78107749669378584434e-002, 1.71934202561269372511e-001, 2.43688964615687841953e-001, 6.07974574677344281604e-001, 3.69542163951048774351e-001, 6.72042231073056384183e-001, 5.53617443585712187826e-001, 4.35951000200481664226e-001, -4.16814770710397741738e-001, -2.37551802114210924843e-001, -1.53504349587169408586e-001, 1.59090464043035867414e-002, 3.51553260035875170253e-001, -1.15296117290042188230e-001, 2.23685841566915455392e-001, 1.30724457125600795893e-001, 1.41820207754827398716e-001, 1.59035828768385373300e-001, -8.03309709472408706166e-002, 7.67871971359032484683e-002, 2.08502879186538842005e-004, -7.11165024777888066243e-002, 1.04772290413805785336e-001, 3.05908380555790393451e-001, 2.88740044796862271870e-001, 3.62645504336997881456e-001, -2.53335565480760138701e-001, -2.38288857021832667371e-001, -1.15806752301560539342e-001, -1.90219825607684883684e-001, -5.20696227923855836650e-001, 8.56684928438114362548e-002, 2.61395018793687372582e-001, 2.25864238870427003203e-001, 1.66791827258542163515e-001, 1.31008944679281147394e-001, -4.21857071860533457131e-005, 5.83921805884506234241e-002, -2.37743153944039609105e-001, -8.01294836439807589556e-002, 1.03919481865283585414e-003, 6.27200918039383492619e-001, 6.27403557037789161299e-001, 7.99703133795449105925e-001, -2.51436764290863590254e-001, 2.42459160549085492309e-002, -2.20929739803740227133e-001, -1.75584377905343869131e-001, -2.26250523025269906219e-001, 7.81267435313760527649e-002, 4.50420790758048750213e-001, 4.09595942739958085443e-001, 3.83278254083179059641e-001, -1.20987892927541196286e-001, 7.88731272395745142134e-002, -1.66346318382611074727e-001, -2.02746613166821243457e-001, -2.68513759887658853831e-001, 2.21749937328902455014e-002, 2.12567832857459559914e-001, 3.91812405203856795044e-001, 1.94728921106952362896e-001, 9.67950196010797236923e-002, 3.67044031943455431599e-002, 2.37769928170673633394e-001, -2.94162420633899523992e-001, -1.81293723273377505034e-001, -4.61991319137946554463e-002, 3.99976132849836685246e-001, 1.22318003463213087478e-001, 2.58659589756766838953e-001, 3.78221208794953023258e-001, 3.30084781259583959212e-001, 3.34659478066404947327e-001, -8.20234116930447371141e-002, -2.58814557072600925913e-001, -5.41393205084377604486e-001, 5.80043007344001715353e-001, 5.31662382738629868406e-001, 6.86701816414490684437e-001, 3.01610342704880907139e-001, 4.56248878374666877455e-001, 1.14885858732597628817e-001, 3.50951845295363745736e-002, -1.64295117748558983095e-001, -2.55442656630141207152e-001, 8.90623903132363836654e-001, 3.06337554530272893061e-001, 6.20154480005803199205e-001, 9.83909244225366214076e-002, 1.70792225233848099508e-001, 3.11687702922966880514e-001, -3.68801860672032799648e-001, -4.47959669621904088554e-001, -2.68004692356480278548e-001, 3.40201178157581052286e-001, 4.53894024798666473330e-001, 6.30841809401805009294e-001, 7.01099575004402245093e-003, 1.81247525294895600600e-001, 1.18716126732437532443e-001, -5.58285309062895418464e-001, -4.94808717398494857242e-001, -3.56419351473506285100e-001, 3.13099335831039105038e-001, 3.93012133715590239458e-001, 5.54424165349336695030e-001, -1.86170200810472225017e-001, 1.38459534640062942312e-001, -1.68490003629956808240e-001, -2.99969840354198546972e-001, -2.76441574520668198467e-001, -1.91578528298076838920e-001, 2.99627234715181989255e-001, 4.06000822737178301836e-001, 3.74038455359314514492e-001, -7.81469850213539207751e-002, -1.04562227717397829285e-001, -2.00921441343036299987e-001, 2.79390074450276970630e-001, 1.64143855265862559367e-001, 2.68084783982528371271e-002, 4.74993091095480157726e-001, 2.89833315269838409645e-001, 3.04444697557875454397e-001, 8.58877462964721255512e-002, 3.77427528747430809930e-002, -1.75477529135351584255e-001, -1.33783236750129291837e-001, 6.04328010784953503776e-002, 5.79378438836734427353e-002, 5.34886066698600282088e-001, 3.39690230908658130637e-001, 4.18784076313856834517e-001, 2.34214010306729197852e-001, 3.44752053722834003735e-002, -2.26923665110149164192e-002, -2.71444144289179734031e-001, -1.64336508117350954539e-001, -2.77595804775929211328e-001, 4.69217233772716180162e-001, 6.05218382761535278469e-001, 5.37726194654772782222e-001, 2.89167955776229541540e-004, -2.27981156436342924376e-001, -2.11191561521775067467e-001, -3.77888618313911794910e-001, -2.08223151619012808444e-001, -2.64368092666072473929e-001, 6.84066531168675107111e-001, 4.52467106179782363462e-001, 6.16993430749424254245e-001, 2.40277274000159801748e-001, 8.00016845523705000254e-002, -4.39602326701558493438e-002, -4.11208942928909637615e-001, -5.55757713262479358107e-001, -3.00017287675286403736e-001, 5.44498589108995956209e-001, 1.59707804990920243515e-001, 6.29424677788228192910e-001, 4.91706902632517983687e-001, 6.47884311811146862414e-002, 2.47731608444864609408e-001, -1.68969068852855175411e-001, -4.19247366884157979250e-001, -3.77257680272742312866e-001, 3.56608328383764550118e-001, 3.16708821513697114103e-001, 2.46104043445243031440e-001, 4.06911407164753324839e-001, 1.62700724546156777484e-001, 1.51777414596982546113e-001, 1.19102290649218095497e-001, -1.77903648239042450063e-001, -3.55664159187144890417e-001, 2.93695265219589773942e-001, 3.77822800958994065024e-001, 6.79436628546791765437e-001, 2.61908515628621607618e-002, 4.87413711276114477999e-002, -1.24230406661336341412e-002, -1.08996125896106438313e-001, -3.44985877442552033023e-002, 1.47676542750687866956e-001, 4.72383961591624657039e-001, 4.42862739918507775094e-001, 2.24402411495421144627e-001, 1.40428423064431678879e-001, 4.75863933883394901736e-002, 1.68084968889668145975e-001, 3.13538088956032801047e-001, 2.12048923559641028236e-001, 8.21560913648490889760e-003, 6.11172177281855355524e-001, 2.88874761182850714469e-001, 2.26172498332667448739e-001, 2.23254945643504496000e-002, -1.54730839412113213571e-001, -3.44541256102970580577e-002, 4.96650366677069132759e-002, -2.16873094507927355323e-001, 6.75530457554321533964e-002, 5.00574776687299105582e-001, 9.04243752665995326190e-001, 5.50888364910884553716e-001, 2.91951462121625371360e-001, 2.90163712637922899251e-001, 2.13899461597552686953e-001, 1.26807156172728474619e-001, 9.49009340204239881800e-002, 1.32892285185121528102e-001, 4.61849501487140046141e-001, 2.00277047893630849584e-001, 6.34125242186320492443e-001, 3.24975948318818097516e-001, -2.59995814008676627560e-002, 8.31449143755059183469e-002, -7.68084813439769559240e-002, -2.47212561659336318987e-002, -1.92607291172970651605e-001, 3.09891699459865610500e-001, 3.88093573677482928108e-001, 2.86553983640685169809e-002, 1.75034302062601648808e-001, -1.53362317439236922612e-001, -7.40935029841410103257e-002, -1.90852279512320172072e-001, -2.35835564098698213797e-001, -1.88125872957724510348e-001, 3.04060225242309523086e-001, 4.79094150440100841060e-002, 3.22740120411686426394e-001, 3.64626708453311243474e-001, 3.18128307508347640820e-001, 2.11626175737420374467e-001, 2.16212890470304952562e-001, 4.60860832459890068513e-001, 6.16847081568473801227e-002, 1.81895638818127869385e-001, 3.97391397830472725694e-001, 4.33266170295678543223e-001, 2.63612563312540071347e-001, 2.40241593904127220815e-001, 1.34141986766974447010e-001, -9.70309933375778504994e-002, -7.32295090442017515553e-002, -3.96851959787516972433e-001, 3.57050255350587764092e-001, 2.25447527163873978617e-001, 4.22198076134821909111e-001, -9.40518891895135433767e-002, 2.77429725347079492170e-001, -1.21261498273581416751e-001, 1.58594720939885025501e-001, -1.17179100469505317883e-001, -1.96658683436210457440e-001, 4.74225791509285621306e-001, 4.01708276278189113651e-001, 4.88114075866223406930e-001, 1.29187764863828186135e-001, -1.08720780627486149350e-001, -3.40297850421137637600e-001, -9.47618403437030382142e-002, -1.94519162597677264248e-001, 1.12615528514819443484e-001, 3.25611931608843385710e-001, 4.40396463923973913168e-001, 4.37229863398599150059e-001, 2.06591052501314376144e-001, -2.88849562623504529935e-001, -2.64379634828995520313e-002, 1.63035121137344002351e-001, -3.41893825840348108969e-002, 1.10950903808179665577e-001, 1.62483061263112960049e-001, 2.94355845526042658733e-001, 7.29073674236601770859e-002, -4.58863062070464788889e-002, -4.83535306810766896124e-001, -1.75142829399447141903e-001, 3.11916105462485548916e-001, 1.28434426450174860035e-001, 2.77107065208501535114e-001, 3.06460956083676960837e-001, 3.27564582489690669931e-001, 3.70900546614503390241e-001, -1.74751541113341637979e-002, -3.88394320354601141343e-001, -1.75541701099726138446e-001, 3.69118427645635099887e-002, -5.36324348207802559241e-002, -3.27155908895390840074e-002, 3.63298925270810979526e-001, 3.97555130031008119307e-001, 2.92294564872538742417e-001, -6.54481688935982103272e-002, -1.87743408751684826008e-001, -3.43292863553435967372e-001, 4.04472074254340785426e-001, 5.30316552129744711586e-001, -1.82943730644433318056e-002, 4.17915652122379965849e-001, 3.71268057919629745900e-001, 6.33008984365015403561e-001, -6.81836433257720364587e-001, -1.40834358430845307808e+000, -1.53319614753904964743e+000, 1.70729856678564745343e-001, -1.74250375099058996131e-001, 3.85180998327950940840e-001, 2.61597757326288038460e-001, -8.47928978472982097792e-002, 8.27736587948131458115e-002, -1.17049083124264452493e+000, -8.44179190770582454917e-001, -1.02661877992846406471e+000, 3.53001891233125142389e-001, 7.08242240809049294903e-001, 9.15754009931906476361e-001, 3.37352176179710250281e-001, 3.70102200251833657330e-001, 1.46038408275406095260e-001, -1.64178867706291642392e-001, 1.76960148756355045707e-001, 2.56691089748577461194e-002, 6.34437659088397887253e-001, 6.69365735082926849309e-001, 7.65240212207413228462e-001, -5.59464172522958658185e-001, -4.32240178812688724541e-001, -6.35557426120444302065e-001, 5.49468426788360275737e-001, 3.49850842908331835512e-002, -1.41251776414839463891e-001, 6.22960914683278743631e-001, 5.85262262052862580752e-001, 4.20218343513896308572e-001, -5.75558524337458687903e-001, -4.88883443631457359491e-001, -7.60533790811749765837e-001, 3.36538953150404329673e-001, -3.93163953891852491207e-001, 5.55314217464584949230e-003, 8.90011740589331745710e-001, 3.99455068967722370932e-001, 2.58697099317308332189e-001, -4.83882628532028402635e-001, -9.39578758681388764851e-002, -2.63424610409653481291e-001, 2.32312921545912348664e-001, 5.13287804808631009656e-001, 3.29652309677052224313e-001, -3.78781165842979439251e-001, -4.54344012763840232605e-001, 6.81950591557010765698e-001, -1.96060505485155800454e-001, -2.04689756223636998289e-001, -3.27766541431332880663e-001, -2.32575722702312776002e-001, 2.56470550019680075537e-002, 7.90008910988026710753e-003, -6.12383580683145911649e-001, -5.27195344634258988847e-001, -6.28577571760518760691e-001, -2.04261750678528336556e-001, -2.56990913227715611633e-001, -2.00090504432276689029e-001, 1.84516918954628073024e-002, -3.44886453303611895116e-001, -2.94133106230852925389e-001, 2.38149942028304167918e-001, -5.47089224563275088736e-003, 2.06074464012431263216e-001, 4.39624794152943462744e-002, 3.35672919201429553748e-001, -7.44513990916314677415e-002, -8.24744223471153503624e-001, -4.21912289329023748596e-001, -3.79400356388471138303e-001, -1.22509895445949007486e-001, 4.43649392412278686937e-001, -4.73990582509262528554e-002, 1.06950933625370447899e-001, -4.06444997595891768793e-002, 2.23687919067257351413e-001, -2.56725928899004529615e-001, -3.41864801346285440697e-001, 1.11997301253825592982e-001, 8.66179284424072437609e-001, 7.24109624642975679976e-001, 4.82206338281015667313e-001, 8.87398066242250649349e-002, -2.54380302572096095304e-001, -2.81568678781924430776e-001, -9.51731923456640011016e-002, -4.77998040154737957597e-001, -7.85672712324980815346e-001, -3.53489625358577141956e-001, -1.10713061333330559100e-001, 5.07979439097398510761e-001, -1.11804247399380371486e-001, 1.69448249070407758188e-001, -1.65479315617411359973e-001, 1.97038081997101370557e-002, -6.99760635404644837365e-002, -3.99005455650352724994e-001, 2.54788263009097307177e-002, 3.79275955702892630939e-001, 4.85003776857067969708e-001, 2.00885852137344361745e-001, -1.93958732942221545592e-001, -2.00177600834411280328e-002, -3.68733630466551387528e-001, -7.93135411875830920181e-001, -4.45056473610051461787e-001, 2.99836626244925408269e-001, 3.63372196552381010459e-001, 5.31347024270435591697e-002, -1.56917010618510349707e-001, -4.20510687010329842206e-001, -3.74895290623540711206e-001, -3.50750667500714985447e-001, -6.61565472810931171077e-002, -4.09133242663562546326e-001, 9.10704788703131651317e-002, 4.95499505020450370374e-001, 2.59490423663216007721e-001, -3.20950077473228234659e-001, -8.93760980070247568197e-002, -2.60851047197085350593e-001, -5.65388134578355572302e-001, -6.80903563197391537010e-001, -7.76098315347180434109e-001, 5.72064086652375181075e-001, 2.97495662420183326624e-001, 9.01270523352257546534e-001, -3.88205389401123257542e-001, -2.93564489814255091815e-001, -1.84110208863640073540e-001, -9.25051772863234478272e-001, -1.00905242954014884305e+000, -7.22951918319962527626e-001, 4.63629301737372712111e-003, 3.30453224041717119608e-002, 5.31010500377452565601e-001, -4.87878849051228247191e-001, -1.31186074725975931887e-001, -7.02794499554381807416e-002, -5.33319342412316044211e-001, -6.94436251015855710023e-001, -7.46394935753000643430e-001, -6.86920073605412767614e-002, 4.61421253030712130716e-001, -2.70898728808653899147e-001, 1.04314755842883591375e-001, 8.49935154127033909432e-002, 2.02580356581905013380e-001, -6.63465298208314568917e-001, -8.83650807535298343787e-001, -6.64881411501970553957e-001, 1.77622079453700204565e-001, 4.97140070878679674049e-001, 7.04360462630997108402e-002, -1.54053178522993938770e-001, -3.35469543036787276602e-001, -6.19226787845148646250e-002, -4.26740213749100982810e-001, -4.59688404873828171393e-001, -4.03088950233166876114e-001, 3.96037938016343016301e-001, 9.50122620608792739505e-002, -7.54446779242968906809e-002, 1.26937457429998207248e-001, 4.58183674143882377350e-002, -2.20132670271169450515e-001, -1.05549020200164031524e-002, -3.71918988988299503706e-001, -4.25726947928848686864e-001, -6.47274569448493264368e-001, -2.87997800997056629946e-001, -2.88699496706214586705e-001, 2.66220753262672971129e-001, 4.41685209048976665236e-002, 2.55769401982180344390e-001, -5.53816495991577784075e-001, -6.53180595708961697632e-001, -3.36072008102463237744e-001, -5.45848246848717355562e-001, -7.03455031383543483159e-001, -3.88513073673719122603e-001, 1.74606230403927170647e-001, 1.94070276208752057201e-002, -7.23780519277972128611e-002, -8.00755207892184572849e-001, -5.27531488455190711306e-001, -8.33506926851579454940e-001, -5.40878942958112451933e-001, -1.92432715001795068277e-001, -6.59517250116400388649e-001, -1.25941418639679836300e-001, 7.87650284112107607060e-003, -2.16365731706802733036e-001, -4.75697822456560281967e-001, -6.62184931068865445525e-001, -3.37138277545033449023e-001, 1.92939850396891793283e-001, 5.05008403202482969441e-001, 4.08230319347403169949e-001, -2.16056750454466317546e-001, -1.05460898731170454878e-001, -1.40150712636204405337e-001, -5.07765281738985052584e-001, -2.13447709113225247979e-001, -6.68266464314465569174e-001, 2.41759376241460245682e-002, 4.57173183147908057666e-001, 5.60891372177100389074e-001, 2.57192182056961947401e-002, 2.20719275087404437352e-001, 3.15302509327778993087e-002, -4.35934936026887598359e-001, -1.76656709561822250487e-001, -3.82737050492944985702e-001, 7.13878012755587015858e-002, 9.11845896420981572028e-001, 2.07542382797898050661e-001, -3.21391484459903842286e-001, -9.96241154487402802431e-002, 1.45282034110904206825e-001, -3.37845743916155738518e-001, -2.44606603972822772564e-001, -1.09907346058893823360e-001, -5.20168491199798910252e-001, -2.18510847201394492467e-001, 2.35519835764343182793e-001, 2.50689513736336078153e-001, 3.25148022771970654152e-003, -2.39812108542841295744e-001, -1.62760644560276029891e-001, -3.19158087114699728915e-001, -1.26280698857054368700e-001, 6.53080854516000924859e-002, -2.22785130418414328846e-001, -3.30521155640358943462e-001, -2.69236479011935800343e-002, -3.41185241347303380710e-001, 4.40665441967513837884e-001, -1.26812301737582455718e-001, -2.36529628591512108837e-001, -6.80124607443078676994e-001, -7.33329857076443492048e-001, -2.89805131869809939893e-001, -1.51726896216590634303e-001, -2.11947360673845147661e-001, -5.33789152064472263715e-002, 3.33160361294237539198e-001, -4.52564525185570110111e-001, -2.85880216113814311640e-001, -2.93083097662847513742e-001, -2.16255534052987891114e-001, 2.81413755312515223572e-001, -3.80291380209436535864e-001, -6.03951501817290514751e-001, -4.44802010056755348089e-001, -6.93877518414989569173e-001, -1.40844008531542969065e-001, -1.76320220691553147807e-001, -2.29581754415509486922e-001, -3.61180115651922484243e-001, -1.96134727381161555471e-001, -3.89165413171896831801e-002, -2.46109831890516633779e-001, -2.46245842021293681601e-001, -8.74877798971538944706e-001, -6.80180738194103295946e-002, -7.21108992507509122261e-002, -8.93147552065011451905e-002, -1.64801357120676089663e-001, -1.25861688400218163508e-001, 9.64055702781184409300e-002, -2.87564529263297341544e-001, -2.84666289522453319627e-001, -1.00216026344857850328e-001, 8.69846598225529170356e-003, 7.39054946524203004721e-002, 1.74765392551240961172e-001, 8.37806531347222716022e-002, -2.22627436623118957204e-001, -1.06631684682069266534e-001, -3.48028008808286659637e-001, -1.31421548212895950014e-001, -3.91803590512506072496e-001, -1.04691919961657209370e+000, -6.39950923832907192512e-001, -8.23611956907182141130e-001, -1.23561923243357213442e-001, -2.24573564402790581962e-001, 4.95764655644226337472e-001, 1.17435187684560970317e-002, -1.92923106986459425016e-001, -7.28716474586358770038e-002, -5.40557197257416244263e-001, -6.99532413400020480765e-001, -3.97920174147956384747e-001, 5.80762993570080945926e-002, -1.32361593534065291600e-001, 9.63282115241432812525e-002, -6.03661859669651010285e-002, -2.70555180975292408618e-001, -1.63243895680516559743e-001, -2.47529207733719253115e-001, -5.31998349661652825127e-001, -2.02556274373993233651e-001, -5.16019604952174915091e-001, -7.86161406799302020509e-001, -4.48974168468054435355e-001, -2.46983934077720859723e-002, -2.29769309966010776280e-001, 6.06525779533907058449e-002, -1.46757593974219197053e-001, 2.90289739050154538269e-001, 1.56115710554763503781e-001, -2.73290878264987380231e-001, 7.55938847228538740586e-002, -5.07121601176581338066e-001, 1.74755027479863607465e-002, 1.44868246924458765612e-001, -1.26953855153020711555e-001, -7.81598672301201252699e-002, 2.68831489207779252004e-002, 2.21528539449873922845e-003, -4.22064194860699681833e-001, -6.65123091672860433654e-001, -6.25354684245474135018e-001, 1.85677325636109308293e-001, 3.01397603323197038616e-001, 3.68990906741043511730e-001, 3.76205175133964675460e-001, 1.07338354222826393158e-001, 1.10754134638322829232e-001, -5.67895260574580174051e-001, -2.64670376355114755906e-001, -2.85507815490566696504e-001, 1.90614615346476945490e-001, 1.43439996259417723579e-001, -2.53648353428750396310e-002, 9.97577174983184933321e-002, 1.66668055911253665258e-001, 3.37989835696326790249e-001, -1.10660375476487060631e+000, -4.83286081703801218001e-001, -5.82798425720895352242e-001, 3.45925801586706022084e-002, 1.15388923837509163595e-001, -4.41852261497253859246e-002, 1.02211435458465380033e-001, 4.03938083754096621814e-001, 4.00141184629644486304e-001, -1.14667680336109545358e+000, -9.72380137461741345106e-001, -2.53524661213617094613e-002, 4.41504312908904961166e-002, -7.73229118845348423195e-002, -2.48761419455521513855e-002, -4.55651778651459341690e-004, -1.48409473146307813174e-001, -1.70913064029799111054e-001, -8.09965120108772917984e-002, -9.96497689283198373467e-002, 7.35077384616400208994e-002, 7.75158990785202728357e-002, -8.24950680589815223132e-003, 7.60620996057780468513e-002, -2.36063765054403768007e-001, -2.63411258184752028466e-001, -1.02156475775389207761e-001, 2.56597760870622346174e-002, -3.24215459177391446266e-002, 2.21508457593917379436e-001, 7.04851212332985449516e-002, 6.23855318745238293654e-002, -2.04091463376067268343e-002, -9.29556276931789576823e-002, -2.86136732099401061569e-002, -1.20185292355583242530e-001, -2.39114721313335026887e-002, -1.33796567769836477479e-001, 1.14267160937005767679e-002, -2.44201029131949423623e-002, 9.38956357238040495439e-002, -8.33076670629790544398e-002, -2.05695175418765030528e-001, -5.16632185140848410043e-002, -1.39646235673495822116e-001, 4.10960667447013497378e-002, -3.62695325127861609160e-002, -8.10529675368889673814e-002, -5.35359105262884285570e-002, -1.92679171602137024044e-002, -4.35352655660930856762e-002, -2.00235218575234436011e-001, -2.52892887059417870166e-001, -1.60155066055189587715e-001, -8.84783824066880369291e-005, 8.70166864287681279810e-002, -1.16420068285344908976e-002, 6.77417220916395890207e-002, 4.84334134176223952452e-004, 6.45150247613856531181e-002, -1.70466416312310825587e-001, 3.56038625875692085754e-002, -9.93550181280189875777e-002, 1.05251858838471840790e-002, -1.07398504706419650745e-001, 2.26467572163690789022e-001, -2.50462958658323811556e-002, -3.59252812653119701913e-002, 1.56960203802357978198e-001, -4.15226152902107778497e-002, 3.42154112142166802468e-003, -1.50943410801569997959e-002, -1.40978899355197251353e-001, -6.13255470212657263773e-002, -6.34462441330856247168e-002, 1.77642337408321811243e-002, -9.17886629719265878524e-002, -8.47310293157796899643e-003, -8.42498935141654248238e-002, -6.10510066526209482785e-002, -9.81390489640228264046e-002, -4.10309037901392670289e-002, 4.80194415885977013425e-002, -3.25489251431810497350e-002, 1.02701598862788654604e-002, 5.12869488630861986023e-002, -6.91280313113999123065e-002, -5.92621348526873592544e-002, -7.42477638372367743091e-002, -1.54848821765220828750e-001, -6.82828961304858678139e-002, 1.15765485532744016872e-001, -1.32832141958314706165e-002, 2.03636369738748046476e-002, 6.39520961484444788736e-002, 1.27250320763727969853e-001, -1.31735798653069446917e-001, -1.59907148281321187522e-001, -3.47194709142953777947e-002, 1.02305288932626511911e-001, 1.18410735039425323717e-002, 5.14006972291646477280e-002, -4.89841359017387234509e-002, 7.42246032620506313027e-002, 3.70555845559278514145e-003, -3.86413681996966504317e-002, -1.69187774379211008924e-001, -1.67247775458250272362e-002, -1.05843217154583002504e-001, -1.10739784184901421393e-001, -9.13533610098758441787e-002, -3.98531707930583276034e-002, 1.67505669536065424086e-002, 9.13376289898964605074e-002, 2.05472887795325256932e-002, -1.99666697525030772953e-001, -1.33755243131230078246e-001, -1.32332978380715476918e-001, -1.38801286106089605266e-001, -2.85782766912050026353e-002, 1.03062660947803766409e-001, -4.70715101895941637200e-002, -8.87255051280459589025e-002, -1.41016739546888147938e-001, -2.53983655425339335809e-002, -1.99125421041313477311e-001, 2.23029672646315041407e-002, 3.21321332995590652759e-002, 7.55135885127997726757e-003, 9.80482460057797433617e-002, -8.74345036058520874711e-002, -1.07102185493038078168e-002, -1.57313851114934427633e-001, -1.14162127104084021312e-001, -1.51166695555206759272e-001, -3.75708634178316888685e-002, -4.52084667569051662506e-002, -4.24467105894674803790e-002, 1.24994672507767398684e-001, 4.39822244497162090360e-002, -8.33518059908253255985e-002, -1.93855728925900722137e-001, -4.40165931579987179667e-002, -1.97749007467956844364e-001, 3.35039174323688293544e-002, 6.72956530341029396380e-002, -6.96940774964946718750e-002, 1.05178928000065702308e-001, -2.79854424694434208987e-002, -2.67191061527238919726e-002, -1.58124942388089800849e-001, -7.17862893587983691424e-002, -7.60390861540703594246e-002, -8.38025042799817598826e-002, 4.93669826878750106491e-002, 1.03486369907894976139e-001, 1.32063303786408708929e-001, 3.00948405936430317398e-002, -5.63110459302530209913e-003, -1.26059503910941672622e-001, -1.69299260062613698974e-001, -8.55830354911618212954e-002, -5.95495512427117526522e-002, -1.05786151209545931096e-001, -3.81519973228871128734e-002, 5.41549896609727007823e-002, 9.81642020632246536938e-002, 1.60690359033309138059e-001, -9.69610660987845346392e-002, -4.42173799326133626364e-002, -2.09666829953623040650e-001, -3.98949723339890940932e-002, -9.32432545291644043761e-002, -1.17627041865631318251e-001, 1.30806834272668981445e-001, 2.65358073793751925162e-002, 1.29577272821630951061e-001, -6.68908773184078431218e-002, -1.04088657115297425482e-001, -7.23467876842061041742e-002, 1.09381278892475147790e-001, 6.43398807829717589435e-002, -1.14691618998961950004e-001, 1.10261095700178432533e-001, 1.55990447085960409757e-001, 1.62059762452073860550e-002, -1.43715732047990762954e-001, -5.45217547241221150989e-002, -1.26049013050324870688e-001, -8.39296945466704302774e-002, -4.30328286330545414784e-002, -2.95409007065686492199e-002, 1.78236923261950869213e-001, 4.36665406777835690688e-002, 1.13150308316564307543e-001, -4.98715806515675902366e-002, -2.14479877309176142353e-001, -9.07685903185875553323e-002, -2.04821815893259290275e-001, -2.53439198698149792399e-001, -1.59175321436697214672e-001, 2.03585577525154187706e-001, 5.66113508938189402553e-002, 7.58348659152955212326e-002, -7.81729676277803375850e-002, -2.01576618159191783830e-001, -1.32186236028223436101e-001, -1.44501084215357816776e-001, -2.05664444108704991265e-001, -8.35731713183577029636e-002, 5.17284304385487378464e-002, 3.14538834498144861951e-002, -3.37537882165320126532e-003, -2.77830872402588455183e-002, -2.11477000461590791680e-001, -2.19095177344923119911e-001, -1.32027448063867430816e-001, 7.04663898707969110768e-002, -1.25745302022064020520e-001, 1.27610703253017952752e-002, 1.18421694938833879651e-001, 8.38939922217681044447e-002, -1.12177569453942686806e-002, 2.05105409553982404036e-002, -2.36927529433906131073e-001, -1.28526048008717613813e-001, -1.24765255314103928885e-001, -9.13772446073090743868e-002, 1.24474781056937225387e-001, 2.30133335990618248523e-002, 9.20878351155280105989e-002, -1.36229834907535568567e-001, -2.35631021512877104895e-002, -9.85730935581732442552e-002, 6.18583718597568305020e-002, 1.58760665451620541777e-001, -9.35011260998203919126e-002, -3.89874123535715287614e-003, 2.37551490337964930910e-002, -6.42672124464469668448e-002, 3.82734738329349594155e-002, 4.35381845833447689298e-002, -6.57547936024382440046e-002, -1.20493703196582396808e-001, -1.86069399068960694699e-001, 5.36348996797676898229e-003, -5.49939072556356600696e-002, 4.10202183924977120677e-003, -1.53885979619353494702e-002, -5.78211015898298444360e-002, -1.47618143206884488983e-001, -9.42512044071077831342e-002, -1.95223459349947309205e-001, -1.09449851622593075096e-001, -1.18703166439969490242e-001, 4.99769491436071744417e-002, 9.90071458969231238401e-002, 1.23237466284299199137e-001, -6.16814067511671504374e-002, -1.44199296093401430063e-001, -8.40161864187063955889e-002, 2.03033411713909074658e-002, -8.43769783268211587268e-002, -6.51586970767445705643e-002, 1.22252541427045113842e-001, 1.94033663762610483761e-002, 1.81341791460250173484e-001, -1.79965370965722570862e-001, -1.69421980823800610860e-001, -2.92876187210674770664e-003, -3.27595769054648405794e-002, 1.95274393543186097766e-002, -1.28304554992564545657e-001, 9.04774211345617807023e-002, -3.87454032840137824190e-002, -3.63363607445448752453e-002, -1.40595124910859806122e-002, 2.55845236116052816844e-002, -1.52810477846768683063e-001, -2.21925122059811796849e-001, -3.25738517557558199256e-002, -3.67308139158086036091e-002, -2.45658515757606402130e-002, -6.89796180311335882518e-002, -5.30337534217428865913e-002, -8.58802323922270086087e-003, 2.36639782666366142727e-002, -8.52121033754228152102e-002, -1.59724872338313755860e-001, -1.22766636181643115644e-002, -1.11179470920001917389e-002, -3.54890477157615777393e-002, -9.46260856919405209109e-003, 1.18654750518898371991e-001, -7.67319393934194349249e-002, -3.57338483964384640013e-002, -9.01152581616467968084e-002, 5.99231688952027580219e-002, -2.34182070370208064714e-003, -1.27751768918088093319e-001, 8.69310983378503709940e-002, -3.25854413094239028781e-002, 1.06109830484413483753e-001, -2.10189501925479721445e-001, -1.51820110438951189069e-002, -9.55590521929222252995e-002, -3.57098703812487525133e-002, -4.65072859936089127997e-002, 3.81073808105793013223e-002, 9.67466187808127819903e-002, 4.93520365215896310296e-003, 1.01259225114812251300e-001, -1.23502794026317641585e-001, -6.72502018605903445492e-002, -1.87586450619031508413e-001, -1.88662851962363153913e-002, -1.28405794573658860180e-002, -1.73851977429953175047e-001, 8.63402217350517642291e-002, 3.99074613872949721105e-002, 6.75477130978649614734e-002, -2.99447079752887604376e-002, 1.59796018849415188967e-002, -1.88044705815155505091e-001, -1.77706211739956598805e-001, -8.75839932236173873692e-002, -1.93119452194064039618e-001, 1.65422143797965381928e-001, -2.83873722936268113592e-002, 1.04582835007125382609e-001, 5.03563357349008991481e-002, -4.73271982704319554847e-002, -1.02421916850431601875e-001, -9.59511260917063207865e-002, -2.17212696121699203045e-002, -1.96150814437116766120e-001, 2.42894234538561688830e-002, 1.28030513582719079890e-001, 5.27008931422317805637e-002, 2.77482641577693513180e-002, -1.90400306637437233270e-001, -4.45956129692307232104e-002, -5.93946774506394076232e-002, -6.56653136964959333044e-002, -7.67337203236854448196e-002, 9.45551494214081772460e-002, 1.27039647520171911088e-001, 1.92910417996199484714e-002, -6.95070608456708483036e-002, 1.27223150185044372312e-002, -8.78944544424125617788e-002, -6.73750634096104555892e-002, -1.14685627193817321623e-001, -8.10716745129809734927e-002, 9.91829827767430338703e-002, 6.04986158741168192354e-002, 8.51686244480109183597e-002, 5.36036614093332239306e-002, -8.79496198204668538922e-002, 2.08611642083897583233e-002, -2.41889453712594848511e-001, -2.51775055340893727518e-001, -1.86555810036018510090e-001, -2.93030762485885706847e-002, 1.04014661746434353140e-001, 1.58085038350639417448e-001, -5.48134938322533127320e-002, -7.39292043808748022826e-002, 7.56378399029585812841e-002, -2.36030975978648027702e-001, -2.01436285110030172119e-001, -1.69651492501034020788e-002, 2.07306839487148841794e-001, 1.81740070432130113032e-001, 1.43739001602597393781e-001, 9.02365250843646798939e-002, 2.18412263115329796648e-001, 6.83664778180757964909e-002, -1.54854907664713464799e-001, 1.43424473123785312101e-001, 2.04421205297075025964e-001, -1.87884263635381104640e-001, -2.22775229307180383520e-001, -2.21926908365610936480e-001, 5.06178804536242046841e-002, 1.49657039044463757715e-001, 2.25097312042324665393e-001, 1.38181726848130348451e-001, 2.19498785715761923765e-001, 4.34853462063691298400e-001, -1.51591129159803994497e-001, -7.83239256254753685171e-002, -1.26553888409105919077e-001, 1.72236783436031659633e-001, 1.29023835510085727041e-001, 1.20272849612767657179e-001, 2.22619174167307254386e-001, 2.10217496990224184117e-001, 4.73165807603167544448e-003, -2.59190998233137737117e-001, -1.09234782015477205341e-001, -3.59762314409105665725e-001, -2.31636175892364487572e-002, -1.76070663508285617238e-002, 9.75377022925844744394e-002, 2.60717673087641321761e-001, 2.11857973292142204302e-001, 1.09147768196710737154e-001, -2.03886443848419973701e-001, -1.45404701497196503501e-001, -2.94027251331714867266e-001, 2.87766824611550009472e-001, 2.48930497188056765179e-001, 1.38975222386952285136e-001, 1.13440695055059076468e-001, -1.24676793829608750785e-001, 8.02642578321312027967e-002, -1.64382761967008045323e-001, -3.16414710954312783375e-001, -2.14374709462405693694e-001, 1.88369076740713403684e-001, 3.84536371359256168301e-001, 3.21532148412645824020e-001, 3.63693107151278671729e-001, 1.62783346189824984496e-001, 9.30025044633462361077e-002, -1.88157965554454076340e-001, 6.69373803717034920879e-002, 3.30524976491807787049e-002, 2.09467757532142889731e-001, 2.73170070421135335881e-001, 3.51127179861025373597e-001, -4.29669999446525008313e-002, -1.28749427065035310092e-001, -1.23353714917322179745e-001, -1.40057178751225891444e-001, -1.39459177643143472647e-001, -3.40244396814470551060e-002, 3.07149496116845832638e-001, 2.73572792940476816614e-001, 2.43080014419877032950e-001, -1.73099694611052873361e-001, -6.19635496151356782168e-002, -2.46304054356844479012e-002, -6.80958247060700627706e-003, 1.33293267178437617113e-003, 1.41085765294901382960e-001, 3.88695228841005491205e-001, 3.80408087657960358730e-001, 3.34740449852664656571e-001, 8.10906374376750421762e-002, 8.12717857273414084895e-002, 1.44227424369402418280e-001, -2.27277033697422303771e-001, -6.96317106900004312298e-002, -2.40821499746131845177e-001, 1.56899853893886276346e-001, 3.75209110160744707674e-001, 2.43473992763600016742e-001, -2.47534257035152242821e-002, 6.41135834058075004815e-002, 4.08430683309397649094e-002, -9.63830613337661318285e-002, -1.58699256579285408186e-001, -2.08943007702165450823e-001, 3.94690103360109623143e-001, 2.48115214297629171902e-001, 4.21963779740106403882e-001, -7.74319068640377111690e-002, 1.71839021361267080268e-001, 9.25083949263334898161e-002, -1.51945742116101095709e-001, -2.76299842024984032562e-001, -2.00780680722396881466e-001, 2.28084217233400443625e-001, 2.29340295189946835608e-001, 4.04879276646115837668e-001, 1.26556982121369815397e-001, -1.64380591275666843032e-001, 1.16216876065895563519e-001, -1.07031361394909242668e-002, -1.22083984764719682969e-001, 7.08568929388513762957e-003, 1.83777616937343818426e-001, 1.41655263061815972492e-001, 2.13972065933869276533e-001, 1.14462137743658445843e-001, 1.42867464127973242682e-001, 1.61339601232367513273e-001, 4.78384809040917208245e-002, -9.97881341431266083442e-002, -2.06295447559843247998e-001, 1.03515766126287905857e-001, 3.52082746089921350130e-001, 1.90277272810164516104e-001, 2.28169868328365027521e-001, 1.66576388621328425055e-001, -1.02214473965653682153e-001, -2.13963388003783006042e-001, -1.30689505018177776208e-001, -1.19893035568794451007e-001, 8.68153014221150903795e-002, 4.17200019127606999692e-003, 3.79179405096801425135e-002, 1.07882794587525884453e-004, 6.74175011927905798448e-002, 1.46210182227447998971e-001, -2.42174398157175896351e-001, -1.27446549266845815529e-001, -3.77000299285161696861e-002, 1.55684225963759109712e-001, 2.35270694779376093875e-001, 3.92200606795269357541e-001, 1.67673431705728757934e-002, -2.84620950990048970919e-001, -1.56517534686905143704e-002, -1.03955736706815377035e-001, -9.49405949436713664236e-002, -1.68250106265901366864e-001, 1.52831791699313324084e-001, 1.83176358936773364672e-001, 1.33670349918046937887e-001, -1.78945837753884728905e-001, -5.34494505390438606751e-002, 1.46030649652763161450e-001, 1.53060105794538790780e-002, -2.87333694329467564943e-003, -1.53131846323472264881e-001, 1.56555201647799069331e-001, 2.74090255237180835390e-001, 2.55704270322438642626e-001, -2.43853723894809602812e-002, -1.21052483699963436825e-001, 1.02898471456191631379e-001, -1.56359113658387366419e-001, 6.01853115623431217385e-002, 4.60633348501333153568e-002, 2.21473006021886714700e-001, 8.06122151309923984375e-002, 1.40646019359239926594e-001, 3.04687385167947855091e-001, 2.10957997425047755202e-001, 2.14772605553437967441e-001, 1.20982250413329966987e-001, -9.63743964405155834063e-002, -2.12325171180719578234e-002, 1.58229728713713824195e-001, 1.08457156853209488179e-001, 2.85359743920761792235e-002, 1.83261522860676595581e-001, 2.28168243246569396598e-001, 1.44347961498080018528e-001, -9.30558723622715716628e-002, -1.50825216594117784280e-002, 3.96741629284384778042e-002, 1.09591233243765046046e-001, 8.46472551339276096938e-002, 6.09608396771878918718e-002, 1.59014424062895481926e-001, 4.63239147328933162373e-002, 2.01960201810768569253e-002, 5.83948662916959626568e-002, 9.76226012922620789425e-002, -1.46448692314463280173e-001, 3.32302982678959746288e-001, 8.28008595372444894389e-002, 8.96886048661833801265e-002, 2.09309466467111418564e-002, -4.08479570592280780139e-002, -1.06950538968142619400e-001, -1.42124989170749588263e-001, 1.73967910517828366901e-002, 4.40732736291237978121e-002, 5.44160444592578229628e-002, 4.02454333855222168292e-001, 1.96524136082084771582e-001, 7.32001870446215563426e-002, -1.57161629012277898054e-001, -1.85584835254046301434e-002, 1.26827961152773421860e-001, 8.03213875240704755498e-002, 7.02871172376007130600e-002, 1.03164302631921889208e-001, 5.45727187885433270842e-002, 3.28260507022078359962e-002, 2.36788410320383641006e-001, -6.44175916012123955801e-002, 9.83301788894169609412e-002, -8.44194854773044067731e-002, 1.19223410375793453797e-001, -2.00093719933929006793e-002, 1.04663180116461515534e-001, 3.21760153436051687947e-001, 3.24548603279647684960e-001, -6.64380574537374174460e-002, -6.03747006077739872820e-002, 1.07015450730053515715e-002, 1.71220432156913626720e-001, 5.68200014330455874245e-002, 3.17798819626662343296e-002, 3.03772346554769367977e-001, 2.94010713082980601474e-001, 2.53766576496523899031e-001, -2.26028180672133788276e-001, -1.79693197412684968484e-001, -1.52395741547393326343e-001, 7.26254272259582306370e-002, -7.45595157575257849736e-002, -1.80531289161391356179e-001, 2.63550179484493163340e-001, 3.28343347032697130405e-001, 1.50291919596448997343e-001, 5.30373080685202571982e-002, -5.30824082813979233886e-002, -1.41711431616565672331e-002, -1.12851940509875764418e-001, -1.38365301600696849471e-001, -8.97191990427453900381e-003, 4.32392762038769529198e-001, 3.32462159733325823829e-001, 3.47566770050747486653e-001, 4.54167804647124181971e-002, 4.46440608487720430510e-004, -9.42860634371472895385e-004, -1.56920971761144827095e-002, -1.62939789159279903308e-002, -3.16711472339753288829e-002, 3.36455842467074162094e-001, 2.96230861597684247410e-001, 1.54971253962392779835e-001, -2.46529097247910361501e-001, -4.73497112808853246047e-002, 7.89305640832413113461e-002, -5.26054851799730022188e-002, 1.83859187027760745403e-002, -2.42306946016482699369e-001, 4.75839442112400978768e-002, -2.22731463468419481344e-002, 1.82998869793407292761e-001, -1.88989840173382828148e-001, 1.57711491785144132527e-002, 1.36145517538681648517e-001, 6.68082075526024443679e-002, 4.72598009475813096714e-002, -1.28916989130866799229e-001, 2.83762011565562688453e-001, 3.19191364377718389544e-001, 2.09917089053306915591e-001, -2.29560512432347929579e-001, -3.18307367044172229154e-001, -2.69798847853768564153e-001, -2.50121655956801136611e-001, 4.66973037435637894355e-002, -1.95484380610877472861e-001, 9.00684810979303224210e-002, 2.61266365168180803025e-001, 1.80708572320489063712e-001, -1.24339579461566328983e-002, -8.85285229961139674693e-002, -6.26107484659046281683e-002, -1.36326552190057515013e-001, 4.01448648402679721114e-003, -2.76736311944560525733e-002, 3.34023534135243993504e-001, 1.23083186133656888317e-001, 2.53181316087068453147e-001, -4.81935379069195965474e-002, -9.74749444059697517373e-002, -2.43682556482640519380e-002, -5.21544685566680682465e-002, -9.28940101694856884551e-002, -7.22703993457235738251e-002, 2.55618704841055421895e-001, 2.55664400430560490030e-001, 2.71964508288102202460e-001, 1.36154557521453029034e-001, 1.65554307529605954086e-001, 1.72239046315232458007e-001, -2.61759807050280735030e-001, -2.13282490260746637745e-001, -5.81245362711275068146e-002, 1.06872464999729271939e-001, 1.84865624817592055784e-001, 2.89010386416370168572e-001, -2.55159887207974833689e-001, -6.15320718170316374729e-002, 5.96700794968451006528e-002, -9.87738995055157387171e-002, -3.12566743888091413961e-001, -1.68635237817999994459e-001, 2.99532202772438138627e-001, 1.82612636891787749605e-001, 2.90390565387601995440e-001, -1.83735758955025668682e-001, -3.02657823333243758412e-001, -4.25257941281636853148e-001, -1.02334638858243801018e-001, -1.21722489012165147049e-002, -1.13021641230565364489e-001, 2.83623137677150971570e-001, 2.70807961548782671901e-001, 3.08309291230658477634e-001, -2.24085388711614152957e-001, -2.84875896177701148915e-001, -1.30677850793175204247e-001, -8.85591735733386592466e-002, -1.41218946875115748674e-002, -2.14833724458121433365e-001, 4.86396376773540140004e-001, 4.45263106367863870094e-001, 4.89298757259880146009e-001, -2.42159514632230621345e-001, -2.44546061228629180162e-001, -1.75322325610908658078e-001, -1.92110919011599851070e-001, -9.93819609623092514727e-002, 6.52648074440799058626e-002, 1.70796555283061007868e-001, 3.07656168513463557090e-001, 1.47277671999306053463e-001, -3.63292096698759059414e-001, -1.15301856413840136950e-001, 7.57540752343456302853e-002, 8.19608027550763479363e-002, 3.53076267447771652286e-002, 2.88649247819889098743e-001, 3.14713764528242401219e-001, 2.95013083939432430025e-001, 1.36580600298107951440e-001, -1.22423488011581899082e-001, 6.68109145256254866041e-002, 6.07562677280364879517e-002, 2.49115455206449815106e-001, 2.78942545033761812867e-001, 6.54384842209457945339e-002, -4.27294983762135538452e-001, -4.10362640029867609126e-001, 1.61806629467318094373e-002, 1.22432935725097905011e-001, -8.29473241218041945633e-002, 7.50837372450447043670e-002, -2.45311976061454994902e-001, -2.09352584587999511478e-002, 8.97280812436228036866e-002, 1.45937508876904986632e-001, 8.16168463545630523681e-002, 1.30255420365120944126e-001, 4.05680684381531764249e-001, 1.96643402479210471778e-001, 1.63533781363297908706e-001, 2.24470626453005181467e-002, 1.89874754336379930608e-001, -2.11976941675397663467e-002, 1.70137123795503220069e-001, 2.46865654496741582236e-001, 2.07752775885979457104e-001, -9.73540760374393548959e-002, 1.62028685222460229476e-002, -1.35872000097062833185e-002, 2.86056936995904453891e-001, 3.97152739652635922152e-001, 1.89616297948078466051e-001, 2.40634185485160079221e-001, 2.13914783628025795270e-001, -9.96593064472897777195e-002, 2.97640377223808538787e-001, 2.98936963382620712881e-001, 1.04659008991198260174e-001, 1.47315322192684811098e-001, 7.86692966418399280970e-002, 6.79719942813751948352e-002, 3.49766492083420754700e-001, 3.79791530787529363344e-001, 1.84362147746768595402e-001, 2.24813877062178896216e-001, -3.19423969273222918552e-001, 2.10480129993588588322e-001, 1.81034818797178337357e-001, -1.27514086998668313422e-001, 1.51148631649307169100e-001, 1.04434154867605641370e-001, 1.81071787427867281206e-001, -1.08993692430699243290e-001, -1.37066243300357271107e-001, -1.43497316689742970830e-001, -3.29782957402539267378e-001, -3.30086753904922314273e-001, -3.82563991573457606865e-001, -4.11365924176641195587e-001, -2.35998281136731102858e-001, -1.98023270617259605775e-001, -2.11885865017775065766e-001, -1.37268060935271454803e-002, -3.82620046590793239094e-001, -2.81728581338065164896e-001, -3.66524741816028787333e-001, -3.52664537122812038472e-001, -3.33095066566797326502e-001, 3.55230463766055895580e-002, 1.27525968829983127328e-001, -2.55940746414435073286e-002, -1.61180884924609635345e-001, -3.38882690704104039270e-001, 1.58307417874821831916e-001, -1.87542816188494276819e-002, -1.34986536453178401773e-001, 1.11887095144255765966e-001, 6.68933486543826227866e-002, 7.63688599769391657235e-002, -8.83961613936713602735e-002, 7.36926975807315060019e-002, -1.22847054423895433312e-002, 1.30305718019196298263e-001, -8.41502454028832391764e-002, -1.32233479749663457303e-001, -3.30854084354446131844e-001, -1.46865079015553404856e-003, -8.95888614698207991216e-002, -1.77586037965450999065e-001, 9.25415993364704092539e-002, 1.15935890813532019306e-001, -2.01488048108920597690e-001, 2.86520984302741782423e-002, -1.25111373269098019589e-001, 1.58305852128109270094e-001, -2.71420509620071914725e-001, -2.85623867278382015389e-001, -2.62755388004726531115e-001, 2.29248206791985847941e-001, 2.89959277144785365632e-001, -6.80712740314454722856e-002, -6.21666865783754629682e-001, -3.26645687468761602990e-001, -4.83297254950265042783e-001, -4.08134995127065677845e-002, -1.32949297898094676018e-001, 1.92248231547508807715e-001, 2.33852934902905179593e-001, 2.61861972329719139285e-001, -1.90657957131947747298e-001, -1.14859906839716335858e-001, -1.30651043456018363387e-002, 7.22443478279146539256e-002, -5.07052840854134607984e-003, -1.09969456002060289590e-001, 3.44601810797516127510e-003, 1.30664034376054404712e-002, -1.18147748703207683407e-001, -1.06728887089642857089e-001, 1.65317089876882372668e-001, -1.14057434884497599370e-001, -2.36118792518412931591e-002, -3.91836909047556525287e-001, -3.35084931888402604017e-001, -3.68657546810844505281e-001, 2.19369555590666842626e-001, 1.39176918056669735035e-001, 1.43321988778798314890e-001, -1.63797569904832795995e-001, 2.24313705080568609462e-001, 3.24721812569306114704e-002, -4.40259606401327108216e-001, -2.23470702498443946071e-001, -2.89615151198930609322e-001, 2.85770958978155556821e-003, 2.05502941168826586127e-001, 2.13781361627905480693e-001, -2.05697573577447223592e-001, -2.31187923844640874638e-001, -3.86933873842903119922e-001, -2.73377641659055981016e-001, -3.97792014665782622806e-001, -1.61668201803498889912e-001, 1.84870988703344611703e-002, 2.27064342070532665385e-001, 4.82668827363655836282e-002, -5.86672768621058882133e-001, -8.30292866918705685375e-002, -3.96531433551399081772e-001, -3.53641662234676135146e-001, -6.34536523487758546969e-002, -4.51006200343959995358e-001, 4.71310051483732617150e-001, 2.64582121780757406615e-001, 3.92667105415994865947e-001, -2.14006356327610752777e-001, -2.39730487955198634520e-001, -3.77816576126046632655e-001, -9.32989016708674206990e-002, -2.04584810244696713166e-001, -2.04288433521975981710e-001, 5.28639087232883331247e-001, 3.26740627713915821051e-001, 1.18801167876530430756e-001, -1.18930447386861481984e-001, -2.13818312321826242695e-001, -3.24354203303986676765e-001, -1.03969013350767067183e-001, -2.88315936832089891872e-001, 3.84201075190557586603e-002, 3.12054128789124363141e-001, 4.27900959261491242724e-001, 2.70730976844002324544e-001, -1.39613303550008994308e-002, -1.23185752700211897936e-001, -7.27382032689406626824e-002, -7.96769565395709887523e-003, -5.90450022737180543753e-002, -3.43633176246469426718e-002, -1.30245084332387378590e-001, -1.19628743686331792673e-001, 9.38894318044122405675e-002, -3.68884842460830142397e-001, 3.12135456156441386255e-002, -1.84580373967218908104e-001, -2.85715765220421746839e-001, -4.35461856165150588971e-003, -1.94181318140634828762e-001, 2.01001063745009644901e-001, 1.16850334501327937642e-001, 1.02190376280717143409e-001, -7.72787894180348433615e-002, -2.13487354899150938436e-001, -4.83379065952782571713e-002, -2.59351833970519141115e-001, -1.56332120887468534187e-001, -8.52485577204301070431e-002, 3.31431600330831244161e-001, 3.64897263939714278091e-001, 2.52223252716726742406e-001, -1.80476053252213441969e-001, -1.82045059685705112873e-001, -1.93234135180784194485e-001, -1.25578691030512362703e-001, -1.10797365838393460646e-001, -7.76353268747224795066e-002, 3.21823007685954176615e-001, 2.25141120020007079461e-001, 3.10955996506152965164e-001, -3.38820111502063037179e-001, -9.52488527104694560066e-002, -2.07128935759799209793e-001, -4.51879357522790958690e-001, -2.69471909601321168992e-001, 4.50138336170202713049e-002, 4.39444798495444932662e-001, 3.98378539938763986950e-001, 2.94868110856500664774e-001, -3.75982489998028135414e-001, -1.10030028061999778782e-002, -3.27668838180252441905e-001, -6.03669769399435174329e-001, -1.42298934707687896317e-001, -4.50010828029075438117e-001, 1.15748112342585238177e-001, 1.96945502597843352666e-001, 2.34048464504444053702e-001, -7.73079765997196355354e-002, -2.10409698747895446136e-001, -1.90022767238581302696e-001, -5.31336868379485238734e-001, -3.53872292267322752224e-001, -3.23008797438143868686e-001, 1.35175524399475055493e-001, 1.07409542979147190622e-001, 1.78752437017003912301e-001, -1.17195965564740711695e-001, -2.64536461419444979271e-001, -3.45667434674795714944e-001, -2.92261012376590578743e-001, -2.81099397529751791891e-002, -1.99893922828610265396e-001, -1.20035456154996583722e-001, -7.83592958629763733369e-003, -1.44595745244804091412e-001, -3.29738669591608801746e-001, -1.90955023568359832931e-001, -4.20082224592881886549e-003, -1.63879159838391713633e-001, -1.15375249996576029199e-001, -1.25761251888004327304e-001, -1.87537833282750088237e-001, -2.68325433744326657948e-001, 1.58200783665233601916e-001, -2.35550842821370148839e-001, -1.01747721045104891346e-001, -1.56296295685423553001e-001, -1.66725893258738516733e-001, -5.84878313260102228321e-002, -2.01185205218022661322e-001, -2.25691565009095325423e-002, 1.13114431792361164186e-001, -4.84996958517968299041e-002, -1.90062420185522634730e-001, -5.67224356868220036532e-001, -1.79494125339142718278e-001, -5.29831584756825457738e-001, -4.23052657594888970038e-001, -5.33185280982201414979e-001, 1.03817560762711161293e-001, 1.86381295043697131630e-001, 1.33727714368258421285e-001, -1.53805986608579886576e-001, 1.45643949455508431301e-001, -1.71717432521676899304e-001, -5.75384218003457847956e-001, -2.36068957217184655084e-001, -2.55624088015359463011e-001, -1.50375008815607558166e-001, 1.32781538692931040842e-003, 1.10780244636275324033e-001, -1.18553770418466750125e-001, -9.44313999133603865221e-002, 1.20861864543104519099e-001, -3.69374515122474988971e-001, -6.40777595928118948176e-002, -1.80335916062253021064e-001, 3.22154907471692064647e-001, 1.31227459436032478646e-001, 7.00182186758550595407e-002, -7.92932865396074604281e-002, 2.74317573137622117141e-001, 1.14189359135149853808e-001, -3.39556350331948142429e-001, -3.39214272366130720204e-001, -3.08473041351730870030e-001, -1.19619793846625202538e-001, -2.54404070696206574542e-001, -7.16105179194676533250e-002, -2.87536288236866638401e-002, -1.24267278291977381621e-001, -1.33968668688480646578e-001, -3.29597568345833202841e-001, -3.34176215523715458566e-001, -2.20845731647622695037e-001, 5.11136796475212314833e-003, 3.00728816737661081016e-002, 2.71048426514333251625e-001, -8.01777158324540190071e-002, 1.00420106723730584442e-001, -7.97862832529210030952e-002, -3.85365465634519843707e-002, -4.54762885552557172275e-001, -1.41451083380562614433e-001, 5.41261592812924546836e-002, 2.18124442336376345164e-001, 2.82756473111876405202e-001, -3.23120821890075626825e-001, -1.00737615712078759644e-001, 4.33872455853345703747e-002, -1.25175751873763868582e-001, -3.30644423283685470749e-002, 1.96792444818663814221e-001, 7.59193075612038109634e-002, -2.13866138764920270254e-002, -7.61594989331114691211e-002, 1.97092300687293046912e-002, -1.20359557039243728754e-002, 6.62574695846551015022e-002, -2.13076994662874802389e-001, -8.19760544911451727312e-002, -1.32260731036113715620e-001, 1.69201099475059062172e-002, 2.55965861127806060260e-001, 1.67172111625165903392e-001, -1.70063770251082629903e-001, -3.14581635878839055431e-002, 2.46161502044824499064e-003, -3.04568516427676128089e-001, 1.97127111213342559592e-001, -1.27954115386522487841e-001, -1.52321705405984497705e-001, -8.48403439164979455978e-002, -6.00522938839251896326e-002, 4.10349617078051356889e-002, -1.29209799524410140492e-001, -9.97535285259520260182e-003, -1.53463330806640735338e-001, 1.91384957523593607354e-001, -1.60406753415568176235e-001, 3.31974754563574003807e-001, 4.13651567575268441779e-001, 2.49636325521826768492e-001, -1.52647027525854517283e-001, -3.54337892697209444481e-001, -2.05824533797211245423e-001, -1.47835810220720897945e-001, -8.39365334210751962152e-002, -1.24283650368199521941e-001, -1.27893115166481302625e-001, -1.10131290147502586274e-001, 2.60108186141276731540e-001, -9.81595418395060648198e-002, -2.11929964411808280378e-001, -2.92756920250031360542e-001, 3.26717863692574522760e-002, -4.42085432633699884630e-002, -4.56622483720500113580e-002, 2.81742287676962493981e-002, 1.64063500564057468400e-001, 2.31532057496983356693e-001, -1.95487390168317620720e-001, -2.94497050004086935449e-001, -8.51911571402376166517e-002, 2.30470793746202426422e-002, -1.68131232443351458228e-001, -2.49648008948332583712e-002, 1.80170850116662006890e-001, 2.31306988328291496249e-001, 2.88137484217363903927e-001, -8.90876484531935852740e-002, -7.98141245687097738992e-002, -1.15465134601657956614e-001, 5.06892853510771332348e-002, 4.61265016936348026810e-002, 8.26306287734152739022e-003, 8.71834232863270136571e-002, 7.54330351066898226187e-003, 9.88455241541870421873e-002, -2.77759622726976407314e-001, -1.90662423246237916485e-001, -3.00418916177430883607e-001, -1.29977082560853662851e-001, -8.68966241017782303757e-002, -1.00904888317790653041e-001, 2.40483023079086949414e-001, 3.05024559664806849124e-002, 7.23771402990754236795e-002, -2.34562049517018991751e-002, 3.64888381310537954216e-002, -6.66183122520853099324e-002, -2.42922854414152102065e-002, -1.21185877154824511726e-001, 1.39961203461847122353e-001, 5.03657801493256757075e-002, 7.48079722687274434323e-002, 5.62463077324294735693e-002, -1.31220908779548783851e-001, -1.72594365143377309613e-001, -2.27887506804396539062e-001, 8.72935441603536477206e-002, 6.29395715702305846850e-002, -1.53923616607421875901e-001, 2.00382956818593305215e-001, 2.07141445758611181249e-001, 1.37827351782889739873e-001, -1.32211626902268647443e-001, -2.96078903295982805155e-002, -9.90471699152544737821e-002, 1.42177466362166604608e-001, 1.65497936268110268365e-001, 3.65740787152407306748e-003, 1.62499023274090909075e-001, 5.42817073485799272969e-002, 1.61999343297560743915e-001, -1.71559461952000308349e-001, -1.28188595760800244650e-001, -8.07417127328456663005e-002, -1.39536475055308095000e-002, 1.03513855103682078651e-001, -3.05121195830992536502e-002, -1.47166110196926797071e-001, 5.33505022481539012413e-002, -3.18750580177738218612e-002, -3.77195785780297665468e-002, -1.46576865387821386744e-001, 3.84517314558270248415e-003, 1.84597444956347028766e-001, 1.71956981105376549568e-001, 3.09722972346233096919e-002, -7.41216079250477284657e-003, 8.16596535219469704669e-002, 1.75205083976565922921e-001, -2.03076694148289736697e-002, -2.11054241663208158597e-001, -2.20268626181061799585e-001, -5.12805035983289123069e-002, -2.67881800256188733200e-002, -5.13763169703189415127e-002, 1.08500370899610898423e-001, 3.41438259933224408371e-002, 3.02253198107179255755e-003, -2.30238611329334291744e-001, -1.25666361698442141659e-001, -1.64549986502222300722e-001, 2.06249859194658463624e-001, 1.46728406872602357147e-001, 9.66026262145679437410e-002, 8.51752014295730081050e-002, -1.05441155138424023929e-002, 1.75499871162377751865e-001, -2.09051146977771579172e-001, -5.56263044044974785951e-002, -1.55431157799725300217e-001, 1.68551457150118905171e-001, 9.67045063621330136527e-002, 1.36270358209269304428e-001, 5.18454334762793386804e-002, -1.26830025374622401557e-001, -4.42552498061843935240e-002, -1.13581008245399794898e-001, -1.12626579873928642228e-001, 1.06959357378099296360e-002, -1.65928365429996241276e-002, -1.47530391598681559495e-001, -2.67789028818022876999e-002, 6.60436749842521486631e-002, 1.56484917853526667164e-001, 1.60354296810810786900e-001, 6.81989785693746242146e-002, -1.22937167362831292761e-001, -2.31430029736497504256e-002, -8.58432297061690052775e-002, 5.24786675953049092103e-003, -1.57911664977848864577e-001, -4.05085597387033480299e-002, 3.19101273898522649897e-002, 6.96293874477736385309e-002, -1.05069966772083370210e-001, -1.31684944474095344535e-001, -1.64817185605954208416e-001, 6.01344198391503131917e-002, 7.45909065214274136224e-002, -5.87576786067754430753e-002, -1.30857402744329730931e-002, 1.17437586443849675821e-001, 9.57657970067041786066e-002, -3.11059590659613430241e-002, -1.67839635565040778964e-001, -1.35761647321072098649e-001, -5.01446665159429524894e-002, 1.27385435042823014218e-001, -3.34482097910469454091e-003, -3.67614075634455292341e-002, -1.48763766705873434759e-001, 6.76196364730297372336e-002, -2.18293262889878852961e-001, 2.61776395577432083317e-002, -2.19514372467865363781e-002, -1.11036633311625734799e-001, -1.17572092928189653183e-001, -3.59426745164358393825e-002, -1.44469654293277668944e-002, -1.25980890001632546416e-002, -8.97022521022216440256e-003, 1.04483063675606835385e-001, -5.81773800852182082499e-002, -1.64324356216010603049e-001, 7.87490775867475401029e-002, -7.43875900541101642283e-002, 1.29220257886202977149e-001, -5.44399354995634618404e-002, -1.04869103650070405465e-001, 1.35205772355189074441e-001, -1.14724059176494572188e-001, 7.13901699295888952923e-002, -1.39447575327315914651e-001, -1.03358087958941302631e-002, -3.49807324089264626288e-002, -9.86960168364582959843e-003, 2.87798590823509448100e-001, 1.51740963746482382390e-001, 2.06118128850098364380e-001, 1.73076250111005358612e-001, 6.11815264361664779003e-002, -9.65434637975524367892e-002, 5.63652573340836793303e-002, -1.36311942290443188774e-001, 4.20477411567057868247e-002, 2.21737920541683536380e-001, 2.87681403462324736253e-001, 1.87785830107565332447e-001, 8.39785607827836788619e-002, 1.07563660418381182304e-001, -6.31349942616693110553e-002, -2.22846240637410902830e-001, -7.21023920564358850038e-002, -2.19681234729670049610e-001, 1.02458158004392438367e-001, 1.38925030740444210853e-001, 4.13342881602338993452e-002, -3.34827754829799539849e-002, 4.08051444834702375930e-002, -6.39105017817336168440e-002, -4.30710735418175366673e-002, -1.78913633715061304308e-001, 1.98833666492960921268e-002, 1.19996023977084267931e-001, 1.17971406106851292583e-001, -9.23522393076214344332e-003, -8.84592651976746635611e-002, 7.83632403466660992786e-002, 1.40833711547037471190e-001, 2.81999735706359756782e-002, -1.11962012596797250152e-002, 8.56195595473769055506e-002, -6.03097579878714845636e-002, -1.43936829611453293021e-001, 1.50989018080081610629e-001, 1.01413915079680880260e-001, 1.48653463949298958457e-001, 5.90347434192637562922e-002, -1.85019125856588750878e-001, -1.00657705294542446084e-001, 2.00990839952344541031e-002, 1.92609017195804893552e-001, 2.29877151561687781411e-002, 1.47654583532788513667e-001, 2.06769138947059359646e-002, -1.65889542379503256153e-002, -7.21894049581311009200e-002, -1.81430974700537359090e-002, -1.66071915884468605633e-003, 3.21183134059244909664e-002, -1.26778756250203517020e-001, 8.16411519850699096690e-002, -2.82240823425360144727e-002, 1.19195262160347564828e-001, 9.73654245726892145218e-003, 1.14596069381173601420e-001, -7.57599445435716001285e-002, -7.52092209874166695016e-002, 5.99332935006706285508e-002, -2.26906588592857172415e-001, 5.70532959165092057319e-002, 1.02505121919179180076e-003, -1.00174736533174976727e-001, -6.35993437970785446822e-002, -1.76329327972072902320e-001, -4.15484141758979807352e-004, 6.66831185646883789486e-002, 1.44391687147382680179e-001, -6.79413937684066049361e-002, -2.19685322778799714538e-002, -5.90969187420825603496e-002, -1.78095040022902328936e-001, -4.28816443771465674595e-002, -1.00243203243596562535e-001, 1.36614885657261930785e-001, 8.51586638861400596623e-002, 7.94387344694616193141e-002, 2.50787219892326419812e-002, 6.92893659192717580042e-003, 9.34160480737341591961e-002, 4.24566951041301619829e-003, -5.75506303212924633095e-002, 3.82862767069068292425e-003, -8.44070647553652603223e-002, -7.68959652369923668536e-002, -4.56945518339951436970e-002, -2.30659713324475462715e-001, -5.63096626544278694437e-002, 4.49407631215351308085e-002, 6.81012902983844509164e-002, -5.93139122401501669990e-002, -1.88208649901801555737e-001, -2.43882343505530396754e-004, -1.47045407335249178615e-001, -1.52699890620486500303e-001, -2.45675491058685441237e-002, 9.45121003135608039880e-002, 1.58113411792642988285e-001, -7.93289602431944129712e-002, 2.66923471571424535120e-002, 4.28934776424003336159e-002, 7.37930718558455073230e-002, -4.17305977043557971284e-003, -7.03743591026724903473e-004, -1.65163769107630475919e-001, -1.16590265236110976477e-001, -1.13134045487249548789e-001, -1.07854219932996736597e-001, 3.99492780248403896864e-003, 7.00797548283592225404e-002, 4.63795584595703899722e-002, 5.91307227811212268720e-002, -1.31055083105403091803e-001, 4.16826489326607291241e-002, -5.97666563337888173679e-002, 1.19684672342021722335e-001, -7.94168423625181557624e-002, -8.42209591701525844831e-002, 1.44840402380819993633e-001, -4.03549696600820836934e-002, -4.93625734941144297951e-002, -9.36346501276286019566e-002, -3.20541686468640771301e-002, -4.55055741662064236475e-002, -1.37962333073654463966e-001, -1.53517866152727944229e-001, -1.03582324615612689223e-001, -1.13765482576234394640e-001, 6.11404721588950442190e-002, 5.29989426211155412183e-002, 5.57221900859510357873e-004, 1.29213774332197522954e-001, -1.86424159309062191514e-002, 1.22261897126055618656e-001, -1.74012557937532785779e-001, -1.28495989008214905880e-001, -3.37584202585337611602e-002, 2.08294917903685062113e-003, 1.20024687092794513088e-001, -6.62327800207065386928e-002, -2.88067501296941419486e-001, -8.90320906813777679378e-002, -1.01812799224576963630e-001, -1.19958923473396168909e-003, 1.43149105370103096185e-002, -1.44454719966359140804e-001, 1.66550594658988027064e-001, 2.87534170476757625079e-002, 1.16016423370885080057e-001, -6.98591483730705564703e-002, -2.16470092679338615982e-001, -1.22803051305841667840e-001, -1.22494097356606018723e-001, 1.08688721618521805246e-001, -9.74506309180068336362e-002, 1.30530421653699379991e-001, 1.88266142509317446763e-001, 2.01215469247565725830e-001, -1.14987585725192908992e-001, -2.04409250203221287689e-001, 1.81105944227294320126e-002, -3.87253436663378101945e-003, -6.98258434981607750691e-002, -2.17146868902101886079e-001, 2.45601785900306235355e-001, 3.18161988212287416555e-001, 2.58324219188254045054e-001, -5.62724164745060442816e-002, -7.04255677365170223991e-002, -1.75703874167437990028e-001, -1.29863048082367260605e-001, -8.50997242267917397562e-002, -1.10360669287934101690e-001, 2.19103660267092256730e-002, -4.87235641293262133900e-002, -1.14437950206255995012e-001, -2.24103164660583747958e-001, 6.41238940806065221834e-003, 4.70758839370754023079e-002, 1.99794107468012849260e-001, 1.02701790475993398610e-001, 2.87672319760088446294e-001, 1.32320404408259428841e-001, 1.20949901004838503149e-001, -1.78315615106218322561e-001, -2.96908137539202421351e-002, -4.84287439973498379242e-002, 1.84220314526099167296e-002, 1.23038395148588164396e-001, -3.83802065011310603038e-002, -1.25582578167448555284e-001, 1.33430985918817773817e-001, 2.11710294358974510098e-002, 2.55010066142493455055e-002, 1.65105676186911402847e-002, 4.04127891740449149416e-003, 1.30664537905145566876e-001, -6.72971777993363329262e-002, 3.15875490568218661447e-002, -1.23565024671227260272e-002, 1.27779382468495100733e-001, 1.31589451030799543113e-002, 3.43656898680349612296e-002, 2.91426070201714765284e-002, 1.17438771794349014477e-001, 1.16169264050486123474e-002, 7.63664265154518351331e-002, -1.60583853511525286029e-002, -7.56552108499141812148e-002, 8.41146519186937863255e-002, 9.81657453000959467904e-002, -3.86123515942333184192e-002, 6.36750756504999432250e-002, 3.41364237724082753012e-002, 1.72993297545076890609e-001, 1.38277771238447366731e-001, 9.93106649636615046450e-002, -2.19671849332692195600e-002, 1.67691523798573050019e-001, 5.71269246704349600852e-002, 1.46890043774845074909e-001, 3.29013383078326226983e-002, -4.14076728228434040591e-002, 5.01955223120074348758e-003, 1.84378702810017502944e-001, -2.42932321367315302851e-002, 2.12663143394591469537e-001, 2.68709350224333419488e-002, 1.74708559381811567857e-001, 3.92546119809146984436e-002, -1.31070830103045699727e-002, 1.01133279368692194367e-001, 1.82156050033484145922e-001, 1.26797531674270796964e-001, -2.87575660767320044620e-002, 2.36288845609373618362e-002, 1.19031838229290795605e-001, 1.55640764355421151732e-001, 2.47921013062176870401e-002, 1.83318571275881241067e-002, -3.84050143717092826168e-002, 1.44055892278585270794e-002, 1.37237607778589176810e-001, 7.96195461775241891678e-002, 7.71192294102751585427e-002, 1.70042529330795832987e-001, -3.38997052152282887794e-002, 4.91101870738263335259e-002, 4.55617148148092926396e-002, 3.92881424342316903919e-002, 1.33424042511777946052e-001, 9.69595443125797207262e-002, 3.41410804371857570794e-002, 2.72418908714310778474e-002, -7.36125203120442800353e-002, 1.48903722982520941853e-001, 7.56207623381765087212e-002, 1.94743216270709007532e-001, 1.76912260088285144821e-001, 6.07953034894023330859e-002, 3.99135666799721733344e-002, 5.90894721851612375607e-002, 4.47023714487655640659e-002, 3.46531650317530859340e-002, 9.72319303890854941264e-002, 1.67892970089190129990e-001, 8.10992020651591649649e-002, -1.33033169101866910466e-001, -8.66431849773426424055e-003, 4.30354755114788628534e-002, 1.40740297589767859865e-001, -1.80472222717260530334e-002, -6.02460844278766699533e-002, 1.78530323033868620897e-001, 1.43914806252239180218e-001, 1.91830549631618108020e-001, 1.77186918854185165850e-001, 1.03100617319040493980e-001, 1.29231840771826134856e-002, 4.99635378069054961192e-002, 1.41693983139776769065e-001, 2.69452008286415398142e-002, -2.88326206519126625183e-002, 9.09668626286860154684e-002, 5.87812666195925634383e-002, -4.81671678853156856603e-002, 4.34145320190306160946e-002, 2.04787880720285947467e-001, 1.61408934560398259483e-001, 1.76790709917260924211e-001, 1.00247303958754252484e-001, 1.83465792228410418119e-001, 2.20017639515193083599e-002, 7.74676327708078305695e-003, 4.61326584787381463459e-002, 1.78818378054912630049e-001, -2.82379220790621512926e-002, 2.69232675925253454874e-002, 9.90947540192327197550e-002, 4.56018473052874004359e-002, 1.57107965211928657379e-002, 1.63390729320990996110e-001, -1.32033366764941900717e-001, -4.77118023145462963330e-002, -7.16778943523566774987e-002, 1.14100461600458349953e-001, 1.38237171244663864522e-001, 3.02690784171745080888e-002, 1.52638053102660486982e-001, 1.56886479387924743234e-001, 2.19058421658793300857e-001, 1.15105573966758439886e-001, 1.20587439031379459187e-001, 2.35591185093361656783e-003, 1.46753295836123370810e-001, 9.44522295768663311399e-002, 1.03638806732449781367e-001, 1.78014594702213563293e-001, 1.00132141798815257894e-001, 1.52968492339091682863e-001, -1.46728607684817519141e-001, 1.23691243088743962897e-001, 8.64331915003845735468e-002, -4.68413797050522273668e-002, -3.39302944997690453244e-002, 1.42244052249595517162e-002, 9.94693522284094133745e-002, 3.96284204225346992079e-002, 1.77255292395582852993e-001, -8.40121552740972533935e-003, -8.23700337779633279256e-002, -1.69569741401266432801e-001, 1.01679718095556578805e-001, 1.03845989170250604938e-001, 1.15242365916661967939e-001, -1.29773160340784770445e-002, 1.46600001115338423457e-002, 1.68678593643648760958e-001, 1.02511968314009781905e-002, 1.18201650337988753425e-001, -1.23951049705991786509e-001, 9.62406710225844307105e-003, 1.73727344201561439974e-001, 1.72227000216010367462e-001, 5.78380589118253213288e-002, 5.99892465480269219957e-003, 1.06300654539533384613e-001, -5.64983933427198742327e-002, -7.70570059490788827894e-002, 7.95954322482764209390e-002, 2.25588455526406078677e-002, 7.90141245122000929202e-002, 1.30270799455036528913e-001, 1.20126438947649419320e-001, 2.30155442022359130183e-001, 4.17611590085397652028e-002, 6.06117406083460028010e-004, 4.40127832972354443575e-002, 3.21050227535139842683e-002, 2.39249675094892824689e-002, 8.06918612455757855439e-002, 1.61968109274169380640e-001, 1.24517409159236272509e-001, 5.65691584768913541259e-002, 1.40586341888702559544e-001, 3.03904024657774447793e-002, -5.00508864870563077720e-002, -1.27039065655547150913e-001, 6.07066517709853106788e-002, 7.28575717777750070381e-002, 7.00962331952553335812e-002, -1.79812100972005714516e-002, 2.86288071259941691304e-002, 8.73354378591044838709e-002, -5.53777790911604908541e-002, -6.50016916263547323007e-002, 8.43801714506116490311e-002, -1.69098490838007001202e-002, -2.62212510479782820449e-002, -3.42599444460231841725e-002, 1.46298180278448625158e-001, 1.66645204753931797104e-001, 8.95729518270781815970e-003, -2.21591830418968113725e-002, 4.32421277983770016573e-002, 8.22231745310903622270e-002, 1.52955562614784768005e-001, -1.18285163973828252870e-002, -6.93351431062818879258e-002, 1.15920920443226660446e-001, 9.42726695231114186768e-002, 6.45078559380399541023e-002, 1.11769515981988198927e-001, -3.40176980190067881904e-002, -1.29608651405286184888e-001, -4.57275134967284960230e-002, 2.76196482747234038635e-002, -2.54224762997246854501e-002, 1.80951508703048574711e-001, -7.12792016995007771119e-003, 7.49936830942055793203e-002, -6.76422968899664384113e-002, 2.24780041571503962083e-002, -6.65834401006391712885e-002, 1.17470360406690982336e-001, -2.39880249865647432461e-002, -7.28863476914571595255e-002, 1.68370058117970095024e-001, -6.72499666888502767303e-002, 6.64059957456217403449e-002, -1.17142524892586332580e-002, -1.19145731458529385849e-001, -8.41185591954229511247e-002, 6.80566490599194134914e-002, 1.72101317231032335808e-001, 1.16841520586166230933e-001, 9.07760008365814108355e-003, 1.25074134355858179735e-001, 1.76603733034250476308e-001, 2.89214578910594738437e-002, -1.04961940905403144919e-001, 5.88524271246098421018e-002, 1.94304064135143422787e-001, 1.09227139685178581407e-001, 7.25724435845798987454e-002, 4.52148615023254402123e-002, 4.73226279611980160666e-002, 1.16312345873718608891e-001, 1.97807082008557427732e-001, 1.30338097273824837785e-001, -5.99594714203795856045e-002, 1.16326563818573494591e-001, 1.03708412292376719877e-001, 1.18230012417780264156e-001, 6.92514997954902927768e-002, 7.32478919641508519067e-002, -2.08312143507698721567e-002, -5.38866099743189053140e-003, -1.29413270663618351630e-001, -8.70774525678848082544e-002, 3.39470513157166670082e-002, -8.26652547343753943410e-003, 6.36259726938577241384e-002, -4.66060850430367601405e-002, 1.21368379586629021594e-001, 1.92825746506864265095e-001, 1.79263101771096861059e-001, 3.53079544762290170601e-002, -1.48741964717587840661e-002, -1.07888161268921992098e-001, 9.96282422498539210753e-002, -4.10177037001325794918e-002, 1.54016730368884330327e-001, 1.03111790698647246001e-001, 2.28957098422313792829e-001, 3.75325478181559590851e-002, -1.25093727859054981710e-001, 8.15408142239740646451e-002, -4.73644155399732119660e-002, 7.20903312334406770612e-002, -9.79983877720967330727e-003, 1.30106597678459473544e-001, 8.08442762907314316223e-002, -2.11103343610412365339e-002, 1.16398294651314307413e-002, 4.66105866567255999744e-002, 1.73575246400399924029e-002, -3.46495880741711712036e-002, -3.09820867422517381984e-002, -4.15878171674371605038e-002, 5.92754472080964031622e-002, 1.25341845726683165374e-001, 2.38079677851399142130e-002, 1.36967997138537161961e-001, 1.40950585212706813731e-001, 4.59795898467197164394e-002, 9.91950286619951854261e-003, -2.05116987281705222268e-002, -5.36388347589860994824e-002, 8.28979861633944159482e-002, 5.39800434337422141429e-002, 2.57765948374271275378e-002, -1.23292309198260452430e-002, 4.14935951929384441716e-002, 1.20662845196074744458e-001, 5.08964037937838786885e-002, 8.36962183395018044507e-002, -1.06393195290635955708e-001, -4.05918221744359167258e-002, 1.25712360009228835134e-001, 8.02071145406179075721e-002, 1.80018640905133808783e-001, 2.07406429924575308466e-001, 4.00211237899673819007e-002, 5.16632664626321819190e-002, 2.95003724605055160646e-002, -1.09347396046232028105e-002, 9.90022743885583811352e-002, 6.87032124312054182091e-002, 6.35926103105377421576e-002, 1.63081798972401159631e-001, -1.05427469370211520511e-002, 8.69323037006327070664e-002, 4.01254030748336779078e-002, -1.23381733741085825029e-001, 9.66954607966923410101e-003, 4.97920171015777957013e-002, 1.24924347458512274844e-001, 1.05302748136760118691e-001, 1.14496537463715020166e-001, 6.64465702261855632738e-003, -1.07286929244168355302e-001, -1.22511927241717694104e-001, -1.56475885704279837896e-001, -1.45303223487530330793e-001, -6.03087254074897022305e-002, 4.49060623840383532634e-002, 1.63050518271214660293e-003, -3.00395027352751767258e-002, 1.67727962817936014465e-003, -1.16869878941788213345e-001, 1.85784226046906315866e-003, -9.25180013538121626127e-002, -8.73059831047161005735e-002, -6.95764499712664963305e-002, -2.25093146723686805821e-002, 7.07031703619688395301e-002, -4.82486013289265616710e-002, -3.00889956224636503923e-002, 2.83285077656000236490e-002, -8.24202551308150510589e-002, -5.77961147526581814349e-002, -6.77896491723246619188e-002, -2.39205119268677754429e-002, -6.12565327790042489509e-003, -8.11273137314032083411e-002, -1.15963233640754906362e-001, 1.14286688182216780718e-001, 3.87896377184022353446e-002, 3.83219823905365797323e-002, -6.41899408283347489013e-002, -1.47297786499851424136e-001, -1.95909124706916647207e-002, 3.12048092156488737769e-002, 7.87616020776278069615e-002, 4.28858600942612008811e-003, -8.90110536235255191129e-003, 1.43437178079975913292e-001, 2.32283863299768342237e-002, -2.12031937964219860393e-002, 1.53092759169734887736e-001, -1.23527702373496875432e-001, -1.54163922305737499663e-001, -1.70492576398892023426e-002, 4.75920880283598676797e-002, -2.04560060318214387287e-001, -4.75581411940160861396e-002, -9.18961999167526161214e-002, -1.33121404401726831090e-002, -1.25355383487085313837e-003, -2.52133708529478361982e-003, -4.27322443961137554691e-002, -9.65245907642813399940e-002, -1.24023288242718826568e-001, 6.40944786102929653371e-002, -1.01108301715547077571e-001, -1.18706762750451375044e-001, 5.58263941762953755377e-002, -1.59518631489980244886e-001, 1.13952807067284236919e-001, -4.63888733626736660121e-002, 1.96999410499161003996e-001, -1.49791932922063636413e-001, -1.24421454113291141130e-001, -2.96695682108424341195e-001, -2.49199376538250250146e-001, -6.14798217947010589013e-002, -2.26370162031937910418e-001, 8.96842681863447843682e-002, 1.39895327592133578154e-001, 1.68240541871947396624e-001, -1.37093176784611782415e-002, -1.34972137895628646609e-001, -2.06398550134773844933e-002, -1.70479685756811522035e-001, -1.71189631821958954117e-001, -1.14562307495677043190e-001, 3.68682973354428275559e-002, 1.02386377738844756846e-002, 4.52473132627803989458e-002, -1.10183573567949721905e-001, 4.22547182340109808707e-002, -1.97632286264081913352e-001, -1.14505100182126187680e-001, -1.37681293470020074676e-002, -2.58999056378919380317e-002, -1.25133718475412963889e-001, 2.96701941000100839763e-002, -8.00130931481444901410e-002, 6.75905310919948376647e-002, 1.17827882316677784794e-003, -2.30302163793939307368e-001, -1.70028706782355071292e-001, -3.22669188282602048545e-001, -2.69462858279684802643e-001, 1.53334104896238852811e-002, -1.23841625870423743816e-001, 4.78207203212950154869e-002, -2.50261404472674683919e-002, -2.24564817378585884766e-001, -1.77422762424914226553e-001, -3.28293838763876522080e-001, -3.01531619968035624613e-001, -3.82366203552635897100e-001, -3.26825520762996230006e-002, -8.16180568877424572616e-002, 1.72800198905218582723e-001, 8.41277978463837554368e-003, -2.36841791794875244914e-001, -1.80564570698538741367e-002, -1.72166882965009038209e-001, -2.22286185257578927654e-001, -2.18695786299013927856e-001, 6.08049244431723978632e-002, 9.94328161148393396829e-002, -9.96579171793507846006e-004, 7.47948046329010157729e-002, 2.22133591977749129953e-002, 1.95381189116395376226e-001, -2.25847572467859386558e-001, -1.97128173079811092050e-001, -1.83247709990981028083e-001, 3.15420829842932197787e-003, 5.20049870712255193211e-004, -5.46410703875683384512e-002, 8.72252943206786035546e-003, -2.98239480899735193847e-003, -9.86259420940402420364e-002, -1.78658316415533091615e-001, -1.39081291732297523955e-001, -1.71012819606392918459e-001, -4.16656638929841019459e-002, 6.75930990530450304110e-002, 3.98841832862956019445e-002, 6.57308438973591979693e-002, 1.30215611984209576890e-002, -1.06305790891192547543e-002, -4.26497873918528613846e-001, -3.82280073756367799742e-001, -3.66822448293596226065e-001, -1.43734845363691826625e-001, -1.87704179480004784697e-001, -7.67463321542468657199e-002, -5.14354939211748365957e-002, 1.81728370025813837363e-002, -2.01600642531062412832e-001, -1.84550629781995850776e-001, -1.29467011297036416195e-001, -2.23716050770925461988e-001, -6.56378842428896047689e-002, 1.21999045849342860337e-001, -1.29050748862827802110e-001, -1.01841086724554621967e-001, -1.63279550730128397706e-001, -1.89297262921924780432e-001, -2.46793556482446829747e-001, -2.23313522589520030426e-001, -1.51753469010108998916e-001, -3.14595072440080614218e-002, -7.60514717105842397160e-002, 3.36814681953328948216e-002, -1.26043542348833942368e-001, -2.06770893710328702852e-002, 2.99520470295095743440e-002, -2.32356631544545166879e-001, -8.42610642206054333281e-002, -2.82141207193304321965e-001, -3.48108865047321511255e-002, -5.20365001205057436939e-002, 2.34126187844252986459e-002, -4.20607373304399401182e-002, -8.51075825180760969779e-003, -1.90343607654123503359e-001, -4.19603842544860189401e-002, -2.10442844817845864380e-001, -2.64577272904166160838e-001, 2.08366551544627819081e-002, 3.27349141122077261223e-002, 9.22950049349161028012e-002, 2.45206721348666417670e-001, 8.28254481883088228278e-002, 1.26080746466152193719e-001, -2.57024880918346965153e-001, -8.81392581171579203581e-002, -3.01876334216708341884e-001, 4.76368665007330105432e-002, 9.41277059544919775247e-002, 3.78281990068681239769e-002, 1.20874982660287705327e-001, 2.20916944611455501324e-001, -2.69042995042379183557e-002, -6.30592849291637252973e-002, -1.40503083145455898162e-001, -3.33099334435383143127e-001, 2.06537638368187691229e-002, 2.11053757067440617146e-002, -1.51354380571439545156e-001, 1.78816352194211380944e-001, 5.61366471842770012324e-002, 1.76018872578469848245e-001, -1.58701175091075119550e-001, -1.83987039623770498586e-001, -2.81214907446803163982e-001, -2.23810831029251080734e-003, -6.74864306844658728979e-002, -4.36299150782402389570e-002, -3.82519732517289656748e-002, 7.30825846546276775006e-002, 1.82452829293136387090e-001, -2.28802734541452168493e-001, -2.62981922268281098631e-001, -2.43870341256558431642e-001, -1.45741610281048539211e-001, -1.12354684583976821566e-001, 1.00361846415966168844e-001, -8.08401967191852421912e-002, 4.81848260488828838977e-002, 3.03609130896894258145e-002, -3.28261392137914553846e-001, -1.41828473814427813426e-001, -2.36630605225533363623e-001, 4.51330017403191868786e-002, 8.10882982834602340783e-003, -1.30401453328979843871e-001, -5.77295120188883736922e-002, -2.41767838921855326983e-001, -3.45848989906919063175e-002, -1.96219219726680937921e-001, -9.81880520793230598953e-002, -1.75204965998757428158e-002, -8.90227827629860996028e-002, -4.49938067471975233769e-002, 1.48557897033188973657e-001, 9.40910681191904213483e-002, 1.83252082745898908778e-001, 1.09990037368687789202e-003, -1.19452380438628047443e-001, -6.15851303976575475962e-002, -5.86181568638871955401e-002, -4.65673251965866147328e-002, -6.10388247775431186382e-002, 8.34290759476428583907e-002, 8.20992407454275846534e-002, 2.57778477650703385926e-001, 5.60346580458341153586e-002, -2.21879236478685432088e-001, -2.82976854648829656558e-001, -2.05987992749281340066e-001, -5.51583844451379382012e-002, 2.28146684485093613481e-002, 1.29052859237530435227e-002, 1.71719126617408457403e-001, 8.13770183212389058847e-002, 1.65712528420977028842e-001, -3.57710163100500633249e-001, -2.65931824031175378931e-001, -2.82700349283199259265e-001, 1.56147034297189407290e-003, 8.55142696206150597360e-003, -9.78153879745545656865e-002, 1.04808365462317865102e-001, 5.17076764262657043170e-002, -5.53410422715874886213e-002, -2.84182018806197922434e-001, -3.55411749176180014054e-001, -3.17973624702137913633e-001, -1.01021031476788591963e-001, -1.00321442116394682342e-001, -4.38325633453054627764e-002, 3.73381982965019565412e-001, 4.15097729176619120728e-002, 1.25839794259118953335e-001, -2.34100099391474469890e-001, -4.02469794698320393334e-001, -3.15991010174175857017e-001, 4.05957102090183791221e-002, 1.78830559329600458085e-001, 3.06001244501613867133e-002, 1.55009589631364769202e-001, 5.81848135867577970215e-002, -1.66474686902004037625e-001, -4.00397489994210209474e-001, -1.92376171439021304010e-001, -2.97789409108995595243e-001, -7.95840042126374873355e-003, -8.88730408957091530531e-003, -1.75201242113293166602e-002, -1.13987509409097520496e-001, -1.49076921869467221571e-001, 3.26305350521010756326e-002, -1.37923604435413849068e-001, -1.20134364588271758123e-001, -2.09560710805848565697e-001, 1.80251727610238124400e-002, -2.80234502057685984366e-002, 1.03183987039806288055e-001, 1.06443224879349415679e-001, 6.70960448305566309335e-002, 4.05674375714417806416e-002, 4.55774177417656578548e-002, -1.31601709321813309383e-001, -1.51677123779577427420e-001, -1.88178809071595204427e-001, -7.44188410043526843429e-002, -7.47768705493734864298e-002, -1.11170776274578012033e-001, 3.76180440611913746718e-002, 2.71343425318208743280e-002, -2.94558266573080429485e-001, -2.47183225101208631225e-001, -9.28799061421852895082e-002, -1.07030433771765232792e-002, 6.31497647931555800005e-002, -6.67009413760131092408e-002, -1.03770722399289930249e-001, 1.61552158305423909646e-001, 2.20059504498457542132e-002, -4.22134608456944809829e-002, -1.93314064370243808566e-002, -1.59997267734644593729e-001, -6.84094117617396468845e-002, 5.10296267811889969757e-002, 8.79342118584800769288e-002, -1.57823035477709427976e-001, 1.62407632027900372673e-001, 1.33854994084125933362e-001, -1.31231335622938399821e-001, -1.39138769013015056730e-001, -1.62379684023427089956e-001, -2.64215183747563212013e-002, 3.87479941236235914115e-002, 9.67364180222778438645e-003, 4.44035232956726186315e-002, -2.47060980861936341224e-001, -9.02881656416303496338e-002, -1.10688796680213419332e-001, -1.19508700310861568084e-001, -9.36808152376787661719e-002, -7.67950400492588003409e-002, 3.90432614626194315899e-003, -5.22598506848436575312e-002, -1.77406729901463194876e-001, -2.27776502004721076444e-001, 4.22777070183101566503e-002, -2.03720474389524175418e-001, -1.53262298750068554076e-001, -2.09969981687992912622e-001, -1.61917927068723849215e-001, -5.59601182397531232704e-002, 6.19256159435155537074e-002, -8.31549853753618395391e-002, -1.87329509456477472096e-001, -2.07759425221745896994e-001, -1.66732110155744989166e-001, 1.51447863038154634241e-001, 7.05608309086529911225e-002, -1.72142141360136155526e-002, -2.64558896915756680546e-002, 1.25238553266582980372e-001, -1.64601203769837001190e-001, -2.71563432968046469806e-001, 4.44712184381549913148e-002, -7.02392440466488160444e-002, -3.78811046096170752143e-003, 1.36949025401540247504e-001, 1.35349913729495459347e-002, 3.36070332260849230499e-002, 1.65609980313594279400e-001, 5.57849600361698741424e-002, 3.98332045584895988455e-002, 8.80257533943471642823e-002, -9.54325006164103289974e-002, -8.24417621438013892288e-002, -6.95453330224927029901e-002, -1.30932865416522742352e-001, 2.27088945700346628298e-001, 1.87683233379555058917e-001, 2.17680518630691488546e-001, 4.50539014512320729056e-002, -7.14353653179702202669e-002, -2.53889735296272886500e-002, 7.62728320999981890260e-002, -6.05555058865072104446e-002, 1.38075873335982063361e-001, 1.50147448190554255731e-001, 2.44876252165107721748e-001, 4.59827989597646411002e-002, 2.93786677958177526448e-002, 1.67502225924517328393e-001, -1.90168747195015641616e-001, -2.85380046668206988070e-001, -1.93570730824641212831e-001, 6.37533605567161265615e-002, 1.16709782297551092900e-002, 1.95218557196169852086e-002, -6.19223528342216431031e-002, 1.43238031475949982585e-002, 1.00534843326420264553e-002, -2.02940139797627483453e-001, -4.38023035089912415874e-001, -3.54446932170433992582e-001, -2.74528187607534050751e-002, 7.78129096583743684601e-002, 1.27709213206987526323e-001, -2.23688679554626818069e-001, 2.40561086646694205493e-001, 2.25306021535195744043e-001, -4.15758711539584879802e-001, -4.66009690400949028177e-001, -4.10430441582420812985e-001, 9.67145548367710911064e-002, 1.75951206013239047632e-001, 8.08919161060499408711e-002, 2.00589651817583425331e-001, -7.22244966426667384107e-002, 3.13251533852598462726e-001, -3.49053286674450458094e-001, -3.01307881593647242102e-001, -2.58906028735685911357e-001, 8.15393048274256487806e-002, 5.58776510163814868482e-002, -5.76069466678020072892e-002, -6.60525169507295423221e-002, -2.01366545156192483512e-001, -6.32324907177709005790e-002, -2.13058937786806235071e-001, -3.45574121502414621787e-001, -4.85780545072480751667e-001, -5.37483895309912654281e-002, 1.08846550061198435455e-001, 6.50676547732013249581e-002, 4.86217916307084274674e-002, -6.52313212792729607559e-002, 1.52407082900495621791e-001, -1.63882468454100149735e-001, -2.20484651258220837322e-001, -2.85997673440469779571e-001, 2.81587841997066767874e-001, 1.79821430300327128604e-001, 7.38881242723603420819e-002, -1.07699496215514889386e-001, -1.13409935672917197569e-001, -1.54463596207015108064e-001, -2.65262626970814541227e-001, -3.09441890041332823280e-001, -3.16184343161043268644e-001, 2.62198198622648481759e-001, 2.40256562987206628845e-001, 1.92642686050700395750e-001, 1.64551715657475949861e-001, 1.05906898297307247581e-001, -2.77528353211903841893e-003, -1.37308256408919138192e-001, -1.39984118213397623620e-001, -2.68485821176648112307e-003, 2.59990107103291956392e-001, 2.82553185969960318769e-001, 8.09598730325254700713e-002, -2.98981420246102691518e-001, -1.40541442419633400007e-001, -1.46692177970996318059e-001, -2.60260688093886562167e-003, 9.29184060184672366844e-002, -4.70955964171273014363e-002, 2.68453605024415176139e-001, 2.58810715358067933156e-001, 5.56219336682464288169e-002, -3.60065971950481622521e-001, -6.07786507547759535797e-002, -1.82002608900821066795e-001, 1.20803327295383622353e-001, -1.97303537732970962759e-001, 2.10606119075724875639e-003, 4.01439233272638862360e-001, 1.70108743884528845758e-001, 1.39753307989700592540e-001, -1.70508276488584270547e-001, -7.28756905843439273252e-002, -1.86613515995775774980e-001, -3.59748295177401533618e-001, -3.51819516644537477745e-001, -3.06630634279354497007e-001, 1.45353337808634047734e-001, 2.98770438896812318141e-001, 1.50630391908214922303e-001, -1.98753998519045987914e-001, -2.34416409932266145422e-001, -3.13721033634884072239e-001, -1.49470656488744413348e-001, -1.02903411698200053515e-001, -1.21138893191742716415e-001, 4.65478996761988339514e-001, 2.39081272258884813819e-001, 2.13022411268609268564e-001, -1.01465674200566610685e-001, 9.61214886340494914507e-003, -3.72230143671394772542e-002, -1.56152970045927735887e-001, -2.18126126462559494223e-001, -5.86180957928918444644e-002, 3.04443127579812622407e-001, 3.63443129901842354457e-001, 3.45335850570686553329e-001, 1.44462125250120809739e-001, -2.98715315048602658710e-001, -1.66679498037898346507e-002, -6.57091931767450187357e-003, -1.71267907987741274667e-001, -1.83711178926356355490e-001, -3.28629665442690954702e-002, 2.72364459055534635645e-001, 1.22678704135357780070e-001, 1.22933009868434722778e-001, 1.16037553650572944353e-001, 3.78935650323459216615e-002, -1.66920329055385632810e-002, -2.67473078087885896004e-001, -1.90947528375282310487e-001, -5.62737377014936174247e-002, 4.18764071766437206978e-001, 6.59463383817031484346e-002, -2.46049964850111012316e-002, -6.46991934237474766722e-003, -3.12789267163386175419e-001, -1.21843620931079588132e-001, -1.26156239537663583672e-001, -4.95384338610419597271e-002, 1.76752708525505952686e-001, 1.70378566993231728155e-001, 9.63755081951592901257e-002, -3.71777012583306754046e-001, -1.74739200605712130532e-001, 7.49325594207442442773e-003, -1.60851912228672178085e-001, -1.88739282312884393278e-001, -1.95057701060340898946e-001, 2.53308060767830287019e-002, 2.80229577107589111762e-001, 3.42988833194286024675e-001, -1.57807805769361153558e-001, -3.17181661368700129611e-001, -1.09549283716225312468e-001, -1.54107445924956704131e-001, -2.12652151920546317321e-001, -1.41876413532964790187e-001, 1.30112300320965712519e-001, 6.28186525923877126659e-003, 1.17504329661913403671e-001, -2.93069922866835974595e-001, -3.35501585140678404429e-001, -3.47063037707810093102e-002, 3.46587891141157886099e-002, -2.19551571703137132774e-001, 1.00281540982876504753e-001, 2.33804286495933183465e-001, 8.47632469860226250846e-002, 1.96962883895446472238e-001, -3.40315170904405606134e-001, -3.02703553122850910206e-001, -2.46274279755460206998e-001, -4.21575277863728281602e-002, 4.01589544936449063806e-002, -8.18489517825586737620e-002, 1.24200445601227449366e-001, 6.56221815885969783633e-002, 2.28961599006376137488e-001, 1.86511915708674258507e-001, 9.19914928119422298236e-002, 2.19069921006885881543e-001, 8.74261680949740965785e-002, -2.72585457020314558818e-002, -7.33894745731112907450e-002, 8.19671613665432091667e-002, 1.31782937954628698307e-001, 1.19196710506787456607e-001, 1.14802587429951891140e-001, 1.89658014895148885337e-001, 1.79901623380167685617e-001, -1.75299767039390957946e-001, 5.68961101271954344805e-002, -1.20935395093355213536e-001, 1.41021461410393039726e-001, 1.64488425544919297794e-001, 4.14055709383932043360e-003, 9.41815576449909347412e-002, 6.16462967752785320763e-002, 1.17251286841253576920e-001, 5.02475306553188186265e-003, -1.03323740831150631680e-001, -3.22344904417969313482e-001, 2.30611244055291542132e-001, 1.94088010048399095542e-001, 8.45804613717980602328e-002, -4.28045309932421000343e-002, -2.47584943864721324092e-001, -1.15031812755318166297e-001, -1.81315306887011890025e-001, 2.70579803192385406896e-002, -1.19068074813567154058e-001, 1.95846205500279368916e-001, 2.57163486299966437265e-001, 3.03051362082560560296e-001, -2.11314254638464676939e-001, -3.39491891051650118705e-001, -1.42418438253168577745e-001, 7.10920955633856654909e-002, 1.18725534786051894337e-002, -1.42249344295289521789e-002, 1.57547046000193285975e-001, 1.21774532426762699400e-001, 1.75841433139858782653e-001, 5.38190774294959109469e-002, -6.12557842621742967837e-002, 5.10373971965238509840e-002, -4.29823560771580917561e-002, 1.02914720046266366937e-001, 8.32900498083821438922e-002, 2.09500158960004789765e-001, 2.34171032545943180736e-001, 2.36706754574206729158e-001, -3.57651529544196045141e-001, -9.07273062580826600287e-002, -2.00151842893999176720e-001, -2.52091563786227615407e-002, 2.77139289225014462392e-001, -6.66358573237655835153e-004, 2.49941332252876430298e-001, 1.71220552490851385397e-001, 3.55181921711245240925e-001, -5.41434751361574040374e-001, -1.95725429185384686148e-001, -3.07063874882458731630e-001, -2.38852712977407691253e-002, -5.94627296128175455991e-002, -6.04195198418211801283e-003, 1.97375289666646552833e-001, 2.32515536080316859158e-001, 2.80794926792992560749e-001, -2.11406762629521821628e-001, -1.59850001105710431970e-001, 7.50232072052888498970e-002, -2.18258370433009968314e-001, -2.38629590137215213952e-001, -2.42398556006413912201e-001, 2.69587282345894907465e-001, 3.16913778542350088596e-001, 1.73595302943938850637e-001, -2.01481996090189352522e-001, -1.21822642416919688091e-001, -8.55095669554121612377e-002, -3.54904936119141353745e-002, -1.41656355436230400185e-002, -1.82467506405087492860e-001, 6.92985211920416760423e-002, 2.25018104077434610844e-001, 1.91243523065174447773e-001, -4.32250462839713855967e-001, -2.70319053950396459562e-001, -2.26087855292572526000e-001, -4.11802764029760362541e-002, -1.24936098858606833839e-001, -3.06587546525010412601e-001, 2.20381918504662877023e-001, 1.49224799145175918147e-001, 1.56814860242412229541e-001, -2.68319052215192366262e-001, -1.12011123903347394049e-002, 1.27149793344287888666e-003, -8.61042219215609749838e-002, -5.53760571298775455817e-002, -1.57773986239755664718e-001, 2.63733911005196164368e-001, 1.66065279982639008027e-001, 1.77311966128140985344e-001, -3.36627276476212877743e-001, -4.80796877850672821353e-001, -5.69478069615996118635e-001, -3.45364315900633656042e-001, -1.03465721438544364097e-001, -6.18960549256393210982e-002, 1.99453633197635080143e-002, 2.98671780948292553415e-001, 2.30128167037696812480e-001, -9.29187360701705855268e-004, -3.54261440388096593423e-001, -2.00649519133226872381e-001, -2.25738195775653932573e-001, -1.83206923777426387845e-002, -8.86780276505138298493e-002, 2.16142821951540303749e-001, 1.58110110231904660294e-001, 2.15112802561928792219e-003, -3.19839179063073020259e-001, -2.22212017476480644396e-001, -3.18931685875120440876e-001, -1.12403495058349719993e-001, -1.63141950891809994761e-001, -2.33442423043882907319e-001, 3.36735599417121667098e-001, 1.36370582497670589373e-001, 3.31444356193780098607e-001, -7.76020058196262157990e-002, 1.45878400723898571378e-001, 2.38951035182522281142e-001, -2.81422897363046375929e-001, -1.37542365490556650620e-001, -9.08768644656048479868e-002, 2.61617435509142126637e-001, 3.34293914418260174060e-001, 2.45217790576305022521e-001, -4.06615690631427606494e-001, -2.32999576246794848355e-002, 1.39661442881387015680e-001, -3.39990763526667350014e-001, -5.70739538437159299455e-001, -3.98274893759426873441e-001, 1.54642371494210728589e-001, 2.07898395033415117616e-001, 3.36836870082956763017e-001, -3.14128848176639885459e-001, -3.29963299271213650332e-001, -5.56952682896799000645e-001, -2.11221167476009052955e-001, -9.66232069995497933057e-002, -4.68858228513212071942e-001, 4.25066143040947697074e-001, 3.48949635283028747335e-001, 4.24510719280840831402e-001, -2.53291570084568984367e-001, -4.66689403309540284948e-001, -4.34080769064443539040e-001, -1.68155580305115570638e-001, -2.91409511538437360212e-001, -3.70123781731535927975e-001, 4.40402107082852545261e-001, 3.76553027015326058358e-001, 2.41405766420665524041e-001, -5.73977978357838591883e-001, -3.88333896537259359860e-001, -5.11186641102976402351e-001, -1.29618511215354198507e-001, -1.54445776977628124182e-001, -2.62601795865585296852e-001, 2.64897608584877597426e-001, 4.13622710987662650650e-002, 1.36108386500745803804e-001, -4.29553040613351144739e-001, -4.78563770887498518558e-001, -2.17250925811545397837e-001, 5.28918167062093075304e-002, 1.81174687808324602623e-001, 1.99044168520349229468e-001, 2.59676855754705393498e-001, 1.52460201276329476716e-001, 9.60379537649546644040e-002, -2.81018094286035302609e-001, -1.17264235030997143738e-001, -1.73832675800258462662e-001, 3.26602282891484352323e-001, 1.86169742218215278351e-001, 7.13573834510699764322e-003, -5.44209792348892662517e-001, -7.32845086682273771927e-001, -8.24820211914454648472e-001, 1.02412834724778425977e-001, -8.72357854863944071067e-002, 3.19480021049493689844e-001, 3.69318511904664307371e-003, 7.45229192523707006934e-002, 1.02910990061324522649e-001, -4.36272339445043011441e-001, -4.20760017441929312643e-001, -5.13681533260947231767e-001, 1.85029729838007750420e-001, 2.84598291490723465103e-001, 4.00760793847066476570e-001, 2.33764130218730825650e-001, 3.36009063148457520764e-001, 2.51642760605519599793e-001, 5.35927457291930434136e-002, 5.52684869744345663722e-002, -6.63350221824456909303e-002, 1.41915482822566246801e-001, 2.53659696457084804511e-001, 2.43776782495620736313e-001, 2.02696005575511428720e-002, -7.33402927677640897874e-002, -1.54624130702272488680e-001, 2.18051993451161107984e-001, 8.36725718886627417570e-002, -2.54682566326412895830e-001, 4.09869583238218093690e-001, 3.61392827000333427545e-001, 3.24119989064309610427e-001, -1.23852406473477796855e-001, -2.05127910018891718158e-001, -3.21227133611114490375e-001, 2.09509441222090253554e-001, -7.81096082129327656807e-002, -3.47658767880277344564e-002, 2.63179022346262447840e-001, -1.07617594445564693229e-001, 1.68457166943797892467e-001, -3.16373505783292072874e-003, -1.43535194746431588042e-001, 1.79813514577553151819e-001, -4.52683909954887525595e-002, 1.78358370959559531244e-001, -7.47144958109958144676e-003, -1.87839644844663367085e-001, -1.86455554079752949814e-001, 2.27535235406465141672e-001, 1.83867668247933782610e-002, -1.69173792747790568969e-001, -7.62985869491213525295e-002, -4.15527476194753220273e-001, -1.77231274669082450313e-001, -2.56203699171046794802e-001, -4.67839402907438361989e-001, -3.94073026270806536786e-001, -4.92535563864143266510e-001, -2.53594001249051403946e-001, -2.09243657634549523605e-001, -3.26095554948757637703e-002, 1.01651554991131792827e-001, -1.68743296802287195968e-001, -2.80423315106360093729e-001, 7.15726604273434763304e-002, -1.12709584390994752012e-001, 2.36819370483017876960e-001, 1.15569945441824764587e-001, 2.16626245214575297027e-001, -1.25369340617053140474e-002, -5.23732195593072824558e-001, -1.74874531265123978052e-001, -1.72592013645110120557e-001, -1.37996211037034917368e-002, 1.80662792370250707696e-001, 2.32052223877575979072e-002, 1.35520100549038069460e-001, 1.03090824819979540172e-001, 5.52280568138440869363e-002, -2.00632189581528896927e-001, -2.28602849399632740424e-001, -2.90556070948361187811e-002, 2.54878561709921847012e-001, 3.07863520249078370661e-001, 1.88810564904650195206e-002, 1.60299258168102531918e-001, 1.27174907431994044932e-002, -7.99079537638105741326e-002, -3.70586997124088546318e-001, -5.27029409614277022378e-001, -6.23139519765637750481e-001, -8.82728216996080117251e-002, -1.15140148433514999393e-001, 1.31352795804067584706e-001, -7.45476638949725128880e-002, -5.81281318042247627242e-002, -9.98325184725674663611e-002, -1.00247666999209297800e-001, -2.61093808709127184198e-001, -1.34999325997649133324e-001, 1.06323409690602832534e-001, 3.10534021856819109075e-001, 1.81320419854101744228e-001, 1.62647416099763242325e-001, -3.64242213927348928992e-002, 1.15248538491843965925e-001, -3.32056228662110597405e-001, -3.65225561598767456406e-001, -3.88433431481901514370e-001, 2.26652770952935622706e-002, 1.27670413174741481654e-001, -3.30435713496737100067e-003, -4.75653282433001547980e-002, -6.58163522323768936106e-003, -4.70980854409220398016e-002, -5.28997522483771631663e-001, -2.18061400241647274090e-001, -3.59830832147107815278e-001, -5.23359676092827533211e-002, 2.96618228598044819666e-001, 8.22346528898478812408e-002, -6.06536266669268978036e-002, 1.25882780863375620672e-001, 1.36124070806936559030e-001, -4.49584436497725281612e-001, -5.96831237801008218646e-001, -6.06035527558975939399e-001, 6.06152167741000336143e-002, 2.18836725482153660050e-001, 5.62584364558815108737e-001, -2.18996004313418451970e-001, -2.00646991086651960146e-001, -1.31447540311182067829e-002, -5.06011266960499250800e-001, -6.20239677916947229619e-001, -5.37706283049055211443e-001, 5.50910591874914819244e-003, 3.64257510095829448171e-002, 3.48005668607965334971e-001, -2.09272336808183384571e-001, -1.31359319108606847903e-001, -1.70257029469029375068e-001, -4.77289746402299985828e-001, -3.76872202142560730476e-001, -4.56769105840225619897e-001, 1.01075000839937950703e-001, 2.93073883907593424336e-001, 6.65110107447767096717e-003, 1.02952989557622581751e-001, 7.56369205105494601948e-002, -2.24959882271718210334e-002, -2.72941006500692529002e-001, -4.90337619828609627692e-001, -5.05785763509193020404e-001, 2.90355957848193346749e-001, 4.61496586620819604363e-001, -2.07680094411869797799e-002, -1.36210613939956065588e-001, -3.96048536275695889364e-002, 9.32215917144211675405e-002, -3.43541447809337263664e-001, -3.95901412574022171231e-001, -2.99258493653148438529e-001, 2.09682496858703215636e-001, 2.41110338737327678515e-001, 6.74214777446934948602e-002, 2.12533444857365860781e-001, 5.77376081555102046994e-002, -4.29441455309585232158e-002, -9.87617322174106776478e-002, -2.87931995940569340764e-001, -1.87093380240687612304e-001, -3.91704975776857977632e-001, -2.63296327636945104445e-001, -8.34456625769130072579e-002, -9.68363704550805615145e-002, -1.02062579866619596025e-001, 9.09247140407327784917e-003, -4.39283077314369219124e-001, -4.41700040003687122159e-001, -1.03600437429026831504e-001, -2.37004102137957750607e-001, -3.13484160838902792268e-001, -1.67124185386667983844e-001, -1.43486830172590892202e-002, -7.17050989014908352059e-002, -1.66408133472129321495e-001, -4.77432536828185316580e-001, -4.21121329945585209931e-001, -4.36937526948127930027e-001, -5.16454081625142766288e-002, 3.41103219093816523166e-002, -1.43926475621081129130e-001, 3.39551568227304881309e-002, -2.20956491195966851782e-002, -9.42738883725465076635e-002, -3.46751631039771579523e-001, -2.43758563933915817223e-001, -7.99356953798945196743e-002, 3.65053363100955208242e-001, 3.53387652346341618603e-001, 2.24180901079322869585e-001, -1.17540414328430778412e-001, -7.45416041305103499459e-002, -3.02417836546172436041e-001, -5.65374761839362971472e-001, -3.69865099126378382710e-001, -4.40297087212930482458e-001, 2.08271584631108591656e-001, 5.25707610594568053308e-001, 3.45690908161067733673e-001, -2.52214566602986689503e-001, 1.00215167853179978885e-001, -1.38245728529507783122e-001, -4.81996295227825222174e-001, -4.17981011615435438245e-001, -4.75650793026040741296e-001, 1.85613231289661173573e-001, 4.90416815657386762073e-001, 2.57212856266970157915e-001, -8.07748842033033515042e-002, -1.80230573979863445411e-001, -3.36676331253603841609e-002, -4.66358710983666935324e-001, -3.41350752672885116024e-001, -3.46114984303871442428e-001, -1.92048891462475251890e-001, 4.37420830858903028626e-002, 2.78131516250167576398e-001, -1.62270358902145937774e-002, -1.28535862798977218446e-001, -2.57158637322676075776e-001, -2.25842707937222025860e-001, -1.77485594691321302285e-001, -1.83892402747392741391e-001, 2.43968998336081856204e-002, 6.23696716453615990217e-002, -1.42780027226409200747e-001, 5.58855115712829295105e-002, -9.81388869066613794834e-002, 1.59194924810272225857e-001, -1.41835575118380269322e-001, -2.91962901948594699686e-001, -4.16074328340400145798e-001, -3.18329616177482954686e-001, -1.53790032680802990495e-001, 4.61292728423148348793e-002, -7.89934207707202323823e-002, 6.76321046369518508179e-002, 7.61981113215153410545e-002, -3.72519666510353508748e-001, -3.36136348798682649264e-001, -3.31509114339867572152e-001, -7.11872385375708627286e-002, 1.23331629168493134285e-001, -9.04212907427853068709e-002, -2.31785457180359810714e-001, -4.57531273792087966878e-001, -3.76096964414307399771e-001, -3.26995818453363673584e-001, -4.03037330271891425237e-001, -3.61902916629602056098e-001, -9.17256630836736364110e-002, -2.70475024755133380827e-002, 1.41902279304147605626e-002, -5.31516292752471919414e-002, 5.87074586178507606959e-002, -3.38441832418131083315e-001, -4.61150373828223436590e-001, -1.69284978357785054204e-001, -3.41947853802438750392e-001, -1.16902875731684993688e-001, -1.27141174338839202385e-001, 8.39843829466909719272e-002, 4.80174185805228373458e-003, -1.66016187319815600176e-001, 1.69197754364881852718e-001, -1.28944149676887859224e-001, -1.14662011366039248705e-001, -1.77635869947758928689e-001, 1.12071410714499913874e-001, 1.26789062493359694361e-001, -3.11379109119623888324e-002, 5.00401327818069535658e-002, 1.18812243688644542106e-001, -9.68348882410496464290e-002, -6.71588437963291373656e-001, -5.64857582039146377539e-001, -4.85710604470162454760e-001, -7.81589321283052140821e-002, -3.24203798151390998328e-001, 8.07299611888968732254e-002, -1.36686260030625134770e-002, -9.44968513122807218796e-002, -2.56045522047350787576e-002, -6.02258119496584809482e-001, -4.51892865956191769339e-001, -2.65100253111550832053e-001, -4.64520043056353415523e-002, -2.00762506522391519226e-002, 3.39226079485421883053e-001, 6.32220223809522030578e-002, 1.39886580194593275472e-002, -4.10025012035048624925e-002, -2.80080458461624604016e-001, -5.20450504374765254845e-001, -2.81792221156704048024e-001, -2.62755397425685932600e-001, -2.25666470004935171279e-001, 4.74398678492919945171e-002, -1.89804042999504235523e-001, -1.54383152694140879380e-001, 1.18234766020744522241e-001, -2.79938026144998630684e-001, -6.62072179662995113913e-002, -2.63417345005847076955e-002, -2.10854991678963765711e-001, -8.28378195362907687738e-002, -2.49848697506060729578e-001, 5.30725725600421152639e-002, 1.67100512763893004065e-002, -1.03563608675006982307e-002, -2.92586589260864282647e-001, -2.56402954871213673016e-001, -1.39900568907348393788e-001, -1.57472465033275499380e-001, -7.81023104326827866117e-002, -3.30891021634663828888e-001, 2.99586651609671683616e-001, 2.02164739226053047361e-001, 2.15930190238529079449e-001, -1.81975140720392308813e-001, 8.96215335219973513459e-003, -1.90163715091571594584e-001, -2.84569524687053931888e-001, -9.40135751500234262412e-002, -9.73103126452915662137e-002, 8.48620714512013790687e-002, 4.89020442775949665259e-002, 1.04206575886725376356e-002, -2.79263102457294187797e-001, -9.58706803923655842548e-002, -7.60898569829915050189e-002, -2.72712530001330444307e-001, -1.27438756348234177862e-001, -1.03232866226294323075e-001, -1.65222496220067210926e-001, 1.19810120596916427731e-003, -2.89235369639684776477e-002, -1.20146043561674700784e-001, 4.68728331504970410770e-002, 1.91354793912129644839e-001, -4.83503870943099600677e-001, -4.00505308565619499994e-001, 1.01706564856560530141e-001, 3.62812791481995841614e-002, -7.60085284998298499337e-002, 1.34567256682673330737e-001, -1.05800290948813976999e-001, -6.13498858190439852467e-002, -2.69104330414586291609e-002, -9.91934721569113775352e-002, 6.15007724123835530783e-002, 4.55566672316309456692e-002, 1.96428345760300993028e-001, 6.18692797448068959598e-002, 1.09824230113445622803e-001, -5.75171820479414078187e-002, -5.32843454379108363850e-002, -2.03618988943682438508e-001, -1.02763178163382262742e-002, -1.35725690876695559428e-001, 2.68699989993457302728e-002, 1.28759112485531262982e-001, 1.88654160795549141749e-001, 1.96671266697800439793e-002, -1.69115922462838297324e-001, -1.34947906086731739261e-001, -2.24699339673154196984e-001, -7.15255259074411564590e-002, -7.44309243238206741378e-002, -1.40055731677373007660e-001, -4.13826496451145595112e-003, -3.53404237456690153985e-002, 1.37164068200921751561e-002, -2.90463019481558906709e-002, -1.06669915028369685639e-001, -5.83124118370609914597e-002, -1.53215905687247938571e-001, 5.63245929477302620381e-002, -1.70215892388815265290e-001, 6.29786707458458994147e-002, 1.94475011657575025392e-001, 4.33690832006543361410e-002, -1.18407256364148769090e-001, -1.74003645050248068049e-001, -1.51048649761391567958e-001, -9.58322215313989755892e-002, 2.89946563344343870294e-002, -1.51994778918084251507e-002, 5.03327687484414650065e-003, 1.24472815314943266451e-001, 1.29937287218442609760e-001, -1.17715525230553508251e-001, -1.67035814318757497299e-001, -8.18614166156572953259e-002, -8.40280346823483043073e-002, -5.45724044731524041141e-002, -2.45011932707760345107e-002, 1.75142574838204140297e-001, 1.91795526793390985754e-001, 1.68940808528140057332e-001, -1.66958799827320405508e-003, -1.44345887593872124199e-001, -3.57734921766625219020e-002, 2.17550832496080873840e-003, 3.70136771691879779000e-002, 5.22170616501896195372e-002, 2.13649651588437489158e-001, 5.64483136956160924669e-002, 1.75122831239061332864e-001, -2.04061629744133360420e-001, -1.56032740665316443929e-001, -4.90975816633232742953e-003, -1.72444434205614061106e-001, -1.43188299527559487201e-002, -8.54327287920669115051e-002, 1.84344360039146476504e-001, 4.15150226719938758579e-002, -7.69475982218435078375e-003, -8.74961982971113327867e-002, -1.95689365052061192696e-001, -2.14519824192115848849e-001, -3.81056525490711256454e-002, -1.55985434085689298606e-002, -1.25679538720923106299e-001, 8.74348777552880485064e-002, 1.51398978145388635186e-001, 1.01456446353589566090e-001, -1.32089673037540128453e-001, -9.40629119907074179308e-002, -6.93374820676043585044e-002, 3.95956856048792424363e-002, -1.47184094045215929647e-001, 2.98365352575049626316e-002, 2.54287474536455837537e-001, 1.20295935954675858870e-001, 1.28983438965988933544e-001, -5.54061399323782250576e-003, 3.60480888839597446438e-002, -2.41419300660285392202e-003, 1.17054231072166313628e-003, -7.13714409459283022352e-002, -4.45470585007544869760e-002, 1.76672500727405756837e-001, 6.70447910424214893466e-002, 2.19172461666652024226e-001, -2.19369015684597185034e-001, -6.25358576999296422727e-002, -3.98977388816871419985e-002, -1.60509385647531532815e-001, 2.52751831090032852423e-002, 1.88236597709750784480e-002, 5.36516578346350400675e-002, 8.14286201912206297759e-002, 3.88485560979308641727e-002, -1.13479895364251834322e-001, -2.38436023973161687062e-001, -1.97251815929370133418e-001, -9.98994424093729849190e-003, 3.16710148884525033441e-002, 9.36850980711334373197e-003, 1.41049372996594035712e-001, 2.31322690290223613452e-002, 1.62285653287051745419e-001, -1.12337784452133132573e-001, -2.72945046118974084248e-002, -7.06461599151868568924e-002, -1.21926642190843606550e-001, -4.32463182777550053659e-002, -1.83097151209449471310e-001, 1.08391453310442462121e-001, 1.10821532697576136117e-001, 1.54179796349829784097e-001, -3.34493324023023633207e-002, 4.03896786105378685638e-002, -1.48294080411246337325e-001, 1.83940478537621132649e-002, 7.43207741217630502017e-002, -1.66428037918592452993e-001, 5.34784944717404953085e-002, 2.30798096992090584489e-001, 1.60447406157568694951e-001, 1.35105043035836005355e-002, -1.85051884624072932040e-001, -2.57093642177273241922e-003, -8.18487963504022086880e-002, -1.33260359204554507118e-001, -1.62628017077431463733e-001, 2.80274214697751766767e-001, 1.09304551623082779610e-001, 1.50535921311544695911e-001, -1.32209063278363514460e-001, -9.58457080003333045104e-002, -1.44956490653195380069e-001, -2.34484741464976831349e-001, -6.40029566363612134605e-002, -1.41727214462926992544e-001, 1.79474974025321615256e-001, 7.00208320272155682051e-002, 2.46969690283303205947e-001, -1.79780419335775598633e-001, 3.48518375465870153262e-002, 2.48896518124914860326e-002, -2.32167229473805469819e-001, -1.39865858158941896994e-001, 1.78849524729580953986e-002, 2.04355093393259495960e-001, 2.10731571376814280638e-001, 5.92846988136447664020e-002, -8.25907348131784263545e-002, -5.77654443100211606454e-002, -2.35345817703987963965e-001, -1.38155660157587373282e-001, -6.08257303117102771095e-002, 1.69235508076517084108e-002, 1.37147347050489032405e-001, 5.31876696722546407625e-002, 7.92572547536418148262e-002, -1.63980355858755755261e-001, -2.16409497205432399536e-001, -1.28122874865744834638e-001, -1.35123343148063363578e-003, -1.51907344502280536314e-002, -1.10581286937755970956e-001, 3.02369087456120178015e-001, 2.49318750638175073986e-001, 1.66159425535902016691e-001, -1.68812095134473399982e-001, -1.89501968716925511815e-001, -1.65370631469809709069e-001, -8.02444329174189369125e-002, -3.90107577545635020311e-002, 5.13910128983276134895e-002, 1.87354604397532376048e-001, 1.39386714419170859580e-001, 1.50508726714728729990e-001, 1.43798410866706489336e-002, -1.95399839105254741201e-001, -1.88279858880644079822e-001, -1.84939137857673935317e-001, -1.75568437840387864268e-001, -6.48277868994460715335e-002, 1.98940248201660979666e-001, 1.62248416727888505884e-001, 2.07878738263869877745e-001, -1.56653565465982247407e-001, -4.47317210539118423340e-002, -2.14868206476392598070e-001, -1.61332923213177076294e-001, -8.12222980898076873935e-002, 6.58950407781422470288e-002, 2.86001283466482847384e-001, 7.95292084302433449627e-002, 2.16611515045820157699e-001, -9.64195906622846987677e-002, -3.31871055194093919627e-002, -7.22034695203534332419e-002, -5.60890659301926455815e-002, -1.24191942378935285540e-001, 3.08729896818095879418e-002, 8.04106338986094876242e-002, 9.40515275063620315166e-002, 2.26644964843896207229e-001, -1.78062955649491740096e-002, 3.26359181949152574176e-002, 3.07333083885058602758e-002, -1.37640548231790033062e-001, -4.31980545393052528524e-002, 1.11944162623121970523e-001, 6.72839582078374048857e-002, 1.52893209851270500677e-001, 5.40187199520743704939e-002, 3.78782696033769239463e-002, -1.76477614658019560379e-001, -1.29016083828124378252e-001, -1.11547351996840515831e-001, 6.31546694540728592582e-002, -7.53268484767466300900e-002, 1.01493700295505445697e-001, 1.36727404760998871858e-001, 2.03156552917304333850e-001, -1.81880565545619460321e-001, -6.94827901612891148803e-003, -1.54169627830484157194e-001, -1.98562251252487886877e-002, -6.93629780157187653122e-002, 6.97503124970653559656e-002, 1.58130813061921837726e-001, 1.72937647911543646018e-001, 2.05501905481406954568e-001, -1.02979909791104898287e-001, -5.55166127168810544235e-002, -9.03291796877868924387e-002, -7.83262840886300160115e-002, 7.26693347311753584661e-002, -4.76218964693645996356e-002, 1.21807722259758471894e-001, 2.32815487503401030711e-001, 1.88261792490920676357e-001, -1.96325154653746641875e-001, -1.09343430224000490170e-001, 7.73243394804616797356e-003, -1.73537607133832039175e-001, 9.22966305212583396078e-003, 5.55144369719687141851e-002, 2.35064072414372465802e-001, 3.14007183660689914717e-001, 7.32970109247306628175e-002, 5.71400191362696208142e-002, -3.63822442875706419940e-002, -9.72917587157441920986e-002, 7.08060906296885395061e-002, -3.85206513877098116749e-002, -8.18776235428671089744e-002, 3.78989361473159452887e-002, 1.05051132717877651612e-001, 1.74883808524346234803e-001, 3.81032507206479770234e-002, -1.99211020389978121781e-001, -2.23329262743778012013e-002, 2.58852359542910137602e-002, 7.26770305381735978040e-003, -1.03977905107342685764e-001, 2.36221063958521951265e-002, 1.51623720525166261197e-001, 1.75874866592400730392e-001, -1.77519821008025269204e-001, -5.20548472517571719775e-002, -1.79144703807056993039e-001, -8.04216705550130778191e-002, 4.03985339305929294640e-002, -6.88691647506992216110e-002, 1.23746988401018803705e-001, 3.54148504672796016202e-002, 1.36478562638854439282e-001, 1.73333917901841022546e-002, -4.37771961529197853324e-002, -1.95572789819487447005e-001, 1.30756281378896693779e-001, 7.31080676779387733655e-002, -1.38583020941643764168e-001, 9.82892624369938183726e-002, 1.74637131489011054875e-001, 1.59905343313475861722e-001, -7.86929695164274023433e-002, -1.38006834151090440610e-001, -9.67347742972079760460e-002, -8.17762294697002706245e-002, -1.08705368194994878017e-001, -1.27932341573576469074e-001, 5.68531390831093844107e-002, 3.01204931586530472165e-002, 1.41710988559498346495e-001, -1.03357195974209781220e-001, -4.38894470345398655942e-003, -1.49085440491511872496e-001, -6.39946061935425108969e-002, -1.32602174390382160363e-001, -2.18653421120113239384e-001, 5.38069150101939605579e-002, 4.09326951284908896467e-002, 6.32792661367840708619e-002, -2.19513377840315687672e-001, -9.39274832762892891713e-002, -7.11509924996500120464e-002, -1.41850965365270642593e-001, -1.51083887775601971581e-001, -1.24120212403099977605e-001, 2.10059814840664133007e-001, 1.27277542521629094541e-001, 1.89984170517211281570e-001, 8.53741859488481649731e-003, -1.91897381975777131524e-001, -1.92363280833872551945e-001, 2.90538300769815037439e-002, 3.68521933381002891883e-002, -1.08483767603414202330e-001, 2.63730770057606644929e-001, 1.19496382085563998543e-001, 8.85482304519511764784e-002, -8.88511268777873730595e-002, -1.51430565842054803971e-001, 8.20370591754791822492e-003, 1.53185655625404509861e-001, -5.69837450893638311489e-002, 6.90547857209248688859e-002, 1.45840230405068493891e-001, 1.23584932576290509876e-001, 1.59635065690979738307e-001, -1.88959361760252131379e-001, -1.52677892922382901775e-001, -8.95815820140357238488e-002, -1.58975953494183246117e-002, -1.66082292247010848696e-001, -2.20811456207459962109e-002, 9.38177139197720472152e-002, 1.59744916407374315526e-001, 2.25251371823862400756e-001, 3.98228029750727144376e-002, 3.13588665765798975393e-003, -6.73843684217916433221e-002, -4.59027237795477105475e-003, -5.96623985615864285692e-002, 4.44764383346656633211e-002, 2.43564185762608270691e-001, 8.22371208026343031294e-002, 2.76498323760338282629e-001, -1.71330473133212757286e-001, 4.10487430984269041634e-002, 1.13902558633516420850e-001, -1.78000587299311702205e-001, -1.68493120323744277611e-001, -1.91166466394350059721e-001, 1.49832509572917188523e-001, 2.36860757287306517016e-001, 4.06185446198808919327e-001, 1.01918933886246787512e-001, -1.09898773140906735879e-001, 2.19196023881395758715e-002, -2.71672833109965039533e-001, -2.93000963167064143455e-001, -1.83652757637065899843e-001, -6.90630307890309630414e-002, 1.77768214991018663751e-001, 3.13361712241901790854e-001, -2.11322874239054936396e-001, -2.06032012371660327998e-001, -1.73319109089498102350e-001, -1.78425561372425989237e-001, -1.64365897046691772365e-001, -8.32399465954204303975e-002, 3.45453501431459475413e-001, 3.27227043216616886312e-001, 2.39728226129973992498e-001, -2.77571112441078904354e-001, -1.10642080039713902595e-001, -2.91753244891360286051e-001, -1.35561740282982151617e-002, -1.29210222651260808746e-001, -8.95547751602960712125e-002, 3.90993487759970559381e-001, 2.97836160868532873192e-001, 2.61369559882005109142e-001, -2.87672038150536213408e-001, -4.55821181316926581084e-003, -1.90965065982976023307e-001, -1.31824214384068272299e-001, -2.13901173451338827425e-001, -7.92582869546335777589e-002, 2.13012105427305753480e-001, 1.24122405165612084699e-001, 3.67759267968872871624e-001, -1.74963813413757635074e-001, -2.41971295886789866669e-001, -3.42640402575869473800e-001, 4.44964800047473671429e-002, -4.14054653906689162923e-002, -2.85847262980011673772e-001, 2.15783360371880866824e-001, 1.50390697342921320079e-001, 3.19938570517984688379e-001, -1.71644315589872170635e-001, -6.66412629740413542390e-002, -1.59914566244941380724e-001, 1.74107055626350093469e-001, 8.39812508030343130017e-002, -1.44423049416689430746e-001, 3.38803205942737328815e-001, 2.27068567113105412858e-001, 2.98047877932889559993e-001, -2.77250968442774303746e-001, 5.18240760272240461037e-002, -1.56382793457762528377e-002, -1.30386860604783300088e-001, -1.28141884713423054309e-001, -6.78444172717535248091e-003, 3.71826658058853232180e-001, 2.59627869706052283316e-001, 4.22225542246844165462e-001, -1.14183559604107504049e-001, -1.23750740000835093846e-001, -1.41527685042529355330e-001, -1.09367529255167142410e-001, -1.08246094842299453442e-001, -8.33647259086340158829e-002, 1.89085378489432659466e-001, 1.64524659692177221970e-001, 2.32348073968830365343e-001, -2.16206933166206899388e-001, -2.55939143514887723629e-001, -2.49681815725227018721e-001, -1.16206119051844136703e-001, -4.18036218887611471517e-002, -1.25318112470573284067e-001, 2.85527688231607235103e-001, 6.32268677247314614398e-002, 1.75861612372389203296e-001, -1.33620558103605013844e-001, -2.09814514939847401864e-001, -1.16156577675142147488e-001, 1.56838895109825127161e-001, 1.25695469390626285433e-001, -1.18889637780946452739e-001, 1.16020447552613578668e-001, -8.07150127607464060175e-003, 9.65246193353989090369e-002, -2.61709326239348144538e-002, -1.44793798395849576677e-001, -1.04739147069006180435e-001, 3.72193123767965566850e-002, -8.74683382961168043312e-002, -4.17910767390221593587e-002, 2.68447345433549755533e-001, 1.78264377631531661939e-001, 2.74230256891770718397e-001, -1.62552433652743244519e-001, -2.27900194361047719882e-002, -3.57154075146450186717e-002, -9.27425054856100133938e-002, -7.16114875587282873060e-002, -8.46204699258596704237e-002, 1.76818286285827824811e-001, 3.38719162124242800793e-001, 2.46417822101851868855e-001, -1.52364309407043346800e-001, -2.42584555162552339969e-001, -3.38581333431023256963e-001, -7.84713570735416088286e-002, -1.52777687875153472818e-001, -1.43342182205735441114e-001, 2.30288492686323481573e-001, 3.37726664853934488431e-001, 1.16788027701153249160e-001, -1.58090960040949579657e-001, -1.60482174495784585266e-001, -1.26402762988451877746e-001, 7.57545427963061263066e-002, -2.34664529870574293385e-003, -8.14624006337148626189e-002, 2.79381032951658392349e-001, 1.95077452098639358979e-001, 2.04787096290709458302e-001, -1.00901359949959051887e-001, -1.35482327098627175488e-001, -1.85966902643844050891e-001, -1.82002694536954300053e-002, -1.49305572341935199887e-001, 3.04466364752053811338e-002, 3.11996941479614264825e-001, 1.52861125282710563766e-001, 7.90027361409540301862e-002, -2.59881485814886681318e-001, -2.30191942655781328630e-001, -2.61108063750187968655e-001, -8.55282547727391623260e-002, -4.17650158958168885026e-002, 6.11951081643442584834e-002, 1.29608445981670122871e-001, 1.49995670246659662528e-001, 2.06249598713657417148e-001, -1.98138120067672701685e-001, 1.48099605005930293200e-002, -1.30055489763134551895e-001, -4.64563847351183167866e-002, -1.25010824650748086917e-001, -1.46696099788806044728e-001, 2.16064553755199340035e-001, 1.95476899370617407392e-001, 5.55863396843276555415e-002, -5.59167628099162747346e-002, -1.80460796996873042153e-002, -2.91717993229931235599e-002, -1.57687621140449513168e-001, -1.08642932695315663771e-001, 7.90761143286981549316e-002, 3.76400059367588968318e-001, 1.12639123540461710826e-001, 3.51620869593409823839e-001, -1.15532256755048273744e-001, -9.01652377340417948703e-002, -1.94187723833668307583e-001, 2.04331784659210674571e-001, -4.15925894222196265715e-002, -1.75147402854427425289e-001, 1.75570959731726844444e-001, 1.27308859085554337831e-001, 1.97617266703262073335e-001, -8.43926429495311658524e-002, 1.14059191131564516969e-002, -1.71246890695115422387e-001, 2.84213023523967461825e-002, 8.69087497070643866248e-002, 9.95753166608603357268e-002, 1.89264274986980646220e-001, 2.40171272320281764534e-001, 2.82554484940250372205e-001, -3.90827550354572450519e-002, 3.81429418517404902889e-002, 2.07400541479559087643e-002, -7.30231787448850366840e-002, -1.05529863223101233460e-001, 9.21885960470156529123e-002, 1.30864381670709656325e-001, 2.15042335297762968183e-002, 3.88084407939144337973e-001, -3.65044752932370653031e-001, -7.31469070793871745106e-002, 7.18868719807002828914e-003, -1.47126528581304566456e-001, -1.42355441223720624588e-001, -5.89285860160211338865e-002, 2.39722899686608481584e-001, 2.47614278034389539984e-001, 3.64473892511050723275e-001, -3.38280658624122154698e-001, -1.73727465093131444585e-001, -1.42313671203020603029e-001, 1.41808989577514255043e-001, 1.12747395158281596417e-001, -6.83919419401303047001e-002, 2.54525829650966817219e-001, 3.02825768936105521600e-001, 1.64338253934036199189e-001, -3.91562556670067452025e-001, -3.57608687770323285804e-001, -3.32062004304158497892e-001, -2.37931273905889056897e-001, -1.32846355875875260510e-001, -1.54629026214577261489e-002, 5.68172622260300408392e-001, 3.45296848379356424719e-001, 2.59300020261722830028e-001, -2.96356023343661123537e-001, -2.44078565690644733177e-001, -3.04870476777485688302e-001, -1.00363207435617551866e-001, -1.51875620448119058592e-001, -2.25636395257397814884e-001, 2.46913880566306337405e-001, 2.80996075634776965035e-001, 2.18186549679836583326e-001, -4.08524743657336653069e-002, -4.13118379064218027574e-002, -1.37959965597549749639e-001, -1.54406565706549564476e-001, -8.63009800158802964365e-002, 1.95592895885133011280e-001, 1.98107057132606678707e-001, 2.96549872047103646455e-001, 1.07840000596118507081e-001, -2.24775100796759164101e-001, -2.28356899703332921758e-001, -3.85354585325729526168e-002, 6.90005324346872755958e-003, 6.23724360415346262831e-002, -7.56930952992591193906e-002, 2.36922975384791290043e-001, 2.19601598793663727038e-001, 1.39439249056534569915e-001, -3.02780540424496258378e-001, -3.09551764694368125586e-001, -1.22680926687049426937e-001, -5.27468074655231822234e-002, -1.12849879756398777109e-001, 5.75919826911667487312e-002, 3.61283122561045610954e-001, 3.15959887234966763092e-001, 3.91446499714141360471e-001, -2.74229483421957742628e-001, -1.92605586106329218499e-001, -1.53722995251498628644e-001, -1.03145368296413908471e-001, -1.86996635218195567107e-001, -1.89903482741457935168e-001, 3.80620617783756109986e-001, 3.37969068371494318903e-001, 4.86857459778246848270e-001, -1.13267412430822292380e-001, -8.70348770744657773690e-002, -1.57141278575242682169e-001, 2.52187788239011077829e-002, -1.42288868192090717235e-001, -2.03900878820971076522e-001, 3.44578304325305284639e-001, 2.27767242971395889040e-001, 3.75606453831632935980e-001, -2.75725002213427772269e-001, -2.46426659671641762328e-001, -2.01896668120336908459e-001, -5.27440132463053434897e-002, -2.37028558727457212829e-002, -5.60163441166209932764e-002, 2.08054534312828054432e-001, 2.90127779332010726776e-001, 3.96702379500117607858e-001, -2.64639083481626957717e-001, -1.50609368444354629890e-001, -1.16880196240822492593e-001, -8.86018616016668453250e-002, -1.42345058295476056820e-001, -3.70734596994813814241e-001, 1.87610935856754867945e-001, 2.00339326587264054957e-001, 3.52012049732179088668e-001, -1.55478666710432894549e-001, -7.62345069010979953239e-002, 3.99045610800869733625e-003, -1.97852014782026242035e-001, -1.40540729820482879209e-001, 6.69124696312954209132e-002, 1.09398944780378190589e-001, 1.86688330039272681882e-001, 2.17939042465209675825e-001, -1.02987318147304551808e-002, -2.05531443109094907884e-001, -2.70953107509482815640e-001, -1.43296204133336380071e-001, -1.52171384936161946388e-001, 1.04129557288509297375e-001, 2.59504878145486284069e-001, 1.68048895808463244483e-001, 1.51951645300953813722e-001, -2.63074566904824613811e-001, -1.97411542436750547802e-001, -2.66252706776038183811e-001, -1.16616360206311206471e-001, -1.81258923462855464637e-001, -1.32987597227801318533e-001, 1.64118559576275746537e-001, 2.40500368235107703230e-001, 3.31999304061881342354e-002, -2.08863244110645190910e-001, -2.37960118380697083218e-001, -2.09749184837042079721e-001, -6.38488591105844938145e-002, -1.78667530400372608079e-002, 7.31085868448083653348e-003, 2.67719696415367247599e-001, 1.03595047569719017622e-001, 1.81275751836228321556e-001, -9.25607824445113525069e-002, -6.84152612169088292227e-002, -8.65560371632242836482e-002, -1.47363539690168465768e-002, -1.12105081410761822647e-001, -1.25019600108618206269e-001, 1.42252735377197569999e-001, 3.23625864495261789111e-002, 1.36849149019036747665e-001, -5.09193562215062914267e-002, -2.39384076805360751505e-001, -2.08977880607881028041e-001, 1.48368572751566923928e-001, 1.66813643976366554611e-001, 1.74481038489082890264e-001, 2.13010310162121518918e-001, 1.87605486903380441754e-001, 1.99467183988141699702e-001, -3.00164944426366597785e-001, -2.75161788199843992953e-001, -4.60792672989150109419e-001, 1.67111201275535643795e-002, 6.13508766028552678107e-003, -9.31337663141928034927e-002, 2.61808554805565918411e-001, 1.68388064092561628993e-001, 6.41311113010052807892e-002, -1.91795591956621172547e-002, -3.66648574840326285651e-002, 1.73986136304681210385e-001, 1.40788396405976179437e-001, -2.18236082089478505841e-001, -1.57259870953802949334e-001, 1.18448139639740032680e-001, 8.29378073246913455341e-002, -3.78220119703821106016e-002, 1.96959357990605349320e-001, 2.08018388558669498067e-001, 9.47127341673788397669e-002, -1.51680124093743678992e-001, 2.31645121009246661437e-002, -3.04723854190411480580e-001, 5.52030900562240009477e-002, 1.63755747530721890159e-001, -7.58032011630139501701e-002, 1.44285470002179366800e-001, 6.21048570969036650702e-002, 2.39446389215637628345e-001, 6.32650451706532890306e-002, -3.41026286078040530292e-002, -7.46431530706626183980e-002, 6.37829247679706501373e-002, 3.42396968294948131351e-002, 1.93149266169631156354e-001, 2.25388817255211343360e-001, 1.85788002179018335580e-001, 8.31844776607229274834e-002, -8.81132083129604753990e-002, -6.86141082117458084300e-002, -1.29568895300037095764e-001, 1.28354166932204249996e-001, 1.21914573736838963147e-001, 9.42952424400262528836e-002, 4.92858447723681404595e-003, 1.92123763877026822178e-002, -3.02858312509475570418e-002, -1.47846372090570415958e-001, 1.82943945257466378251e-001, -2.69034192166502580945e-002, 1.85738741598609966021e-002, 3.15072043418315392294e-002, 1.05858633192856002592e-001, 1.87581727458021568777e-001, 6.73687122008423261432e-002, 8.34819918702534580213e-002, -1.83003543526161716049e-001, -8.14096745434306351408e-002, 4.04006416499274323417e-002, -2.99451685703313597031e-002, 4.76922974362224694200e-003, 3.08025408334393728527e-002, 4.09255287922704723974e-003, 1.15336692022983494654e-001, 1.50667668568788187811e-001, -7.64750886909604660202e-002, 9.83551400731106223452e-002, 5.36909197891218166465e-003, 2.17880593956912196191e-003, -7.72470341118693809568e-002, 3.18524444400928655186e-002, 3.87705636954023546981e-002, 1.15980242190264447311e-002, 2.14314352941058008928e-002, 6.64042024886352666435e-002, 4.97076015984949520776e-002, 1.34849756802781522991e-001, -2.21389237477133321574e-001, 5.95780483961732762466e-002, -1.13743101865025064701e-001, -1.13359359850141186432e-001, -5.79315405474317424162e-002, 2.13106282301976646121e-002, -1.11439371575216453203e-001, -1.23200334017702931022e-001, -1.44600184865890830921e-002, 1.28300449483602696521e-001, 1.60360129026881736980e-001, 2.16847312221983314073e-002, 5.92429648959219637416e-002, 9.54933247482836478071e-002, -1.84866566909628084192e-002, -5.60457766232377863069e-002, 2.85653941545035202493e-003, -4.24500916239711756361e-002, 1.60578616487028480453e-002, 1.43936395517137633027e-001, -7.56839900478600696720e-002, -1.70417157695982507404e-001, 5.96350785004389066790e-002, 1.16815736846201417842e-001, 4.75800429317619049535e-003, 8.28302658513092870951e-002, 2.56484251582794267610e-002, -4.30801569825879776543e-002, 2.23447778743849877203e-002, 4.13139560039360725918e-002, -1.30589076449261848323e-001, -1.37250221915019954277e-001, -3.67047778959674261823e-002, -1.50160789207177347571e-001, 2.14955713822864463713e-001, -4.10463849773817866101e-003, -1.07246393958073046870e-001, 7.82483621860687451714e-004, -7.56222363643599959637e-002, 1.89685906508686524807e-001, 1.40570573252785241403e-001, 1.38438270527624501804e-001, -9.42438186571956659776e-002, -1.08614272689013750123e-002, -8.84599379705931915252e-002, 5.59768704315709297870e-002, 8.21298126286418017639e-002, -6.33393881900576605215e-002, 7.87895885377784682690e-002, -4.53819738928065152805e-002, 3.99256891074222797222e-002, -1.21849542337983882123e-001, 3.55351153084036280871e-002, 1.16056645278854925207e-001, 8.88607408250793734394e-002, 5.86234220246730428072e-002, -8.76395068209143840443e-002, -6.94880178606921972140e-002, 1.46544310394489035732e-001, 1.81652110594563709345e-001, 1.19154652526459892831e-002, 2.53045746064816945431e-002, -7.95548489808345360430e-002, 7.98411207355591567847e-002, -7.06804944648507238458e-002, -1.15253675101034069872e-001, 1.66558535665650958579e-001, 3.13107662596749745237e-003, 9.86595021236633951123e-002, 1.00870024272237991669e-002, 2.61729716057474526281e-001, -8.71265190874992018211e-002, -2.31874191332542903266e-002, -1.19806684937989529893e-001, 7.18014719455397354420e-002, 7.07265987186331684944e-002, 4.68916376183202768257e-002, 1.51413305603578712821e-001, 8.74992098873642321077e-002, -2.60260370920742459266e-002, 7.73945410701994268576e-002, -1.89896307642524436732e-001, -1.07339085619459512211e-001, -1.19946928755608098194e-001, 4.36144626277739436149e-002, 2.56606874469754824009e-002, -4.37688510143416018017e-002, 1.91874495247806907752e-003, 2.44111785022385924249e-001, -8.74931538390995577892e-002, 2.14508832509997630911e-002, 1.27618071925005797246e-003, -1.00866732238856476878e-001, 4.62829688394433766407e-002, 1.22828079815669705122e-001, 1.53802702996042789385e-001, -2.15204270688368670683e-001, -6.39349190403763062429e-002, -4.77434538487942344842e-002, -2.42698987868771476339e-001, -6.61133434552456239475e-002, -1.72842595944241839145e-001, 1.71649586193804160050e-001, 9.65995950192597430117e-002, 4.89414416937910407013e-002, -3.24840062957811245847e-002, -1.61721251782390523788e-001, -9.91227789125184721719e-003, 1.15872333612644876771e-002, -3.94721444642460728147e-002, -1.31693702631777820322e-001, 5.37571423669914588706e-002, 5.69679587889646357746e-002, 1.10182339279047955549e-001, 1.68191424722030080652e-002, -5.40329601670310466499e-002, -1.54050985398134610005e-001, -1.00642696259634428779e-001, 7.37455763980956469084e-002, 1.19095913639011646845e-001, 1.40837735199440382966e-003, 2.12273179384377952417e-001, 2.18671893825298252478e-001, -9.79678452115035625081e-002, -8.88292995525142257962e-003, 1.21067723517669034727e-001, 8.40723797689286733714e-002, -1.03081031431934699860e-001, -1.14075361061735047752e-001, 1.55262991595191135463e-001, 3.60458902908203718263e-002, -8.79011035112498700927e-002, 1.63181412348165355564e-001, 1.68954520329270357903e-001, 4.20411919285138893643e-002, 2.61000598896597157950e-002, -4.96110086840604591618e-002, -1.13456260246275666276e-002, 1.90828847830440101463e-001, 1.27517791940472635659e-001, -3.69085738068257868116e-002, 6.19339998567873875612e-003, 2.17722908166305767486e-001, 8.97702686823196177590e-002, -1.91754764519924958410e-002, -2.05998092862273940451e-001, -1.95147117933427455272e-001, 8.89568615421361952311e-002, -4.72785625760943767348e-002, -9.65361339515388577892e-002, 1.48035578721924798717e-001, 1.26916327630283189143e-002, -9.08251496260424479035e-002, -1.17105194131957770359e-002, -2.02253016765871734828e-001, -4.59770787983087708684e-002, 1.35990520387869129326e-001, -4.63050274976974651775e-002, 7.05704636813876962087e-002, 3.55875369701988297777e-001, 1.26291355414117567602e-001, 1.98294912160826980463e-001, -1.01642149443362583838e-001, 5.19718243781235739176e-002, -7.89509410691122681669e-002, -1.45619144881144677028e-002, 7.59825039509044869446e-002, 1.16639564579519114385e-001, 1.77651675098367628491e-001, 1.98843767256378332886e-002, -8.13646163041809034056e-002, 4.38695843957569719951e-002, 5.63110857169255851762e-002, -4.36463121994439817719e-002, -1.25834881542938537002e-001, -8.17940073078020496444e-002, 1.00523660488061855611e-001, 8.16391639904799487626e-002, 1.91704372548518992003e-001, 7.14084488717231513633e-002, -4.44854015490704080005e-002, -1.39571692691014187515e-001, 2.09005446657241737707e-002, 3.28773546852023090814e-002, 1.31148945543327899443e-001, 1.03001859134222814585e-001, 1.05332447372560672472e-001, 1.78404177107798822544e-001, 8.14039553154141254376e-002, 2.16917681622726468693e-002, -4.11255994141324909830e-002, 6.62628930431846813187e-002, 5.59888794137760742453e-002, 1.42470361655851779359e-001, 1.61509433546202202381e-001, 2.32493908308049335165e-001, -5.87591439073327156950e-003, 8.43933848340306519420e-002, -1.76368299648785559208e-001, -1.33226815687868038740e-001, -6.81433043708573465969e-002, -7.87944839894654386336e-002, 8.61478275293922068911e-002, 5.65829259542774826164e-002, 2.69046986202571114521e-001, 1.77023253768681110287e-001, 1.26602472483063610564e-001, 6.96142747991116278561e-002, 2.59501221319628355699e-002, -5.01079012040091323343e-002, 1.14421652006716279004e-001, 1.32746756576384655757e-001, 2.84908179477348331987e-002, 3.91697394061080519934e-002, 6.91584600975217317353e-002, 5.60624986447820772284e-002, 3.08389345218791459391e-002, 5.19026334543711831415e-002, -2.35775281865574559692e-001, 3.14610963493048775841e-002, 4.04569702406294175179e-003, -8.28722030114280479307e-003, 1.90977466238529042242e-001, 1.36371674265065023768e-001, 1.25922711068107325005e-002, 7.14948336148067964402e-002, -9.71986416521559010162e-002, 1.72432115085342924088e-001, 1.50560185108916883348e-003, -7.29335660892545534217e-002, 1.10501593497338262972e-001, -3.61607665687778551122e-002, -6.82222388425043485549e-002, -1.67321887434649485549e-001, 9.07256108829669477567e-002, 2.73121927007498981055e-002, -1.03859033553819965490e-001, -6.79778875872185384122e-002, 6.54815417620172313118e-002, 1.11143543237747166597e-001, 2.99481293129570169675e-001, 5.34147262031735917120e-002, -1.80268644133602440327e-001, 2.20293911454059326838e-001, 1.82097793507111138656e-001, 1.91944248429718362925e-002, 3.86763759515594482408e-002, -5.66818171492679528239e-003, 4.88897905751944292230e-002, 1.98970358462403545952e-001, 1.73831219628023614376e-001, 2.22377564579309100479e-001, -3.31647467157965974982e-002, 6.81723125532237572699e-002, 5.96551452010807212178e-002, -5.86404723822708320857e-002, -8.77109320193505404006e-002, -7.05039191363548145564e-002, 1.27220830298005987968e-001, 2.65363409054236831786e-001, 2.08527106249353361145e-001, 1.24774648521755376906e-001, 1.11651540126158146937e-001, 1.23813501986591412152e-001, -3.89293271145117192322e-002, 5.33955030498716870513e-002, -1.69781077874183894405e-001, 2.58324395054441491304e-001, 2.64886530535467346059e-001, 2.94102384457181009747e-001, -4.49058322068719081854e-002, -3.80843127357810215528e-002, -4.77522508332876849391e-002, 9.09176432707707177228e-002, 6.42738505664637443937e-002, 1.32854363619216653269e-001, 2.35582490981159131671e-001, 1.12629334821160137503e-001, -3.62023024039266339003e-002, -2.60427170644788430476e-001, -2.09721123512579710191e-001, -2.56291322927127362963e-001, -6.94886848634190899127e-003, -6.68255754845502730754e-002, 1.90427222591607409052e-001, 2.15330193208698034146e-002, -8.14997762662119165644e-003, 6.61470925519409003179e-002, -3.46912672656960796580e-001, -1.60360999151803046425e-001, -9.08345895634873196078e-002, -3.01537950437205548582e-001, -4.42801606590124616214e-002, 2.21235788234878938407e-001, 2.14214916117029779974e-001, 1.57997434038327000394e-001, -1.44955892313254341985e-001, 9.84520717330209238494e-002, 1.74141352246000663540e-001, 2.66742375478381421594e-001, -3.29839722678426476576e-003, -9.98586574225678036409e-002, 1.44312856631093111570e-001, -1.70742468877490682216e-003, -1.63041797430232504595e-001, -3.06136599637604145396e-001, -1.04328839026600353468e-001, 4.06256587073762637230e-002, 1.27863445791597446499e-001, -2.87458743289062901294e-001, -2.40581897426503849013e-001, -2.73776549995005058502e-001, -2.44801815997175986617e-001, -2.25711564358024169286e-001, -2.20188840915279210320e-001, 4.02980111042708644131e-001, 3.41475165368724797865e-001, 3.44828881247128682386e-001, -3.35321634699763948539e-001, -1.86329024985468438835e-001, -1.31187955777744225117e-001, -1.19137479695846626969e-003, -2.17923704135607396171e-002, -5.60205463204009046496e-002, 3.28153375523378754153e-001, 9.48799769171930762468e-002, 3.79051946416646079463e-001, -1.03879400584665104734e-001, 4.60923584867353255956e-002, -8.37399324733327926618e-002, -1.52136319127986002764e-001, -3.73062495971853980148e-002, 1.44636597576153325129e-001, 1.96711619372139295825e-001, 1.66780552290489464395e-001, 2.08681522700257970904e-001, -2.33700966494338413515e-001, -3.83469758366234314551e-001, -3.58970375019558307628e-001, 2.32331826948974112801e-001, 1.24018628093576666060e-001, -1.85579193623708282868e-001, 1.48882719281414749313e-001, 1.21331633410748027102e-001, 1.43249135848954434191e-001, -1.56017689028990547140e-001, -3.30364482099934797521e-001, -3.04312465695783351816e-001, 7.72349425588492316530e-002, -1.67078631137820821616e-003, 2.54031011414185936559e-001, 1.01423555657875627545e-001, 5.60784290576968880160e-002, 2.13372357501562387450e-001, -2.09793563775036495667e-001, -4.06318769233476595470e-002, 1.88139230010591664011e-002, -6.29960605974973913979e-002, -2.00007503425371074846e-001, -4.16184564902951914522e-002, 7.45985949680333798595e-002, -7.78797255852423375710e-002, 8.12657888454576537995e-002, 8.19623206148828442608e-002, -2.90747176862452827439e-001, -1.19578167324964540486e-001, -3.17007908108442523765e-002, -1.37929979207065067648e-001, -5.57671409422352687413e-002, -7.35889202963826982717e-002, 4.31895914902894403897e-002, -2.10003481658497734297e-002, -2.51932547164167963683e-001, -2.17315971391611989505e-001, -3.66667896053725128613e-001, 1.38061867046470280324e-002, -4.26326034767850678420e-002, 4.57258924691644821903e-002, 9.92785359849017862155e-002, 3.37996321408625260974e-002, 3.67471457800592551934e-002, -3.40888722226815876759e-001, -5.08762250520692418942e-002, -8.14880903294500497092e-002, 1.57015436234996502707e-001, 6.88733249573109523878e-002, -6.56282662285350426590e-002, -4.36633747393872229114e-002, -7.91752000697153734965e-002, -4.54643114689072952439e-002, -1.58254007043503036600e-001, -3.10701009911070136216e-001, -1.85770998006861559615e-001, 1.31170716870765036166e-001, -4.23823084242680100941e-002, 2.52183216699892118196e-002, 3.64565871035010327650e-002, 1.27135409362528484234e-001, 7.22460423542005403252e-002, 7.37903852298179979696e-002, 1.29252020922412530490e-001, -2.24544878994320851184e-001, -4.81345758990032838998e-003, 1.41857350732045833785e-001, 6.16136128665243018587e-002, 7.44954566344393880051e-003, 1.68915980415322852792e-001, 1.21871750736529740888e-002, -2.82415339360148565095e-001, -2.34617642467069481560e-001, -2.99185944987913288173e-001, 4.80693411653424912400e-002, 2.50218385293448815354e-002, -1.52735567932758692367e-001, 6.54064318400277011634e-002, 1.76786404450048562076e-001, 1.81057413936027755685e-001, -1.44159432118678154655e-001, -6.74626778062321769136e-002, -6.98680391972815728607e-002, -2.22349796464346632918e-001, -1.09525569245411708019e-001, -4.13865876649262554032e-001, -7.27354904254003675756e-002, 5.95051846432364459072e-002, 9.46185054927487032700e-004, -1.72554959388297235456e-001, -5.76863373813243651700e-002, -1.37085880751822902779e-001, 7.22609959934669004999e-002, 4.04033434848428824049e-002, -1.39426927535019756776e-001, 1.41890639690273795415e-001, -2.63340047072775432224e-002, -4.62120417288047341531e-002, 2.12171030278459418761e-002, 8.03768098864350993837e-002, -8.10054695139681008031e-002, 1.01778409910717779208e-001, -2.02737423984284570455e-001, 9.97840623817168176357e-002, 6.26898786764109039460e-002, -1.40605913088013761980e-001, -7.69824565966947538254e-002, -1.16004192829655003449e-001, -3.71733303523455391182e-002, -4.10021115113913536820e-002, 8.29742207912488455301e-002, -1.00610625844851031552e-001, -2.30341330002993126963e-003, 7.93105894557745300100e-002, 1.41753845232685360411e-001, -1.53039830035932768876e-002, -1.85276282155227595139e-001, -1.24466188652642292811e-001, -9.50355140472079612524e-002, 7.92367752528383255395e-003, -1.34709243868454120463e-001, 5.99713919522382940541e-002, -3.86211271254977145384e-002, -1.11853060720802838235e-001, 1.50926975589108836040e-001, -3.68046077015656614151e-001, -2.55312734975665478476e-001, -3.68899137167052124098e-002, 3.56694072692942454328e-001, 2.21165172544549426537e-001, 2.99250220833681745969e-001, -2.65592861404989784291e-002, -9.59676305375589677737e-002, -1.61081867974535192234e-001, -7.14264619036624331949e-002, -8.53827298007706625427e-002, -1.65756367707112245435e-001, 2.06284437877341436662e-001, 2.62255887534496967550e-001, 2.26477799303535232145e-001, -1.13776176181823548972e-001, -1.97912421381571834722e-001, -1.15466183468197983869e-002, -1.67838310107354643508e-001, -1.17117288761055968194e-001, 6.36695935114755529050e-002, 3.53673211300065737372e-001, 1.54880839797795155643e-001, 3.51602477874401964097e-001, 1.62731794095152093593e-001, 9.66911068854949123930e-002, 3.07005317395983440276e-002, 6.96493060625494736504e-002, 1.40368711146316299532e-002, -1.64960453591870753742e-001, -3.42203269356944200785e-002, -4.48786966265334041903e-002, -9.37669459309381780887e-002, 6.50605685166832231614e-002, 1.54287591918743881292e-002, 1.32654170227600454179e-001, -2.01942916051654874909e-001, -2.69065435950120446229e-001, 7.51183012085914481037e-002, 2.20429185238491288923e-002, -2.67740992409759626103e-001, -4.81485187762369037934e-001, 1.72012115960092054623e-001, -5.19007398671835276649e-002, 2.99385120292892034644e-002, -1.58585830091483998006e-001, -1.78973430796818239186e-001, -8.83603747449443477358e-002, 1.74766982960563976857e-001, -8.51146155207082866223e-002, 4.87194954888477832489e-003, 7.77865055044699438280e-002, 2.11955473694291421372e-002, -1.09499436328601915114e-001, -2.26295441652317685932e-001, -3.28607235531030883458e-001, -2.08686043098446072364e-001, 1.03360829676644214170e-001, 1.51138951040219113309e-005, -2.83702343375607957121e-001, -1.80815223260713531239e-001, -1.39583931102926800394e-001, 1.47143207138756171304e-001, -2.02946152474609731176e-001, -1.51282211377777531247e-001, -1.43540584044036106937e-001, 2.92301786405540359182e-002, 2.96834155707831615079e-002, 2.15187706811038853560e-001, 9.11484437973163058588e-002, 1.69585573974443154510e-001, 7.42768726208143797995e-002, -1.29472805705621085703e-001, -2.96942776648909834147e-001, -9.92660937193539927303e-002, 2.89543768904169218636e-001, 2.30847477076819795894e-001, 8.38453044604481889657e-002, -5.13621877553624636703e-002, -6.66858508878885244964e-003, -6.48363780550910984157e-002, -2.49831970051182461479e-001, -2.71021273974264953477e-001, -9.04663480699845201638e-002, -1.08851196476561370985e-001, -2.02647961163459094935e-001, 2.51186370511039362696e-002, 3.09971330541494838329e-001, 9.75280508117876837604e-002, 2.11118664031958724880e-001, -3.50077790540958166954e-001, -2.86701463754664265249e-001, -1.69575568460182790620e-001, 7.11313197424955356851e-002, 5.36583938400996603851e-003, -1.18282025713382712984e-001, 1.34971290666593496388e-001, 6.54813541071502525082e-002, 2.29246680518307599517e-001, -2.56678331987166108430e-001, -3.81911872226151916099e-001, -1.11797453653665612716e-001, 4.13300191135849495638e-002, 1.18115240906848009694e-001, -2.83872671234068306434e-002, 7.02652426759366594000e-002, 2.17453277170363556969e-002, 2.89678129551428683447e-003, -3.15755454264593449221e-001, -2.93307063994903971516e-001, -3.57323915656040214106e-001, 8.10869725094255297537e-003, 2.05402819633133726374e-001, 8.68467532384525620071e-002, 8.17948234808909963034e-002, 1.72919776414629133843e-001, 8.56122039751439078969e-002, 1.81764046407098273789e-003, -1.26217094090337184076e-001, 1.29186582045757197834e-001, 4.40287350748981981541e-002, 1.43254626532787251308e-002, -2.97085159378585539347e-001, 9.87613096675019341841e-002, 8.09344073665646812632e-002, 3.05272184662728311710e-002, -1.68148279043461107429e-001, -1.69537103440909470153e-001, -1.17120343156385961492e-001, 2.74572902451573896965e-001, 6.72132879624062207213e-002, 1.10337960160089496031e-001, 7.28522087162869896870e-002, 3.05235491538482617280e-001, 1.24467595326332836070e-001, -8.91834462238155767366e-002, -6.19798857900343072580e-002, -2.61964144866191905869e-001, 7.59914527421021446241e-002, 8.98181623676500284770e-002, 3.27719617175016464383e-001, -5.68312056337550788876e-002, -2.29398739393452781588e-002, 8.52350447236813052454e-002, -1.40110626222751083469e-001, -1.20117879999529650337e-001, -3.20234007687951405252e-001, -1.42108417364608663469e-001, -1.01822833863425776801e-001, 6.57828897741602885985e-002, 4.77296478087760600584e-002, -1.88549030837450969089e-002, -4.82020845183539908829e-002, -1.60005933640779113292e-001, -1.07561859486997965507e-001, -2.07302244185088385686e-001, 1.04213647540358250732e-001, 2.20796758076903694434e-002, 2.62996190728592815766e-001, -1.90435555022315489149e-001, -6.94064045679470137395e-002, -2.05115878718579308648e-001, -4.44608445920756933933e-001, -2.07013389508650780257e-001, -2.71997862665081191480e-001, 2.98490749549865985735e-001, 1.55116895246515590356e-001, 1.98142541175293118716e-001, -8.50085308586451121604e-002, 6.94883319805212201770e-002, 1.92579232427564250862e-001, -1.88624271402086429728e-001, -3.25922587582961165165e-001, -2.25191068621661910631e-001, 4.95711306267459128616e-001, 2.24817062992281962996e-001, 2.71776557454885769882e-001, 3.29114384930676573404e-002, -1.07722179544574338250e-002, 8.29898517692261999956e-002, -2.22435326358475876640e-001, -4.06863101423905804133e-001, -3.16236225129529979760e-001, 3.55634918173314829026e-001, 2.10124595767347432940e-001, -3.34897078396853564719e-002, -8.27013083941446902614e-002, -8.90190164018427876336e-002, 4.69655299726940630989e-002, -1.72706009112651298620e-001, -1.51404591970961149849e-001, -1.01820619170200826753e-001, 1.16102788721033009511e-002, -1.56288534655313865462e-001, 3.97207546423803334323e-002, -1.35107601843209683412e-002, 4.45724407705938435731e-002, 3.38542080681362711481e-001, 3.52435757561237461566e-002, -1.06899562910937245830e-001, -5.97189818332214683583e-002, 1.85796262538216294669e-001, 1.23929347937425132775e-001, -6.80510911043361171879e-002, 1.07967426757609563648e-001, 7.59912909422463811460e-002, 1.37716839491339240742e-002, 4.07721628463259197495e-002, 9.68835672977022277497e-002, -1.87304181787842772937e-003, -2.19532276550858773678e-001, -1.53456870318793792141e-001, -8.68625570531489504811e-002, 2.89349032066090527948e-001, 1.61090597245714395314e-001, 2.17420064733356566133e-001, 5.05824104016037098819e-002, -3.16062608549653525913e-002, -3.91349985245732223671e-002, -1.03310025321492762740e-001, 3.70613548257655786577e-002, 4.83120938780946546781e-003, 1.70493625872154934420e-002, 5.32713412803151528663e-002, 1.61967949155260387828e-001, 1.67841276714414067150e-001, 1.08078101951074811993e-001, -1.44953110384064054461e-001, -3.57139521270790835650e-002, -3.41512246804595354099e-001, -4.07061189450870497542e-002, 9.47673612437147927512e-002, 3.76684253565904014760e-002, 7.20803808537092277620e-002, -3.52781278738754271521e-003, -1.48220126165687082764e-001, 8.86221714475468880234e-002, -5.09905543717340745125e-002, -1.53365740985720755418e-001, -1.80365250224550160985e-001, -9.03628453719425642210e-003, -3.08055360569265343496e-002, -2.58096700724736560772e-001, -1.56070727582557661206e-001, -1.34021567503948557665e-001, -2.64275718486002231256e-001, -2.81277230538959886752e-002, -1.57256871845366741347e-001, -3.16159484867106266304e-001, -8.78067250520973563432e-002, -1.12308019990356458551e-001, -9.98638908992942331277e-002, -5.41691048917430639786e-002, 2.82628140067567833194e-002, 6.08288470278602680374e-002, -1.65487871306840533814e-001, -1.67015755904085905215e-001, 1.62568438016539307256e-001, -8.24795272601438755888e-002, -2.25176561249613733234e-003, 1.20495178956470522236e-001, -6.34331842327130884795e-002, -1.37207433611757800840e-001, -2.29755121814418233894e-001, -7.49225476774694892912e-002, -1.62878100406543935286e-001, -1.24883827455455148625e-001, 1.26048669764416643169e-001, -6.93459695104127055165e-002, 2.07481178561374594860e-002, -1.08375532261994131367e-001, -8.12317347701301678553e-002, 1.06550941944025708008e-002, 5.93764423924293986354e-004, -5.78785437054087845143e-002, -1.89072390002247264773e-001, 1.67195186592768330058e-001, 3.59887906303469895519e-002, 1.61794329607263948079e-001, -2.44043078815999764375e-001, -1.93296511443245250250e-001, -2.35095533923834976164e-001, 2.26988698638443363309e-002, -1.20863376012800574633e-001, 7.16992312623893485179e-002, -1.81880858631451342022e-001, -1.35812067951472159599e-001, -2.83247971686445110251e-001, -1.72061446211743046542e-001, 6.16055217330452389857e-002, -4.86729924611470007867e-002, 5.00804952132678435350e-003, 1.54562757272578232826e-001, -1.28863910598681047359e-001, -1.14258992366204611968e-001, 1.56281911267317191738e-001, 1.94013906532070901090e-002, -1.31802936971768952512e-002, 4.91697435977964114606e-002, -1.56754974114850037514e-001, -1.37658821843942513752e-001, -1.69325102883051692437e-001, -1.19009184868427778103e-001, 3.47125080589885462445e-002, 2.07005344307721883546e-002, 5.18203246029399211547e-002, -2.03322528694365178836e-001, -4.19541054006425245815e-002, -9.66263715879494555772e-002, -1.09414395415064813477e-001, -1.55412835101770230306e-001, -6.41211973898058590349e-002, 6.58473257841925563305e-002, 9.99802365509168677882e-002, 6.92954754772031333854e-002, -1.69668763142404366295e-001, -2.28322037328340110562e-001, -2.16296514294104846865e-001, -6.81227443472872673524e-002, 5.32082871305497306924e-002, -4.51806564417400538525e-002, -1.24643208659212093026e-001, -8.24839578354823466100e-002, -4.48036367737247240295e-002, -1.84486753906541345316e-001, -1.83300490381655273309e-001, -1.52313851892787649467e-001, -1.22427981263530563649e-001, 1.38045141118004949243e-001, 3.14894912091839493384e-002, -3.21192794242216028699e-001, 8.20000348748355506467e-002, -2.04650037115904015472e-001, -9.80907863473697294587e-002, -1.15949747368154082450e-001, -3.05543368308898888319e-001, -7.52363114215547634789e-002, 3.85680753572061052470e-002, 1.10026717696447978723e-001, 8.23064868946383892956e-002, -1.28413559815766416261e-002, -4.77385007676107697705e-002, -1.37935168816828518379e-001, -7.41194966868355953338e-002, -1.55443807530276423279e-001, 1.10810393896771372524e-001, 5.88325407364481758887e-002, 5.54602329562608742375e-002, -1.43459402846131511833e-001, 3.43743299037995095335e-002, -8.50642637468368711939e-002, 3.31275836337478410409e-002, -6.43752272397137420556e-002, -2.78612954208206572981e-002, 1.41429155517426769807e-003, -9.10272154423923118838e-002, 1.30327066316825973535e-001, 6.98926537244461409948e-002, -1.48240613118167413598e-001, 5.41798996908912505743e-002, -9.07198287657917656901e-002, 2.09703859205357910633e-002, -1.34445163221969699041e-001, -2.26163424105849136803e-001, -2.49310113599952282160e-001, 6.63822178322324291111e-002, -2.54543799642711510156e-001, -1.00083324824700586886e-001, -7.83350335314350887383e-002, -1.66414582126936744233e-001, 8.00790324076845749790e-002, -3.10693824944339690164e-002, -1.00130948580823067595e-001, -3.55551708118229323197e-002, -4.55891255287849388872e-003, -1.39137336372819025998e-001, -5.65938133123150208248e-002, -2.27934638632313557594e-001, -2.27121880501229445048e-001, -2.96897297733019725763e-002, -6.95383243333666245523e-002, 2.71260958974205823591e-001, 2.84227162128647681261e-001, 2.36707033099745861593e-001, -1.19714848914022342630e-001, -1.32641430341073535137e-001, -1.32905114393978757148e-001, -9.47055439769810131212e-002, -2.98828716170524526230e-002, -2.78625668488781570720e-002, 2.80879254448138715450e-001, 1.62502400647379030563e-001, 7.84572248789702775262e-002, -7.40997684079953977676e-002, -9.47160101487695832434e-002, -2.26627536058754908144e-001, -1.44073251509630989586e-001, -1.23560246619729446893e-001, 1.65163228335711703698e-001, 1.22079499048665190974e-001, 2.61564777543802307047e-001, 6.57260098829924727104e-002, -2.09233383442031128929e-001, 4.54326803255752781352e-002, -2.99170313759425765543e-001, -2.26142254725791552739e-001, -1.74116645380738149784e-001, -1.96306941515677624288e-001, -5.61727074310876817176e-002, 2.18208131209490646674e-002, 3.97595033023412855466e-002, -1.03906247545567181900e-001, -1.48022239352655210487e-001, -2.94645195933377831987e-002, -3.71115470305076855517e-001, -2.08768352365781867386e-001, -1.10195607792975672212e-001, -1.00681092298989371264e-002, -1.86367568229142521741e-001, 2.50241373297732383474e-001, -5.34670800576290614070e-002, -9.81389697125830962054e-002, -2.31556733615238923008e-002, -5.39040969765538502401e-002, -2.10500520113426542457e-001, -1.82914472585923915116e-001, -1.47738837046978793710e-001, -4.42315885988224383185e-002, -1.02014029620188073633e-001, -1.36359087573798110071e-001, -1.17138933440561782140e-001, 5.91511992223008112313e-002, -5.07580878262728074635e-002, -2.37537244369736971761e-002, -2.03104794578349012735e-001, -6.85234718580705198798e-002, -7.05737681348859030583e-002, 1.29221201639626529639e-002, -1.26658752022588388941e-001, 2.32441344039735833804e-002, -5.88069108638315241055e-002, 6.81463751404261380840e-002, 1.94290289926681188082e-003, 9.51439173363092388636e-003, -2.56427087892220064921e-003, 2.38249618326276113578e-002, -5.28153312150958370585e-002, -5.01377416396990363556e-002, -3.12017423537166771474e-001, -7.45715220447635690482e-002, -3.55460117674573305990e-001, -2.34207383510231154089e-001, -4.06667836185360953571e-001, 1.37000322968448523531e-001, 7.90999816536646915832e-002, 2.17091981645448572902e-001, 2.23516402486339908762e-002, 7.38649590514420528731e-002, -2.36505656937353814229e-001, -3.05378924992622757806e-001, -2.43785660713478180561e-001, -2.33580076516088169791e-001, 1.18041010065259412490e-003, -1.20905524631579205930e-001, -5.16528641493075799107e-002, -9.79542500495942346228e-003, -2.04117601515318880523e-001, 1.73282073497232791404e-001, -8.48872423088810473812e-002, -3.90797146287887794958e-002, -1.77052017059639132945e-001, 2.65064601388953213768e-002, 8.34424751883939136432e-002, 8.59025235953453786264e-002, 1.20153481556427035870e-001, 2.00058141398956113033e-001, 1.87766888122167213693e-001, -3.51647392783155765539e-001, -3.34925761519251075082e-001, -2.98954010346888232608e-001, -1.75519338990118151100e-001, -1.55774622283082780916e-001, -1.31523804347262546210e-001, 1.02351970280992896067e-001, 4.90918958018110376806e-002, 2.04729037292013631155e-002, -4.24268569587911426044e-001, -3.75807711901265273369e-001, -2.00681549176432244552e-001, -1.62106551204955234846e-001, 4.22198770512211343786e-003, 3.45324371563375392968e-002, -5.03730526678023912690e-003, 1.20225142252624678241e-001, -3.94503476771637592857e-002, 3.27204575244691361902e-002, -2.67528079899352566606e-001, -1.66661609858548415142e-001, -4.23415281955616673581e-002, 8.44860093864960581822e-002, 2.30593901696360070730e-001, -1.41212403994132429386e-001, 6.45188984401500048582e-002, 3.82105968193264533550e-002, -1.78185055091552246864e-001, -2.32757881479382533474e-001, -1.72083111327041654581e-001, 4.00896941393438874940e-003, -1.41466109752675539557e-001, -2.42069997932676458929e-002, -9.12311863332159883599e-002, -1.47874153944998809607e-001, 1.19493834621546592134e-002, -1.58228212601043916052e-001, -6.81179744423936334163e-002, -9.28069962026070727212e-002, -2.48848423145339447959e-001, 6.19511729347224232578e-002, -2.71897449390349210674e-002, 1.70663571895952409507e-001, 6.90709069907998740590e-002, 5.45784630034383891339e-002, -1.30593755765484903497e-001, 5.39947953319055706789e-002, -1.85836624153480123312e-001, -2.73897818516737501238e-001, -1.48051969134773669934e-001, -1.29520771475403282530e-002, -8.85646951830036666120e-002, -3.54511113402314545495e-002, -8.92957229193805553102e-003, -2.14835424397632451798e-001, -4.98209390008998720401e-002, -1.09798800690649470124e-001, 1.96504801581604243710e-001, 2.43199834016556593053e-001, 1.43759299162664666571e-001, -1.28339226495003511097e-001, -1.16949942839238180126e-001, -1.78289160541487551326e-001, -1.04393018295814946073e-001, -2.02309311747506215262e-001, 1.21642852048373828477e-001, -1.73294364873424450169e-001, -1.52072439888441574007e-001, -1.67471564389033877873e-001, -1.67160316028652111697e-001, -4.12067037434181368538e-002, -1.45458840854892967887e-001, 1.81025043343879879498e-002, 7.97803417834420762478e-003, 3.56580889084202878880e-002, -4.16662807837874307748e-002, 1.99541934230441059261e-001, 4.80071220155220967918e-002, -3.45294812131777595354e-001, -3.63509619158041474840e-001, -2.74359523667298543792e-001, -6.07833393809715551159e-003, -2.49429551056478508719e-002, -5.13469359703182665067e-002, 1.03028177017263231074e-001, 1.03405337772086464154e-001, 2.45487659043990807950e-001, -2.52397789036329867063e-001, -3.62055481476779350558e-001, -2.16189100557690166982e-001, 1.06109897384342011240e-001, -9.70326699515504549620e-003, 3.05718156916744733531e-002, 3.69673129000587935566e-002, -1.66533068343891560437e-001, 2.51656920622171740437e-003, -1.46806350327093187991e-001, -1.15911785975270451021e-001, -2.75152921227935887138e-001, -1.99422976132570470287e-002, 2.56248752337135572710e-002, 1.32788226470764242348e-001, 1.96026592440109864723e-001, 2.19598714396265874693e-002, -4.27942881143443393244e-002, -1.25239756525992729230e-001, -2.35210875981452766093e-001, -2.65054593781820113652e-001, 6.75211519356785777601e-002, -7.71178478345713597220e-002, 1.17235107834327209608e-002, 4.31438816515092998793e-002, 8.07110912726024913588e-003, -5.16035827973555724646e-002, -9.38341815103627130412e-002, -1.03950780521230523590e-001, -1.52953512158780891017e-001, 3.95364020505145838391e-002, 2.14164613650919322119e-001, 1.35378975869615003624e-001, 1.00975125121367317882e-001, 7.41886685061925454931e-002, -9.27036863429839402828e-002, -5.03530487255230627119e-002, -2.52760862353164847405e-002, -9.14079270075089100889e-002, 5.25510616954679432578e-002, 1.68456618061113949647e-001, 1.75375097149100267480e-001, -2.58884214841820836650e-001, -1.86416024938189456295e-001, -2.20450742419205730771e-001, -1.36646203216515771395e-001, 6.82826651414785226746e-003, 3.61308901144068300715e-002, 1.02966562280312756705e-002, 1.10492837268973201348e-001, -1.57501781085484029998e-002, -1.12429273605781865353e-001, 9.59970506344490631667e-002, -1.40304367532760737580e-001, 3.94190731238458283436e-002, -2.78843271361370603767e-002, 1.08952700019578213597e-001, 1.25871856550511640460e-001, 1.82743019187890987087e-001, -1.04530501694053909456e-002, -9.22057979846128972223e-002, 1.67847822045261879133e-003, -5.12169645567435525418e-003, -2.36151222272971916816e-001, -2.41291317561397405944e-001, -1.90135631287965789493e-001, 1.74650168721185522491e-001, 1.76345693548970477993e-001, 1.40040247633092446167e-001, -3.54116359994893908913e-002, -1.85538374678774931059e-001, -1.00024888785146884307e-001, -7.71571692143325771340e-002, -2.94640710095115554434e-001, -2.17057907989951281991e-001, 2.35550698509794043112e-001, 1.16835349081557154927e-001, 1.99904306654340419014e-001, -2.64631767572307621816e-002, -4.39170665843038182663e-003, -1.32413031632111849456e-001, -1.13020437719023536527e-001, -5.87470054439491531917e-002, -8.27717008438905166301e-002, 3.07803314417227802391e-001, 2.18641671545850097003e-001, 1.13684709975191422515e-001, 1.49911825056953940116e-001, -2.04573119509314588216e-001, -9.43311727742009685505e-003, -1.35098365669026956870e-002, -4.39038629772846161758e-002, -7.46254475450396775882e-002, -4.51583303514756159713e-002, 1.74699445481555915016e-001, 7.45357590370106237732e-003, 1.04337114515433232453e-001, 6.60871111814076983570e-002, 5.07226215646844544316e-002, -3.63710172273251780561e-002, -3.86720398747203986112e-002, 1.96946515228968409283e-002, 9.51516909954718687059e-003, 7.89817774785466220067e-002, 1.35345546514985093367e-001, -9.58232159172919678580e-002, 6.11216435986537687253e-002, -1.12513320990463183691e-001, -1.63247393154170278295e-001, -1.43405866016779008631e-002, -1.01483772114446854640e-001, -3.13411256439273012975e-003, -1.39564993951789648868e-002, 2.34823745940374202512e-002, -1.18420661478871258598e-001, -5.40759556636036461952e-002, -1.71671609267369351670e-001, -2.39749523017190324659e-001, 1.40600355416481102855e-002, -6.33770984975952356155e-002, -9.15012910603508599489e-004, 2.24497191223224701329e-001, 7.37239428706354255061e-002, -1.50431465662580005072e-001, -1.33596013657527046270e-001, 1.88920174994322434894e-003, -1.86912421494828367985e-001, -1.49275487306257725884e-001, 1.96288285815358967690e-002, -2.70785226639332632370e-002, 3.86327372159195603363e-002, 3.96779817266213682969e-002, -1.04781562502245559343e-001, -1.72388630781377893975e-001, 4.78080903062937864756e-002, 9.13762356286411392414e-002, -2.05294849663721384880e-001, -4.11681953172959233522e-002, 1.71719765652074002338e-001, -2.03200195824743135020e-002, 1.51645614413993101710e-001, -1.22310274999862036993e-001, -1.41508268184150437508e-001, -1.01929357679271775927e-001, -9.43624767525308716376e-002, -1.55147841525964530485e-001, -5.28271633762253042810e-002, 1.00252293121337793247e-001, 8.23313211421523305500e-002, 1.63589606105779356016e-001, -4.96093343542138714986e-002, -5.41891485284502899544e-002, 8.13722697581569925918e-002, -3.05706484410532552953e-003, -1.69072664947908790634e-001, -7.67038908934321167488e-002, 9.93861798441340316135e-002, 1.46484406296718688845e-001, 1.34740592604102121799e-001, 1.49097605336201977089e-001, 1.06095895245652604988e-001, 8.73351740650397390109e-002, 3.79022449009724362798e-003, -6.06134385691895483106e-002, -2.09310422931040795991e-001, -3.48859652684571225345e-002, 1.08188144555185591922e-001, 7.83480112066262668336e-002, 1.13548577964654257011e-001, 1.99027902599542172446e-001, 5.28695990640031532326e-002, -1.01043497805918761762e-002, -5.34263288823563983754e-002, -1.08934622899491240222e-001, 7.49723554406258874128e-002, -4.61020201873717574981e-002, 2.17275942450870680756e-002, -1.43026414629362247366e-001, -4.81028542432151359765e-002, -5.60538697896246981833e-002, -1.87107316990336225437e-001, 4.36232466386655276525e-002, -8.67334216762349063945e-002, -3.25730294743137305247e-003, 5.12524134345934898049e-002, 1.34757048125791312199e-001, -1.57859757897708286034e-001, -3.06742561341855068946e-001, -6.61506609847091198162e-002, -1.04665903861392753371e-001, 4.69231157092627956806e-002, -5.25409219099035595946e-002, 1.35939515738247897192e-002, 1.87319584798538940618e-001, 2.17573881336098562400e-001, 1.56379337864826495341e-002, -2.47357071705973513565e-001, -1.40227504263978151183e-002, -1.28264945558120985192e-001, 1.96432670992232778773e-002, -1.61878701968294208546e-001, 6.47007878025508548214e-002, -2.91693930561781472610e-002, 2.15946587309147786105e-001, -1.27571596253383129360e-001, -4.62303949841330399928e-002, 2.89042701577022359549e-002, -5.45272008868506394275e-002, -2.33488532481285508344e-003, 3.87026631477328728059e-002, 2.20299321477376242040e-001, 1.89225730955393273147e-001, 1.19463315700061134539e-001, -4.46168317222828736401e-001, -1.11652717263218612120e-001, -4.45157156851241700424e-002, -1.11379868255380320985e-001, -2.12197038073821786508e-001, -4.78263468884500067557e-002, 1.27167332682953021505e-001, 8.48241884578383731341e-002, 1.41318027338674961912e-001, -6.27002004049091871130e-002, -1.10831975789606809735e-001, -2.06129076900665231253e-001, -4.44315266170375380850e-002, -9.72560681906711882450e-002, -4.53157519025382399258e-002, 2.24230226786890612933e-001, 6.06147968808905535099e-002, 1.47646683443257598078e-001, -1.07687471396312781091e-001, -2.14372426709101143727e-001, -3.79508735665941288051e-002, -2.39282774039365625507e-001, -8.33713676671667541784e-002, -7.59539640853562625367e-002, 1.48231344168426992097e-002, 6.48924213176114705881e-002, 1.41842148603329915035e-001, -1.84140967171960989734e-001, -1.18204097651249770418e-001, -1.16309585519499103512e-001, -1.04295306046805341671e-001, -1.57751443934121798884e-001, -2.17494798139966499795e-001, 1.04149944873319716399e-001, 1.38819492185047993482e-001, 2.28535336872253524998e-001, -3.21323171290299358649e-001, -1.71769266380828872220e-001, -6.63667163046390007342e-002, 5.73026642289903090366e-002, -6.96506521255036425977e-002, -9.71850884263042447131e-002, 2.02268584912955295962e-001, 2.44847244750061754370e-001, 1.33509570484077411123e-001, -1.45859861610226210216e-001, -3.38492330650611961129e-001, -3.35015513875572101821e-001, -1.30965399208592125913e-001, -8.15036463697612484358e-002, -1.22213505184185652896e-001, 9.80904615397433926605e-002, 7.58250094137530167293e-002, -1.89586883284920560550e-003, -9.63370608806826539405e-002, -2.74506628840259225832e-001, -1.18453383988113475356e-001, -1.19986927387794137245e-001, -4.85630643736414471801e-002, 7.28523895473894879393e-003, 6.63710095194533777896e-002, 6.15147379518309542212e-002, 9.45281959666600390957e-002, -1.36002851033700550287e-001, -2.32101926473734343492e-001, -1.89330891820229635369e-001, -1.09522214110338543536e-002, -8.61619401903849363444e-002, -1.96961348620746684590e-001, 5.46648894820481526247e-002, 1.00382094568299232162e-001, 9.51255163330325947957e-002, -2.28743304090666087214e-002, 6.43967534058725032953e-002, 4.13506706101829518696e-002, -2.41187023708895664775e-001, -6.57440314377087525743e-002, -1.61783688686426035952e-001, 2.76902802773541234505e-001, 2.41087846207873296445e-001, 2.68982359220966832369e-002, -2.08222135394714236156e-001, 5.66774932180265887671e-003, 1.93531829108271796747e-001, -1.77672506538274460608e-001, -3.09689538407308229129e-001, -1.60617941247019335727e-001, 2.55193025845456555878e-001, 1.60357367745142920246e-001, 2.79404788547752025440e-001, -3.42025713769381622953e-001, -2.42550010684104200287e-001, -2.35945446135634090412e-001, -1.08475420464173674673e-001, -9.34099185349370059184e-002, -3.31042133491479040330e-001, 2.13987601508152491814e-001, 9.25090423358603530790e-002, 1.08276226747605203160e-001, -2.26718260742832355970e-001, -3.21571445879930584155e-001, -1.96735275462793596235e-001, -1.42798495113338003160e-001, -1.66152982427861389825e-001, -4.74704142422295971571e-001, 1.18606223935721816209e-001, 1.33948592255427822995e-001, 1.28582077553158702354e-001, -3.72858989828594111771e-001, -3.83869050438183589957e-001, -3.24685369750246477505e-001, -3.54059669839218604803e-001, -2.62807106067995566168e-001, -2.06818874865370955218e-001, 1.60231198211321146374e-001, 8.08646696129788761231e-002, 9.75645926032667754058e-002, -1.27036932406391217532e-001, -3.18299217783976962082e-001, -1.01487463354576465391e-001, 1.02849510110927973294e-002, 7.42286058666229570102e-002, 1.05521634404500019855e-001, 7.81268345497456856430e-002, 2.30821062996091966313e-002, 3.68419464253310763313e-002, -2.13710817051697143931e-001, 1.05809907392901518530e-002, -2.67048535579603396606e-001, 3.43924094471491845204e-002, 4.88759893360074387791e-002, 6.29081673590363571469e-002, 1.08640188649898689066e-001, 3.96381295410827616532e-001, 2.78274888974803069619e-001, -1.80588142049488697971e-001, 2.18877894953989682314e-001, 2.64374761348684650386e-001, -3.24938538622406902778e-001, -2.32812941119555694147e-001, -3.95448406808643293520e-001, 3.61822303422202173895e-001, 3.72004823721579225282e-001, 1.49551811908099990811e-001, -1.80520844785670916965e-002, -1.22049255670318157474e-001, -1.54359889627702986936e-002, -2.67720337902638605421e-001, -4.86079884152191277202e-002, -8.57240486047460420460e-002, 1.23229357729575911273e-001, -4.29770997354935076207e-003, 1.62493353517097871563e-001, 1.53170737920819616251e-001, -3.22446748538434829756e-002, -1.08889605561396624056e-001, -6.42888553206952401142e-002, 1.42813099927229930630e-002, 1.47500634467230508015e-003, -1.66405783475674473593e-001, -1.39690873490069783491e-001, 1.12208726430077926350e-001, 1.76838871509553047234e-001, 1.28775556812109198690e-001, -9.00862374480216193673e-002, 3.36853202381421287792e-002, 3.04738694302488545562e-002, -9.12231704313068436640e-002, -3.10760649189358376110e-002, 2.21561184716683595708e-001, -3.76324179230728347867e-002, 6.70763048615238277605e-002, 4.29520676047538269016e-002, 2.88591530992410805201e-001, 1.07293733126166454528e-001, -2.62222202495033751557e-001, 4.64925726203441538886e-002, 1.60361699015614200814e-001, 7.75976209317403575749e-002, 1.50475781340692810195e-001, 5.43692410993441788136e-001, 4.34828790008995436089e-001, -2.61817144663920531311e-001, 6.81047664327481122593e-002, 7.93481582599201568096e-002, 1.95260755216160097891e-001, 2.27781884330307993203e-001, 2.41124458802885494046e-001, 2.45690722417054391302e-001, 4.29400276141500891747e-001, 1.16415812585781611177e-001, 1.03964419785203474045e-001, 2.02783728859287859514e-001, 1.10813568028717654435e-001, 1.26819660706881193191e-001, 1.30838300695523906958e-001, 1.77490001591734281039e-001, 2.68932090669232626290e-001, -1.58139502464225090161e-001, 1.42847466380529780627e-001, -9.64586055276894088761e-002, 1.59635138904323375941e-001, 9.21772903825752026874e-002, 1.95446214242094545854e-001, 3.79004728201499274665e-001, 2.09975021170652614844e-001, 3.40809972580560782696e-001, -2.29015166685612198139e-001, -2.48501968564785701010e-002, -2.30232766807713686019e-003, 7.33771315135545720842e-002, 1.55592946148206068280e-001, 3.41978813546703896975e-002, 1.71563225948963754552e-001, 2.04785392032401675211e-001, 1.77238686869837652749e-001, -4.76985620856163972103e-001, -2.66891166058796702742e-001, -1.58529116375590001242e-001, -1.99553623538710304952e-003, 1.09270277645214256013e-001, -4.08459136048345411441e-002, 1.84643140539327232919e-001, 7.02540821855192898493e-002, 2.36273882385104688764e-001, -1.19401128159619354663e-001, 5.13130908864834964223e-002, 4.14154078824353275023e-002, 7.80229746963967268902e-002, -1.44679536024913513170e-001, 8.58938062777904742795e-002, 4.55865237586420418703e-002, 2.43867480366873362607e-001, 3.46086186010449159411e-001, 2.24724741930829030601e-001, -5.07375557312903791018e-002, -8.99553309444867665867e-002, 3.63331665667587511148e-002, 1.41511018648523279051e-001, 9.44367258125810016267e-002, 1.13982248542278660763e-001, 1.08219588879673062065e-001, 1.31026311559373082050e-002, -9.96564357052494992351e-002, -1.61158776006501441858e-001, 3.28672820115848487998e-002, 1.60696881203831257179e-002, 1.30363511879237996272e-002, -2.36374255187291812397e-002, 4.94122952188411346253e-002, 1.72043931530053650913e-001, 7.95420809160871794541e-003, 7.21573496081572146599e-002, -5.82756244021252617360e-002, 6.78400492765558332797e-002, 5.08615052950873655635e-003, 8.06419101806452182091e-002, 4.47856109263905025064e-002, 1.80268239177106076587e-001, 2.56438645820864785652e-001, 3.24947864096314487092e-001, -3.03194547732857144773e-001, -1.08482127960167845648e-001, -1.08999852615482117901e-001, 7.98327700066701340109e-002, 6.13009814382586629145e-002, 1.12518216562918674239e-001, 4.13965175280710695471e-001, 4.53903358854130078992e-001, 3.36000384172387644988e-001, 3.64312817109253145320e-002, -8.43818797313313773145e-002, -2.88223452533424157052e-002, 7.84625415589389751947e-002, 1.04322752653461137129e-001, 1.23751679661330535320e-001, 1.38189762258297876851e-001, 1.56330526712236211884e-001, 4.17964591313636224523e-001, 3.76798465573424806729e-002, 1.79978383511025484542e-002, 2.12124352334198511272e-002, 1.70472144191759017451e-001, 1.25701071643809197953e-001, -2.13161001704012314714e-003, 1.04087463982362848913e-001, 3.09110843927653311525e-001, 3.83412718575127264842e-001, -2.89600282451019166996e-002, -2.41484782376386875047e-001, -7.72783153646276477211e-002, 1.42975823349353492464e-001, 2.42037873260017438737e-001, 1.14490686210895892261e-001, 2.93376648063364442454e-001, 1.46830679971214107804e-002, 8.05032853100630246823e-002, 1.52057013358027959260e-001, 1.98997649607694254703e-001, 4.21946755547767948791e-001, 1.01207212898862183859e-001, 6.24240935853570752534e-002, 2.44863936331686682379e-001, 3.31254823166658607381e-001, 2.53768150372686851490e-001, 2.20479217734888155444e-001, 3.35212500413560932078e-001, 3.20719962534759261974e-001, 3.76251517391354983744e-001, -8.09681132020948074457e-002, 1.10258267649082183914e-001, -7.49666273890815110237e-002, 6.20750419722636559428e-002, 3.01710157329834915974e-001, 2.22859103392355317741e-001, 1.25118285203210777290e-001, 1.00027509784729351505e-001, 1.23624687920734915858e-001, 2.42482847400692480555e-001, -4.61923335284662520128e-002, -1.03510817905237320624e-001, 3.25206866096355073914e-001, 1.90224914927309696200e-001, 1.70190329596060008210e-001, 1.16715890173085770631e-001, 3.44076136514964853186e-002, -5.34964363484171506746e-003, 7.78261607451333735364e-005, -1.38368249568686541018e-001, 1.96760639894666022887e-001, -1.77186585230925501555e-002, 2.94953345027249680399e-001, 8.99791763475942252271e-002, 1.07174147635844888016e-001, -8.10495903527942290756e-002, -4.10216164584698561590e-002, 1.05741134808053457994e-001, 3.00116383549676735143e-001, 2.42237763999330141251e-001, 2.14494697472854767284e-001, 2.35530351231054979610e-001, 3.11259683219360427930e-001, 6.44206112706459527173e-002, -2.22675229034123983718e-001, -5.72993822326133828149e-002, 1.03142375587034221263e-001, -6.48488554089161617355e-002, -1.20960318135669250839e-001, 1.82020480811185436654e-001, 2.85899558935983622021e-001, 2.31534136444762145279e-001, -1.01540346777050372040e-001, -4.44425258642433818057e-002, -8.35351543333421979465e-003, 2.44490102124051339461e-001, 2.83744000095649928639e-001, 1.23319648332423648096e-001, 3.29535992443541370100e-001, 2.38534560259137357052e-001, 3.78756305853319430454e-001, -3.06034976723929097453e-001, -7.87495470232615762951e-002, -2.88274076505095955270e-001, -7.19620152365248871851e-003, -6.07975193313165483688e-003, 5.79112118997388534980e-003, 2.67472587125128502539e-001, 2.38557049605492288435e-001, 1.99599335407504047124e-001, -1.43442331790310489970e-001, -2.60338188381212476408e-001, -9.09793737058606638568e-002, -6.93042268109197914100e-003, 2.22143686176287574741e-001, -7.99027025323097717102e-002, 3.11890563394226827398e-001, 1.60447814430827728760e-001, 5.56534821024918469057e-001, 6.18205908747933435832e-002, -6.91718546131548928102e-002, -1.03596949663946752418e-001, -1.64547315450138120774e-002, 2.81526219522024778730e-001, 1.46001230672449439085e-001, 4.25481104269236742876e-001, 4.12222815568490774663e-001, 3.62634749202203732210e-001, -1.38718143257564763271e-001, -5.68833286594735837438e-002, 2.51276294440892944415e-001, 3.40477773922961746145e-001, 6.37520322897291991104e-002, -2.97364496262725666598e-002, 2.11116319305030913922e-001, 1.42951761009262684476e-001, 1.33759655767087398681e-001, -1.97134382058396923076e-001, 1.48378544296235703737e-001, 7.42072798275896228226e-002, 2.03214752867958481364e-001, 1.03602872397673670402e-001, -5.83398698294458339930e-002, 1.19780231788537243343e-002, 1.54972236211373820547e-001, -4.42678055791527469420e-003, -2.64831002132191406506e-001, -2.48765687622780534705e-001, -3.74143831096852175211e-001, -8.35822821374358482238e-002, 4.04276618081793256976e-002, 9.34556438831114638655e-002, 2.31203554569672675711e-001, 1.64439187548259868610e-001, 5.61909284454531754438e-002, 2.28733996691371205268e-001, -5.46298974700132611293e-002, 1.96506687323062423367e-001, 1.52402914252774357440e-001, 9.97129542928099632526e-002, 1.77133061169321426309e-001, 4.35113876290398438051e-001, 9.79657165382341321713e-002, 2.81550711477383253101e-001, -1.80870220792541919197e-001, -1.80413320534297150211e-001, -2.86261160537849335128e-001, -1.54001304830474833318e-001, 7.94358083325165942323e-002, -1.26802283005149341033e-001, 3.29399825624521469525e-001, 1.65662882884772683090e-001, 1.05329120728644906602e-001, 9.92563442526043643310e-002, -1.95427506629157754503e-001, 1.11967429218087388687e-001, -1.53549855788624373121e-001, -3.42150038808875026075e-002, -5.82912438142896283111e-002, 1.05418832240437680692e-002, 2.61482276892630760567e-001, 1.01202983572416915781e-001, -1.60492780027546938504e-001, 1.29005180355082849086e-001, 1.65308500920880341312e-001, 1.17216599795249454274e-001, -6.02436774139957983976e-002, -9.07669770999194325256e-002, 1.67439732888764541974e-001, 6.76017949296024850403e-002, 1.05476552072306078989e-001, -2.58667922773392733315e-001, -3.19606251805790497755e-001, -9.89344755850067869574e-002, -4.01217349629114233833e-002, 4.82909202775459039936e-002, -7.85357279084653164825e-002, 2.33289326591085310891e-001, 3.25700672892680676007e-001, 4.12307387698734428838e-001, -1.14430932346737568306e-001, -1.36432472827668876958e-001, -9.29051751101006156874e-002, -2.33961934311377572904e-001, -1.47386783627135309338e-001, -3.65987155625628335365e-001, 3.64810654877368856219e-001, 3.15391557805534628045e-001, 3.41419167541258949949e-001, -3.00355066023818229048e-001, -9.37949524727880040720e-002, -1.06633437546376177996e-001, -6.75465822963786932664e-002, -1.82100422727921262833e-001, 1.14246306934402144795e-001, 3.12747595670601785667e-001, 2.59357793582828885515e-002, -9.05315851009817207373e-002, -1.80480463786797218351e-001, 3.67905517502523163320e-002, -9.84362835148344106351e-002, 2.13219199243848828162e-001, 3.72634602003139248083e-001, 2.99357706708835213938e-001, 6.87854149787026497576e-002, 7.16241792636073543177e-002, -5.39712054818956843416e-002, -1.03131069745628412004e-001, 1.64733965616524674624e-001, -7.49578863704041253868e-002, 2.62342886142344688949e-001, 2.30924641562575694298e-001, 1.50811662137269403283e-001, 2.55984112220675489799e-003, 1.04127163770382405450e-001, 1.30656272203246687225e-001, -2.42534382947720596191e-002, 1.20459058559403822675e-001, -2.25721851603848611134e-001, 2.32701331985733755880e-001, 1.96206869187399768339e-001, 2.43114720529679889660e-001, 4.91697119501502584449e-003, -2.71026916387349485482e-002, 7.79293583601214055745e-003, -9.53581380701903624786e-002, -1.34990216222828807169e-001, -1.62808531072045820087e-001, 1.04129822933887311587e-001, 1.66301701557486136807e-001, 1.98299109735785211717e-001, -1.99496750166685193895e-001, -2.13141449892939954802e-001, -1.75665151183584611339e-001, 4.14307927098265908750e-003, -4.09131701093702962457e-002, -1.15422795832204300170e-001, 2.17641204596901505219e-001, 3.28050991590603024939e-001, 2.16742387755086696188e-001, -3.55221266197082052862e-001, -6.32858243529123287718e-002, -2.42923882922943951135e-001, -2.31515062714257660592e-002, -1.16156232439518641852e-001, -5.07577548037803430447e-002, 3.65308005509286604084e-001, 1.23670611157439880312e-001, 2.74027468620330949545e-001, -1.84226005977431189775e-001, -1.04950100921055194947e-001, -2.00853566066873212570e-001, -1.67582143844029363144e-001, -1.58359075798354925757e-001, -6.05651557271642999869e-003, 2.54296613447427599652e-001, 1.53983705717869123752e-001, 3.01576289958717158601e-001, -1.46605746652026608379e-001, -2.55121946024923329510e-001, -1.91202968049180466181e-001, 5.91081114295543066928e-002, -2.23122853322843678336e-002, -2.85249417482339562291e-001, 1.96686255123657255384e-001, 1.46015962963579520872e-001, 2.42227782633297389348e-001, -1.07959243886031508453e-001, -2.22658269663290914187e-001, -8.64655450611321041432e-002, 1.29820566636276668593e-001, 1.63728664969694071019e-001, 8.07882537502676717489e-002, 2.59667876796374541559e-001, 1.41737126977221461477e-001, 2.79169465753581313994e-001, -1.70162855366331688955e-001, -2.24214265068888689292e-002, -6.28068341347990666268e-002, -1.30866354382842657589e-002, 1.38469351680429481055e-001, 1.38363012763545983885e-001, 2.14481649337797730670e-001, 1.50038111153377867746e-001, 1.59720131956131938811e-001, -3.84260590871288165715e-002, -2.88115313510183927714e-002, 1.75229033428963773544e-002, 1.83719308444523138357e-001, -6.54594675604743686526e-002, -6.56464408627885492864e-002, 3.23322437929353181940e-002, 1.06031834982393671774e-001, -1.72941004972181830435e-002, -1.96999152811981603772e-001, -1.87043447943333829286e-001, -3.47680010082101975666e-001, -1.07244034018096415228e-001, -2.00459215348028796377e-001, -2.67109027381795052780e-002, 4.30500198620165502872e-002, 2.42598202983148991674e-001, 2.15862655083253168753e-001, -2.79849760903652489130e-001, -7.80042691547954414322e-002, -1.42359047888075046506e-001, -3.58991428176785431353e-003, -3.42560611825443867007e-002, -1.93931175476931873247e-002, 2.82624294628039396393e-002, 4.58854770629627609080e-002, 9.65337682090312981797e-002, -1.03949446206232920531e-001, -5.51358065602243277437e-002, 2.74849533772668734588e-002, 1.16511720203555949049e-001, -1.73239257574884758517e-001, -1.53279239083500495866e-001, 1.66698276858393903965e-002, 1.99272585557655784738e-001, 6.23428247138547997341e-002, -6.28906907308592610928e-002, -3.12692161241852478737e-002, -1.62763265212030522333e-001, -9.58134967806333059936e-002, -6.22300325636250123429e-002, 2.88018615139629986788e-002, 1.27869017205992890895e-001, 2.92840970687521851001e-001, 3.09782393318727533593e-001, -2.32869570484637911090e-001, -3.18856804098697266259e-001, -6.11338057348397925783e-002, 2.97598442547403162217e-002, -6.46307605683993369183e-002, -9.78610555215407990071e-002, 1.85069887799355237146e-001, 7.59682575603212173476e-002, 2.82742256160572191792e-001, -9.21807882722141397336e-002, -6.88895074540434720900e-002, -2.99567979131750844468e-002, -6.24906881085954823973e-002, -2.72871468673565910346e-002, -1.99690410115653971257e-001, 9.95148120063596430818e-002, 3.19073470592145302938e-001, 3.00639602612207679222e-001, -3.93200530082274332666e-002, 6.17336808670337772176e-002, 5.37211092075713936289e-002, -4.06898950804478326537e-002, -2.75089581858684734117e-002, 8.88607299813446230297e-003, 2.22926877298086550949e-001, 1.79256012072057657747e-001, 1.97201230589175963148e-001, -1.13277855469624127993e-001, 9.60660680776265554770e-003, -7.91349564233849306349e-002, 1.49286107296985853798e-001, 8.47097739782343983617e-002, 1.46430259217384506343e-001, 1.91171612932626910908e-001, 1.89354670276964037745e-001, 2.14153149022441799398e-002, -7.02887990158883174674e-002, -1.04582138074824235185e-001, 4.25131808834451341284e-002, 1.07375480164113884518e-001, -8.89998467255234855522e-003, 4.53524919649794591714e-002, 2.29750892916938231902e-001, 1.41925280408130155552e-001, 1.93517099590924418484e-001, 1.17119369895005709381e-002, -1.29895940805339865642e-001, -6.28492565673705316787e-002, 1.01438130035901311055e-001, -1.20822179960662322296e-002, -1.43759105866835528581e-002, 7.24957583219239254380e-002, 4.90103333968822871269e-002, 1.91917803078557214214e-001, -3.16227087705986537047e-002, -3.74795266818876704473e-002, -5.25946922781160564053e-002, 1.01405903730931667983e-001, 1.24308103750075227278e-001, 3.65638594000292291297e-002, 1.49958636276687651279e-001, 1.58644901183310205184e-001, 1.63419608401626781369e-001, -1.94955653948289675537e-001, -1.86640606267328423851e-001, -6.25098532178968435691e-002, 3.60431869283931380354e-002, 1.34963576105284338569e-001, 1.86546855725697596773e-001, 2.74741694430912064551e-001, 7.95567779219713833161e-002, 2.19350465278794343194e-001, 2.64879959649388192419e-003, -2.67738408475821296206e-002, -1.57971354388782736500e-001, 2.11931611256444801805e-001, 8.85762016147098735219e-002, 2.36462087806400267365e-001, 2.16903276671611883186e-001, 1.85439487199823394015e-001, 2.58470749434459967642e-001, 1.76082971383481369509e-002, -7.23334548328634918679e-002, -2.14979546175335350933e-001, -1.54529596904781851840e-001, 8.89148485630371181176e-003, -3.73602207759856958132e-004, 3.16625935661593638226e-001, 3.18110333623526364555e-001, 2.60741473340196316943e-001, -1.69811226816336841017e-001, -2.49333931397438368638e-001, -9.37404523949113693826e-002, -8.15855995289927471426e-002, -9.19982130259238695125e-002, -1.61172623886571941831e-001, 2.87406504033127507824e-001, 1.65829431043279740265e-001, 1.52458982226027578433e-001, -2.10388107670289925544e-001, -1.45709917830662366578e-001, -2.15448088487276728786e-001, 4.40942558608570719936e-002, -3.51235084961199761633e-001, -8.81807611610048586170e-002, 2.08401558085703014767e-001, 1.33904991770243952942e-001, 2.43027081513048581751e-001, -2.14511102323871993836e-001, -1.04858538109098176072e-001, -2.05957987194133135267e-001, 6.95124063508273243306e-002, -8.91524511183631844513e-003, 6.49921035682922143550e-002, 4.37162608091667265198e-002, 2.39647088027784782582e-001, 1.37697567417896515884e-001, -5.10736964772795232204e-002, -2.22705568137728820988e-001, -1.70573527839026906072e-001, 1.04378723116858238007e-001, 1.27642949891870027823e-001, -4.62787791201436995991e-002, 4.14531830277042601107e-002, 3.65604541638170743578e-001, 5.97765249052742628222e-002, -9.64301819282082223195e-002, -2.68517625475787002909e-001, 5.28311829007697963956e-002, 2.20751208165733764366e-001, 1.46746911683818509475e-001, 1.22702419953926791796e-001, 3.09598707701521869140e-001, 4.75987972508104748015e-002, -3.81819618565980081759e-002, 2.12581772576487804116e-002, -2.02464407423203901493e-001, -1.87202057197116966680e-001, 1.70433956329626767889e-001, 6.73828836065043373926e-002, 1.70765652629026820630e-001, 1.97227763411856910070e-001, 1.59312144229424440534e-001, 3.57833891215600996549e-001, -1.50734615518343856300e-001, -7.51905944187140212742e-002, -2.70525090866165440762e-001, 1.52175920616996501744e-001, 7.72539797228435909382e-002, -2.91391204608423132205e-002, 1.83092492121895294988e-001, 1.67158900783016123315e-001, 3.81791250952504546134e-001, -2.25348345720143228288e-001, -1.01797352788233347320e-001, -2.67149890817454105374e-001, 1.34672594252768063061e-001, 1.24368542153819629237e-002, 4.02067274639276925341e-002, 1.62096934592612207382e-001, 9.87610268055916923347e-002, 1.98134622292164136459e-001, -1.56744889657283253959e-001, -1.81915543665489537473e-001, -3.07472949242088400279e-001, -1.11926730923322635680e-002, 8.53457707204668403200e-002, 5.82858351340698674359e-002, 2.75273459167576672879e-001, 2.70457523027857693609e-001, 3.12894687512191571610e-001, 7.07955912320236829816e-002, -8.39469396638056197801e-002, 1.30797894926994451303e-001, 1.17569865127461039081e-003, 1.29526038840290347309e-001, 3.13402188484934805367e-004, 1.09693725127139415920e-001, 1.04283818652425017137e-001, 2.96392471915150834683e-001, 2.28403118112554745500e-002, 6.57242301389698579950e-002, -1.50512173125787601657e-001, -8.00656102316000539698e-002, 2.79416112169216454553e-002, 3.71846697017559485454e-002, 2.07563521291525832080e-001, 2.46746455778989209895e-001, 1.17441876991423027610e-001, -1.21264379962529769696e-001, -2.51759707463883077028e-002, -1.18267156556128655298e-001, 1.09691051567038191927e-001, 3.25692380246408119682e-001, 2.65698678378998576211e-001, 1.00494945071132657510e-001, 3.56112029303618515819e-001, 2.21252345655001125824e-001, -1.59687680108552443325e-001, -1.39282055967315576694e-001, -2.04722331120011508121e-001, 1.79592513270045939233e-001, 3.79831789788874149560e-002, 1.14714634182490077957e-002, 8.84545951506446465062e-002, 4.49787600678066973314e-002, 2.26155459349745846520e-001, -1.30614978463595765579e-001, -1.46907614261754693175e-001, -2.60121685360736765169e-001, 1.46615702768461614314e-001, 1.30414666434895715197e-001, 1.32584790298686305832e-001, 1.20277477209744122072e-002, 4.79752503267958860245e-002, 2.50919954197068549584e-002, -1.40770934068948222473e-001, -6.36568555435314542557e-002, -2.74156999355896602300e-001, 1.78250364868669242124e-002, 1.42421379037042633575e-001, 4.38746698606561971734e-002, 1.86506008893544517058e-001, 4.52333942327490202626e-004, 1.30966244731282210889e-001, -6.90076463093092784540e-002, -8.35841742816191141108e-002, -1.87470062954841393266e-001, 2.20116724059182256035e-001, 2.33051430918062268960e-001, 1.29550680992870960451e-002, 2.51126853095027767482e-002, 1.17182490805988789861e-001, 3.04015932588003051640e-002, -2.31345727299617692774e-001, -3.80993173291441444839e-001, -2.92376358390631418960e-001, 1.77392906808507139216e-001, 2.29704604769396664166e-001, 1.06941257999185745931e-001, 1.18672406189971255119e-001, 7.56650215876050608044e-002, 1.49922081299568743518e-001, -9.02782791339388990259e-001, -9.27099457626302803082e-002, 4.82127671521795975185e-001, 5.12220385784490361836e-001, -6.60537567841193329343e-001, -3.67343972079624048188e-001, 2.70725856413299770242e-001, 2.31759236942289448269e-001, 1.07782366684545469898e-002, 6.34361803503833421303e-001, -7.37067612251846804305e-001, -1.15191015290127637960e-001, -1.63765420593721261477e-001, -2.01696449335252263324e-002, 1.54782870512676296038e+000, -3.32198724078311913299e-001, -6.58842444915426872498e-001, 5.28189261966581780072e-001, 3.50419816933276895288e-001, 4.01257172503413805931e-001, -1.72617347205122628750e+000, -3.87546444318081981240e-002, -3.51750530807545203071e-001, -6.43375712571856772648e-001, -1.76571027850224077094e-001, -6.66547235030698126401e-001, 9.74949825540798564738e-001, -1.62025955526120701844e-001, -4.36622575796940415316e-001, -1.62911429334067991981e-001, -3.22596579662805083011e-001, 3.38233303967145515490e-001, 5.56590507141502266464e-002, -1.18623242857131461214e+000, -5.16351351949337789016e-001, 5.14515919890297657169e-001, 1.70565586574698158095e+000, 7.83719667108272899370e-001, -3.50613637183444445955e-002, 8.57985278084304192614e-005, 6.09249511448266334313e-001, -2.10750248705722731390e-001, -8.17712461417769098659e-001, -1.73748541184038901575e-001, -5.32806072474143688211e-001, 1.50203258153764118710e+000, -1.22524499527214239536e-001, 4.31448169647855483966e-001, 3.15597179543037564819e-001, 5.53955922053945615247e-001, 1.28653670452203439112e-001, 6.86466302725071697566e-001, -2.63012605453865344618e-001, -4.25501003278629219562e-001, 3.21366661737056049514e-003, 4.12168881728903514772e-004, -1.00402531545078788078e+000, 1.34397067146867832399e-001, 4.66238353488252418866e-002, -4.84890260457091437640e-001, -3.77715006069091918661e-001, 1.13692390375410290471e-001, 1.00765492840895559690e-001, 6.01981834676211691182e-001, -1.07214199759391815014e+000, -4.03700265945130601364e-002, -1.47191929561646478453e-001, -1.24023363207076367520e-001, -9.25378498591109988070e-001, -1.72674989239282677955e-001, -5.97576571397192446433e-001, 2.29612889595510016871e-001, -1.91133109079182246515e-003, 4.24975157082017274135e-001, 2.38452314620796940181e-001, -1.46856073265749786927e-001, -1.11244459925808958367e+000, -3.66648579640740823749e-001, -2.19122427753366516567e-001, -1.09388998730754249955e-001, -1.86988404197899416026e-001, -2.75345744179355589321e-001, -1.06936177157591738585e-001, -1.04901089344941200743e+000, -8.46340813595684859916e-003, 5.89100475774646248350e-002, -6.80195215884778048299e-001, 4.39912652956051086761e-001, 5.32472722557774003072e-001, -1.34127014128366195411e-001, 4.72812920861630570091e-001, -5.05056336398404637222e-001, -6.57023822667425649868e-001, -2.76091158824803728500e-001, -1.81100394437675255022e-001, -4.34419794803520664672e-001, -4.45927282567465554930e-001, 6.57303168737902399066e-001, -1.44065449464570866089e-001, -1.18964089925923735547e-001, -7.99670384122374844349e-002, -3.98477273856548686037e-002, -2.66841455771992641655e-001, 1.22911285192856789550e+000, -1.35976036787341571926e-002, -2.59287791959193769653e-001, 3.47835758306157205588e-001, -2.15843475901489473268e-001, -3.47574991777148789573e-001, -4.44048199517244890355e-001, 4.41999059357469969989e-001, -5.16184438357983887968e-001, -4.55700833758929252371e-002, -2.21697925963922487513e-001, 9.21048886463269544933e-001, -2.92353613497827180545e-001, 2.39829284408805437634e-001, -6.37726163160785342043e-001, -8.44444718563790303056e-002, 2.89407637294400943428e-001, 3.36638805567288090792e-001, -1.91842801130614831751e-001, 1.28503732931824505431e-002, -2.99405368946106142936e-001, -7.87057028334700657483e-004, 1.46222687868151873802e-001, 5.77942567587729438827e-001, -3.36182922424718089172e-001, 1.03212152392028772008e-001, 1.03132203643444123053e-001, -5.74137479918233939458e-001, 8.49931861953123646281e-001, 1.15075704679910448269e-001, 2.87012323756668852326e-001, -1.94820117467569803305e-001, -1.26188234291144979471e-001, 2.56603281817539219389e+000, 9.16165756756617960521e-002, -2.44004792480676080402e-001, 2.26819825997635199366e-001, 1.85782400043038059545e-001, 2.35842088514026104740e-001, -3.37415494776657276521e-001, -1.74997524878512840385e-002, 1.32949916868494055766e-001, 7.12074444274385376374e-001, 8.94923571498549175196e-001, 5.60888087599758777824e-002, 4.70985971012030865679e-002, 7.49505931230560973333e-001, 6.05908417353387268589e-002, -2.11368505785888449733e-001, 7.00433176505264321055e-002, -3.24802222121249872799e-001, -3.70073331411355233023e-002, -2.40674916758885221180e-001, -2.37288637291817559871e-002, 1.93803964790261684659e-001, -8.72118785894035741801e-002, -1.47021265155683394932e-001, -2.90436601576085362542e-001, -2.05647322656946240915e-001, 1.46106122973316571168e-001, -3.41083923860059978761e-001, -2.50457465842369886300e-001, -3.21439325389462793314e-001, -2.24936838771179731244e-001, -3.76535240306220320150e-001, -2.93075847872845296482e-001, -5.65353304564880990157e-002, 8.35611866730285590688e-002, -3.26907601687990712058e-001, 1.70450558597458647070e-002, -2.80484863756005509128e-001, -4.63005600101809078328e-001, 1.09001572472495200650e-001, -2.10197693347434044764e-001, 8.88184026176405405639e-002, 7.33773018421654127375e-002, -2.00447065342259644893e-001, 1.99784269583805823567e-001, -2.45529551347569069408e-001, -3.59452371101260043443e-003, -7.95114382892879306697e-002, 1.53302040887358576038e-001, -2.86564087464505068414e-001, -6.79949278642054122379e-002, -3.25899624485778971472e-001, -1.48487799460655739425e-001, -5.19077900023636948368e-002, 7.03440254012137611284e-002, -2.12482958990570847124e-001, -3.10572533753981139260e-001, -1.13316399596336811473e-001, -2.27705664920644923477e-001, -2.38223750887890134420e-001, -1.04930099987276065354e-001, 2.20894322651094321408e-001, -1.86199239485516886139e-002, 8.67997462708661182695e-002, 1.22178094906943805753e-002, 4.53853083942322210742e-001, -2.35077668762490810117e-001, 7.48548938045839329369e-002, -1.47322064846272193783e-001, -3.38807365664315421339e-002, -9.06316683455850452544e-002, -5.72761129694889445374e-002, -1.01074986772565850179e-001, -1.38428980006189798757e-002, -3.28747091421431825164e-001, 2.68588752142593811811e-001, -1.31611608365218568650e-001, 2.77395004448416193643e-001, -5.28258288283238175431e-001, 4.50312712228073258602e-002, 2.85682008278628662978e-001, -9.05085487281828832140e-002, -5.23360162555884689262e-001, 1.99986659488741447266e-001, -2.76815193780003687696e-001, 2.29721667477900765020e-001, 1.53661907604529635041e-001, 2.23774293197788770593e-001, 1.23332647669659456469e-001, -2.77806534002715432852e-001, -4.74898975516705179611e-001, -9.48977174595477257490e-002, 1.05078530217588839157e-001, -8.38993434159797657479e-002, -1.52675096612722882572e-001, -2.12273433842600417476e-001, -3.15452747317466308807e-001, -2.43200379789664078434e-001, -3.32280006017617104974e-002, 3.65337928065761041729e-001, -3.04735565316751666476e-001, -2.36361530950132042728e-001, 2.40129099673954293781e-001, 7.53185638198632656515e-002, 1.97450005045553017569e-001, -4.01688205186018498782e-001, -1.47659006096161532495e-001, 1.10591850733261443107e-001, -1.56740728103383908376e-001, -3.87770908853206147313e-003, -5.85410841574957929723e-001, 4.27360861170473449455e-001, -2.26787312445598021604e-001, -2.83715629164204063972e-001, -3.24582570714098850306e-001, 1.00617795200424200996e-001, -5.37167019222925978816e-001, 5.27248318017465189556e-001, -2.35941577229333565580e-001, -2.83309817466716906686e-001, 6.22199603334136264188e-001, 2.37643297851553025879e-001, -2.69579514445374597564e-002, -4.59931310699965456568e-001, 4.70665856525743497851e-001, -2.12261992497440377115e-001, -1.35121383176835696549e-001, 1.08347661613536316860e-001, 1.06795630576886657614e+000, 1.32952073821926919361e-001, 2.70623318776161692067e-001, -8.37395386483486214857e-001, -1.95234622774940885792e-001, 5.16345664966163409026e-001, 5.04081187049258638844e-001, -9.16231695249935251812e-002, 1.69997522082678848010e-001, -2.02757854680678306636e-001, -1.80399940492764476740e-001, -2.83455025460858378583e-001, 4.22751865962981587810e-001, -5.72970018810484149618e-001, -5.39069337022649291286e-003, 1.75717981385201088562e-001, -6.06581061643656840876e-002, 6.15252239034617898206e-001, 8.06456342598687106471e-003, 1.02394536920820833359e+000, -2.87355629852322214113e-001, 9.68226551303091736989e-002, 1.54399129308662619309e+000, -5.50254719768584477091e-002, -3.13023351980921460402e-001, 1.40177482365058975189e-001, -2.57553484928552234301e-001, 2.36354480963637175739e-001, -3.38936632810224292012e-001, -7.86082459765097274484e-002, -5.38338389948250228834e-002, 2.04356860090469771851e-001, 8.65419058527247986312e-001, -2.61407372570781060261e-001, -1.78959603286658913701e-001, 2.10654113767781564492e-001, 3.56982027211674324274e-001, 4.02161302392649078197e-001, 4.42093349978785854493e-001, 1.28420430439265736977e-001, -1.20782769192038549888e-001, 1.99708026073733058148e-001, -1.48855818883432244881e-001, 4.35139518996118079830e-001, -1.79746715228923381602e-001, -3.52052567255999385165e-002, -1.99234161450164509732e-001, 6.04085666496726347852e-001, 1.91954437948385348012e-001, 7.25629153804009663364e-002, 4.76929510681863289001e-001, 3.58757668599301859924e-001, 1.63658083245998065003e-001, 4.77410242774227777662e-001, 4.27125475633930440367e-001, 1.49771212825938554447e-001, 1.23196277585375824071e-001, 1.30308377482321713359e-001, 1.26379815964199448963e-001, 5.57823652376841505607e-001, -7.79532755964273682547e-002, 2.05113256403133992212e-001, 4.39659203937240172788e-002, -5.21365054516474864255e-003, -5.06362593710517200352e-002, 1.60488686387847190318e-001, -2.10648943732322291300e-001, -8.51231051275260774958e-002, 4.38388520523272096074e-001, 2.66899701120619448069e-001, 2.53080675092338502896e-001, -7.03242762711201591097e-002, -9.24925556936470882885e-002, 2.07633174275551196653e-001, 2.10617382078701481651e-001, -1.68570075014828929527e-001, 3.63684876854254657275e-001, 3.13573817859554238030e-001, 1.03682895678991929267e-001, 2.38339676766331970414e-001, -2.37477407955549280061e-001, 4.84875762926058218039e-001, -2.93427684163051538668e-001, 2.26932937790130684341e-001, 5.55993594527699960817e-002, -2.89356743637746993691e-002, 2.35707692620825109975e-001, -1.26647746814603445742e-001, 1.51391065807939512178e-001, 2.65052147395247184036e-001, 1.25799917529917343328e-001, 3.33042264882532149106e-002, -2.92498951404599583093e-001, -1.33803010626851320852e-001, -1.59004082688823239478e-001, 5.25142341444970739417e-002, -2.79656924703817033606e-001, 2.72276873891523885085e-001, 2.99072973186846668980e-001, -4.34169238344133609497e-002, 2.95135251354831582016e-002, 6.36540117480902632729e-003, 4.64328981656902325947e-002, -2.46521697256726707304e-001, 8.91716640934854670730e-002, -3.30869932059271176783e-001, -2.10060918263923812610e-001, -1.57783637308420598977e-001, -3.58878253263681529228e-002, 2.12491047523595932844e-001, 8.35402720008903559856e-003, 9.04774677106308516938e-002, 1.47303791607662493135e-002, -1.45094787205094999383e-001, 9.14734302774744684195e-002, 1.17351785274212971899e-001, -1.69167203156031453748e-001, -2.48872863211857059396e-001, -2.01602942227937204089e-001, -1.42564263533797707523e-002, -2.73060250687729655361e-001, 3.35438525639362022934e-002, -1.49088061486372033815e-002, -3.51626235504184647684e-001, -5.97421474159286133854e-002, -1.40175543271804092793e-001, 1.95151827698547775114e-001, -2.56844161322000372194e-002, -8.58819604254090207540e-002, -1.61841484622009756933e-001, 7.48774831458318829158e-002, 7.66473324552408158405e-002, 8.97040596202434807604e-003, -4.43835055491828625596e-002, 2.51936183027326107697e-002, -1.90002067169221175447e-002, -1.33765526558945080371e-001, 7.50630463829320276892e-002, -9.68603122244325737134e-002, -1.44292046382522187731e-001, 4.93914460781459813132e-002, 1.36810363411552948776e-001, -2.63153508701599758712e-001, -2.87721997813499719143e-001, 1.43887695951528865601e-001, -1.93465922317556660026e-003, -3.10486216205168807925e-001, -1.89889497104026666596e-001, -1.65554585040364549142e-001, 1.69205003619818938887e-001, 8.03483659191988330850e-002, 2.06933758759755004331e-001, -8.14250939274817342461e-002, 2.76232869192267638248e-001, -2.33297009644603176026e-001, -2.67262833428945800751e-001, -2.59972891461917487987e-001, -5.82941823294397393207e-002, 3.51572301497398431724e-001, -1.91562156454677195994e-001, 2.53312389367598422840e-001, 2.71642874651948196263e-001, -1.77324970788417357603e-001, -1.37411591162001800459e-001, 2.25956551652987003287e-001, 8.54533101659819549489e-002, -1.75654778161299346406e-001, -9.79143478172108394642e-002, 5.69769784275573620835e-002, -2.35873555546339208622e-001, 1.56280643824808801456e-001, -1.80021096581371636836e-001, -8.53667972230704175107e-002, -3.02161063852697697740e-001, 3.30025740260794453462e-001, -9.21269296467875087320e-002, -1.98145886976985791117e-001, -1.52839327701926961517e-002, -2.14007976544635825089e-001, -1.41747160619478840271e-001, 3.72569743761571758878e-001, 7.61478852974403624954e-002, 8.70369465158530968008e-003, 4.66728574389269554312e-002, -1.06555054272154239858e-001, 1.15781429277712788473e-001, -2.76447147037465479347e-001, 1.46713180915083063471e-001, -2.11090707090981904992e-001, 9.71658610728067695383e-001, -3.16838417250928094937e-002, -5.95345262613247272476e-001, -7.82866011652910365193e-001, 2.88925182197234398096e-001, 2.43610825647093381940e-001, -7.74057443737137945705e-002, -4.53889685783379348560e-002, 1.86434176604524298737e-001, -3.28269096187500886153e-001, 8.51266512569512079356e-002, 2.99302602100645742667e-001, -2.99026010344195070090e-001, 7.59158943948802095170e-002, -7.18573032699498903675e-001, -6.44249068853176454219e-001, 3.34681707674436335065e-001, -5.32563036162547187580e-001, 5.83859017181279749131e-001, -3.57863816784333987897e-001, -4.32162658945882474648e-002, 1.34732075790544164606e-001, 1.64593703677683139697e-001, 6.70551801413758363779e-001, -8.77536997417305397740e-001, 1.68068265432081281885e-001, 1.67178862468036260047e-001, -3.24295448935800867396e-001, 4.82394558425634167875e-001, -6.70559424839561657450e-001, -8.19732053310332942075e-001, -1.67101663274819040028e-001, 5.50444318157618184273e-001, 1.32284002923915133820e+000, 7.23348913895317857659e-001, -1.58833130658379173550e-001, 4.01524236975907555802e-001, 7.20641214009323016754e-001, 4.61772882784373173148e-001, -5.00386517844734868277e-001, 1.84012762677428047542e-003, -5.80966046692339976865e-001, 1.55539554246594963205e-001, 7.76968450961116996467e-001, 1.93232602646868423246e-001, 3.23325471938424757745e-001, 3.51824291741231198749e-001, 6.57517280871098508399e-001, 5.17177648977154458265e-001, 6.20865456165461959692e-001, -6.99758249609022664472e-001, 2.04648080005768728817e-001, 9.82905846686647766131e-002, 1.22999711916786624855e+000, -1.93809852989440672966e-001, -4.75579334814981644075e-002, 2.53815126140869873339e-001, 8.03320772597253207614e-001, 4.49868774729313691818e-001, 3.66635064717349468122e-001, -2.48808144950595847011e-002, 5.39281909322235852855e-001, 1.28535928821043199388e-001, 3.80087521571664643805e-001, 1.06426575830367631248e+000, 8.11771071047719394720e-001, 2.01194535570438703953e-001, 1.92653801211380093505e+000, 4.08782017920609697104e-001, 3.04533206256234700859e-001, 5.42843151414849733882e-001, -7.67694859063631773743e-002, 4.67424227110004794628e-002, -3.24094186046133880819e-001, 9.45082929694572526635e-001, -2.12099511704933157974e-001, -2.88628805984619485336e-001, 4.72755897762724752731e-001, -3.97943693131207143487e-001, 5.22847218678026415262e-001, 2.41319383682334942520e+000, 3.44262294944424840359e-001, -3.60696775001437763830e-001, 3.30097635083422991098e-001, -4.12802823380340577764e-001, -1.65028961084290826111e-001, 7.43390972240366765256e-001, -3.70520848052041218423e-001, 8.67843722140180018343e-001, 7.81333355272276097736e-001, 1.83058439582019893965e-001, 5.39149331782969643001e-001, -1.56226894812329403228e-001, -2.95777942881085588456e-002, 9.88160667134405437673e-003, -1.93328701714672313017e-002, -1.70518098202256274121e-001, -4.66031883286033843383e-001, 6.14285435923212719267e-001, 1.02472923154139494706e+000, -5.03358496568119817560e-001, -1.69103859848290433154e-001, -1.33894938852799193912e-002, -1.26133276005705757816e-001, 1.10348160145189805315e-001, 2.17841940313147214292e-001, 1.22097231860394406233e+000, -1.03263071683455587291e+000, 3.29435775529269114781e-001, 2.93001290098568942244e-002, 1.01396401295323013159e-001, 9.54621902601819005696e-001, -7.38151455300679465443e-002, -6.12118102996818680417e-001, 2.13291183963247110711e+000, 1.89361021661735984267e+000, 3.39779080696179347498e-001, -1.26459404415268350519e+000, 3.54112838330806589671e-001, 1.11824069902419886979e-001, -1.46153541919017332384e-001, -1.31614651128957194787e-002, -3.25710640686816543798e-001, 1.15497740633122503162e+000, 4.33748333131002361540e-001, -2.20633431705026000769e-001, 1.00050984396092459972e-001, -2.57230698395825518876e-001, -1.86531681741788531170e-002, 1.75317013468196059023e-001, -2.00100560538275384914e+000, -1.49166000851349594969e-001, 6.67108667126607990383e-001, 3.94679888926841859753e-002, 6.75168960428093711812e-001, 3.07546807229040590481e-002, -6.95981458065069835683e-001, 7.06057478154597850661e-001, -6.31489993405754179712e-001, 2.66859214358839358372e-001, 2.11836986123702109008e-001, -5.48476308366256604110e-001, 1.26305428967687705111e+000, -5.50197532951793855105e-001, 2.34762896292074696447e-001, 4.89180005916792226550e-001, 6.97832427338669569750e-001, -2.94342093444835195548e-001, 1.89180297828623361633e-001, -1.87871645717899826700e-001, 9.20589014135042016385e-002, 1.59771507568320453307e-001, 1.92390426972079316148e-002, -1.58403167239824227419e-001, -2.22985364411381031813e-001, 6.80578632065887839664e-002, 8.27143731630924916587e-002, -8.05583189793934451028e-002, -2.66213310773460887226e-001, 2.51063222321414647453e-001, -7.93706394347940408229e-002, 1.44603159120019586492e-001, -1.92451607995100970605e-001, -1.09447174232335561750e-001, -1.89481688638126338775e-001, -1.27942870176282835759e-001, -2.88788152213869837859e-002, -7.39961725899780653481e-002, -1.43057460502802151481e-002, 1.40059812885476558941e-001, 1.68510123757751695099e-003, 1.27788351139004108248e-001, 2.79688252156049699249e-001, 8.90877371407015339333e-002, 1.01186054507178574413e-001, 1.01415945679674702334e-002, 1.51794609159793730813e-001, 9.12138651790666693531e-002, 1.80965503170030961311e-001, -2.74091993086675367319e-001, -5.93094418504121756452e-002, -3.94604261479047507821e-002, -2.34591866072180826874e-001, -2.49987305199075471318e-001, 3.08948463013217176909e-002, -2.08053202729285624528e-001, -2.29707182967990967970e-002, 4.30256167603465383698e-002, -1.31014320585580851253e-001, -2.28764862272209185123e-001, 1.25663733775454644626e-001, 2.38258631390137504136e-001, -5.35479706564784968537e-002, 2.47666206210121780940e-001, -2.82918073085053956017e-001, 2.86560205113142285605e-001, 1.90865997213948368483e-001, 2.07299033344706007398e-001, 6.08346961847518880040e-002, -7.39582199853369148812e-001, 6.98309387152297178503e-001, 7.61241222453580279605e-001, 2.15101830323380205368e-001, 4.52557629127508798117e-001, 2.50382509586740076291e-001, -6.13307782740666728588e-003, -4.79053520444329639094e-001, 1.36449988792136589488e+000, -3.78752502040252292392e-001, 6.03287766436849601237e-002, 7.43547130384428767158e-002, -6.39590559974347327987e-001, 6.32421294554115109854e-001, 1.00489072524830058697e+000, -1.62261884775533382630e+000, -2.44249784537150960162e-001, -1.98372612683373389375e-001, 1.89133741097082275218e+000, 6.09522635888053776476e-001, 4.47696680453968098856e-001, 1.09737202763614608014e-001, 1.46720190131473027240e-001, 3.64063625228431053671e-001, 6.41357954684200648465e-001, -1.62880535527238745619e-001, 4.52423068706302777819e-001, 1.30173242646552528301e-001, 2.77392870274587755031e-001, 8.16205498089242365012e-001, -2.98743146842397722107e-001, 1.66774104974588266437e+000, 2.64969964953784997697e-001, 1.64692684198331246170e-001, 4.23718014339342419206e-001, -1.97142625206723209885e-001, 5.90147408942180845548e-002, 7.64558068733815154872e-001, -3.12738094905021635217e-001, 1.18816148495848383781e+000, 5.18048162487389496356e-001, -6.19983829764036570298e-002, 3.94143967618762636196e-001, -8.93261582360460604235e-001, 1.22210163098254764868e+000, -1.90009747284063890138e-001, 1.35591319141206451127e-001, -1.57584984044623843680e-001, 3.68515157761414163806e-002, -2.12408531871671024671e-001, 1.15382949815289972961e-001, 2.54722577025027929754e-001, -2.11662089894158605974e-001, -1.76604924049923950324e-001, 1.14378340075729188763e-002, -9.40808914385512368161e-002, -1.74070432403408553723e-001, -1.98220932123776671929e-001, 4.37984261739338999464e-003, -1.14733990085374326640e-001, 1.21957817219350103666e-001, -2.18081920112034116643e-001, 1.14053770240109750289e-001, -2.54706648015805448004e-001, 5.60168899429644776000e-003, 1.50805918198740868119e-001, -2.29444489745605634257e-001, -4.69309394266196264200e-002, -3.08757044005435084266e-002, -4.61364168073299829587e-001, -1.06363423447774441133e-001, -2.57113597153658113292e-001, 8.25673280043803664574e-002, 9.36577854639746437693e-002, -1.22581197429309771141e-001, 5.11607865371756318634e-003, 1.89058783814222350350e-002, 1.62501927728711914600e-001, 1.69056432827831337740e-001, -3.10085364582475160600e-002, -2.63000040434531623390e-001, -1.61672396666465933990e-001, -4.47448327803352086107e-001, -1.11088678895461784313e-001, -1.53960673200818132234e-001, -2.54945673233010872138e-001, -3.00015576820975238270e-001, -3.11525389342339809051e-001, 8.08292042190373871691e-002, 1.64662353278917442112e-002, -7.89491535256483106808e-002, -1.26998829772973498287e-001, -1.09462110149470534526e-001, -1.98792375283557254395e-001, -8.88997794956227910257e-002, -2.92168323151601183607e-001, -2.84198779053907557568e-001, -2.84848195187693033203e-002, -4.45874193901884610658e-002, 2.57358513532838617532e-001, 8.46832887033339809513e-001, 2.50120568245351782011e-001, -4.20614158084364142542e-001, -4.30817206036074984432e-001, -2.68002301443293566852e-001, 4.21482817388282970938e-001, 1.30083766261842481704e-001, 8.35948791558558501613e-001, -1.99764678162099168501e-002, -9.31480150675013524042e-002, -6.76948370326812126629e-002, 3.95172642389845119038e-001, 6.34473912512096394067e-001, 1.94791632271247711072e-001, -4.71228431602932984479e-001, 6.34221463693138032269e-001, 9.46737196883766118916e-001, 6.18459490358020724798e-001, -8.17233574391030059836e-001, 1.62379326698937592743e-001, -1.08121012983164108134e-001, 1.43499907665008280544e-001, 1.08020790370125019386e-001, -4.54461219567167173938e-001, 1.12903267156935371851e+000, 2.45220845604614753888e-002, 7.08197449974786730209e-002, 2.20072245705172420127e-001, 1.62865683560501454952e-002, 3.52817134850902991428e-001, 6.57612561441423992825e-001, -4.40432533732835473916e-001, -4.37703783549673458575e-002, 7.87791562977626647069e-001, 1.13314069246730064755e+000, 8.08134692630903761490e-001, 2.93417608806989138603e-001, 9.08844624688432550785e-002, 4.74715623939381992091e-001, 1.40175683143500373617e-001, -1.06443294397226037584e-001, 4.76904880982989276550e-001, -1.60469074565391361942e-001, 8.34083936387169599946e-001, 1.00801643957860211087e-002, 5.14880304935494192975e-001, 4.28938644166608096242e-001, 8.86494413174519491072e-001, -2.58792439177377153747e-001, -4.90739684793875113877e-002, 8.39861177045595104496e-003, 8.39977810996020146650e-002, -5.97513204423502815310e-003, -2.52120838551038485564e-002, -7.28952747096158620854e-002, 2.66187606644576885140e-002, 2.13789597720506124867e-001, -1.55426656522866274424e-001, -2.62224571619159019242e-001, 3.10260758640879985570e-001, 2.66236328505056962790e-001, -9.38858797955399032586e-003, -2.74767153478060188743e-001, -9.21082308206286198837e-002, -1.15634865416789800463e-001, -1.14614014333387966710e-002, -1.35565395019793893949e-001, -1.23471024491513745036e-001, 2.64898222196308152920e-001, 1.34000965934034155236e-001, -7.33800562026260538850e-002, -2.70544486972844680506e-003, -1.20610563919850810599e-001, 2.00864046729389400525e-001, 1.00710252317410361989e-001, -2.49241092914193745900e-001, 3.98463011718104484493e-002, 1.48134320900092653073e-001, 1.09138338567993667394e-001, -1.95124789509454749092e-001, -2.57396038298938145683e-001, -6.34171093469743096804e-002, -2.64098216406493113695e-001, -1.97866660651020237482e-001, -2.24424926268899815884e-001, 7.79254143031599399993e-002, -8.96729886664980463395e-002, 9.35918596245531170252e-002, -1.18317706877095876750e-001, 2.54130624891828915679e-001, -4.46360751290433843685e-001, -8.38472182939451887718e-002, -5.08813203671931793548e-002, -1.60232171516462768013e-001, 2.11376650258391335369e-001, 2.65564864840080794295e-001, 2.28413838835366145297e-001, -1.19874777469850535283e-001, -2.46820408151948528230e-001, -8.24456209848655752204e-002, -2.79392948080638803265e-001, -5.90239662745475346384e-002, 1.97266550343420971059e-001, 2.30204269966941488246e-001, 1.62877321618008386039e-001, -3.22878179750051341745e-001, 4.26154499756139365507e-002, -2.00767493537124502856e-001, 1.65179358125437242277e-001, 3.03957882435874293670e-001, 9.24537229188020781567e-002, 1.20934805255344279828e-001, 2.31006868713648394476e-001, -1.96599242904762022688e-001, 2.63987665227718548699e-001, -2.95042037292594983011e-001, 9.43134770843523512207e-002, 5.32960582663653953395e-002, 2.33371619829222692877e-001, -1.03026406790980865069e-001, 9.05934975368306999455e-002, -9.07435021455259803458e-003, 9.42631919978309529284e-002, -3.10802645347303223289e-002, -2.02989840065848692330e-001, -7.52065411410911405232e-002, 3.34570223491094387303e-002, -4.02685822405839666249e-002, -8.29781540834662600936e-002, 2.68607074245127974699e-001, 1.08384649826084283886e-001, 2.34274358762637358033e-001, 2.27237105196333097346e-002, 2.21457529087231319576e-001, -4.03469512139329022915e-001, -2.28061443784312645189e-001, 1.46783480030057617016e-001, -2.22775528110330661713e-001, -3.57625436985387241962e-003, -1.24613732629938703256e-001, -2.49122310993637408050e-001, 3.09773828624668567944e-001, 1.07762559372618249576e-001, -1.65341486833636350240e-002, -6.13511396465708375159e-002, -2.97189728221095739169e-001, -1.38597063249068369606e-001, 6.21369977113036126015e-002, 6.34350941469314144605e-001, -6.39537738168315827991e-001, -1.13425201826452326515e+000, 5.52538502999807112914e-001, 5.20375937658709486477e-001, -2.92935407192741852078e-002, 3.22847993720497161707e-001, -1.41216486939318153215e-001, -1.20371012296857423512e-002, -8.94124791303136934317e-001, 5.95233053356350239049e-001, -2.54135212317478431654e-001, 1.21539769454047569264e-001, -1.16589007399576879975e-001, 9.23839707837430412773e-001, 3.50849005185335738322e-001, 4.25632402603973614141e-001, -8.41880769376303184082e-001, -8.12249606033887072698e-001, 3.22842861619921511762e-002, 9.49442181643519234058e-001, 4.09955069404983718506e-001, 2.97922484557394173788e-001, 2.11073281502321741243e-001, 1.19322557987488253595e-001, 5.51047637581452365296e-001, 3.49206745925259243180e-001, -4.98129462436132153247e-001, -4.63143922391336462785e-002, 3.55378165270772761186e-001, -3.72150383311180166235e-001, 7.60548524866140773781e-001, -1.03076898384440807099e+000, 9.95710998672776570473e-001, 1.07375678821286180131e-001, -1.88415446751736131992e-001, 5.30245278489642535291e-001, -1.49956577954972247735e-001, -5.90247152514824624525e-001, 9.66782276557519693050e-001, -3.83373797461550203103e-001, 7.97178129474864438642e-001, 4.80444126450838560061e-001, -2.49916362358413468581e-001, 3.39286807916853339062e-001, 1.05957587309438980294e-001, 1.22820334862182201086e+000, -6.46525528554317774343e-001, -4.15617459016312140729e-001, -4.25878573605305454919e-001, 3.91194956650835146128e-001, -2.44461767870163049210e-001, -2.75078290205599651497e-001, 7.29636183240456870358e-002, 1.92786497476333085199e-001, 2.23835885043898397129e-001, -3.46733117727345996339e-001, 6.13600769992421399279e-002, -4.88760797414247022408e-002, -4.15462334634538299483e-001, 8.96458821236781888686e-002, -1.61380616054093622980e-001, -2.47185151940587516384e-001, 1.33734615945533957815e-001, -1.01708033196435110312e+000, -2.48506663122206941652e-002, 2.31439594855592539746e-001, -7.04611051303486335406e-001, -4.02255365419577071151e-001, -5.64573826833164260641e-001, 6.68215622000944003966e-002, -4.77153757833492786489e-002, -1.60511737658848158139e-001, -1.34823765992210992115e-001, -3.92450838825563974588e-001, 6.01366289288523953038e-002, -3.83116949305788712099e-001, -7.13670454841550450098e-001, -1.68379419034765470675e-001, -1.76238090994300551639e-002, -1.56397817190182079894e-002, 8.34622395957080459583e-002, -4.81521987607675727716e-001, -4.92652320169480351097e-001, 2.65938882439066104357e-001, 6.40251169067104775046e-002, -1.29882486144893505298e+000, -5.52397582266046294208e-001, -4.35010818040227675851e-001, 3.89988472402362895686e-001, -2.44101080957910637759e-001, 3.66485040344477375207e-001, 1.15915251731402851876e-001, -2.00347444639670774214e-001, 2.04778597641659426687e-001, -9.67487758973819444996e-001, -9.05376314559666328652e-002, 1.20340450907953533388e-001, 2.63721014387616886632e-003, -5.65829374040014654312e-001, 1.90406380634016958453e+000, -7.82599507148558748426e-001, 9.85371976525878379150e-001, 2.18416081615032370289e-001, -4.01880712891593994129e-001, 8.22771385352552897530e-001, -2.26651028524950692855e+000, -8.82371607339267338688e-002, -3.72444185132491667467e-001, 2.03212881029980252379e+000, -1.24574611581036420738e+000, -7.93770720634201620847e-001, 4.86790959273849022093e-001, 2.31075739754556108707e+000, 3.54465012770400433872e-001, 1.19795808773302248085e+000, 1.30757821271926782947e-001, 5.56437070634653307977e-001, 1.18858539157514919715e+000, 2.50452382208831947352e+000, -5.43319641727805557885e-001, 6.02431252704389352814e-001, -4.90219714834445874363e-001, 4.71390165465267574341e-001, 5.33916041936452270833e-002, -8.95976710337053505739e-001, 1.09582949516166650028e+000, 2.29501796531939514234e-002, 6.35822942812053065742e-002, -1.00650810771534193755e+000, -8.94888628155046772505e-001, 3.22896817114601253351e+000, 3.79607938161664437704e-001, -2.50699265319075959013e+000, 6.13651741377952697487e-002, -3.99232359164310601773e-001, 1.46982778209053560614e-001, -1.19935250187454012227e+000, -8.53413694554616242272e-001, -5.02649663507538146945e-001, -1.07261136196008410870e+000, 1.97404710299361518810e-001, -7.97713706032753155917e-001, -2.42802971434395886696e-001, 6.98155238297002017633e-002, 1.96292003554822097611e-001, -1.04787521476224915196e-001, 2.61611221255600934210e-001, 4.89175360027288175235e-001, -8.66131644770757436191e-001, 2.82668570491376724974e+000, -3.09713739726011105802e+000, 4.14120613728911901585e-001, -1.00138233801465109662e-001, -3.88294861100911103957e-001, -1.30412927579002380085e+000, -1.10494249802238875269e-001, 4.25068934985441460039e-001, 2.96690710146946812209e-001, -1.64584085787042311289e+000};

const fann_layer fann_layers[4] = {{0, 360}, {360, 410}, {410, 430}, {430, 433}};

#endif // FANN_FANN_NET_H_
