#ifndef FANN_FANN_NET_H_
#define FANN_FANN_NET_H_

#include "fann.h"
#include "fann_structs.h"

const enum fann_nettype_enum network_type = 0;

const fann_neuron fann_neurons[473] = {{0, 0, 0.0, 0}, {0, 0, 0, 0}, {0, 0, 0, 0}, {0, 0, 0, 0}, {0, 0, 0, 0}, {0, 0, 0, 0}, {0, 0, 0, 0}, {0, 0, 0, 0}, {0, 0, 0, 0}, {0, 0, 0, 0}, {0, 0, 0, 0}, {0, 0, 0, 0}, {0, 0, 0, 0}, {0, 0, 0, 0}, {0, 0, 0, 0}, {0, 0, 0, 0}, {0, 0, 0, 0}, {0, 0, 0, 0}, {0, 0, 0, 0}, {0, 0, 0, 0}, {0, 0, 0, 0}, {0, 0, 0, 0}, {0, 0, 0, 0}, {0, 0, 0, 0}, {0, 0, 0, 0}, {0, 0, 0, 0}, {0, 0, 0, 0}, {0, 0, 0, 0}, {0, 0, 0, 0}, {0, 0, 0, 0}, {0, 0, 0, 0}, {0, 0, 0, 0}, {0, 0, 0, 0}, {0, 0, 0, 0}, {0, 0, 0, 0}, {0, 0, 0, 0}, {0, 0, 0, 0}, {0, 0, 0, 0}, {0, 0, 0, 0}, {0, 0, 0, 0}, {0, 0, 0, 0}, {0, 0, 0, 0}, {0, 0, 0, 0}, {0, 0, 0, 0}, {0, 0, 0, 0}, {0, 0, 0, 0}, {0, 0, 0, 0}, {0, 0, 0, 0}, {0, 0, 0, 0}, {0, 0, 0, 0}, {0, 0, 0, 0}, {0, 0, 0, 0}, {0, 0, 0, 0}, {0, 0, 0, 0}, {0, 0, 0, 0}, {0, 0, 0, 0}, {0, 0, 0, 0}, {0, 0, 0, 0}, {0, 0, 0, 0}, {0, 0, 0, 0}, {0, 0, 0, 0}, {0, 0, 0, 0}, {0, 0, 0, 0}, {0, 0, 0, 0}, {0, 0, 0, 0}, {0, 0, 0, 0}, {0, 0, 0, 0}, {0, 0, 0, 0}, {0, 0, 0, 0}, {0, 0, 0, 0}, {0, 0, 0, 0}, {0, 0, 0, 0}, {0, 0, 0, 0}, {0, 0, 0, 0}, {0, 0, 0, 0}, {0, 0, 0, 0}, {0, 0, 0, 0}, {0, 0, 0, 0}, {0, 0, 0, 0}, {0, 0, 0, 0}, {0, 0, 0, 0}, {0, 0, 0, 0}, {0, 0, 0, 0}, {0, 0, 0, 0}, {0, 0, 0, 0}, {0, 0, 0, 0}, {0, 0, 0, 0}, {0, 0, 0, 0}, {0, 0, 0, 0}, {0, 0, 0, 0}, {0, 0, 0, 0}, {0, 0, 0, 0}, {0, 0, 0, 0}, {0, 0, 0, 0}, {0, 0, 0, 0}, {0, 0, 0, 0}, {0, 0, 0, 0}, {0, 0, 0, 0}, {0, 0, 0, 0}, {0, 0, 0, 0}, {0, 0, 0, 0}, {0, 0, 0, 0}, {0, 0, 0, 0}, {0, 0, 0, 0}, {0, 0, 0, 0}, {0, 0, 0, 0}, {0, 0, 0, 0}, {0, 0, 0, 0}, {0, 0, 0, 0}, {0, 0, 0, 0}, {0, 0, 0, 0}, {0, 0, 0, 0}, {0, 0, 0, 0}, {0, 0, 0, 0}, {0, 0, 0, 0}, {0, 0, 0, 0}, {0, 0, 0, 0}, {0, 0, 0, 0}, {0, 0, 0, 0}, {0, 0, 0, 0}, {0, 0, 0, 0}, {0, 0, 0, 0}, {0, 0, 0, 0}, {0, 0, 0, 0}, {0, 0, 0, 0}, {0, 0, 0, 0}, {0, 0, 0, 0}, {0, 0, 0, 0}, {0, 0, 0, 0}, {0, 0, 0, 0}, {0, 0, 0, 0}, {0, 0, 0, 0}, {0, 0, 0, 0}, {0, 0, 0, 0}, {0, 0, 0, 0}, {0, 0, 0, 0}, {0, 0, 0, 0}, {0, 0, 0, 0}, {0, 0, 0, 0}, {0, 0, 0, 0}, {0, 0, 0, 0}, {0, 0, 0, 0}, {0, 0, 0, 0}, {0, 0, 0, 0}, {0, 0, 0, 0}, {0, 0, 0, 0}, {0, 0, 0, 0}, {0, 0, 0, 0}, {0, 0, 0, 0}, {0, 0, 0, 0}, {0, 0, 0, 0}, {0, 0, 0, 0}, {0, 0, 0, 0}, {0, 0, 0, 0}, {0, 0, 0, 0}, {0, 0, 0, 0}, {0, 0, 0, 0}, {0, 0, 0, 0}, {0, 0, 0, 0}, {0, 0, 0, 0}, {0, 0, 0, 0}, {0, 0, 0, 0}, {0, 0, 0, 0}, {0, 0, 0, 0}, {0, 0, 0, 0}, {0, 0, 0, 0}, {0, 0, 0, 0}, {0, 0, 0, 0}, {0, 0, 0, 0}, {0, 0, 0, 0}, {0, 0, 0, 0}, {0, 0, 0, 0}, {0, 0, 0, 0}, {0, 0, 0, 0}, {0, 0, 0, 0}, {0, 0, 0, 0}, {0, 0, 0, 0}, {0, 0, 0, 0}, {0, 0, 0, 0}, {0, 0, 0, 0}, {0, 0, 0, 0}, {0, 0, 0, 0}, {0, 0, 0, 0}, {0, 0, 0, 0}, {0, 0, 0, 0}, {0, 0, 0, 0}, {0, 0, 0, 0}, {0, 0, 0, 0}, {0, 0, 0, 0}, {0, 0, 0, 0}, {0, 0, 0, 0}, {0, 0, 0, 0}, {0, 0, 0, 0}, {0, 0, 0, 0}, {0, 0, 0, 0}, {0, 0, 0, 0}, {0, 0, 0, 0}, {0, 0, 0, 0}, {0, 0, 0, 0}, {0, 0, 0, 0}, {0, 0, 0, 0}, {0, 0, 0, 0}, {0, 0, 0, 0}, {0, 0, 0, 0}, {0, 0, 0, 0}, {0, 0, 0, 0}, {0, 0, 0, 0}, {0, 0, 0, 0}, {0, 0, 0, 0}, {0, 0, 0, 0}, {0, 0, 0, 0}, {0, 0, 0, 0}, {0, 0, 0, 0}, {0, 0, 0, 0}, {0, 0, 0, 0}, {0, 0, 0, 0}, {0, 0, 0, 0}, {0, 0, 0, 0}, {0, 0, 0, 0}, {0, 0, 0, 0}, {0, 0, 0, 0}, {0, 0, 0, 0}, {0, 0, 0, 0}, {0, 0, 0, 0}, {0, 0, 0, 0}, {0, 0, 0, 0}, {0, 0, 0, 0}, {0, 0, 0, 0}, {0, 0, 0, 0}, {0, 0, 0, 0}, {0, 0, 0, 0}, {0, 0, 0, 0}, {0, 0, 0, 0}, {0, 0, 0, 0}, {0, 0, 0, 0}, {0, 0, 0, 0}, {0, 0, 0, 0}, {0, 0, 0, 0}, {0, 0, 0, 0}, {0, 0, 0, 0}, {0, 0, 0, 0}, {0, 0, 0, 0}, {0, 0, 0, 0}, {0, 0, 0, 0}, {0, 0, 0, 0}, {0, 0, 0, 0}, {0, 0, 0, 0}, {0, 0, 0, 0}, {0, 0, 0, 0}, {0, 0, 0, 0}, {0, 0, 0, 0}, {0, 0, 0, 0}, {0, 0, 0, 0}, {0, 0, 0, 0}, {0, 0, 0, 0}, {0, 0, 0, 0}, {0, 0, 0, 0}, {0, 0, 0, 0}, {0, 0, 0, 0}, {0, 0, 0, 0}, {0, 0, 0, 0}, {0, 0, 0, 0}, {0, 0, 0, 0}, {0, 0, 0, 0}, {0, 0, 0, 0}, {0, 0, 0, 0}, {0, 0, 0, 0}, {0, 0, 0, 0}, {0, 0, 0, 0}, {0, 0, 0, 0}, {0, 0, 0, 0}, {0, 0, 0, 0}, {0, 0, 0, 0}, {0, 0, 0, 0}, {0, 0, 0, 0}, {0, 0, 0, 0}, {0, 0, 0, 0}, {0, 0, 0, 0}, {0, 0, 0, 0}, {0, 0, 0, 0}, {0, 0, 0, 0}, {0, 0, 0, 0}, {0, 0, 0, 0}, {0, 0, 0, 0}, {0, 0, 0, 0}, {0, 0, 0, 0}, {0, 0, 0, 0}, {0, 0, 0, 0}, {0, 0, 0, 0}, {0, 0, 0, 0}, {0, 0, 0, 0}, {0, 0, 0, 0}, {0, 0, 0, 0}, {0, 0, 0, 0}, {0, 0, 0, 0}, {0, 0, 0, 0}, {0, 0, 0, 0}, {0, 0, 0, 0}, {0, 0, 0, 0}, {0, 0, 0, 0}, {0, 0, 0, 0}, {0, 0, 0, 0}, {0, 0, 0, 0}, {0, 0, 0, 0}, {0, 0, 0, 0}, {0, 0, 0, 0}, {0, 0, 0, 0}, {0, 0, 0, 0}, {0, 0, 0, 0}, {0, 0, 0, 0}, {0, 0, 0, 0}, {0, 0, 0, 0}, {0, 0, 0, 0}, {0, 0, 0, 0}, {0, 0, 0, 0}, {0, 0, 0, 0}, {0, 0, 0, 0}, {0, 0, 0, 0}, {0, 0, 0, 0}, {0, 0, 0, 0}, {0, 0, 0, 0}, {0, 0, 0, 0}, {0, 0, 0, 0}, {0, 0, 0, 0}, {0, 0, 0, 0}, {0, 0, 0, 0}, {0, 0, 0, 0}, {0, 0, 0, 0}, {0, 0, 0, 0}, {0, 0, 0, 0}, {0, 0, 0, 0}, {0, 0, 0, 0}, {0, 0, 0, 0}, {0, 0, 0, 0}, {0, 0, 0, 0}, {0, 0, 0, 0}, {0, 0, 0, 0}, {0, 0, 0, 0}, {0, 0, 0, 0}, {0, 0, 0, 0}, {0, 0, 0, 0}, {0, 0, 0, 0}, {0, 0, 0, 0}, {0, 0, 0, 0}, {0, 0, 0, 0}, {0, 0, 0, 0}, {0, 0, 0, 0}, {0, 0, 0, 0}, {0, 0, 0, 0}, {0, 0, 0, 0}, {0, 0, 0, 0}, {0, 0, 0, 0}, {0, 0, 0, 0}, {0, 0, 0, 0}, {0, 0, 0, 0}, {0, 0, 0, 0}, {0, 0, 0, 0}, {0, 0, 0, 0}, {0, 0, 0, 0}, {0, 0, 0, 0}, {0, 360, 0.12333790623759801, 5}, {360, 720, 0.31459497999483704, 5}, {720, 1080, -0.3564233033632116, 5}, {1080, 1440, 0.3378641322683722, 5}, {1440, 1800, -0.10818499787217253, 5}, {1800, 2160, 0.6530659483633526, 5}, {2160, 2520, -0.5979493890985413, 5}, {2520, 2880, 0.6864190058427783, 5}, {2880, 3240, -0.20363451247686806, 5}, {3240, 3600, 1.3229730110884175, 5}, {3600, 3960, -0.022992746500700555, 5}, {3960, 4320, 0.06121274829185802, 5}, {4320, 4680, -0.07278696386573343, 5}, {4680, 5040, -0.6090592940639559, 5}, {5040, 5400, -1.151273840490827, 5}, {5400, 5760, 0.10709286863975057, 5}, {5760, 6120, -0.2170708820297746, 5}, {6120, 6480, 1.5762603948415221, 5}, {6480, 6840, -0.9827031635003666, 5}, {6840, 7200, 0.705440230535332, 5}, {7200, 7560, -1.956691673125511, 5}, {7560, 7920, 0.5411091071603913, 5}, {7920, 8280, 0.06321826728773398, 5}, {8280, 8640, 0.07806822020804433, 5}, {8640, 9000, -0.21212065307725564, 5}, {9000, 9360, -0.602498662041273, 5}, {9360, 9720, -0.12172471753093321, 5}, {9720, 10080, -0.7408956248369437, 5}, {10080, 10440, -0.309891035686994, 5}, {10440, 10800, -0.12162724513071164, 5}, {10800, 11160, -0.30607471975280104, 5}, {11160, 11520, -0.4768738105389492, 5}, {11520, 11880, -0.3580312199232459, 5}, {11880, 12240, 0.3582421817410401, 5}, {12240, 12600, -0.46909558838335075, 5}, {12600, 12960, -1.370647081025314, 5}, {12960, 13320, -0.027091980582315246, 5}, {13320, 13680, -0.10610219325031266, 5}, {13680, 14040, 0.26380747264927085, 5}, {14040, 14400, -0.3761774862069365, 5}, {14400, 14760, -1.5308765778988371, 5}, {14760, 15120, 0.15331191359889207, 5}, {15120, 15480, 0.39109388107522103, 5}, {15480, 15840, -0.44701651831068473, 5}, {15840, 16200, 0.42417148237847074, 5}, {16200, 16560, -0.06974323175766278, 5}, {16560, 16920, -0.19284433905883436, 5}, {16920, 17280, 0.1651939412163438, 5}, {17280, 17640, 0.20649790774854662, 5}, {17640, 18000, 0.6999523561244237, 5}, {18000, 18360, -0.45987707602829603, 5}, {18360, 18720, 0.5607049833455955, 5}, {18720, 19080, 1.0153959915352233, 5}, {19080, 19440, -0.16459767856915294, 5}, {19440, 19800, 0.7181841825842393, 5}, {19800, 20160, 0.7545004329999867, 5}, {20160, 20520, 0.6413418484073528, 5}, {20520, 20880, 0.7103121948850697, 5}, {20880, 21240, 0.23954391309576176, 5}, {21240, 21600, -0.5787100606073898, 5}, {21600, 21960, -0.3635361462325271, 5}, {21960, 22320, -0.17487169458502733, 5}, {22320, 22680, 0.806231982454007, 5}, {22680, 23040, 1.5854620963865407, 5}, {23040, 23400, 0.07063184752941913, 5}, {23400, 23760, 0.961930015450775, 5}, {23760, 24120, -0.0949268762571249, 5}, {24120, 24480, 0.6610190797130302, 5}, {24480, 24840, -0.36006194375741113, 5}, {24840, 25200, 0.041582872916244594, 5}, {25200, 25560, -0.24314314194076928, 5}, {25560, 25920, -0.8047043647800979, 5}, {25920, 26280, -0.10170844701109513, 5}, {26280, 26640, -0.6002284881200416, 5}, {26640, 27000, 0.34507597817836516, 5}, {27000, 27360, 0.03335969757892026, 5}, {27360, 27720, 0.645514395631243, 5}, {27720, 28080, -0.21955770830875151, 5}, {28080, 28440, -0.6725092868909681, 5}, {28440, 28800, 0.3537160574824662, 5}, {28800, 29160, -0.5295095231452569, 5}, {29160, 29520, 1.022096946411241, 5}, {29520, 29880, 0.11084141501729478, 5}, {29880, 30240, 0.65788284784842, 5}, {30240, 30600, -0.046324022738493266, 5}, {30600, 30960, -0.323212423446122, 5}, {30960, 31320, 0.68766625491691, 5}, {31320, 31680, 0.3062490112009103, 5}, {31680, 32040, -0.7931991146903081, 5}, {32040, 32400, 0.0032597990255541784, 5}, {32400, 32760, -0.9372919668779975, 5}, {32760, 33120, -0.29201513406593504, 5}, {33120, 33480, -1.2030825337282076, 5}, {33480, 33840, -1.9458691186228765, 5}, {33840, 34200, -0.573180466736878, 5}, {34200, 34560, 0.2412535862903461, 5}, {34560, 34920, -0.35124808395266793, 5}, {34920, 35280, 0.679397469627837, 5}, {35280, 35640, 0.9134568267742044, 5}, {35640, 36000, 0.40067069255249377, 5}, {36000, 36100, 1.20337527554, 5}, {36100, 36200, -0.146294667793328, 5}, {36200, 36300, -0.8546361092443748, 5}, {36300, 36400, -1.8715545692847149, 5}, {36400, 36500, -0.4793762994987361, 5}, {36500, 36600, -0.07286226598687882, 5}, {36600, 36700, -0.7949464633607689, 5}, {36700, 36800, -2.7638803597317976, 5}, {36800, 36900, 3.1062241438460454, 5}, {36900, 37000, 2.2388229938221444, 5}, {37000, 37010, -1.6409594532631901, 3}, {37010, 37020, 1.2913100016131922, 3}, {37020, 37030, 0.44604457634162686, 3}};

fann_type fann_weights[37030] = {2.53734637425271192246e-001, 8.70198350602320203073e-001, 9.45428719488572322227e-001, -2.42767918125079529279e-001, -1.68015040496370782197e-001, -3.28615309711894287847e-001, -2.37999564116369605182e-001, 6.94798050555236884618e-002, 2.02382415763121242813e-001, 6.50457804541504369666e-001, 3.24278207687867303655e-001, 3.85215086150999586057e-001, -7.56225432213418063965e-002, -3.74726739709723977167e-001, -5.56886081856738712759e-001, -2.79006224028629790102e-001, -1.10394080387012843980e-001, -7.38007904989570473475e-002, -1.40697645667290979071e-002, -1.41258148476369554958e-001, 5.95513219244606026304e-002, -2.13507140311349291606e-001, -3.10697168619503250042e-001, -3.29504496034730476328e-001, 3.39012308321383459830e-001, 3.64019191905733452419e-001, 5.06635114293082944315e-001, -3.52547554959981024325e-001, -6.37626066833391624833e-002, -1.25495913112619678076e-001, -3.94071075419124949857e-001, -3.72363584308001371870e-001, -3.36945755191014495455e-001, 3.53673067091851534016e-001, 4.69320478275619290542e-001, 5.60768083893817270713e-001, -7.42021652437365175636e-002, 3.51207058865491750232e-001, -2.14120999753378421504e-001, -5.67171491337208455441e-001, -4.84107225409124430904e-001, -1.97086194311575507720e-001, 4.70588028309319228448e-001, 1.10567607024551331496e-001, 2.79337232207198915557e-001, -2.01768212579267136597e-001, -3.30192131048957338013e-001, -3.12723302593070962008e-001, 3.66806646304777050904e-001, 3.74928720990561292759e-001, -3.86947882845685875441e-001, 4.76619054414045562051e-002, 2.62348161796350953789e-001, 1.09381394809275611646e-001, 1.09199907963520720378e-001, 1.01053879418617514885e-001, 1.35543116105109162639e-001, 8.45043026467569846627e-002, 1.44207720712166392873e-001, -7.94938310561144473310e-002, 2.59622170416892172895e-001, 2.59947740413499550627e-001, 4.57872193818754436023e-001, -2.23444080725832189271e-001, 2.04562008365655745301e-001, 5.10930968063663185075e-002, -1.23653879958582471610e-001, -1.29591092627446530239e-001, -2.96217134559503061930e-002, 1.27267955016548611757e-001, -5.42718096405769567792e-002, 4.38334891193145559374e-001, 2.20549880260768854656e-001, 6.62660276032666084589e-002, 1.04035580843775662951e-001, 5.39649488265264085096e-002, -3.04513660239605576940e-001, 6.20679317555865445177e-002, 1.60124051757823855635e-002, 1.28118979103254898577e-001, 9.00738143936067464645e-002, -2.80012050630733845547e-002, 2.66350988565478459524e-002, -2.28671896713324544759e-002, -4.06835361575257570266e-001, -5.40629684739807436777e-001, -4.18521366289561713714e-001, 2.50988194957203203384e-001, 1.96610459933554221346e-001, 4.74475940418724928538e-001, 1.11055882869740274455e-001, 9.84414172438434764700e-002, 3.92209175439766410953e-001, -6.70814519326877467531e-002, -6.72371807020232803431e-002, -5.79064841534515095667e-001, 1.88995639705423296162e-001, -5.80939225628683639929e-003, 2.47323778375457520307e-001, -1.38252391057912205063e-001, 5.91818213700692624668e-002, 1.26507585688885509922e-001, -2.45504445914666219464e-001, -3.01320625878202519310e-001, -4.81022534265610368642e-001, 5.19364179522828969815e-002, 1.88540153742486976673e-001, 2.65899633909858046366e-001, 2.62756143679272691216e-001, 3.46217275247750533307e-001, 1.71638926831570587384e-001, -2.94674846561579995008e-001, -2.39920776635382609898e-001, -1.85716993284177345203e-001, 3.19991726163014744699e-001, 3.45529608243800578915e-001, 1.89282623384019355051e-001, 3.50005326235566516235e-002, 7.47250737959552751438e-003, 6.26474122167145625051e-002, -1.30810966080154612856e-002, -3.00354075863302538707e-001, -2.96227051773421512504e-001, 2.32359912447154454140e-001, 3.37421401646292251630e-001, 1.70579408804972659786e-001, 3.55413467731848675690e-001, 1.87962832009333474792e-001, 4.85607308057838638060e-001, -3.39525541587593404635e-001, -2.64607763640803239635e-001, -5.33044907696979319844e-001, 1.72417523488888696503e-001, 1.68265131349189550614e-001, 1.92722717999551707013e-001, 4.53755151888447116892e-001, 6.13906843063326879140e-001, 3.81010067605289659554e-001, -1.32449681221699117062e-001, -4.83272455346071272420e-001, -4.58764126187880094676e-001, 3.49919804422051783366e-001, 1.86887070453728237895e-001, 1.15407509459315812950e-001, 2.65231000939336325484e-001, 3.41596713981663246962e-001, 2.96093280622002019697e-001, -2.03280781142100713810e-001, -3.53620667835023716474e-001, -2.76831549328600268201e-002, 5.76616507806192030161e-002, 9.35854562490987251788e-002, -9.44196278707513103612e-002, 4.18876920712138223202e-001, 4.55478580574986191554e-001, 3.85940870188933304874e-001, -1.20249596500822827916e-001, -3.08622451561989197266e-001, -3.08706132333352367692e-001, 1.64454476583630243569e-001, 7.98237043749764479950e-002, 2.51736170194154403046e-002, 4.39982040279786532078e-002, 1.41677442575195294827e-001, 9.71008536316269182942e-002, -1.07595571889591012926e-001, -1.28972804126445961259e-001, 2.66781374192718682969e-002, -1.50820345216432956381e-002, 1.75459794293253035224e-001, 2.01932538842621134290e-001, 1.94010601965933261737e-002, 1.86926176929534004767e-001, 3.20649037883316778696e-001, -4.41414385446821586068e-002, -6.36567853102708858248e-002, 7.78163975400867659327e-003, 2.10678181538240909265e-002, 2.26417292576156031769e-001, 3.12148422232846889379e-002, -2.74090900082700310303e-002, 1.86972805567148819827e-001, 7.07013892339274085952e-002, -1.40969274764888130580e-001, -5.08666541172795930170e-002, -1.65694624053733752245e-001, 6.74701892188030588615e-002, 1.18729477346887130063e-001, 1.29567615917028255978e-001, 1.85886378056860535057e-001, 2.43103276578698151988e-001, 1.94587076513330209382e-001, 1.24257822982768273423e-001, -2.17379523969753407631e-001, 3.44029583232129190784e-002, -1.83086413902927959765e-003, 2.14118103823357983084e-002, 2.34350065334349183521e-001, 7.80219259283303212538e-002, 1.41122967352507483474e-001, -3.85861333298641237533e-002, -2.24667089014343568376e-001, -5.40401438405660683451e-001, -4.03915437751754757834e-001, 3.79949159918684165049e-001, 3.32996942998298073313e-001, 2.27890393634293614289e-001, 1.64496414260302009636e-001, 1.93897980346540377283e-001, 2.97437450153082039161e-001, -3.07664407078813428864e-001, -4.27666741958155904868e-001, -4.86938946377584891412e-001, 3.64216060944725084081e-001, 7.41228433425714233751e-002, 1.42967772356602823569e-001, 1.83073242906948763231e-001, 1.17583455511019702167e-001, 2.14554715229144238320e-001, -2.70798849430818000528e-001, -4.76013183320328880921e-001, -3.77863361111503648360e-001, 5.18136254272059781911e-001, 3.39809274674553352114e-001, 1.39115732589170065792e-001, 1.23749751639721378149e-001, -6.31599074862063264435e-002, 2.00954041296045014808e-002, -2.09549186170740947555e-001, -4.65603451883504423914e-003, -8.92261464842397933328e-002, 8.97205537629162525048e-002, 8.92585761440490947638e-003, 1.39866602277772006380e-001, 1.32521441244486226640e-001, 1.05342765197138157895e-001, -6.35058326628951813619e-002, -1.03885073305983413605e-001, -1.33728845474240770619e-001, 7.17343864252669161097e-002, 1.82958543839251891461e-001, 2.84095268308542592273e-001, -9.05893244380084061707e-002, 1.55283104303011787461e-001, 1.06154994143357911396e-001, 1.50891035523708028077e-001, 3.57498719343835980045e-001, -7.61771145445963061837e-004, -1.37049877649684959113e-001, 2.17850125751512219141e-001, 9.01944307522445781755e-002, -2.64522097972828482138e-002, 2.45242467838440753036e-001, 1.27305036511474428673e-001, 6.06384405894409075910e-002, -1.07245750194948058498e-001, -3.73172177957739048537e-001, -3.07324789496373831921e-002, 4.61934417101778294068e-001, 4.33805438904308671155e-001, 5.53113046026363797125e-001, -4.06626934912470774930e-002, -8.07219399811802823530e-002, 9.07229084253351192313e-002, 2.47278593379241622141e-002, 1.49230496010051810751e-001, 1.97437045617457479496e-002, 2.79843985601763878268e-001, 2.80020769690709825372e-001, 5.21810497454508692705e-001, 1.65482713609607541561e-002, 1.61335758879665933097e-002, -5.48716801857559860478e-002, -6.67201271834076264922e-002, -8.36658409695570509657e-002, -2.71634875523227958816e-001, 1.73883872270907291480e-001, 3.23801502497167381645e-001, 4.05770264015522186263e-001, -2.05460173370200671616e-001, 1.07765002276389975505e-002, -1.40519277584700008621e-001, -4.31374293962796251378e-001, -1.63075700268624945721e-001, -4.07495240628902091751e-002, 4.01139986354566269178e-001, 4.09633787087731349175e-001, 5.27004126456135257861e-001, 4.27049144846317563218e-001, 2.31493959945359317754e-001, 3.92189273465573584598e-001, -4.16982008083786395702e-002, 1.61955207726842603799e-001, -2.92000143881813500890e-001, 1.11057519892671582862e-001, 2.37674179080733738445e-001, 1.77513075014343074676e-001, 2.21154876866374361377e-001, 3.64284602143403357655e-001, 2.26517601258077988513e-001, -2.04744230176545527478e-001, -2.68297777922198610323e-001, -2.42923425241074297798e-001, 2.03558370742068339698e-001, 3.51280749275777570695e-001, 1.59091761439516365950e-001, 3.39829487183592515720e-001, 3.27851743915790028172e-001, 2.57699193125289806316e-002, -6.77200583461047556089e-002, 3.18317796412139530915e-001, 1.19091002263268047612e-001, 1.24903838872185091180e-001, 7.31064814755288255865e-002, 8.09399348309180859118e-003, 3.34283066298216927081e-002, -5.68563894726877017138e-002, -2.52173018170175455843e-001, -8.39366229767989496802e-002, -3.38484488685993956114e-001, -6.88199709384148226865e-003, 1.81459241294202627826e-001, 2.40348445128449883512e-001, 2.07664345622656121293e-001, -4.35702355274469529944e-002, 7.84232659503254422861e-003, -1.15449958607909630715e-001, -8.13102916682495319156e-002, 1.66789498543055136892e-001, 9.76800844342170931922e-002, 1.89695724080711086712e-002, -5.74991238599085602301e-002, -1.04679277155949254641e-001, -3.83469425086202075903e-001, -1.17262616565302721372e-001, -2.88604100755663672828e-001, -1.97135859179979638922e-001, -2.21391843495673756870e-001, -1.53200449426861340374e-001, 4.09525600701298245210e-002, 9.22624548310289616104e-002, 4.48809144520838920744e-002, 3.45282185247684086926e-002, -1.02821279013724800611e-001, -2.36721763429005721546e-001, 3.67235964646071333384e-001, -8.70638605783168734176e-002, 9.42930573775540951942e-003, 1.07618655120014214410e-001, 7.21805626783014742109e-002, 2.40263348099236134781e-001, -8.76679275089163323464e-002, -8.71475243264608345761e-002, -7.36586648305368602019e-002, 3.97833682585998604786e-001, 3.80221578011257277385e-001, -2.05293075287367510207e-001, 5.14912480344803438065e-003, 2.21943268956216049892e-002, -7.26400171225939778052e-002, -1.57651120341289648075e-002, -3.24408468961388307683e-001, -4.29425113401050217998e-001, -2.40449162302567749638e-002, -2.23831411523468470914e-001, -9.52393690932065856147e-002, 2.17020315897176907516e-001, 9.82371657656823521476e-002, -8.61499780586958141537e-002, -3.28473668638393334618e-001, -8.83851216582642179587e-002, -1.06486915009795388154e-001, 7.13233440898907167238e-002, 2.64526414687218547339e-001, 2.26600335970403854446e-001, 4.18716076244690996178e-002, -1.78699541350144625040e-001, -1.07084302256591698543e-001, 1.18721541345644068799e-001, 2.68672990653971988095e-001, 9.95084413947907170384e-002, 2.10978181226578520580e-001, 1.92333429467891170450e-001, 3.09694560084487147122e-001, -2.55164378736053687469e-001, -2.75440934027203321310e-001, -2.56347640157332634647e-001, 2.59250923818884204675e-001, 1.06528880036040191071e-001, 1.94487738311690055992e-001, -8.39807266038995574309e-003, 2.80161230626085000495e-001, 4.57200661172233388529e-002, -2.53307918906456541741e-001, -2.63245527362243325609e-001, -2.38412286098268533241e-001, 1.46599791500375248310e-001, -8.94972868892194711732e-002, 2.37165588284058356794e-002, 2.09173133203211597531e-001, 1.98926639494782453443e-001, 2.17467751227552845428e-002, -3.39178057554531731110e-001, -1.87241281448041058111e-002, -3.53157070885945292837e-002, 8.64700511564165941181e-002, 5.91170328841124428920e-002, 2.33730150750291687523e-001, -3.08874198061908522561e-001, -2.64088301335880182297e-001, 2.48637241944061226917e-001, -2.98207051341819739942e-002, -2.15971628270549026452e-001, -1.72938821237648143736e-001, -7.95565677719141939317e-002, -6.68247308262066158635e-002, 1.51617678961337681853e-001, -2.34268018332279476246e-001, -1.86598505390784263902e-001, -1.61477483790372022820e-001, -6.13702782389487361270e-002, -1.59736631982641263949e-001, -1.80466261112925241417e-001, 1.64824891150410716284e-003, -9.56554158292951539622e-002, 7.63302293521026103962e-002, 2.39416172110028913078e-001, 1.93709324794921894375e-001, 2.42470847129689165422e-001, -2.94910622706967169571e-002, -4.41441939148125156445e-002, -3.18390418698539956477e-001, -4.09907133581113858334e-001, -1.08876225771400686471e-001, -1.50397248476042966203e-001, 2.06828886391162806990e-002, -3.42948860263503005341e-002, 4.98473126671658689490e-002, 2.50871235719474991455e-002, -8.75411960582702652900e-002, 3.17510581040098618932e-002, 1.56085135775850605833e-002, -7.65419074315624031746e-002, 1.51068975534564470253e-001, 3.86341327962395564288e-001, 2.90793204947675021366e-001, 1.48206819437529724315e-001, -1.26414775684451752280e-001, -1.55304305074828122996e-002, -4.98522342163336060206e-002, -2.10359543456147851659e-001, -8.82391601191492569445e-002, -3.47933077223028908165e-001, 2.57304830119729974203e-002, 1.21030044092985886173e-002, 2.50243375793294642317e-001, 1.27881142629758526308e-001, 1.43717921170243512208e-001, 6.29763890322458386173e-002, -2.90897882251068551351e-002, -7.86460642353295664997e-003, -2.46607977997941429926e-001, -1.94492899236198446555e-001, 1.98079074283533163037e-001, 3.24019950021457558975e-001, -3.94425844921070314908e-002, -1.20846247331128711644e-001, -2.22491875897995183831e-001, -3.19689093089017273286e-002, -1.88637518762728856325e-001, -1.02467920269525336607e-001, 1.46688123710897677654e-001, -1.40956872962760909607e-001, -1.18409065034320096221e-001, -1.12746344447201912731e-001, -2.13053425432550180840e-001, -1.61853426448211989985e-001, 1.57548517929434944707e-001, 2.49786340947634431797e-002, 1.28308689300273393030e-001, 1.24862666946397971035e-001, 2.69670834973459727646e-001, 1.87408828685170919526e-001, 3.19185066422111082124e-003, -2.15169992999390158328e-001, -1.40166360256741978629e-001, -2.30598361115033935465e-002, -1.45399547894031977435e-001, -1.08212379781962880765e-001, 1.50096219525405749629e-001, -8.04693538982275274885e-002, 2.41479335859905580586e-001, -1.32690720605663364795e-001, -1.52557993635336175409e-001, -1.71580088493636040425e-001, -3.16987995197993477348e-001, -4.60766709504104476913e-001, -3.96531814553764350162e-001, -2.02122126337420902897e-002, 2.48208127027732088077e-002, 1.58072710732366672470e-001, -2.19470108636273919522e-001, -5.34735424816046092666e-002, 1.07093414600377287438e-001, -1.37280840610780247024e-001, -1.64382077368468160206e-001, -2.43432619125470567356e-001, 8.60806426564246635058e-002, 1.94575725528396442643e-001, -8.83403076360755323826e-002, -2.87975065323195666966e-001, -1.35182640779459461999e-001, -6.57649319337191753249e-003, -8.84323888509603306396e-002, -2.02811667214577717733e-001, -1.16580926085716837792e-001, 8.74855994402101155849e-002, 2.69950545853443135691e-001, -3.83446199082549885051e-002, -8.63757598328839387714e-002, -3.33340472655180353190e-001, -4.67711952743225314877e-002, -6.72831138888918683927e-002, -1.09685259052995018325e-001, 1.26719644251277220592e-002, -9.32626378671345263038e-002, 2.60153455615761732000e-002, -3.02191506615336558106e-001, -1.96448548995676541828e-001, 3.07828780083734578066e-002, -1.27038325474030627804e-001, 7.25538669109299233506e-002, 2.62005955376546396940e-002, -1.47565767760369864758e-001, -2.20693375157664462005e-001, -2.10918983082471117596e-001, -2.93964570165793304124e-001, 4.54310638441649070757e-003, -8.34116263006212665942e-002, 6.86745790173359238473e-002, 1.22378379116153245681e-002, -2.80164999153241556229e-001, -9.72295964690589459289e-002, -1.88983146781619593124e-001, -2.50350918921411591533e-001, -3.21415615126409426328e-001, -8.11173277640563905599e-002, -1.84454635132013350374e-001, 1.80269769088664023882e-002, -1.28646127777868629627e-001, -1.06186761854902084190e-001, -1.92976770677011161270e-001, -3.48016851046372699408e-001, 1.35347667869660237550e-001, -1.48388880930304306593e-001, -2.16587974832248980617e-001, -1.48820609827134964220e-001, -3.72513693295895620405e-001, -2.12018060189312906871e-002, -2.35570252347160918882e-001, -2.00355358487825013780e-001, 1.02857973090336465849e-001, 8.69912217127072062706e-002, 8.92361367854987153070e-002, -1.24636535206289048028e-001, -2.40944170565105253434e-001, -2.83043374699319949528e-001, 1.13083788051612232906e-001, -3.68927362360599005522e-004, -2.68102414884073547707e-001, -2.16020675935293532399e-001, 1.47432841892782939830e-001, 1.37228095550252032764e-001, 5.78609848865775655558e-003, -1.01692441742862432763e-001, -8.38194651249160316286e-002, 1.78207314690586697548e-002, -6.83661330048484089383e-002, 6.77400029289162153301e-002, 8.30142430564672767490e-002, 1.86403833090630521863e-001, 1.07903277091171340141e-001, -3.21252255411764164883e-001, -3.58184009475350062512e-001, -1.19804521120056906014e-001, 1.37872315581917564975e-001, 1.06558723582528144802e-001, 9.20375112190382899113e-002, 1.49966204065752201080e-001, -3.26273240690138632836e-002, 2.59554473960967924118e-001, -7.03323032741450943073e-002, 2.10377588397309724100e-002, -1.50168492332837577585e-001, 5.99628412978676222922e-002, -1.17250005020190922744e-002, 9.35869489202048945864e-003, 1.60412830232113473583e-001, 1.21111490695587423194e-001, -1.81371370712433394035e-001, 7.77556642158012262245e-002, -2.48499932252155442125e-001, -7.44683597414155240557e-002, -6.46276053516177118041e-002, 2.20955423561569053170e-002, -3.02052149197392039159e-001, -1.47309251508101118899e-001, 9.04358161693822812377e-003, -5.87093164121938876354e-002, -1.60843177650069835138e-001, -1.37804127974150564251e-001, 1.03568863909682493119e-001, -1.66414108131971633098e-001, 1.35010178363147471947e-002, 5.75193732127779050467e-002, 1.23809997202484284307e-001, 3.05229751371101476476e-001, -7.50028146606826900955e-002, -3.79823595359953636308e-001, -1.89805615113350145684e-001, -1.48111177861708104286e-001, 2.39732305329392568483e-002, 2.10716956142943251384e-001, 2.01644875973085890841e-001, 5.79034465867570152797e-002, -1.79529589770426101225e-001, -1.30254591352283122241e-001, -1.77907552026422610680e-001, -1.91901828898024234826e-001, -3.84180273170421249240e-001, 9.90965064642008036655e-002, 2.82181683955788562002e-002, 1.38631933695004344598e-001, 1.59987594615402267673e-001, 2.03546754239243371520e-001, 3.60682417808057653730e-001, -5.69716411840936534650e-002, -2.63895258643856711611e-001, -9.92238777238290542426e-002, 2.53277116033950255858e-001, 3.17235416917855672647e-002, 1.19237611948284444319e-001, 1.14928147686291518004e-001, 1.57861734961947136613e-001, 1.10934317989499486856e-001, -2.47242201185099291783e-001, -1.98094962775891086926e-001, -3.43101814666940396759e-001, -2.84160758843286287423e-001, -1.47871017938770148853e-002, -1.73016797096798902178e-001, 1.08701613604672717162e-001, 9.45064488093813430403e-003, 2.45932172276142751999e-001, 3.77889214857435803974e-002, -1.61132653326012759143e-001, 5.07628758160843032710e-002, -2.15365270445787154729e-001, -1.57193387752935370694e-001, -1.84449835090301744733e-001, 1.06930651940451305199e-002, -3.07710904086322054041e-002, -4.32840390314085665668e-002, -1.94906363945514332636e-001, -1.39302390497697187177e-001, -2.16322520494360459598e-001, -1.28427199744972520001e-001, 1.90888334787467500719e-002, 4.18120593574972526651e-002, 8.74323248618020382184e-002, -3.49302627271282528643e-001, -3.02664950674901844785e-001, -9.39945722644307118943e-002, -9.08722114780441403425e-002, -1.59704365220912664070e-001, -2.38592607213384579057e-002, 2.19691066825624170544e-001, -5.93393727021597552906e-002, 9.27784779257260772134e-002, 1.00993345959440553039e-001, 1.16880004467971476689e-001, -1.50125368055035901538e-001, -2.61536596357893336151e-002, -1.31273854494467850929e-001, -1.01638759130338970915e-001, -2.87425290999046671725e-002, 1.78237564618214730516e-002, 2.45489501171165108717e-002, -2.06594258339103414857e-001, -5.69054845966420544401e-002, 2.90945800295913797884e-002, 8.60047507245549625043e-002, 2.81564207710688241271e-001, 2.39387012093092155229e-002, -9.14860446319650383318e-002, -4.90206518107155903019e-002, 1.92974467291933654556e-001, 2.71758934000669472031e-001, 4.75040314910560035333e-002, 1.18289104141539855308e-001, 2.08299112769821215263e-001, -4.30536607353237885110e-002, 1.60207539751190189414e-002, 1.10566741010280647495e-001, 2.19223899781575970458e-001, -3.26597662305483871226e-001, -6.19603247270180679251e-002, -3.86719223122036603879e-001, -3.00681581731016611680e-001, -5.18071748268260703907e-002, -3.44360665002476418195e-001, 1.85887707538107072036e-001, 2.29996799004660218424e-001, 4.31457130767186392006e-001, -2.08728136960896482055e-001, -3.04758377075409814250e-001, 6.02962962165404028902e-002, -3.64260001859073478947e-001, -2.77958414870733638846e-001, -5.94840829043823404731e-002, 7.95266613308803771432e-002, -1.83526357695687952765e-001, -1.61181028055115360687e-001, 1.75725656039909722272e-001, -3.07787447428291061069e-001, -8.71031397173954377577e-003, 1.56758528596589313819e-001, -7.28590974085126588666e-003, 5.31663204555085817937e-003, -2.10872670782303511805e-001, -1.46283107127567080924e-002, 1.93769228305300557358e-002, 1.41111182360714737527e-001, 3.07711553780242674794e-001, 2.68293137820692639828e-001, 1.07609053769141260748e-001, 4.91991910753701230941e-002, -1.00655820309088622766e-002, 2.01940495828565380609e-001, 3.79746838502172556762e-001, 2.21359578274719470681e-001, 1.20187801018890441651e-001, 1.68104696226608896215e-001, 1.15394784617031037621e-001, -1.39218983303427829012e-001, -2.90422062437126649037e-001, -2.25167878927327702598e-001, 4.90568541676142721997e-001, 3.08503356955700747122e-001, 1.45172921142572408648e-001, 8.36029018867831263950e-002, 2.41285947924472388149e-001, 3.86468209655756109178e-002, -2.76320029243987519418e-001, -1.63468561653363431141e-001, -1.80486411188722301047e-001, 2.53343545581731277583e-001, 1.06668488933919419770e-001, 1.57155611276299345125e-001, 2.30394277931258134595e-001, 1.19388151587296334477e-001, 1.00198963667021884172e-001, -3.95696083168981388445e-002, -1.14873531680890428319e-001, -2.13288625686989752328e-001, 3.07669861764052532394e-001, 3.16012209342681926749e-001, 2.13672168929514516567e-001, -8.90134303802830317842e-002, -2.77955706515529865630e-001, 2.46734761719136552749e-001, -1.73081451638880889909e-001, -2.05738329600311020684e-001, -3.23170640714709245245e-001, 8.69144160264302412244e-002, 4.82477904715991542939e-002, 5.53287412800450035394e-004, -2.21019335770644559380e-001, -2.00334996469751891457e-001, -2.16281137808886303464e-001, -2.05616698672406839066e-001, -2.02574085014663063387e-001, -1.36213259628460592321e-001, 2.62919144674438665099e-001, 1.33067261486424254224e-001, 3.82125531318334293873e-002, 2.30025354178596680432e-001, -4.21224556387913701139e-002, 1.16622484068764478704e-001, -1.19166032754154355144e-001, -8.69254214661347168747e-002, -1.78382355993434410513e-001, -1.39785825593533363786e-001, 5.10958219892857570810e-002, -3.16121415929460566896e-002, 8.86792485814589526161e-002, 1.57139352290868589135e-001, 1.86868800014430125334e-001, -7.63513263842746647825e-002, -7.60589983471784414348e-002, 1.03876580546116634163e-001, 1.45023600030734500788e-001, 1.25602345719882657615e-001, 2.18168230011536623536e-001, 3.12080800214622977595e-001, 2.68353417580529052255e-001, 1.26775583790976809073e-001, 2.66855230537283612258e-002, -1.94428548033087317259e-001, -4.26443949024706350781e-002, 9.00072354010656994205e-002, -4.40357311968890691167e-002, -7.77243320865956960342e-002, 3.34866420342772863616e-002, -1.84245978213361900552e-003, 1.92683848492308296141e-001, -1.66635212640525082195e-001, 8.04100470228261837713e-002, -2.24912796969594930285e-001, -3.91684961312555590673e-002, 1.13339926410581368077e-001, 2.50830549091611565427e-002, 6.49135690448142746445e-003, 2.19274006580006841638e-001, 1.63200551170474633667e-001, -1.61118356259668610297e-001, -1.70649456308288482997e-001, -2.33583128323309768826e-001, 2.20701944029519064872e-001, 1.24016871164578573739e-001, 9.98316152704566417420e-002, -2.71647663484959325450e-004, 6.03178988188464715314e-002, 4.90914463380301771545e-002, -1.85267732876773033590e-001, -1.12579476212345541697e-001, -1.40137595110354035155e-001, 2.58047064714578000544e-001, 2.63136881010291243110e-002, 2.28926586640637225178e-001, 2.50334337952956113849e-002, 1.06520273715733179709e-001, 2.36140649500801935723e-001, -2.00210191321425923228e-001, -1.82746934200086141864e-001, -1.73349743098604347491e-001, -4.39145351152626026159e-002, -1.17179948274526046781e-001, 4.05863947649521827898e-002, 2.68749259383593952499e-001, 1.75618341851398546138e-001, 3.22781942949417199884e-001, -1.78540317591656505503e-001, -1.55308281127561592649e-001, -1.41705614009698943612e-001, -8.48233787575034814399e-002, -2.73444606192172423587e-001, -2.60214227151189081422e-001, -5.18502542543339685170e-004, 8.32337935262804778924e-002, 2.47232057313334363524e-001, -2.07858991141860877105e-001, -1.59363455462863456980e-001, -2.45986163826142689715e-001, -3.56393195571957296930e-002, -7.22718635030177719569e-002, -8.89205755892091276316e-002, 8.93294046009516506945e-002, 3.56718297790079963416e-001, 1.40355671697685868704e-001, -1.44288588088137326171e-001, -3.97306834791221960557e-002, -1.44925601360239575399e-001, 3.00375592969483913575e-002, -3.72739564521520558293e-002, -2.25189183077050512904e-003, 1.19755460338463320946e-001, 3.60394934370073805052e-001, 2.61849584037593119401e-001, -2.68243878994886664202e-001, -2.33226625911094109789e-001, -1.42152999395008861061e-001, 4.14519696668626605462e-002, -4.97915963403740488569e-002, -3.19326771980704172960e-004, 2.74558573661092264473e-002, 6.97328402902474969727e-002, 2.30490436707431398111e-002, -4.37710580233903606695e-002, -1.10903385397057088757e-001, -1.43760150774249056971e-001, 1.18163920830782476212e-001, -3.59460543568018795618e-003, 2.37807507312708041325e-002, -2.34128429781018415623e-001, -1.98786386341603948935e-001, 4.93692609956122158144e-003, -1.34328921201972401045e-001, -2.43396109518335040933e-001, -7.06735261491933490496e-003, 1.84679825479054593451e-001, 7.33418342306477316628e-002, 1.32230003756764052936e-001, -1.42189790951399996910e-001, -2.39467906367559019154e-001, -1.68847767245307339712e-001, -8.95522116593312766941e-002, -1.52507551181823769459e-001, -1.24532016515945198609e-001, -1.08355820283064993581e-001, 5.83101554134291769765e-003, -4.30646958659195236430e-002, -2.16154514644180895111e-001, 2.44524756866213249795e-001, -8.97322587016584211073e-002, -8.60980163946143128850e-002, -1.96472877484391739156e-001, -2.80297828241892477141e-001, 1.64796341338591355308e-002, -1.14929499528322820456e-001, -2.15678033289556838475e-003, 1.29019204402705950363e-001, 2.16580049200885943472e-001, 6.00924147924409429722e-002, -3.57265409944151290933e-001, -2.52150657499054409172e-001, -2.82086265224167354049e-001, 9.15361537913690626045e-002, 1.35345821725530196522e-001, -8.86189064612060706239e-002, 9.57667897100803744426e-002, 3.25093073462021653341e-001, 3.74125682731004993720e-001, -9.63884042436102678186e-002, -1.86840535122342582541e-001, -4.86702426863227788356e-002, 9.46540424035679089920e-002, -7.85834129022510291529e-002, 2.65237033044591237474e-002, 1.13639404998900392374e-001, 3.73876672322815961635e-001, 9.15890779221759099293e-002, -3.13727942859080566329e-001, -3.34664621233205505924e-001, -2.90688999036006034959e-001, 7.43863019113802370619e-002, 2.28571585917733306748e-002, 1.59103851255368716755e-001, 5.71087785178062828928e-002, 1.46232734833644961725e-001, 1.89214361177489714949e-001, -1.28005558116113693501e-001, -2.42204981190754536913e-001, -1.15683564334759417247e-001, -3.19486443352811691487e-002, 2.90721761151640813170e-002, 1.90493376112599616112e-001, 1.89911273564085408827e-001, 5.53506214243066826941e-003, -1.44951553711268277258e-001, -1.52661758919815371272e-001, -2.99642358146388398943e-001, 8.89883341344828576736e-002, 2.24022259448832406631e-003, -3.77284678826924901873e-002, -7.24722462390367527796e-002, -5.09394372081873186842e-002, -3.47236126038766301782e-002, -3.67052890350972119138e-002, -2.56677438234588550792e-001, -1.94384727115531980024e-001, -1.17845790204985076399e-001, -7.08087256956514976558e-002, 1.57311859001110554424e-001, 2.51264515118043256503e-002, 1.42248545737309273207e-001, 2.29135491631746762708e-001, 2.15196085425228139654e-002, -3.45414953011971059826e-001, -1.75800019115587652374e-001, -3.45165309577291745669e-001, -8.86167246799186986150e-002, 1.77476326306703013902e-001, 3.81923195492042399923e-002, 2.11075784936415766779e-001, -2.81100773834601809498e-002, 1.09392761268606864000e-001, -3.29068690999336832537e-001, -1.40109900256354252823e-001, -4.56879799552969256826e-001, 7.61373365283826847305e-002, 3.32166538594738450230e-002, 1.67989376675840212938e-001, 1.90545025890533292756e-001, 2.55357414550822892085e-001, 2.85872071438197761228e-001, -2.68830932524584433063e-002, -2.23462300999662522027e-001, 7.61431395916536621349e-003, 1.56712096948806667296e-001, 1.02298058715083031722e-001, 2.83211993033606668213e-001, 7.00362151593458270860e-002, 2.40173971647510142713e-002, -7.33845532681264983710e-002, -5.98141210264980238698e-002, -2.14041828600421257800e-001, -1.70581904442581838710e-001, -2.01943673857636257774e-001, -8.49012087706504242623e-002, -2.03118142127958006826e-001, -2.99560043607887994954e-002, -1.49392404263434724898e-001, 1.69216729845987901015e-001, 4.24832998162626672423e-003, -9.83043840733534013410e-002, -1.86767767052834376962e-001, 6.08726982124908454902e-003, 5.53310066981021857202e-005, -1.93959467580831559919e-002, -4.66367662739328725507e-002, 6.14005645769427552128e-002, -8.07899165052809176135e-002, -2.20017324760961086039e-001, -2.84325077031460149435e-001, -6.10777535338423507860e-002, 1.33754077801360060640e-001, 1.07172061181283931330e-001, 1.85666027646728404310e-001, 6.18969432653690143642e-002, -8.74290250427702947400e-002, -2.43190713709077327431e-001, -8.01442968001921940413e-002, -4.80500950007960864196e-002, 1.08914601937719589253e-002, 3.46763378263657525216e-003, 2.51064515141443789226e-001, 1.74233208758539065419e-001, 7.03136530714957158628e-002, 1.66151707202522425089e-001, 9.03063913247252880723e-002, -1.56264766674600735774e-001, -9.25243208050289950295e-002, 5.91784938366881549388e-002, 3.49876743321081429272e-002, 1.69018536222776613598e-002, 1.04142763154602309428e-002, 5.13476765145221905606e-002, -3.43261661535537027090e-002, -7.77222837725101770023e-003, 8.30767861017464859241e-002, 7.52519625541955838877e-002, 2.31259098574742999466e-001, 1.95552659299751824262e-001, 1.27259795443708939588e-001, 5.90928453513011459064e-002, -7.70971722769184936164e-002, 8.53992678752603512349e-002, 8.46051908579455586024e-002, 2.43359724384749679087e-004, 4.22246266959762917015e-002, -1.25520485096683370729e-001, 3.51677040739598253949e-002, 2.98444035013728792283e-001, 2.71633755857148440072e-001, -2.41129164868589013215e-001, 4.77525377289508418110e-002, -1.66742855624767927214e-001, -2.62323497984866205179e-001, -9.36927093961745643957e-002, -3.50131631441448765152e-001, 1.13785748887852769529e-001, 3.34335368537948762757e-001, 5.10801766011296454195e-001, 6.84378251879601690044e-002, -1.83696416787092808853e-001, 2.76265410774976627462e-001, -2.12026347179018609390e-001, -2.65774892118509631356e-001, -1.28330812281905293215e-001, -3.42846471025764321094e-001, -4.03392974914344004667e-001, -3.81419680991938681025e-001, -8.02352207302453185322e-002, -1.32008625724231221099e-001, -5.02457462254363648735e-002, 2.05430290150642347324e-001, 1.41968455041704133546e-001, 5.65175565381572583834e-002, -3.68750944444880157658e-001, -3.97845708943412812442e-001, -2.37175646284612212655e-001, 5.54007215423051244119e-002, 9.86425517791554157254e-002, 1.53480622440670642914e-002, 8.84116971052398420428e-002, 1.85109965537211013098e-001, 1.96009797271660957119e-001, -2.99945653606087270227e-001, -1.52695027492685042603e-001, -1.78891407347343073253e-001, 2.07577233664119828460e-002, 7.96949619548032034411e-002, 5.42092228114653615356e-002, 1.06459583245228098236e-001, 9.87637678086523834731e-002, -8.89220025812811377952e-003, -4.29069930196735518924e-002, -1.96994950577728145102e-001, -1.60949853886570765082e-001, 5.18872046736438968795e-002, 3.14042653502517241093e-002, 1.47523243097717832173e-001, 1.57315118849975926762e-002, -6.32917017741041060264e-002, -3.66265408073708359504e-002, -2.76684662598221442487e-001, -2.12435604675932837582e-001, -2.40744019421533367309e-001, 1.27342328968620216445e-001, 4.18536493011720314716e-002, 1.12959166438095268137e-001, 1.01210331756363625111e-001, 1.07313353694869897947e-001, 1.24839650404103587322e-002, -1.15255794297058511422e-001, -2.24426778247369645980e-001, -2.42752856867589544843e-001, -1.09973892213952751523e-002, 1.77205543500076373627e-003, 7.91776151865888899728e-002, 5.09586076696664884433e-003, 2.26145706421822141607e-002, 1.28132462613638281601e-001, -1.16349790936140964903e-001, -1.17443783358725989396e-001, -1.53440464068380827412e-001, 1.91161709920938081841e-002, -9.44919832334004672347e-002, -5.38949661031589075111e-002, -4.79812078163066868530e-002, 7.12939490434063016799e-002, -6.04838028665542759565e-002, -2.84173968024712342295e-001, -3.56058797127664139470e-001, -1.62157854182559235667e-001, 1.64028259185234268069e-002, -1.20411938944735910639e-001, -2.28488390192092237496e-002, 4.48247756616110479277e-002, 7.77358402895450967263e-002, 9.56175897102548577600e-002, -2.75787298097811217623e-001, -1.22607026081730061118e-001, -3.02007907874922099101e-001, -2.80141642105316349132e-002, 1.05809748597914463075e-001, -9.57006410030291493340e-002, 1.42106087859217744551e-001, 1.44743986579091099554e-001, 1.79908301315794827424e-001, -2.62605530836634071257e-001, -3.19710336952718832126e-001, -1.81224417213869476440e-001, 5.60345679278791627964e-002, 1.86748917932142016740e-001, 7.76657291891732076694e-002, 1.71700106548671016515e-001, -4.95263860778954404657e-003, -9.87803462458159906023e-003, -2.42382824947628111589e-001, -2.51596683854911462586e-001, -3.53956715394428633736e-001, 1.19092194055448394319e-002, -2.79276198749399372223e-002, 6.46089473049533680182e-002, 1.00678301848516213446e-001, 2.02190875327359270708e-001, -2.60179583589373875085e-002, -2.23043553148095569094e-001, -1.01834328529766204863e-001, -1.60138368596673436040e-001, -1.17739690974961508374e-001, -5.23402358811324297516e-003, 6.04880640187196033652e-002, 7.38971871165381294366e-002, 1.32847477066980745875e-001, 6.09771330486665995990e-003, -2.55840112989991153025e-001, -2.62304782676497094673e-001, -2.09105083993184448499e-001, -4.60233369570048067576e-002, 9.96407389434922491356e-002, -1.34775225394361514164e-001, 1.03603923794780339307e-001, 1.47107294212013878232e-001, -4.00175927744045173418e-002, -2.17805030289687145961e-001, -1.95048231033121577394e-001, -1.71880301004585012148e-001, -8.69626735255330102214e-002, -6.66931869248900272007e-002, -8.52200106722381528490e-002, 1.08506729743385918474e-001, 1.34161882786072300666e-001, -3.32225069137489920079e-002, -2.09027963253922421938e-001, -2.47665157765783738864e-001, -1.51626895004529527178e-001, 6.21547481631005288572e-003, 8.16245182850509065631e-002, -3.64757796307012688297e-002, 5.12144924160065628804e-002, 2.84824120104033781664e-002, 5.31315092083226650499e-002, -3.06292803055784323973e-001, -2.68913654093771603559e-001, -2.74418131837630252523e-001, -4.24197265351571456415e-002, -9.47578861148268836168e-002, 1.39008435849635542114e-001, -1.13432787328149563277e-002, -5.92918526350743602116e-002, 1.63563136197002162442e-001, -1.41036043515455206121e-001, -1.98339893760210744800e-001, -1.56416048621442510536e-001, -2.54348903778664689468e-002, 6.79767990358281365415e-002, 1.99215188903354399608e-002, 7.31582225432748783911e-002, 2.39492616472413988316e-002, 8.62626734087482277546e-002, -2.38106638358094396812e-001, -1.82681227184994104951e-001, -2.33149322150409121779e-001, 7.01944102996459456945e-002, -9.08098415861270658045e-002, 4.81066952773975820001e-002, 1.18991891841029345800e-001, 3.48606856052912986166e-002, 1.07960324797773413175e-001, -3.06504073469739901636e-001, -2.44878889865057042252e-001, -1.70453990180468334392e-001, 8.83834558970154338109e-002, -8.68231921865135619631e-002, -1.32646765201859168082e-001, 1.05800341309289183678e-001, 2.49324455263506029878e-002, 6.65411827378305648084e-002, -1.97531299185576603161e-001, -3.09640151470797930777e-001, -2.37736017052597808918e-001, -1.24512050617346173298e-001, -1.31601212282497992412e-001, -8.60040667956071119837e-002, 1.16719554490994331664e-001, 3.12460913024329529561e-003, 2.01416908436340302835e-001, -1.59115954632753658915e-001, -3.50534162724506992426e-001, -2.45296105135837133604e-001, -1.29903263411992125897e-001, 1.44148447879725912640e-002, 5.11114052687544548337e-002, 1.69776593279324844454e-001, -6.11769139071244132111e-003, 5.85275528919176335485e-002, -2.41434065063456715361e-001, -1.19817845732144379056e-001, -1.97131966525670027091e-001, -1.65980075488934369909e-001, -7.69316756614878416443e-002, -1.11542049702563608737e-001, 1.61257970662577160281e-001, 1.07248580857300004898e-001, 6.86112297599154319361e-002, -3.07841176221652246259e-001, -2.75325617181074344675e-001, -1.75806194175796154378e-001, -2.43789794177007926312e-002, 1.34384188489876446604e-002, 1.13931373719349485207e-001, 1.55748231539640877991e-002, 4.55615731320414205086e-002, -1.60671415831885530667e-002, -3.17743587316851427982e-001, -1.30593742670295137609e-001, -2.02482783168118712913e-001, -1.36238000017047278245e-001, -1.27459250780359328870e-001, -1.08946766908038034094e-001, 4.51191704497967971399e-002, 1.64979436517796423933e-001, 2.18506645946314664863e-001, -1.83107983559387760275e-001, -1.56420323436630176461e-001, -1.94847299262373457873e-001, -1.07141996038837533645e-001, 1.88658238893146257276e-002, -1.14674027836071057429e-001, 1.52818301346432754151e-002, 1.00745752135321761656e-001, 1.46416257730871881421e-002, -1.83886450015924213242e-001, -1.34855832282123000443e-001, -1.40534641898768103419e-001, 5.15678456433744589194e-002, 3.67105230155938822012e-002, -6.20386702088100705499e-002, 7.93520982866097457364e-002, 1.36228463372463776127e-001, 1.18958257423567706490e-001, -3.22482586782409319515e-001, -3.05536434400976497638e-001, -2.95790541329279843552e-001, -2.98950803679416468595e-002, 6.85980213569570840271e-002, 1.11383111169647882471e-002, 1.17481179847163760832e-001, 1.10280962458153164452e-001, 4.24526437696444922110e-002, -3.16679060319548011382e-001, -8.74389169118593573282e-002, -1.84848025754700606704e-001, -1.56691447418044575712e-002, -1.14161812862403386215e-001, 5.77344326011364622486e-002, 1.42624411854697902280e-001, 1.91993265320410971819e-001, 4.15239548126776075732e-002, -2.49523393765920586951e-001, -3.03742195358697453234e-001, -2.52568055850168560195e-001, 5.47172354608728359060e-002, -3.49873394280821245483e-002, -3.19870679470345559148e-002, -2.94883859167250940436e-002, 1.24152991496904646640e-001, 1.22976632848302791512e-001, -1.53352513528313305624e-001, -2.58453393054678348673e-001, -2.47442027834794381347e-001, -4.24576050577605140779e-002, -8.78173174872359102450e-002, -6.18561096954350700394e-002, 3.48953714602559875169e-002, 1.10321172507739803659e-001, -1.48117498233413837083e-002, -1.14963908236921624750e-001, -2.91446186404863305519e-001, -2.77925386239961713652e-001, 1.08193432735548596829e-002, -6.80994744573564375623e-002, 6.08173199818931725646e-002, 4.67643289566331971097e-002, 1.42471337330652259023e-001, 7.00245496233160326371e-003, -1.27014609351568275031e-001, -1.76644418945045289515e-001, -1.65691313612107593567e-001, -8.54478591475341248129e-002, -6.54299528709307871149e-003, 1.24154474385853915569e-002, -3.18890402159830799525e-003, 1.29865177144870697079e-001, 2.42757086611611327953e-002, -3.72134193534563340044e-001, -1.12241893498242845117e-001, -3.24706265323291776159e-001, 2.66040870726340118735e-002, -5.25138612625352732555e-002, 4.83799324572587174931e-002, 1.00570141657683145842e-001, 1.23348243321080922041e-001, 6.76577023665694693433e-002, -2.95450500398919291278e-001, -3.52703215697349692359e-001, -2.10563897182833692501e-001, -3.49676965800774786075e-002, 4.55042278904835076347e-002, -6.73615944672588395914e-002, 1.61255135709892916118e-001, 1.14319294798041995453e-001, 9.34854005251361946938e-002, -3.49252701057730818857e-001, -1.55563163078653449167e-001, -2.45950305204894303923e-001, 2.06065553920675159638e-002, -2.29019311462386777889e-002, 3.42022802875552797697e-002, -3.49958132081198622365e-002, 1.70449646943892335615e-001, 1.34273999088457607343e-001, -1.95746448753885526894e-001, -2.50024182738014189020e-001, -2.21280510317260536990e-001, 5.71037408955441250225e-002, -1.93414043458663351127e-002, -1.16119029468694220930e-001, 3.41873529483749730162e-002, 5.03184336131931239655e-002, 1.09979556457529326075e-001, -1.98889193386181967194e-001, -2.96568252678346300222e-001, -1.52169878461256763424e-001, -7.61510561737041152819e-002, -1.11325377535169772747e-001, -2.20692219547097001620e-002, 2.22008325644949933153e-001, 1.40747787000432778015e-001, 7.22522914292693385629e-002, -9.30510029478379824264e-002, -1.17086991393707318121e-001, -2.19172680225686700162e-001, 3.01614592302028063087e-002, -1.05161725598610644727e-001, -1.98003444442413412130e-001, 1.14773693694202455484e-001, 7.87942278806804952129e-002, 1.33515691692348031916e-001, -1.10743317808260882673e-001, -2.34315470287378646574e-001, -1.23359217156006506499e-001, -8.90175634719696795560e-002, -1.11115769444307094238e-001, -1.39317017485744265581e-001, 1.35009789274346259091e-001, 9.81720539524966739897e-002, 5.08774212254688093515e-002, -1.40501754234101550178e-001, -6.73374393305260637854e-002, -2.18775375017990714177e-001, -6.99751308498849228235e-002, -1.76594096763884267354e-001, -3.50613718970477147852e-002, 1.48747004956087974792e-001, 2.04452679618190524824e-001, 2.22701759188197075112e-002, 1.91237488100370833788e-001, 1.96711146910527656662e-001, 2.31003447421883750801e-001, 3.50600567858333003746e-002, -7.45563396017671353722e-002, -1.40895528440234507617e-001, -1.38169268606889689144e-001, -6.39450281489454264161e-002, 8.56052176387600560759e-002, 2.07119766022427403973e-001, 1.00982687343406790648e-001, 2.27343024454114278621e-001, 9.42616161224924670181e-002, -4.13268494770786115611e-002, -1.36477966791529098378e-001, -5.93413752687083420612e-002, -6.30698003644066390594e-002, 5.75271636345948828017e-002, 6.60240856689127686430e-002, 6.61051465744246944875e-004, 9.65885940974094692191e-002, 1.25739898909116409875e-001, 3.80257228987581491486e-002, -1.00001899030056906614e-002, 1.68086000650733896622e-001, 1.10740769847872191911e-001, 1.81509901158780989627e-001, 1.48205333894034785303e-001, 1.22724022963641113404e-001, 1.28527433503726862263e-001, -8.48822903846268295158e-002, -3.99376452894957267858e-002, 7.07816214463947712687e-002, -3.74491226558897535859e-002, 1.04012241266501229142e-001, 3.03789659732668203967e-003, 2.14515238035467653566e-001, 1.67773921317151769594e-001, 1.14873933577624293134e-002, -2.92371781732928860686e-002, -1.21532440674278208181e-001, -9.85540065310074432994e-004, 1.10242501058983533024e-001, 1.27685902407004225889e-001, 6.03553761022816714910e-002, 1.91277455685253977569e-001, 3.48245688056720986703e-002, 1.17832919595543650360e-001, 1.77945111241770703714e-001, 3.37418346882217921184e-003, 5.66051470541927698177e-002, -3.31976182012413759126e-002, 7.06100768446138588041e-002, -4.19885210349135590269e-002, 5.43732492764252769990e-002, -2.65519529412640217791e-002, -1.18307747688204695918e-002, 6.37392135663374242993e-002, -6.56525306368947736413e-002, 7.87094428979000643176e-002, -1.22388998556679368113e-002, -2.08043318144674541093e-002, 5.00294376426838952043e-002, 4.32414447830217207880e-002, 2.26256414233496488952e-001, 1.28965468128883514742e-001, -2.73173429957273596058e-002, -8.06771677252695051941e-002, -1.21747020335380568001e-002, -1.47252555232774435395e-002, 2.86645390896020542393e-002, 1.99775671025766978980e-003, 5.43390155602622229591e-002, 2.06538291043259797375e-001, 1.08560713474006254042e-001, 8.11928139684308242119e-002, -1.03277443977501146022e-001, 4.81023509356307173157e-003, 1.10475184759681932523e-001, 2.00224707247643671226e-002, -1.66979785322575527418e-002, -6.24453116535417761257e-003, 1.60356083607775118383e-001, -5.11062375866045345840e-002, -5.11064209174502750987e-002, -3.93909022743938186384e-002, -1.11975114426051319816e-001, 2.74107081025454432655e-002, 3.80209731991255350803e-002, -5.56176128061126318070e-002, 1.32251344389906960730e-001, 6.90794802246432748660e-002, 5.61834286681881373005e-002, 9.52951696642362344747e-002, 1.15570874855789554325e-001, -3.95994609033243072371e-002, 3.62581244663490245839e-002, 3.78361686021005672043e-002, -7.42256860272755142338e-002, -1.62099664354564063085e-002, 2.97163193479599227476e-002, 2.29767429117932270310e-001, 1.00846499534276795584e-001, 6.29029639130604112385e-002, 4.57049830724697708773e-002, 1.30881002667283641294e-001, 9.15484221523584495994e-002, 1.50245168262741035647e-001, -2.18014328315908629402e-004, 1.69300060909748639748e-001, 1.51812960722009809844e-001, -9.46288235288872958684e-002, -5.06168520691141210488e-002, -1.47340967449187093541e-001, 1.90302237712682564830e-002, 8.83097983878302315863e-003, 1.94999183665173526914e-002, 1.21372496210317953880e-001, -4.33260008853515177218e-002, 2.48688077463460541217e-002, -1.11805416973282199106e-002, 1.14613566999828733750e-001, 5.95375765065264475617e-002, -4.26424043188160586948e-002, -2.94244342015311209637e-002, 7.48318863162986680493e-002, 1.11891684423819914862e-001, 1.83332960987234727668e-002, 1.13462296929482106544e-001, 6.76368403094506076556e-002, -4.06390561010655688989e-003, 2.35037839563693659595e-002, -7.83338953982078700644e-002, -1.18941803666980053245e-001, -1.67362943222425513030e-004, 1.83618671330280147647e-001, 4.07537982001550808109e-002, 4.37066451253026108659e-002, 8.13429749973039323274e-002, -5.72326322531166511998e-002, 5.39870447192064978337e-002, -1.06116548939707580623e-001, 8.10193879531483224232e-002, -1.12024365910056683537e-001, 1.11469192441203332478e-001, 3.49282609278685346466e-002, -7.06548043620717769464e-002, 5.55233028621635246735e-002, 4.84688279394494755947e-002, 8.44064160841949406855e-002, 6.71276591152260987405e-002, 3.31339574982727688712e-002, -1.73163054055587295466e-002, 7.71827671771590229088e-002, 3.13139201328279451197e-002, 1.40202981895840971677e-002, 2.81303308067729811517e-003, -6.67277302610807566963e-003, 6.72667234473996872302e-002, -4.36501084318417359453e-002, -1.80910317729126440822e-002, -8.31046612396871831052e-002, 2.03271415776191760605e-001, 1.37353771118240486349e-001, -1.57349211908811709160e-002, 1.56429320479397032662e-001, 1.72915426243811093387e-002, 3.24880381253749780934e-002, -2.66801136231589811065e-002, -2.22072000192074028857e-003, 4.63302864592331567484e-002, 2.66133736559818590006e-001, 1.07494554263827521434e-001, 9.06335233592339833963e-002, 7.07059960259918268699e-002, -1.27547805649972451070e-001, 1.03018097960649590572e-001, -1.10279869547992265266e-001, 4.25646449344640118162e-002, -1.03783557410763505047e-001, 2.27943582655564004613e-002, 1.64170418588902689017e-001, 8.87653035530805711861e-002, 9.53484606493668479521e-002, -5.54595708303920048587e-002, 5.03948344272208553773e-002, -9.98487653860839763365e-002, 1.60426771866287974644e-002, 2.83917855680604069857e-002, 1.45465215570418443525e-001, 1.77083126283217540120e-001, 2.23470396060304304919e-001, 7.38709999320468352346e-002, 1.35352671563514825870e-001, 8.76470096896789924168e-002, 1.19565544662527070696e-001, -1.03753985676418261641e-001, 1.73263155858325475223e-002, 1.23048295700050797086e-001, 1.39537177867547906862e-001, 2.82960506934968533677e-002, 1.20546933469954358625e-002, 7.61373774351182253106e-002, 5.54069757462507389567e-002, -1.31460042626138401585e-003, -7.78639083077620336448e-002, -3.23551083377129830576e-002, 1.08917072555651292531e-001, 2.41785268859349838921e-002, 1.22776102923037810921e-001, 6.80266093710845953790e-002, 2.65935356170416206667e-002, -8.68189169672698574098e-003, -2.59748988245216069770e-002, 3.10719058902259731569e-002, -2.91239375598348372576e-002, -1.83249498312390603216e-002, 1.59718924167318337970e-001, 3.72189874744882848515e-003, 1.18397798897499906268e-001, -2.38008462284687513644e-002, 4.43748211115741406085e-002, 1.71924954898904996936e-001, 1.35774217397950813790e-001, 1.58579147536083514547e-001, 1.25837734166701603611e-001, 8.11967178853296306373e-002, -4.11129973156855732519e-002, -3.42827442585912009476e-002, 1.39063609010710659275e-001, 2.60208513931384048667e-002, 4.26461358589676903241e-002, 1.08002566501051496667e-002, -1.13508106434173916544e-001, -1.77792970653683768401e-002, -4.23261924299210001710e-002, -3.24496308668221072891e-002, 5.04647372459520460186e-002, 5.37930266562728978674e-002, 8.00378013982345898336e-002, -5.62437907351740554174e-002, -9.10576334789395397395e-002, -5.18796656684911011714e-002, 1.99418879262522164009e-001, 1.43439360019229883436e-001, 1.76922240450884643570e-001, 6.75595265371064512827e-002, -7.15780025486728727069e-002, 3.88891437166680284561e-004, 5.75946791371131482790e-003, 7.53886501195828451216e-002, -3.21902216352403375277e-002, 1.16440010442265873269e-001, 1.46094651056027063918e-001, 1.86917217022308096430e-001, 1.24750634472482843651e-001, -5.62793261983209822108e-002, 7.87792886771067762952e-002, 8.66215878559967178418e-002, 1.12780530236209944328e-001, 3.33265256769651740942e-002, 1.61629279224572083851e-002, 9.59367183041596599535e-002, 1.15339185389921466962e-001, -6.31102879855644227636e-002, 1.80430499601988120206e-001, 1.25875612202601492445e-002, 1.18120118934794710031e-001, 3.18372065917019164694e-002, 2.00976982711338798826e-002, 6.78303342702069600456e-002, 2.01330645968669424972e-001, 5.72722397340428290846e-002, -8.56298294270603915779e-002, -5.33034080226207698794e-002, 9.06385889013888029764e-002, 1.31686943693686581147e-001, 1.00123390183468594095e-001, 5.83198126768234305882e-004, 1.15868378793567677887e-001, 1.20574183745738514051e-002, 1.26937446749514432076e-001, 4.49852302696509328411e-003, 3.27674267737464580685e-002, 4.87172893714793789344e-003, -9.47575213774158771340e-003, 4.44752396097792060403e-002, 8.83529198452773778527e-002, 7.33203796970650634179e-002, 8.50618659323432585451e-002, 1.90261323859502000377e-002, 4.42971884982741037629e-002, -1.13413597005553257180e-001, -2.96901181268919116263e-002, -5.91524096664598070250e-003, 4.05210069178455339900e-002, -6.63226253022019540673e-002, 3.07548733660937892442e-002, 5.87106434966936652220e-002, 7.43624213046037985109e-002, -7.87246342222195499838e-002, -7.05105511416639629818e-002, -9.59351071331021598709e-002, -1.27970556460547835176e-001, -7.94573426405610766521e-002, -5.25244389938637756821e-002, 2.82207135952138934987e-002, -3.13936239470590378042e-002, 3.38761420072662550185e-002, 1.09010998766980768404e-001, 9.54819129126963650478e-002, 2.44478604537782501227e-001, -4.38451070459919198252e-002, -7.23274456623405892497e-002, 5.68902588236134335031e-002, 1.41936448834793893514e-001, 9.72890040049826515522e-002, 7.96295172790175698196e-002, 1.62669519325739281301e-001, 6.58315482808928265079e-002, 1.75513648076020961630e-002, 8.64917692416710820469e-002, 1.74347147290601460490e-003, -4.56711196827228743667e-002, 1.42953645555239067244e-001, 7.65062066057126677343e-002, -6.62521811318309561400e-002, 1.12071185149296953520e-001, -5.79912570432026836659e-003, -1.41908241298511102191e-002, -7.57878012006134998968e-002, 2.50483900111982057957e-002, -1.44464269267148646275e-003, 9.34103535844974519620e-002, 1.36920791811107195324e-001, 1.38993079393391255616e-001, 8.70377775294322725275e-002, -2.10094495004913353609e-002, 1.25917284479599794755e-001, -7.49785206613834270817e-002, -4.37345308347976552410e-002, -3.09517606309336959503e-002, 1.59620063263314904134e-001, 1.47277226959181217758e-001, 5.30066409211463820950e-002, 1.39443788817878583375e-001, -2.97366486601755054819e-002, 9.26530593043315420232e-002, 6.87001459983330314829e-002, -7.95402271133295313277e-002, -4.10111570751515164268e-002, 1.18246027155558992849e-002, -3.56457499614072914618e-002, -4.11194993585982521145e-002, 1.74855723271224339221e-001, -2.11929240361966933492e-002, -3.14549669107347246166e-002, -9.86484161539832038468e-002, -8.26878275545170349226e-003, -1.44732235971685496700e-001, -1.56450999217924227591e-002, -2.98968206376856338036e-001, -4.28657486924732211708e-001, 2.36435899698873158714e-001, -2.69866719972157775853e-001, 4.33690753406528808900e-002, 2.21046899934556201339e-001, 2.36573029729648220965e-001, 1.81990521961800322259e-001, -4.95250718706656878343e-001, -2.43358459812251404220e-001, -2.05584851073159630142e-001, 7.73669636653320086372e-002, 2.99717182672973425639e-001, 3.82615393799275060882e-001, 4.37037241595362169200e-001, 3.97613363845815637188e-001, 2.70108835771299071737e-001, 1.67807708460963128649e-001, 2.37614700573392984007e-001, 9.56581937489099122518e-003, 2.61757386693380333931e-001, 2.10567868742606051358e-001, 3.49887272192563270057e-001, 7.38232751451488172778e-002, 9.86755811867961740713e-002, 1.06817373947506025211e-001, 1.67554947378333263242e-001, 3.77507770313601428991e-002, 9.24748841066971999370e-002, 2.74008239845719370198e-001, 3.24977043902620055249e-001, 1.52849439909067907895e-001, 1.63839454962255742787e-001, 6.51851400463341890124e-002, -8.96651650789532378427e-002, 3.82908849443555701630e-002, -1.40166332739715460143e-001, 1.36094504803059811182e-002, 4.16102975665605501199e-001, 2.57672556372160632687e-001, 2.46449438993108560503e-001, 4.20438340202207508356e-002, 1.33300057965959173334e-001, 1.62108565662176740130e-001, 2.55062505232982406067e-001, 1.02153158035601612785e-001, 2.45536888508741973913e-001, -4.31925306521387109004e-002, -5.03070726814373245239e-002, 3.18698394341850377298e-001, 1.33919696365279589090e-001, 2.59309126402892456409e-002, 1.70263804921411132653e-001, -7.69028741662360487696e-002, -4.43142383275559950673e-002, -1.40172036180541109696e-001, -1.64689211144564362499e-001, 3.59738253859406068025e-002, 1.71626289823361803666e-002, 7.65371514103736216850e-002, 3.04035134167113391124e-002, 2.92167159322059104276e-002, 2.71295471617942651754e-001, -1.03703369134566139587e-001, -4.80780941144787407615e-002, 4.87171869465572227043e-001, 3.24207782694709678584e-001, 3.87376272352951078748e-001, 1.08429977816290573633e-001, 1.77736305650879389262e-001, -5.83067146425807827925e-002, -2.57665888104995799424e-001, -1.33508518442717050156e-001, -6.64708995892569487474e-002, 1.76431133077729729308e-001, 7.50673302206527198743e-002, -4.77077676315425455722e-002, 2.63325180309689599323e-001, 2.27093917331175371155e-001, 2.71330073099395552294e-001, -1.09158564275130515187e-001, -1.98158462457197426243e-001, -1.10217960002000819886e-001, 2.68664430390230579704e-001, 3.95570217503882048948e-001, 9.77998380717171877929e-002, 2.50958389161524741962e-001, 2.45440119908252374348e-001, 9.10645894361552521445e-002, -1.15570053260455954391e-001, -1.34589354891091306232e-001, -2.11198192928248790201e-001, 1.36356020089049456701e-001, 1.91721842024841576668e-001, 3.49948572920866785019e-001, 3.73099189309782433566e-002, 3.83395065996576411838e-001, 9.52934470653658688422e-002, -2.99153311106565879263e-002, -1.91731277183009668486e-001, -2.33767969388065571801e-001, -2.15265352073392562948e-002, 1.42231129778950943221e-001, 3.65818255533650826816e-001, 2.38194782172829383482e-001, 1.18869680012785444712e-001, 2.01775085560141370644e-001, -1.29094446701754628215e-001, -8.75216544979177529795e-002, -1.10808640584919883276e-002, 1.86479097715969349691e-001, -6.99762663093882464338e-002, -6.57834831245895645946e-002, 1.23954380911907330320e-001, 4.09087307482916377743e-003, 1.84268181810292391853e-001, 7.04074525028689918171e-002, 3.13647853877971199976e-002, 7.91305105887437632006e-002, -9.64333004439846958045e-002, 4.38339140871023824619e-002, 2.85211323972919816860e-001, 4.15570179348994650503e-002, -8.11790473411275192994e-004, 1.15829107302576991834e-001, -8.08726039299237781099e-002, -1.37012634437538916021e-001, -9.92246125394465466885e-002, 2.43784562291714912430e-001, 2.26553474977193552986e-001, 5.74625774270666078714e-001, 7.33931012717245756516e-002, 1.78854095213496433470e-001, 1.24336062686548898260e-001, -1.29887475552373343746e-001, -5.32607961887313630100e-001, -2.40135921421133630149e-001, 1.45614881627297090838e-002, 2.27924189918283642831e-001, 2.55701652732961692838e-001, -2.07695970965907195094e-001, 1.10470302120839816706e-001, 1.69398889914620626174e-001, -2.61724232891979713411e-001, -3.95405589615861363662e-001, -3.53509822965147602059e-001, 2.21938399020352700175e-001, 3.66457480170265526009e-001, 2.21893596283222166443e-001, 1.03949360538076338023e-001, 1.31328262145885305001e-001, 2.32758172559020731773e-001, -2.23692889842711628567e-001, -3.42475202579880511067e-001, -1.50749921383263235652e-001, 1.09285151368759408941e-001, 4.38639374551988092676e-001, 2.32760663482878382702e-001, 1.15078389541504830240e-001, 1.75969269948350437449e-001, 2.14257921013531832388e-001, -7.97956055912039108335e-002, -8.12215204845998378635e-002, -9.52772880764022334077e-002, 1.44755792405025035530e-001, 3.19114303801152576767e-001, -2.99502819671983236405e-002, 2.40964655945129391235e-001, 2.19848668861552826170e-001, 6.17574911752625244077e-002, 7.77394422104135673912e-002, -6.88877592579129477413e-002, -1.80752937823653009319e-001, -4.92491632582862659540e-002, -1.04225029306900168757e-001, -3.03295517207812295735e-003, 3.56454143500251008359e-001, 2.43722037983480355194e-001, 3.36774047947860033503e-001, -8.19423297300002489996e-002, -2.19260758045102477354e-001, -6.99731853876635612188e-002, 1.63801459489495947197e-002, -1.10650258015180052995e-001, -9.48117354417174207359e-002, 3.22762075560912187200e-001, 1.53052008410551720896e-001, 1.14421843327862593487e-001, -2.27608903417323371610e-001, -8.23475730711023118369e-002, -1.61346527592820587760e-001, -6.27710519476179229503e-002, 2.81704004537452062928e-002, -1.67667102111679539034e-001, 5.19379504043065085006e-002, 1.93509270707319075422e-001, 4.08574618326219413111e-002, -1.59253164596691393351e-001, -2.48498413500342629767e-001, -2.02200136328390484008e-001, 3.43004122427621738201e-002, 4.69450464127540323389e-001, 3.63390042076629504741e-001, -1.00618444512463253715e-001, 5.45320920416208984594e-002, 7.18114258996153109749e-002, -1.60297344711055250732e-001, -1.19543377630963912339e-001, -1.63165068115503991697e-001, 1.58882713614809129021e-001, 3.70808413354697330444e-001, 4.09472804587479588534e-001, 3.13906031652695718948e-002, 2.30099383734499979282e-001, 1.59455982680301283638e-001, -9.85684315165838709216e-002, -1.14670401833488075360e-001, -2.96004983361207507642e-001, 2.20184610474206482467e-001, 4.30163259136065789789e-001, 9.52192592065088244668e-002, -2.53434478153098143027e-003, -8.85610397306805657847e-002, 1.65262979188843597833e-002, -1.01086820779673243476e-002, -1.27917557717221693804e-003, -6.55655056894242915799e-002, 2.02748444189494864132e-001, 6.02474757042853054090e-002, 4.41485359919302045029e-001, 2.05356423319990016862e-001, 1.57984314830504263272e-001, 1.54774116354944757390e-001, -1.74492073003294778655e-002, -1.50842985997145601074e-001, -5.49985935531565467427e-002, 7.96891841628293157163e-002, -4.69193527562875370429e-003, 2.27924664251371936197e-002, 2.24972727122666471544e-001, 8.01129155819013845374e-003, 1.97776403369937459065e-001, -1.05851024515380018332e-001, -2.49987055824867576703e-001, -2.23411749760098615747e-001, -3.19236548038977163699e-001, -5.88216373306110137942e-002, 2.13465595601897185907e-002, 7.99337722686260243599e-002, 8.29598972224226821615e-002, 1.97723023693066324302e-001, 9.02894852137373082890e-002, -1.12465990075925947878e-001, 4.65502629964334793677e-002, 1.62071352819466413253e-001, 3.02045569115774681368e-001, -9.83617525483399951503e-002, -2.00015004987812716752e-002, -1.11893861561416108757e-002, -6.50763159109930405810e-002, -1.03202969760773408114e-001, 6.77865258454660030152e-002, -1.21925776637922284040e-001, 7.20567765249105068870e-002, -5.85700808551394558332e-002, 2.82203473691342576757e-001, -9.87815642054140213846e-002, 1.43754405125655432274e-001, -2.91399198140907700338e-001, -3.13270358191867562270e-002, -4.03086170750778516325e-002, -3.80915775846895413026e-002, 1.79236922941115150998e-001, 2.86254986914956877087e-001, 2.43011996317025913417e-001, -6.86086633979905279740e-003, 8.73526469186995668803e-002, 1.46796944009705609968e-001, 7.29108723146301568319e-002, 7.75955415403754983350e-002, 1.55836542596402977123e-001, 1.60307698247213720188e-001, 1.31061735139147733653e-001, 1.70168246311060367137e-001, 1.39051662178573842699e-001, 1.33487418452102019062e-001, 1.79838452468594034439e-001, -3.98805731905048366226e-001, -1.27979846362752280875e-001, -3.29357455533386189739e-001, 9.16903780182626859663e-002, 9.34139460916734720719e-002, 5.10584261729325250556e-001, 8.09986199065810819064e-002, 2.28999515695636063350e-002, 2.21089879074595707653e-001, -6.81787300307512833530e-002, -1.00318741140597494921e-001, -9.27425726719637161244e-002, 6.76227822035835729464e-002, 9.92737009727278907345e-002, -4.24453549711296534985e-002, 5.54000802616388191013e-002, 1.27225378744302342060e-001, 1.47464515561612719008e-001, -2.89693922276318023556e-002, -6.42939840941906676219e-002, -1.24716751851553883657e-001, 9.52523855893410847928e-002, -2.56152534640651130537e-001, -1.42427495117214558684e-001, 2.17783216332276929883e-001, 3.26011928710818521537e-001, 3.73205324128057236432e-001, 6.91193248638621721147e-002, 5.77766801272031824133e-002, -3.52802291252207952943e-002, 1.68372918058689063914e-001, 2.25463670147649064557e-001, 5.29848638600336971360e-002, 2.62789869726569202957e-001, 7.80948027149418882997e-002, 2.27772251958462734756e-001, -9.42211047861186562491e-002, -4.48107874101962358471e-002, -5.99514276834216611189e-002, -5.40262853397524903110e-002, 7.93027999529742795570e-003, -1.13247607386856671829e-001, 2.73736584085498890762e-001, 3.27819295884066941316e-001, 3.69391112995001935637e-001, 5.45480664664165920685e-002, 5.12499257321733445170e-002, -7.24221555958557833277e-002, 9.19713575689658918710e-003, 2.05758139713216575695e-001, 2.91419219857921185657e-001, 1.85581331792934373093e-001, 3.93006862580568272492e-001, 2.17077908914615674840e-001, 5.86239238787270716680e-003, 2.17683331649675099184e-001, 2.33917324547221916475e-001, -3.46402996647412253495e-001, 9.57645081952644521006e-003, -1.25459307571441219809e-001, 1.21846452767140900342e-001, 5.17626567431301309874e-002, 8.83893280093146771481e-002, 1.36307677297384494119e-001, 5.65151872012473674434e-002, 1.31705718872619892412e-001, -2.59466038109135099798e-001, -3.03671354930723336185e-001, 2.86555422253031655266e-001, 7.72225327725054311312e-002, 4.71390830348487610557e-002, 1.85082020208141434514e-001, 2.09829401958610578527e-001, 5.46962365747480139255e-001, 6.55593395585641114387e-001, -3.29119892781891743017e-001, 8.21420343651600159962e-002, -2.16461889787583100508e-001, 3.95295410486603340794e-002, 6.79131878036596386972e-002, 1.01853697112370134015e-001, 5.19346905769428213162e-001, 3.23778960828159989571e-001, 4.47151311514509874900e-001, 1.13348621200635768513e-001, -1.52815431472571705562e-001, -2.26316503521805295618e-001, -5.39395570381286243444e-002, -5.96330101879660179343e-002, 1.40841134259859307454e-001, 3.06261405323422997160e-001, 5.42584993225149053719e-002, 1.05278543119283182761e-001, -3.91254531573936248368e-001, -4.06639042305873388283e-001, -3.17674779779758886811e-001, 3.61098800307529166354e-001, 4.20554263571490616336e-001, 4.37958907513849471371e-001, -1.51376337553860290663e-001, -1.79913289001767784381e-001, -1.48223159620701983030e-001, -2.01222486257055827030e-001, -2.81020289787907606716e-001, -1.86591241916454292360e-001, 3.67014855239405246579e-001, 3.99541047758905865095e-001, 5.31478641863228018494e-001, 2.28302889085273338909e-002, 2.45971928918399168618e-001, 6.61227383077824942825e-002, -4.01221986551032028245e-001, -3.66413239226162368301e-001, -3.60096462628550217921e-001, 5.44047689823777047557e-001, 2.90275589920496179808e-001, 3.11303602996909734024e-001, -8.96322633789122247272e-002, -1.96971400481328939858e-001, 1.10475612194316230585e-003, 1.88908414811584074444e-001, 3.20682117798415988741e-001, -3.51786107021256067018e-001, 1.84872263138262160620e-001, 2.28548661515231565922e-001, 2.56287622603023845791e-001, 2.82472949323698485635e-001, 6.17814537128218224660e-002, -3.70813621111834440525e-002, 1.85240118711681528429e-001, 1.36905742269978647485e-001, 2.09599706478604291826e-001, 3.20158902172675119413e-001, 2.58588737700917892237e-001, 4.03695611147454502809e-001, 9.64991998401971279309e-002, 1.82957492803983018392e-001, 1.65458179025335577750e-001, -2.87971406063257662211e-001, 7.82351976787963449000e-002, -1.19744689263585717132e-003, 2.11702855766574632446e-001, 2.09993358341838659564e-001, 4.71448530940710597292e-001, 3.57338547257023464443e-001, 1.22849043381213163251e-001, 2.52936611813291967188e-001, -1.40445106981893969023e-001, -3.41514138559935509498e-001, -1.10021153838184601592e-001, 1.04068952689300678327e-001, 2.33966404106318442979e-001, -2.72029676809751701227e-002, 1.52475696189929316171e-001, 1.80118189032658776449e-001, -7.10286596988925211793e-002, -5.71107037668597050661e-001, -3.38112972398222910719e-001, -3.21610973935613775332e-001, 2.32990375607161903648e-001, 3.91651679607364799907e-001, 3.81581262400933152179e-001, 3.13178320421161504594e-001, 2.22917992387918040276e-001, 4.74974425499307684184e-001, 9.72400211911755574246e-002, 2.55360426533062581655e-002, -2.93853304845535956424e-001, 1.26077852950909202745e-001, 9.61009299339112832428e-002, 2.22952872158290460458e-001, 1.59915242711575228407e-001, 1.96910637979720082313e-001, 3.63917789958321191701e-001, 1.71805768480897486095e-001, -1.61122876617438320901e-001, -1.82208043486434601022e-001, 6.33915628647318402100e-002, 3.38961129412888917400e-001, 3.09587270053465701825e-001, 1.69239442143957030673e-001, 4.71022242223035680908e-001, 3.00869987822269313593e-001, -1.78782885217186882088e-001, -1.55131349634915899349e-001, 2.20735001450680437540e-002, 4.15149278034291580042e-001, 3.23431973992393095862e-001, 4.92812043469841365440e-001, 1.13356401403577861098e-001, 4.18034964292664321800e-003, 1.10520484903325069692e-001, 1.01843828384431761558e-001, -2.32524195018723150996e-001, -1.18881627659856575763e-001, 3.62230869286674361796e-001, 2.00918727423545606658e-001, 1.67799072699907098061e-001, 2.66049117822996950000e-001, 3.53362325666926380130e-001, 4.58243291943947583800e-001, -2.06689508896425705453e-001, -7.02284024418293184588e-002, -2.53151102910913028410e-001, 1.45693650473751656893e-001, 2.36526078244385984384e-001, 3.20931595965641192070e-001, 5.08481757818284307859e-001, 5.11282476819752029762e-001, 4.91731477642434244846e-001, 1.04818582818032191017e-001, -1.55092552499892177842e-001, -2.43447703499708706376e-001, 3.49561488664947794813e-001, 3.57157570644422883710e-001, 2.19953016350275337709e-001, 2.81919515401102493968e-001, 4.01768035587237781758e-001, 3.72760283348894494448e-001, 2.94944042035633902099e-001, -4.10558156062162463162e-002, 3.18531202343134645094e-001, 2.30766153048634903300e-001, 2.45663412693819305233e-001, -7.06609694046280295554e-002, 3.19992254975618117818e-001, 4.49231313404575838266e-001, 4.32519604292800674550e-001, 2.31189857922930903922e-002, -2.25535843008599135029e-001, -5.82858082297932345028e-002, 1.68609086249143141911e-001, 2.68998300605460372026e-001, 1.02876228991862050943e-001, 4.95590660611558986304e-001, 2.18251172324997855245e-001, 1.87724200655501771706e-001, -1.46181350451296460102e-001, -7.83770460044207369077e-003, 1.47064254606677713433e-001, 2.65177070861165486981e-001, 7.05903633222337983932e-002, 3.76493281548048452922e-001, 1.48246419710283072746e-001, 2.86403650822369792994e-001, 3.38701444868555190393e-001, 2.03363674493308943525e-001, 8.66885136659133366532e-003, 2.23892115426175847270e-001, 6.32152502386457149086e-002, 2.41626209987185230910e-001, -4.84136264292322482383e-002, 2.24016518924062879581e-001, 3.70545653065116775693e-001, 2.18374969023235609988e-001, -2.14995287035503919448e-002, 2.12430060872683845741e-001, 5.76275798794918595047e-002, 1.52863366244432474783e-001, 1.04157119738909412221e-001, 2.31132825122262186568e-001, 3.58441704174538189331e-001, 2.82196847236972525597e-001, 3.27066843039778398783e-001, 1.70286578128839904966e-001, 6.21563877784192739262e-002, 2.35160683923500923864e-001, 1.20752527523682817723e-001, 1.04449517760965240876e-001, 2.27978289704279940553e-001, 1.90277230229540489370e-001, 3.40610712718508457097e-001, 1.77093270830817883787e-001, -6.35700184232860787681e-002, -3.30176800225238653574e-001, -7.54064383020567330362e-002, 2.70573342434676789026e-001, 3.42836966839293544318e-001, 4.18738381423224559352e-001, 1.62768684246898470702e-001, 5.91451576654598160099e-002, 5.67696710752609967621e-001, 7.69343147686954442754e-002, -1.96796575584891081379e-001, -2.31795158945281520868e-001, 2.28060102633176914333e-001, 1.79671004036361769973e-001, 8.02306670012872535924e-002, 1.27236537845304698013e-001, 1.12604457255583323416e-001, 2.46536587706487925198e-001, -1.45952355113844328693e-001, -2.40693262147073067103e-001, -9.95236323849629928029e-002, 5.19807459510490676990e-001, 5.06959441642113595172e-001, 1.97354924912747420329e-001, 1.02246314589765616154e-001, 8.94251162075384575800e-002, 1.41481348966060405115e-001, 6.91053380387360860482e-002, -4.34112746233725546596e-003, -1.17324301627425908734e-001, 2.68193344193361216110e-001, 1.71826559602443307284e-001, 2.25191610855238588673e-001, 7.31653654948642845346e-002, 2.51465257434655364843e-001, 1.13682842618576113169e-001, 7.13057013264789020524e-005, 2.33924313850685933192e-002, 2.33096780554599258828e-001, 2.14827389278639563353e-001, 2.35629726230509956020e-001, 5.00212146304136601183e-002, 2.20123325857071006073e-001, 1.18224425007329506099e-001, 3.56139708886199335414e-001, 2.27950315594074026659e-001, 7.03173607591834060049e-002, -1.70060948802979172712e-002, 3.18893471581253196145e-001, 1.89193040586077471099e-001, 4.27959350160300039390e-002, 3.03052469170502991602e-001, 1.42773468072109138705e-001, 2.60428092217889151083e-001, 1.33588126923951777680e-001, -3.01575644645582119363e-001, 1.21368571790139434530e-001, 5.12205339390155334200e-001, 4.08596467200205981651e-001, 5.26486120292247949948e-001, 1.31768873232261968242e-001, 6.41444488685789099280e-003, 1.64099980073618312293e-001, 2.05823455259875803813e-001, 1.98443099870410172292e-001, 1.60474130480083743144e-001, 4.04349482540334648206e-001, 3.65604173625265371772e-001, 5.15051265899329924203e-001, -7.24566109483110783879e-003, 4.68388738770737084183e-003, 3.24949829483003119202e-002, 2.30512133885977382741e-003, -1.72951318662287800709e-001, -3.48139305079798122566e-001, 2.03120147527571459634e-001, 4.12388136926352233402e-001, 2.33726104496704112368e-001, 3.32331019589484077947e-002, 8.31959768193032411787e-002, 6.70283032965893893484e-002, -1.36006046300141653083e-001, 2.35993464873671329740e-002, -5.39972000524266207422e-002, 3.68923765123526647969e-001, 4.32616343295936456315e-001, 4.62780202775940729953e-001, 5.04574104821452706915e-001, 3.07461938143421431580e-001, 4.14524432156758049217e-001, -1.23226476723489547505e-001, 1.69028551905494837937e-002, -1.60490657585218604586e-001, 2.85870610782463840938e-001, 1.71875625613563925986e-001, 2.89370246621317883662e-001, 3.01135524057766723605e-001, 5.02395358375047118571e-001, 2.79902683405992558363e-001, -2.26271623783454556289e-001, -5.30443732804399895042e-002, -7.05560217676080153604e-002, 1.73580488255751869131e-001, 1.98933587991306171094e-001, 2.39428381559009528790e-001, 3.54973090119844292278e-001, 3.33993128306009579020e-001, 4.75034383710492627562e-002, -1.38223616852087439338e-002, 3.56249997144745367272e-001, 2.35581537977071597822e-001, 2.15634896012374455143e-001, 1.59017734052188025595e-001, 1.50617254204194028766e-001, 1.74272711115727146902e-001, -4.43134875631366054183e-002, -1.59481321065679214344e-002, 1.53271470655833075281e-001, -2.61976009139226972966e-001, -1.34595782321577317475e-001, 1.99335459386477759081e-001, 8.61115300112308967861e-002, 1.62088392322746771557e-001, -6.66478886557743399610e-002, -1.60751611704928604185e-002, -1.04209743341018332141e-001, 1.93789601225785507177e-001, 7.11342654212251401802e-002, 2.97986139932827243104e-001, -2.19916023170501559458e-002, 4.48056406534107012907e-002, -8.15739501014239032362e-002, -5.84299763455538925805e-002, 3.51495181219218591484e-002, 3.77278107893764258485e-002, 1.38229938905183397102e-001, -8.80597060115639734823e-002, 1.93359722670632144803e-001, 1.72577270002589655551e-001, 5.89103184836296533966e-002, 2.81731962190974405402e-001, 9.72605842404813542013e-002, 9.05271686554202231756e-002, -2.63034830310386436025e-001, 4.91486109660667302990e-001, 2.98430074714268356306e-001, 3.06697909861278594779e-001, 2.93709865445127893402e-001, 1.23139128476733916706e-001, 2.55140343619981391221e-001, 1.99382164756398971850e-002, -1.75445780623116331931e-001, -2.35061637845128068580e-001, 3.96688225770468305686e-001, 4.02789807076621320103e-001, -1.34649520179922571606e-001, 9.64373675586465001208e-002, 1.21117266161188189000e-001, 1.18878755410862721464e-002, 2.04034948106533192691e-001, -2.08484921438556541906e-001, -7.01920082049571014693e-001, -1.64451641347302640606e-001, -8.92402941495926832483e-002, 5.31989665465426170288e-002, 5.19429350083201901711e-001, 5.33443162797080164261e-002, -3.49566573416742631952e-001, -7.11870173495422475796e-001, -3.92310706585614066277e-001, -6.90185988610150458200e-001, -2.37525412443329558831e-001, -8.17295179077290878666e-002, 2.69960884626970210043e-001, 2.01666092207720970553e-001, -1.04240372653440924178e-001, 8.63653537900194306909e-002, -3.13784622478896657594e-001, -1.39804073379754811857e-001, -2.52591419943011430416e-001, 4.39116457445981378527e-001, 5.36993295982921448051e-001, 4.70254301785887063314e-001, -5.05203861092395234422e-001, -6.55653999658897701508e-001, -2.55327067321686806967e-001, -3.36470238112988734303e-002, -4.13676162776667466492e-002, 6.25046123360450955886e-003, 1.27294601201192847384e-001, -4.96494128428301151335e-002, 1.69479113316961110813e-001, -4.05975706946345271664e-001, -2.44913903161104756778e-001, -1.66377367378221008298e-001, -3.42034173152710341270e-001, -6.47799088560277014359e-001, -1.00999562040984092182e-001, 3.35606730781344009262e-001, 6.78057870206712931527e-001, 3.62608638134269745112e-001, -4.28599724497353229413e-001, 1.07250750302059993935e-001, -2.59353471325393825087e-001, -2.10260365240255764352e-001, -1.07431576295557704159e-001, 1.31636041801509701132e-001, 1.23424221968240058200e-001, 2.16964771187374588779e-001, 7.27373931379536764474e-001, 4.02973664037925005665e-001, 3.73329457570848899373e-001, 3.35539570651288587833e-001, -1.31444496630803535353e-002, 1.02183883387545540455e-001, 2.40480625767898748002e-001, -3.30822427955428599589e-001, 2.90285844772107781697e-001, 7.15444182576330332118e-003, 3.98876472988972552436e-001, 2.06071383086673554086e-001, 2.42830743662076325995e-001, 3.12254408396951642357e-002, -2.15505930498396836015e-001, -1.61336472127137281474e-001, 2.08963975540653795759e-001, 3.97370569474929880016e-001, -9.40336604803452547063e-002, 1.30535822074819368721e-001, 1.44501405009617917008e-001, -1.08643405469261933316e-001, -2.57588236474058263070e-001, -1.69112934227187400316e-001, -1.22420390366927742121e-001, -4.04534945583301830396e-001, 1.78304731485860262774e-001, -8.45534883675794352031e-002, 3.55457841840556287849e-001, 5.17067608678032780700e-002, 4.48557967111634647850e-001, 1.18941667063127351489e-001, -6.51029919391553496544e-002, 2.62125844190937484779e-001, 1.82873385417948175480e-001, 1.52435273585025649057e-001, 5.01811370244640841953e-001, 2.03244580837064203749e-001, 3.81478149391711457428e-002, -8.73489498822352036789e-003, 1.00691735327009757039e-001, -1.06578492528582785548e-001, -2.08453380385984571310e-001, -1.45523597161768797337e-001, -3.08910501259949066277e-001, 4.44095240919888500919e-001, 7.29142435312261083524e-001, 7.53241296018472561435e-001, 6.43170118707336202490e-001, -7.08964849424798954081e-002, 3.47849187103901544282e-002, -3.75019157569018102283e-001, -8.70505756781142364664e-002, -1.38628339422735252784e-001, 2.55451552501273215778e-001, 2.89906511379032894027e-001, 5.01580030322603537263e-003, 1.23136284630337947132e-001, -1.72681928378308861827e-002, -2.81326044205223169126e-001, 5.28666870023891607988e-002, 8.49825491885088935007e-002, 2.55732211395982955704e-001, 1.21125260008534157974e-001, -8.75481544590441113085e-002, 1.15786510281246785015e-002, -2.69754819740103291004e-001, 2.75247414417737312764e-001, 6.49307603286594231529e-002, 3.16281308122868698440e-001, -2.99009588626539979384e-001, -1.59221337114029998228e-001, -1.11978791212709358205e-001, -5.25807818438338916978e-002, -2.27899750867158967793e-001, 1.05235350322670256906e-001, 1.50645627707303109144e-001, 1.77989398680218208204e-001, 1.94194465772592833597e-001, 3.58640744606174621811e-001, -2.32280312887786777321e-002, -1.61082637880956142107e-002, 2.51890170749317354737e-001, 5.43009585292028806869e-001, 3.55931633979185313432e-001, -3.86705399638105906668e-002, -8.75609312069103029597e-002, -2.51301118044571780707e-001, 1.83733046797135562977e-001, 1.51579122716492598055e-001, 2.40395851221673534370e-001, 5.60816846371401500626e-001, 1.94383139422947576191e-001, 5.86400810202821642925e-001, 1.25091238554615874490e-001, -2.37100244906096574438e-001, 2.37535974591921966725e-001, -4.25400631332608913926e-001, -1.84730214793365321579e-001, -5.28727962490134539841e-001, 2.76449647715087565292e-001, 4.69247429743789079559e-001, 8.47020828243963297410e-001, -1.97313558436442409993e-001, -1.45232730996383258004e-001, 2.13283925806962704197e-002, -3.55359881915531028440e-001, 2.06200269850403301863e-002, -1.17239591183745162084e-001, 2.52550001352714215130e-001, 6.00557849572313298681e-002, 3.20794544274185355892e-001, -4.41426803714692617131e-001, -7.43202087626308599555e-002, -1.28396972213454280132e-001, -1.32815527989428222577e-001, -2.99161425588394869202e-001, -3.13864204546001890339e-001, 1.88033170519414705169e-001, 2.99792605719025440081e-001, 1.34493210318754025101e-001, 3.98073114434248989668e-002, 6.33215759889646989320e-004, -2.01916522620406518884e-001, 1.25573606362707007600e-001, 1.43160474295360495844e-001, -1.62438536614862849561e-001, 5.81054457995395123859e-001, 3.41631186626276783791e-001, 5.07129546930304986319e-001, -5.25447850407906105752e-002, -6.03352854155899120947e-001, -1.08090147006985992650e-001, -2.13111387106285826709e-001, -2.47669004557502153707e-001, -1.26841350299260163803e-001, 4.40409829268464614316e-001, 4.36133724100205788510e-001, 2.44196413579756466117e-001, 1.63655114271848478591e-001, 1.67519670561954922561e-002, -5.20725888724435703736e-001, -7.72085847616300502416e-001, -7.16007844098189960569e-001, -5.90530980967779672852e-001, 3.17371071772024615498e-001, 4.00857136707679029275e-001, 2.25908785810909368275e-001, 3.86816663137583074961e-002, -4.52650113261872544257e-001, -3.75469467445775972880e-001, -2.65748414962132251116e-001, -7.67240081665901962893e-002, -9.50659672886480233700e-002, 4.66179099095829441168e-001, 3.54021303025906453055e-001, 3.68340706233891701515e-001, 2.25099493241432441204e-001, 1.07172321902254133463e-001, -4.75608546154115852111e-001, -5.22612445253416879609e-001, -1.80015975367842251398e-001, 5.92510738012089893667e-004, 5.30671125830848522398e-001, 3.95428910133906685864e-001, 4.91949494245284779659e-001, 5.92995458448992263101e-001, 4.22589816133043666424e-002, 3.91871704590223524090e-001, -3.16112125059493986878e-001, 5.31495780077513371720e-002, -2.15656491126214017173e-001, 1.67165865615451963988e-001, 1.93390284992792010899e-001, 1.50657059152918521017e-001, 7.20095780351335479352e-001, 4.45036321048906835518e-001, 2.75857457437054975902e-001, -1.57668306176653755246e-001, -3.08369082592184873270e-001, -2.65097678551577231598e-001, 3.99858830658164299265e-001, 3.33778154157062745266e-001, 4.78259404944926802550e-001, 9.54430861370972188906e-002, -1.25901438311017740274e-002, 1.56785386371988938459e-001, 1.43774058250435987638e-001, -2.00815113462927324894e-001, 1.62752733501689617057e-001, 5.87485912287812328536e-001, 2.54092674344849112078e-001, 4.44314157116415420212e-001, 1.26543187573759707831e-001, 1.72989297190442509189e-001, -1.26234023271429185442e-001, -1.04263314873477550004e-001, 1.74828529534136661860e-001, 1.16129289566696908276e-001, 4.52562484867376824127e-001, 4.35935138401536526054e-001, 5.32998836559341437891e-001, -3.97034473624514952506e-002, -8.80002938930294145714e-003, 1.12333328566337070642e-002, 3.42064744599711572509e-003, 1.09359362336168261520e-001, -9.01057101552272532441e-002, -1.45032173597823610400e-001, 4.45943686727388821645e-001, 1.58306469018883566591e-001, 6.00898631892081591666e-001, 5.52120856802470028057e-001, 4.38082465385979613615e-001, 1.30979797213949089585e-001, -3.67477260026041474550e-001, -1.92343305702644129518e-001, 5.87198186290803711418e-002, -1.22375899851039360300e-001, 1.15864643053122731708e-001, 4.04172624065468999444e-001, 1.15069687457200336977e-001, 1.61768417778219431025e-001, 1.53537520334835225766e-001, 3.33754864361558278157e-003, 6.32100297337331307190e-002, 1.74043501062126904078e-001, 7.58713855960413963153e-002, -8.26322033643268755165e-002, 4.13481664354169331510e-001, 1.25168720560258350805e-001, 2.94720181663405245143e-001, -2.26035551394559219851e-001, -1.16234559986627530859e-001, -1.01937296606229174656e-001, -6.39609355050512334850e-002, -3.41775575993057301183e-001, -1.65092789844726306470e-001, 8.78578965626123919996e-002, 2.54227143154279966453e-001, -1.64195542921622195109e-001, 4.43523381752175205328e-001, 4.55410568095932610788e-001, 3.39815418959916681896e-001, 2.07555236559697098286e-001, 1.33346814353937220821e-001, 2.03810753346443718215e-001, 4.38542916044029895684e-001, 1.96095626621161867043e-001, 2.48123506725780096360e-001, -1.79730889554308492784e-001, -5.79600643258059641805e-002, -2.90928769276947774003e-001, 1.77124143500119929362e-001, 6.91038509194594335883e-002, 2.39098404748290638278e-001, -2.00568347346569336720e-001, 1.60792679076662309301e-001, 8.23228400930869630425e-002, -4.35692223547344270607e-002, -3.77765839801197100822e-001, -2.58015876868990912119e-001, 3.15266982805956219593e-001, 2.26295176704897793574e-001, 1.88872419689886189564e-001, 9.75760706998962112912e-002, 1.99841340721054583351e-001, -1.62852967473011700505e-001, -1.94045669205670937366e-003, 2.07870556884618773799e-003, -1.54090013004027887034e-001, 7.35699199519102842171e-002, 1.40828995493197800526e-001, -7.02588891301447054927e-002, 2.74251910308044022369e-001, -2.02848817261718841753e-002, -1.57314288037178284796e-001, -2.25689322304792633345e-001, -2.64356660969439494213e-001, -3.08523074550614562206e-001, 3.51773559842491034821e-001, 1.54922667607137409806e-001, 2.55774967194329905240e-001, 5.19617438663045549951e-001, -3.20963108922417583724e-001, 3.70972253728294662500e-002, 7.60400288066083313021e-002, 2.82875152228112103359e-001, 5.27999827949014038930e-002, 3.22982607140217370389e-001, 3.87507985664711007701e-001, 1.06008407027449930160e-001, 1.08288926645099800594e-001, -2.88516363732475744630e-001, 1.70764716496786400635e-001, -9.07303141332342244496e-001, -4.09870407310759021779e-001, -3.62284408768333510142e-001, 3.18055134288128316111e-001, 4.31950151538251225780e-001, 1.15262184931893274520e-001, 1.87519858298687974729e-001, 3.23823491190024181918e-001, 2.43093700869794343555e-001, -3.35898789680063480922e-001, -2.40831924491826915302e-001, -2.72678413553595511143e-001, 2.85645341418522213939e-001, 5.29937142617937562150e-001, 4.48917752590272944868e-001, -1.60697045837193325246e-001, -4.86403049509962659425e-001, -4.21492288962321215440e-001, 1.81907064164613718749e-001, -9.96514268010922910079e-002, -9.17872562769235372793e-002, -1.95694217726071262309e-001, -1.78096308689188104202e-001, -9.15162266629777759741e-002, -1.73929724838086080529e-001, -3.20951347112934215478e-001, -2.02161537954424735952e-001, 1.26296625998141731628e-001, 1.30650553368743555654e-002, 1.41808304086781300501e-001, 7.40551411508599682909e-002, 5.59702425416817792025e-002, -1.38287331565569715508e-001, -3.82240550403527695744e-002, 8.37203609023450673332e-002, 2.93296496917915573699e-002, -1.00839768287927872281e-001, 1.37152066292631685807e-001, 1.33518301516358434133e-001, -2.13771193693341743369e-001, -9.95229092808483511989e-002, -3.52376838117178903254e-001, 1.24048456514511018511e-001, 1.07574969200727177387e-001, 1.96116603897898318654e-002, 1.12088941754743369461e-002, 2.34625573226334899202e-001, 2.03848630763444976788e-001, -1.62798705677003635595e-001, -3.24904862942859695707e-001, -3.38254820372721087818e-001, 5.49309478848793997230e-002, -7.94619193812082930117e-003, 6.39465004643171991416e-002, 1.82383247864702113805e-001, 1.45674479260291450666e-001, 1.57621081280029357030e-001, -7.58624582289729176843e-002, -2.03069721785096135580e-001, -1.78470772548612488517e-001, 3.87657924712239490561e-002, 7.57782993057450754426e-002, -5.97002855324872960807e-002, -4.03675116709686032657e-001, -4.69546725964126610009e-001, 9.50452524576843177373e-002, -2.10467212570021933171e-001, -4.00780382289637859827e-001, -4.45677186686796844572e-001, -1.49443193793196954511e-001, -1.88033262997899991431e-001, 2.23733937884510909744e-002, -3.16188188832414340812e-001, -3.69896796002616545795e-001, -2.38673417499206952375e-001, -2.55179915351946895452e-001, -3.62861330725655295559e-001, -2.78954512490279749048e-001, -6.40523281723930255904e-003, -2.27343648845279605597e-001, 1.63901450317290066361e-002, -7.17154585177089132220e-002, -2.78449100642453761800e-001, 8.79094905360729844679e-002, -2.04178436214143305127e-001, -1.99732918954216215335e-001, -1.55466719167299621818e-001, -2.92786943853243886160e-001, -6.91893088064175210139e-002, -5.06084513569413779743e-002, 1.24381728778231483157e-002, 5.25876929101547901935e-002, -8.72353956242453293379e-002, -7.50881448592881917126e-002, -1.13961918610362311632e-001, -2.52526458124757602342e-001, -1.93599876318790886653e-001, -2.45151036864102653268e-002, -2.89276368159394857427e-002, 2.10450918347780568940e-001, 2.54232880457248677786e-001, 1.51211518698545488437e-001, -6.94400541725488373856e-002, -2.23563355613446951287e-001, -1.78521731711248354824e-001, -2.89852411375420504491e-001, -1.01433633090027508494e-001, -2.48503315993646500814e-001, -1.10951806551995185712e-001, 3.98883038969102127203e-002, -1.48066097351707299384e-002, -2.57179099833909297068e-001, -2.93698680226815556082e-001, -3.16181708446605591600e-001, -7.64048751181854723935e-002, -1.47247978966219994490e-001, -2.49575250182351965345e-001, -4.84877473173182180211e-002, 1.23833955412626220416e-001, 1.61978005343789116521e-001, -2.04611698426638594084e-001, -2.13190036403278743160e-001, -1.74208725615505294337e-001, 4.35276165404263008091e-003, -2.32857524317117481338e-001, -1.34693432892306175219e-001, -7.33880488307922101976e-002, 1.09406664317619681248e-001, -2.05302116008765550559e-001, -1.10424790641007838921e-001, -2.85885698766677187610e-001, -1.39047095598535425109e-001, -7.31054008035106478447e-002, -2.73635428202989527957e-001, -2.21355379392238593717e-001, 1.06987547818985673231e-001, 5.03893342707041058670e-002, 6.53709722867004128233e-002, -1.54412414418958809925e-001, -1.83290626922714711827e-003, -2.82395929674017831523e-001, -3.35602644890089396590e-001, -2.81932859008939384893e-001, -2.37466248894344533760e-001, -4.74589089214148621143e-002, 6.79033887665269342282e-002, 3.41643586817510780396e-001, -3.31627546563015351833e-001, -4.08533188892655774183e-001, -3.64946002378381484377e-001, -2.83659863466228123752e-001, -4.20381486555599148680e-001, -4.41235762645379892000e-001, -6.06493218121185798108e-002, 1.15428146078153215370e-001, 1.46437292851916978087e-001, -3.59763514820614582757e-001, -3.26162359865650119950e-001, -2.05718216415359450577e-001, -7.95912067857351690492e-002, -9.22928422112213736606e-002, -2.30150608194858302680e-001, -1.30785717456539135606e-001, 1.67187475587618400441e-001, -1.14716612730656461472e-001, -2.38155913756967291262e-001, -1.43883628916598588221e-001, -2.46328066850277305200e-001, -1.56752895960742849590e-001, -3.95600119175598341492e-001, -3.27368011194612951176e-001, 2.35654744937376370295e-001, 8.79763499876978632974e-002, 9.46096128869334390687e-002, -4.13137641002148670033e-001, -3.81567234677970767986e-001, -2.50589725328017487449e-001, -1.21904378830391305066e-001, -1.89542966916657201759e-001, -2.72966548862241149831e-002, 1.02485615559349693693e-001, -4.42565621651870994002e-002, -1.53978912454549032862e-001, -1.43535212800202760519e-001, -2.68580610705990985299e-001, -1.48462715623453089808e-001, -2.19635504176148611821e-002, -1.52860910347823647504e-001, -2.09563473716735004793e-001, -1.51500152849376679143e-001, -1.59246110224785325515e-001, -1.31460859138909758048e-001, -2.43257467772722918431e-001, -2.75825644471489384024e-001, -2.19302355361505163511e-001, -1.29257484055985805149e-001, -2.50255893854001543186e-001, -3.27693461089464607716e-002, 1.95850663621914972135e-002, -1.86006788931132788223e-001, -5.61077708665866717319e-002, -1.62869849067943023302e-001, -3.41880744512958412162e-001, -1.79791814184520282183e-001, -2.49243916697877321287e-001, -2.96590523958237928248e-001, -6.90512700927491396286e-002, -6.24905449342400692858e-002, 8.16061289305687331819e-002, -9.60974883863018186636e-002, -1.37808264939077024236e-001, -2.04887937558919541736e-001, -3.20009497807195619767e-001, -5.23834837063170410953e-002, -3.22446540060368880276e-001, 1.40408090536020338512e-002, 3.81883744243341352945e-003, 2.18777030819768403269e-001, 9.40969088261393166173e-002, -3.97835041373693631961e-001, -2.66545200068900367540e-001, -2.88290282341713999248e-001, -1.98697068305877494465e-001, -5.32062047821069972198e-002, -1.13363766649277303289e-001, 5.58533063307640673112e-002, 1.73312910880684428738e-001, -4.46540466640995489800e-002, -2.98889358790893400197e-001, -4.33048722837102856298e-002, -2.81897070568081831166e-001, -3.68206436152695826269e-001, -2.57288215877440329393e-001, -1.73952785683943456085e-001, 1.81899259327802098607e-001, 1.53787502364112815822e-001, 1.74164115426888838067e-001, -4.31026251564973816865e-001, -3.98959574590608045952e-001, -2.12518611630012232983e-001, -3.38126544637397719040e-001, -3.21816402176339555474e-001, -8.50305465826305117982e-002, -2.00270553773722569113e-002, -8.22276545478293069413e-002, -2.28236528961790613446e-002, -1.18526127967942054853e-001, -3.07523702343004412540e-001, -2.26741671787853121822e-001, -5.67929209246850197346e-002, -1.31965418143499907400e-001, -5.53854379795197093034e-003, 2.11751346415784275079e-002, 3.00143704890957069287e-002, -6.60481431149316788876e-002, -3.55480712456708647373e-001, -2.34869116039451347744e-001, -9.61975564818559891744e-002, -6.88598179042828554414e-003, -4.97018033844849604908e-002, -8.98877735270388750211e-002, -2.09713421459319732110e-001, -1.15728204251590291451e-001, 3.63966776285019749659e-002, -2.42400544884749741259e-001, -2.40045116411448739013e-001, -2.87394363204150571356e-001, -1.81175995603118200616e-001, -1.69845482496870842093e-001, -1.04518058152430523555e-001, 3.98821275641766392894e-002, 2.24046689937743223608e-002, -2.22839848798222633919e-001, -3.87939202966523843941e-001, -2.38039263428272057643e-001, -4.07884824016334912589e-001, -1.66445015873936064121e-001, -2.22086998210514086072e-001, -1.37599128760388045301e-001, -7.59663479566813765187e-002, -1.16084900041523816916e-001, -1.28908792439710012667e-001, -2.51067062482321357031e-001, -8.52520399876319778798e-002, -3.77868637425720799161e-001, -2.25907447106590025809e-001, -4.60325495191039255061e-002, -9.58454587857793804950e-002, -2.47000912810862900681e-002, 2.52091735242348617685e-002, 2.82841569261276237768e-001, -2.87058771999936790387e-001, -1.42781864342169939608e-001, -2.13756326050183437237e-001, -5.26756340374481268896e-002, -1.27890933528542860564e-001, 1.80043860590363979934e-002, 1.80848565822560147787e-001, 5.39474662781396011035e-002, -4.35890209243225065783e-002, -1.47432723605977783476e-001, -1.88862499016104912197e-001, -2.44965064211017324869e-001, -3.51984906933295593756e-001, -1.89591851566276031749e-001, -2.52192273785863507740e-001, -7.08251143482654527128e-002, -1.29507207629305454155e-001, 2.22757935164125259186e-002, -2.47682219056603231122e-001, -2.50301405826815204225e-001, -2.00446344705536794173e-001, -3.68463347268301655291e-001, -3.78839196659908339360e-001, -1.20730870843011539595e-001, -8.94338488713548457332e-002, -1.85942463663279176911e-002, 1.42773070834176840638e-001, -2.38394751230749962767e-001, -1.08599046403545021477e-001, -3.12830378601148095807e-001, -2.90395431906269152478e-001, -1.57381748021924283698e-001, -1.28547084373373754485e-001, -2.02551201275506020938e-001, -3.17723313475347435286e-001, -1.36336123240940992885e-001, -1.60524752531358450014e-001, -6.46121753085283773155e-002, -2.22734562898359411687e-001, -1.78154028321500179644e-001, -9.82267186116425605746e-002, -1.84502019478358543492e-002, -3.70579196068279992371e-002, 5.66148252158828885205e-002, 1.25870056589740708652e-001, -1.15835411430199909655e-002, -5.09439067388546620863e-002, -8.79199019388013543186e-003, -6.13332780985622397218e-002, -3.35001455115048057953e-002, -5.98769019501082452872e-002, 1.42778968843234859570e-002, -1.69719397895479115479e-002, 2.87111949623340273474e-002, 1.39339975139636668144e-002, -4.24062232041405584582e-002, 1.05474915886754148225e-002, -1.14561468072934005691e-001, 6.88204578960798368792e-002, -6.91006332761277125565e-002, -7.43906290193213082240e-002, -1.01609789698041561024e-001, -1.18621901424270259628e-001, -1.07105138471709548931e-001, -7.92098415130697841580e-002, -2.53173807330080324896e-001, -1.70151060095068307199e-001, 1.49259904467266946160e-001, 1.43421288598863161390e-001, -3.48658645127291888510e-002, -1.92746070998754709391e-001, -8.93366795849408201757e-002, -1.46927857810723566656e-001, -2.27348504415335744833e-001, -2.84581946894310489071e-001, -1.87901210326423991070e-002, 4.54814310048737031195e-003, 6.56919112097207463785e-002, -1.13122471491712686675e-001, -1.41327903738228094488e-001, 1.05455485451547051334e-001, -3.72021630377619150210e-001, -2.80882204880279040538e-001, -1.69236686362497890102e-001, 7.00976890756050297071e-001, 9.10487262738461811118e-001, 2.17968269739527403805e-001, -4.09518212689042593322e-001, 1.91842175006074949772e-001, 2.68990189359395968915e-002, 2.77693015416952460050e-001, 1.18319723990163452876e-001, -4.44171145242933052000e-001, -1.05484691707489058876e-001, 1.88617272532792173978e-001, -2.50393476520452573642e-001, -7.22770808557671728956e-001, -3.44956720977457498289e-001, -4.49669910199755773483e-001, -1.32939748697214643602e-001, -6.75578896121194927282e-001, -1.67203457460837534576e-001, 2.32528249688258078359e-003, -7.37519855796020668004e-002, -3.63984569128957546891e-002, 2.62577511523794937531e-001, 1.76776377640924048373e-001, -4.01158478360444173405e-002, -6.42541430514763201032e-001, -5.76455185588699681176e-001, -1.47954945074060567611e-001, -9.47435581008986560381e-002, -4.29674328757911200283e-002, 2.21434862804392756930e-001, -2.55650959844551661782e-001, -6.31021545005948536478e-001, -2.90907222194901060597e-001, -8.59884423525450192205e-002, 8.07574266372080296073e-002, 1.67680193385982917453e-001, -6.44338792802571003193e-001, -6.81931405262234724418e-001, -2.56983455267935312349e-001, -3.14149874211050228467e-001, 1.69452752466747985638e-001, -2.62200795496968008802e-001, -4.16549433133293567355e-001, 2.77720215636647449475e-001, -1.68732942277515951535e-001, -2.07895794709306108716e-001, -2.78940309454230928043e-001, 9.05671528377154783085e-002, -1.30916553677177804893e-001, 3.52237893254800149556e-001, 1.91101356276329459316e-001, 4.66199265790215533478e-001, 6.66597503989033390859e-001, 5.78522531950104834664e-001, 4.11617867059951181297e-001, 2.50307539341790785681e-001, 5.93158450945771353879e-001, 5.81276388427489076882e-002, 6.69713441746273341337e-001, 1.93200145869690420586e-001, 6.03503267513481267414e-001, 3.77452229543903394759e-001, 4.56508215134518502420e-001, -3.64001790771161376492e-002, 8.60428003487748171985e-003, 1.21726386700917663108e-001, 1.14467862302592204848e-001, 5.95261336278095742891e-001, -2.57491008529224033041e-002, 1.96059523588265532945e-001, 2.79242030364926889507e-002, -2.25123190284687857421e-002, 8.34936905940205642551e-002, -3.09252836935393626838e-002, 1.35599344633137247618e-001, -4.75616932222994948098e-001, -3.74669760127615478207e-002, -1.24212527267452896296e-001, 2.93410342519763056579e-001, -3.39636407697616465873e-002, 4.55411239029151704294e-001, 1.63918193541322171347e-001, 2.02284787281245270751e-001, 3.13413919299837750998e-001, -2.07398015124234780249e-001, -5.01029315598617408511e-001, 2.30314052368201932497e-001, 4.58534642603106584735e-002, -5.02001445043606525642e-002, 2.80499756360711553771e-002, 6.43827161994444341353e-001, 2.94812958430785976294e-001, 4.32642092161342695089e-001, -3.83335118843571298619e-001, -3.37314619777539459466e-001, 1.17546396919621251587e-001, 1.03463226969325328142e+000, 8.50158939006681380057e-001, 1.04505070995726789818e+000, 3.69923418834529393884e-001, 5.94373397152962557044e-001, 5.48421714093018167202e-002, -3.79505920065897284221e-001, -5.27344630831678817806e-001, -1.53857927609504119282e-001, 1.96168944976728570895e-001, 1.30994295518288162566e-002, 2.37248694023650286145e-001, 3.27643464901486602958e-001, 2.85934122924485722983e-001, 4.78567401498587341457e-001, -2.26186139722615503489e-001, 2.30050371578604043177e-002, 1.64212988902423195903e-001, -1.93119896080878837574e-002, 1.57261264902925329556e-001, -1.20378292623812971351e-001, 6.73870533664607918034e-001, 5.83060278373261797746e-001, 7.92422346061093407776e-001, -2.44451240281388787468e-001, -3.46079058482946955166e-001, -2.33508307592708741485e-001, 1.09795143563351335625e-001, -1.19809621498696491915e-001, 2.85403869997878423259e-001, 8.92824478655968589713e-001, 7.83578936566209249825e-001, 8.73521143053581639037e-001, -2.39259365400649237632e-001, -1.97683467143407398670e-001, -4.11191309750694511393e-001, 3.98414451234139488367e-001, 6.61001124244350646286e-001, 7.77902804286813132073e-001, 4.88455840296355636720e-001, 6.53508386685475728406e-001, 6.25380806996502558448e-001, 2.38795444117738094383e-003, -4.32878682578113516133e-001, -4.84172141410439682563e-001, 1.03883452324749558926e+000, 3.43682959030844559223e-001, 9.91813572890212324928e-001, 7.51922725362676347416e-001, 4.14351802246173905875e-001, 1.07159839605432338772e+000, -7.53734528107168122446e-001, -7.70278596986193608842e-001, -9.87515396142799040113e-001, 3.22228868564587656032e-001, 4.87515993252120027890e-001, 8.05952481175753132625e-001, 6.09614468761050409817e-001, 4.21642831760238201433e-001, 6.94517407495350513891e-001, -9.89322666824325569479e-001, -8.72787321938638949170e-001, -6.02744890838873836891e-001, 2.07289345406527769633e-001, 3.11700620992856614055e-002, 4.38728969395723977787e-001, 7.01721223215351769253e-002, 3.82482503905738957517e-001, 2.84179709329547725005e-001, -7.57060744788172867992e-001, -8.04779215807678638406e-001, -8.14954775984440882297e-001, -6.20125782601625014090e-002, 5.17957237866686792671e-001, 5.00616380982969455538e-001, 1.01853254900682241302e-001, 2.72031956241895134241e-001, 2.23835822239821166657e-002, -9.13677456337345372805e-002, -1.04397262414292896215e-001, -4.99097379195273915808e-001, 7.26182003264891795524e-001, 2.43530082135943931609e-001, 3.22377533976024754914e-001, 2.53799760745883506985e-001, -3.79938023677561728664e-002, 1.56724088510745263036e-001, -4.43423747069004059451e-001, -3.38592520973840849230e-001, -1.68426917217706806351e-001, 3.27432495420053648605e-001, 5.61190258880575720823e-001, 2.11970975924123145040e-001, 8.10519339260186266749e-001, 5.04275957177465761205e-001, -3.59433692163140527942e-002, -9.99659192091458925766e-001, -8.92212570906364410561e-001, -6.48608927538410373614e-001, 2.64755498103466047066e-001, 4.40661116473190728193e-001, 2.35816886209808368458e-001, 3.94475595604455442356e-001, 1.52944300375596475838e-001, 1.15126862133913248493e-002, -7.94507074088360631947e-001, -6.15487032067907224864e-001, -6.79724968374040172669e-001, 6.97184903455361548730e-001, 5.01631110431813742601e-001, 7.05414423438106341635e-001, 8.16723909433925587820e-001, 6.51551731336947992368e-001, 2.19589797277543435916e-001, -1.14516716372305404903e+000, -1.00984113452150237045e+000, -7.77279452113060598251e-001, 8.32753900103689326251e-001, 2.50580361155704922638e-001, 6.24503685962819132804e-001, 1.31949343804819574366e+000, 2.83156756241000617802e-001, 1.19673389420292730634e+000, -6.87601467598024651551e-001, -7.44493993619898097869e-001, -4.82741058203936868054e-001, 4.08268808961790297118e-001, 4.52858396278253638734e-001, 2.27968186688922380689e-001, 1.17912271387671374612e+000, 7.16130509581994534329e-001, 6.84686521997563413144e-001, -5.46748471872073427136e-001, -4.40414294119979621289e-001, -5.14481663094428554039e-001, 6.50947887137965142124e-001, 5.57169214683152280720e-001, 8.72417267155461195749e-001, 4.84131260208033986636e-001, 1.69020256907951055281e-001, 3.05350894377078740938e-001, -1.34049104150837844474e-001, -4.72574470471439467278e-001, -2.53882946690776267751e-001, 6.46839118605605833956e-001, 3.87068649354891380909e-001, 4.62632106196924797192e-001, 3.06137275785405393869e-001, 3.81481379416829580187e-001, 2.21889309319077576710e-001, 3.91162154127244809931e-001, 6.75275911220738905838e-002, -2.21878823171104050394e-001, 5.83694068182956327107e-001, 2.80205445082053472561e-001, 3.85003074559127911325e-001, 2.18287517648101031531e-001, 2.84610476332937678556e-001, 3.39505058492243605439e-001, -1.09245575772082853527e-001, -2.09405096557145620206e-001, -1.79219557944978652442e-001, 2.52875353077893993969e-001, 8.07801188032525652183e-001, 5.44804623773212481908e-001, 1.19713202980794464203e+000, 1.09737702366234346485e+000, 1.11236888138146805538e+000, -2.72082226732575059580e-002, -3.49736212937174106852e-001, -1.82992384727728163440e-001, 4.07682492390232964485e-001, -4.75877077164294642886e-003, 5.96432560904498365595e-001, 8.81729700834273266707e-001, 4.56492854278917170596e-001, 4.64133805446494296376e-001, 2.22091015632076074771e-002, -2.36506636351201365853e-001, -2.60656807846585958366e-001, 4.68169247279088707181e-001, 3.00861812898073788247e-001, -2.67271103981319216314e-002, 8.14446074682265042100e-001, 4.32168255580577920227e-001, 4.77710975634240531118e-001, -5.43909285699778699552e-001, -3.28628086497841698232e-001, -5.06997817492316760202e-001, -1.10794538174345300052e-001, -3.03172903235366719699e-001, -3.52740257762111236728e-002, 6.08568241995182002135e-001, 6.44942468174534710990e-001, 3.76724992432222127725e-001, 1.59685191617748467596e-001, 6.02039966603322818095e-001, 1.26105250833599885629e-001, -1.87644831019879478051e-004, 2.21845458253497274104e-001, 2.11105223125768848291e-001, 6.88700942341507360567e-001, 6.89954626974198514944e-001, 6.14836422080444977567e-001, -2.74809216640357290018e-001, -3.74371009323720971285e-002, -7.62193545278581185975e-001, 3.35374331439140194178e-001, 8.43296384411992144825e-002, 4.06391132152291445490e-001, 3.92169549244554715983e-001, 1.02531393475135512716e+000, 3.73657927280510226975e-001, -1.71582689851175779205e-001, -3.67977977381067355989e-002, -4.75111940116926922961e-001, 5.28385811755467060813e-001, 1.03123002177887723718e-001, 4.33164642849673611757e-002, 3.98103455321144383827e-001, 4.32656262880056374787e-001, -1.20062830088979680121e-001, -4.52035309688506026227e-001, -2.82291882013569750409e-001, -6.33905626253358001065e-001, -2.71702084830384715808e-002, 2.26709202499990290780e-002, -2.82082929589343556209e-001, 4.91400761393680440836e-001, 5.62180537540181990419e-002, 1.60961701030571474602e-001, -5.02537334663161971982e-001, -5.62744887303342600227e-001, -5.17193933026088403793e-001, 1.69523845362636732537e-001, -5.73954546343739754888e-002, -1.16386287168351552912e-002, 5.17266281761045942922e-001, -2.16383350007578606489e-001, 1.42045221424338258265e-001, -1.94606220278510690103e-002, 9.02669292456916849687e-002, -9.06514083663272074443e-002, 2.42473206546937047889e-002, 2.59942345182462841713e-001, 2.80052104641582644273e-001, 2.93330608101346035355e-001, -3.02565119379404057209e-001, 2.76660938953510293636e-001, -6.45049546109088489665e-001, -5.21447358821272244356e-001, -6.85437011278797747593e-001, 2.69692160250283641254e-001, 4.77727427516763947235e-001, 1.31889227637232070434e-001, 1.97207129390620822251e-001, 3.18564643293159643900e-001, 2.29228623073852472158e-001, 7.11420954579000119899e-002, 2.23676765428042906292e-001, -6.38106643763324599128e-001, 3.18487453308844925548e-001, 6.52935668738306551617e-001, 4.37941582540244844779e-001, -3.40216627737092158767e-001, -8.62175756465798803774e-001, -6.16994342030300346735e-001, 3.12534634298316738032e-001, -4.55784214692759759302e-001, -2.69707487017044368616e-002, -1.48873821581364057520e-001, -8.06828960552879170809e-002, 1.46064678115410906400e-001, -5.73634201931922493856e-001, -4.00370270815595785674e-001, -2.67766362416864356355e-001, 5.18113489606485400074e-001, 6.07144676828399676438e-001, 4.77603732152175330938e-001, 1.27028888456153753184e-002, 3.97457761016570265689e-001, -1.31469496347571018768e-001, 1.03435641354562585931e-002, 1.52439436595638244665e-001, 8.61886896063098623122e-002, 2.78969984893862099629e-001, 3.04633532264809936407e-001, 3.02280014177335853987e-001, 8.60823744976331045597e-002, 1.41463778992417993363e-001, -2.74544499899615990213e-001, 4.64411393987058218613e-001, 2.71603552581448637326e-001, -1.40586051947378609661e-001, 3.49860958166212099307e-001, 6.56040642637951365579e-001, 6.48846277350652700378e-001, -3.17793301166106489930e-001, -1.10895483350452364602e-001, -2.65853857016574435246e-001, 6.23528726012804401790e-001, 3.12384388550952185604e-001, 2.66849291751377393211e-001, 8.01285121668485311730e-001, 3.71542838555289411939e-001, 4.15870956628623833495e-001, 3.30249544750862489284e-001, -1.63142836780812677810e-001, 9.40088099021234580022e-002, 2.03471229488837168642e-001, 4.68940266517950510305e-001, 5.13312093358861618042e-002, 1.87420025120311958822e-002, -4.30176412952300579740e-001, 4.23168229576495968924e-001, -3.96172471932934033845e-001, -4.02464081770774251279e-001, -3.73211741620981418688e-001, -3.09621682366574169087e-001, -2.02113561620885978654e-001, -2.37437813132441444264e-001, -1.86532691984703513643e-001, -4.49161056578794959382e-001, -2.14934873177396679189e-001, -5.28320125230502202207e-001, -3.73940441694746550372e-001, -2.99756372822640781983e-001, 1.21011099678127800883e-001, -1.14255868181908394610e-002, -6.13997466992038110067e-002, 3.51451549272389196510e-001, -3.78919051759023961523e-001, 1.71096222343338211225e-001, -1.10017921741769830746e-001, -1.19384318077373860478e-001, -1.22301921590122347760e-001, -3.29771137263511648907e-001, -2.69989926745777264472e-001, -3.28779235554608084691e-001, 4.37616966990247824310e-001, 2.02701423267383468163e-001, 9.22370600969801279767e-002, -1.50849801731058798943e-002, -4.27995674095651493229e-002, -2.48601425440740819717e-001, -1.75921136201362265927e-001, -1.82859695121678877960e-001, -7.32112957376752637728e-002, 6.54362353490646864174e-001, 9.23452497165578090055e-001, 3.63621119306613393984e-001, 7.99831974992093464039e-002, 1.07006991327761230570e-001, -2.33205877140987394291e-001, -5.71549915030234112479e-001, -1.12461356412311738739e-001, -6.20256941301828401691e-001, 3.37937314020212875576e-001, 2.62099230104150093812e-001, 9.62732944815500868430e-002, -5.57148858757787301954e-001, -3.11772052267830224181e-001, -5.72295928242777862671e-001, -1.05764293904674622215e-001, -2.63510590433567837287e-001, -3.61858915923885748889e-001, 7.99517015848178608239e-002, 4.49830007365352446680e-001, 3.88954946462976791643e-001, 1.91254991180604058676e-002, 2.07515255539744807034e-002, -1.20973569422072657620e-001, -2.11404190815698389549e-001, -4.57237438218637215481e-001, -5.20847706210170291463e-001, 1.12045821567249279105e-001, -8.11873793408841859520e-002, -2.72620409428059595758e-001, 3.16289864430388057218e-003, -1.48586801243529964545e-001, -2.30593373155928149654e-002, -2.81402788554270810728e-001, -2.81170297013147774123e-001, -3.15462891433165193433e-001, 2.06827376896699249853e-001, 6.32483722439298401419e-001, 4.06428161065685633613e-001, -2.60663199038173198918e-001, -1.54691204112723357245e-001, -1.93202060815568399388e-001, -5.67915867559654619079e-001, -4.59528837964357061985e-001, -3.71597654146872957703e-001, 2.56031469718896231846e-001, 2.21443956680378001289e-001, 7.20242979892354528992e-001, -1.68241231686283798652e-001, -4.45496576118505627218e-001, -6.64230165279080631002e-001, -5.44235702402910970221e-001, -8.50805641442987647949e-001, -6.20300413854944276970e-001, -6.27822609448532853449e-002, 3.76885028869726079748e-001, 4.07184355617983162468e-001, -8.99297062829980564658e-001, -2.95071198691149783055e-001, -6.86230131588462466397e-001, -5.65455310402321775776e-001, -3.37460377251545762256e-001, -7.37862549687031465950e-001, 5.60818966636680071858e-001, 7.11374296197277766751e-001, 4.87599465647163055060e-001, -2.72762748936823284929e-001, -2.87320826496870629363e-001, -4.93888540549630494780e-001, -4.61527060820974333044e-001, -6.60653574045522828939e-001, -5.80977669969745313949e-001, 6.79900140222419291369e-001, 1.01317990525537626745e+000, 4.50944879603073445207e-001, -3.67469135954260062160e-001, -2.35477797369048391651e-001, -3.62649119271865438829e-001, -2.63193430179328669016e-001, -3.46170078163608729849e-001, -2.48597023090394941836e-001, 6.20081546842564668154e-001, 6.03992654710352017133e-001, 2.75386396448185744035e-001, -1.44965918097767515471e-001, -2.40954648379425651061e-001, -5.03915743211901023813e-001, 1.79111686271843179030e-001, -1.42282519439925730920e-001, 6.76403315251677406117e-002, 2.44438358150458820428e-002, -1.53221817001289645210e-001, 1.79367907480447785762e-001, -1.52043840457910167663e-001, -2.17984224740438159440e-001, -9.07877911290717182213e-002, -2.96601824708184413915e-001, -3.72015457406623728520e-001, -2.71358612675809320741e-003, -7.70355532248759022895e-002, -3.06770361303905884920e-002, -1.08718982072267558725e-001, 1.21323806321397234531e-001, -2.16994215988956323793e-001, 9.16721034450452970654e-002, -5.67832474467502845705e-001, -4.64972103792607949213e-001, -1.20403117149495308968e-001, 3.42428094662178439389e-001, 6.65992793123199811056e-001, 2.42452000895483493759e-001, -2.16877773506982118867e-001, -2.26018838153650591938e-001, -2.23333706739274079345e-001, -3.39064093254207943318e-001, -3.09172472780223306366e-001, -3.55823398802352974801e-001, 3.59692572954890543713e-001, 7.16303493124179291307e-001, 6.20968736114880570653e-001, -4.75141393773501619080e-001, -3.84566018548788024489e-001, -5.96511581719440076021e-001, -5.30536047657543807787e-001, -5.00802232036139161053e-001, -4.06640587155795374397e-001, 7.10263129241003210446e-001, 6.94640930274525336685e-001, 7.44293822677493555062e-001, -5.99146444106149922426e-001, -1.96285605414701691540e-001, -3.17486325415770709313e-001, -7.31987418409259404939e-001, -1.67050223500612077254e-001, -9.25980426011046131585e-001, 4.56592198036973873077e-001, 6.49400917324309934209e-001, 2.80120703437983009643e-001, -3.49114337032145505280e-001, -6.05695787679041308671e-001, -1.81290905918485845127e-001, -6.15117193632094161337e-001, -3.62151470129281283228e-001, -3.04805000365412970265e-001, 4.68747673202398407177e-001, 3.28265600315070071868e-001, 4.40783381082146430430e-001, -3.13130111750804684956e-001, -4.63235060577744661714e-001, -5.23192730633583180655e-001, -3.28359450581247325207e-001, -7.59187116810013523649e-002, -1.82948618480922281515e-001, 2.56033224434012440796e-001, 4.24193444803752039984e-001, 8.19522056276512367301e-002, -4.11390874482145230129e-001, -6.43672041328281707706e-001, -2.29354201556217524027e-001, -8.69282407201195372881e-002, -3.15307324734424798685e-001, -3.31736021653370516393e-001, -3.10411180440859246765e-001, -3.64308829534056688448e-001, -3.92091489226290002001e-002, -5.55336167140697667399e-001, -2.28140570841687984061e-001, -5.45366519984185407766e-002, -1.54766138702113559278e-001, -1.37271276333303521300e-001, -5.35308913810510003661e-002, 3.36754449966501279157e-001, 3.72681104464818502287e-001, -1.08283115057653991919e-001, -2.40569700601887204172e-001, -5.11451994883717286910e-001, -3.77400921741578021518e-001, -7.24611631481918205822e-001, -5.17826481565313634370e-001, -6.67772830760287150476e-001, 5.86033825487162693402e-004, 2.04111828999051003741e-001, -3.29816378868159551518e-002, -3.50828696290318042816e-001, -1.67066300961070779429e-001, -8.03520233605564682122e-001, -3.76558348676781950992e-001, -7.87240617747967247331e-002, -8.19203562229425391594e-002, 1.74105820665588134633e-001, 4.98956724621597569325e-001, 4.55874117483661467354e-001, -1.95604788746838620384e-001, -3.81695056177244529394e-001, -9.25571867177146269390e-003, -7.90018252950964727788e-002, -8.69666397051756107084e-002, 2.43140145246524344569e-002, 3.20526976781097150404e-001, 2.18604537702773354946e-001, 3.42902296829515285115e-001, 6.25184046762771727934e-002, 2.19735013060129158458e-001, -2.33162785362363039754e-001, -5.66738621090326244456e-001, -2.61382334896350321252e-001, -4.73265098578168563748e-001, 4.82699446884522556656e-002, -4.38660772225369810506e-001, 3.26801400697410537877e-001, -1.37155636680703074681e-001, -1.20626555050090816801e-001, -3.19043452568436650130e-002, -5.01312830857583380251e-001, -4.94501583102680997150e-001, -5.26518208571776114013e-001, 1.50018726700120397233e-001, 8.43783134019499142520e-002, 2.06675239751050232595e-001, -3.74561658540506658976e-001, -2.83055076019857743130e-001, -3.71366225482575640360e-001, -4.49421430558296475244e-001, -8.00362543255250691310e-001, -3.70818575026080954338e-001, 1.95606884279497794665e-003, -1.85251950903832146578e-001, -2.31175916164617148429e-002, -2.35961981226317951688e-001, 7.07178855070141887396e-002, 2.77495640559131395708e-002, 8.71751559036530593305e-002, -6.29913948307586207820e-002, 2.51725546908771968813e-001, 5.94540054691550245991e-001, 5.32282514925655148019e-001, 4.00752722627160773428e-001, 1.59269422806460780873e-001, 9.75460858812401965245e-002, 1.75414673727422087968e-001, -2.74205285154524192048e-001, 9.16840828500373045129e-002, -1.30719024038247394470e-001, 4.38088815580979895614e-001, 3.52329727355847166503e-001, 2.09094271897726780018e-001, 3.33248046451800478129e-002, 3.42893511408530304863e-001, 2.84077583481317896830e-001, -7.76498132605859224531e-003, 2.50544207001354213293e-001, -1.04382185610009479287e-002, 7.92756032551330258595e-002, 1.70351104003706232959e-001, -8.29191406956879539791e-002, 5.79983389911624402924e-002, 1.02348243077859682448e-001, -1.04296437293637828114e-001, -3.79057647483700826951e-002, 2.59680669488191795402e-001, 5.99988308925962152141e-002, 8.12430715187909963104e-002, 1.64853303616628699135e-001, 3.07927158106173215479e-001, -2.03673836759981741196e-001, -2.98851131178377804609e-001, -3.35040356582085308013e-001, 2.15805711433397440224e-001, 1.41795096310859125577e-001, 2.29994260017991447587e-001, -2.90623372892732267925e-001, -4.20770294428753244276e-001, 5.56748699115891976241e-001, -1.82873287806786216647e-001, -3.49542718720811551592e-001, -2.08650171594565447819e-001, 6.57962210119006074560e-002, 1.25658019133647935739e-001, 1.36057444679988176484e-001, 9.86318114799348590049e-003, 4.60057571982209270733e-002, -2.68555021489114385813e-002, 2.06416468017746462804e-001, 2.36777585928613143462e-001, 1.17604816570676215526e-001, 4.98487889517119225902e-002, -9.14346831983472718708e-002, 4.58922753861232823880e-002, -1.28803245277357685666e-002, -1.77929955400282807654e-001, -1.49638879037237437775e-001, 1.71679034842191158283e-001, 2.23843467173003823900e-001, 2.50389451303014931582e-001, -1.68504475127700170667e-001, -1.07341626556551453242e-001, -5.98474687690029802378e-002, -3.86807964040848384357e-002, -6.25611613588448467471e-002, 9.76956053330879127528e-003, 2.05968289369475032746e-001, 2.51127872274874763825e-001, 1.27499868364774476825e-001, -1.35893636801733191932e-001, -6.50537733327537365247e-002, -1.35543754148493483802e-001, 2.30437112632510959775e-002, -5.19925517866575009895e-002, -7.47138438854302450176e-002, 1.52780852928925653389e-001, 7.71577478668550170715e-002, 2.13643637709997114005e-001, -1.93655694458644583866e-001, -1.42900014297362376592e-001, -1.40385362104471611566e-001, -1.65271531342591926350e-001, 1.78630121426241184057e-002, -1.49297114788560530974e-001, 1.99662297024946838730e-001, 1.53618318293107680717e-001, 2.09676990174217842133e-001, -1.25076309823358350348e-001, -1.64996063468712067523e-001, 5.74697103586271212938e-003, -5.45553438168644606876e-003, 3.45903114944423953347e-002, -5.09145826323470843122e-003, 1.64131957774318548715e-001, 1.11071499082979224804e-001, 2.25780237285117924007e-001, 7.10407134072321283513e-002, -2.97256510408029674120e-002, -6.09101816023908046449e-002, 8.35231608728491392579e-002, 2.53234621882558949557e-002, -3.07708531826736582382e-002, 1.86341430132250490681e-001, 1.19419479538825396014e-001, 2.73535141698135919608e-001, -1.56624700011600170857e-001, -4.37491153016176040347e-002, -6.66301638594453404796e-002, -5.21303309394185593328e-002, 1.33301404476276141864e-001, 8.42399219724839359857e-002, 1.06291117729851808393e-001, 1.25314554973969094487e-001, 1.69031255128699320345e-001, -9.69722255222504186944e-002, -1.47803334382674733671e-001, 4.50730925444125796187e-002, -5.05130401677816587291e-002, -9.58125162747895109394e-002, -1.08412765785253106809e-001, 1.64797696373848473472e-001, 2.21368182909656208146e-001, 1.58293068905151074199e-001, -1.13263725429965225744e-001, -1.26423225189642052246e-001, -8.02567367255128255588e-003, -1.23422511042268978620e-001, -1.95302001532578761722e-001, -8.35882666760069809042e-002, 5.61162806173376646490e-002, 1.40368663525130776826e-001, 2.18588803480018106784e-001, -4.78800311590346430735e-002, 6.72168616585155920262e-002, -3.56810260458272146544e-002, 1.12381738975506031974e-001, 4.86884585071161585246e-002, 2.23014991685197179472e-002, 2.38432369429606633160e-001, 3.26430389710234344913e-002, 2.49119862926841156847e-001, 2.04101397679368537497e-002, -5.55904573006994404127e-002, 3.71535420561578608178e-002, 9.46031898334595555689e-002, -1.24186926277870535174e-001, -8.84709089008951371502e-002, 1.08574659454623079213e-001, 1.42013718172265601680e-001, 1.57807266410572771820e-001, -6.17710523664563859736e-002, -8.58112930930409467667e-002, -6.78370698439671737656e-002, -3.26000712527500235982e-002, 2.03063448412436481361e-002, 1.25753285089471200653e-001, 1.64876092400323304155e-001, 2.49230350684007201378e-001, 1.45129289877381495444e-001, -6.86181287393171635003e-002, -1.16452978522722835897e-001, -1.12088422373752896744e-001, 7.07488333080329434566e-002, -1.05533775407379570854e-001, -1.02531446795444930453e-001, 2.64544416957007644253e-001, 6.13802751551930508844e-002, 2.24357481153677984498e-001, -8.82335617218303613907e-002, 1.05659376328909176967e-001, -5.88275932223711883751e-002, -4.66174873261045938366e-002, -1.53820041944165791792e-001, -9.20276660552210024058e-002, 2.05127850584394283429e-001, 2.78854103533894781553e-001, 2.25464534759656165530e-001, 9.96542737049614137101e-003, 2.63149483274890474971e-002, 1.59829736923477710997e-001, -6.71699787609124632226e-002, -1.23230599590113273911e-001, -1.03713054838668133906e-001, 2.23680188980142025112e-001, 1.64608659267619195088e-001, 2.44949836222650513262e-001, -4.38368124194477154498e-002, -2.21383924559349597183e-002, 1.27692904437906179504e-001, 9.33264976342032710754e-003, -6.47381104077125457685e-002, 7.29606375954295754971e-002, 1.07224709119171646154e-001, 2.58377512535542364080e-001, 9.13406800486493558600e-002, 5.36768979125079245818e-002, 4.06817285145788104517e-002, 1.17490487240727359275e-001, -1.14731747277356826986e-001, -4.62560857509978096830e-003, -1.68713966180007862716e-002, 2.74057828174243178765e-001, 1.12764335884291772016e-001, 1.02790774887318248076e-001, -4.79798788546157775614e-002, 1.19342431539719143196e-001, -1.24941671922477459677e-001, -1.22797007082366335662e-001, -2.42958654741468327298e-002, 1.76912842294185378156e-002, 2.31221346442779418506e-001, 8.06032315431669532657e-002, 1.66464639384850260351e-001, 5.58566568230804555428e-002, 1.98415642065756341050e-002, 8.24005044708586709135e-002, 6.49184710313936291781e-002, 1.04983860716262561441e-001, -7.57900939194878532634e-003, 1.08858862456861119061e-001, 2.11484372283484323152e-001, 4.24099870562215097713e-002, -4.90469734206398638721e-002, -6.69461678542599275543e-002, -1.28430281334590085107e-001, -6.92178841505644848464e-002, 6.19584348577190829888e-002, -8.31203395293440006064e-002, 1.55045572455806884848e-001, 1.61452595916191821157e-001, 2.15924876439265944761e-001, -9.93456263113201148984e-002, 2.63293708436503244574e-002, 4.61124982227735513707e-002, 5.43936097407594285058e-002, 1.04560637672052366559e-002, 4.93355612029631601656e-002, 1.62328613571170898844e-001, 2.11873824512614938875e-001, 9.40088343664375741815e-002, -4.25292149752991982536e-002, 3.51529078751937687497e-002, 4.50174257683385939388e-002, -8.09602407425333431279e-002, -3.54021121709117148058e-002, 4.37444298859782226829e-002, 2.98005376821606438043e-001, 1.27534654031502769911e-001, 2.71592734862186213629e-001, -1.75427587057839610984e-002, -3.92485025141139087790e-002, -1.53804571106868053637e-002, 9.67018662093052927542e-002, 1.70851918291188321908e-002, -4.50950534715237813521e-002, 2.52149941358111306933e-001, 1.70361797646581270005e-001, 1.34350718407137664778e-001, -8.60806834202335890982e-002, 3.62676217045781734694e-002, -6.96278586582084191292e-002, -8.41018756272276027386e-003, -1.32052113738999360448e-001, 7.22917081556368190665e-002, 1.29274325293205510912e-001, 3.05743916875917731701e-001, 9.98001508530530767604e-002, -5.73740779213959602861e-003, 7.49635543898526657269e-002, -5.77452738132009299465e-002, 1.49136445464906081809e-002, -1.23844940463564173738e-001, -1.40689567955172928349e-001, 1.74110649226816793789e-001, 1.50857292084940308730e-001, 1.54814535222381421953e-001, 4.65145181517861647236e-002, 5.93127852938601998756e-002, -1.21862278631664808226e-001, 1.33479853906428247434e-001, 3.23860391331167313256e-002, 1.47625196077504572401e-001, 2.34419033677801369464e-001, 2.01636238592938527026e-001, 1.37924004604456335032e-001, -1.26316745014724979290e-001, 6.51414953121687151372e-002, -8.10020972402883815411e-002, -3.72818715577016984719e-002, 7.73843094606328080198e-002, 9.44338527956368467553e-002, 2.31181866946414793507e-001, 1.78405400357119520161e-001, 1.66518938562538160175e-001, -4.42112757604523481936e-002, -7.47680158767618091575e-002, -3.92171917166786593301e-002, 1.40721143983289342233e-003, 3.53209510972649215477e-002, -4.40229045756450124149e-002, 3.22811410433781809104e-001, 1.12308112562030104620e-001, 3.23690983728940007147e-001, -1.04662208287781721694e-001, -7.01184123808995009297e-003, 4.94454097078854196146e-002, -3.37349304084764295419e-002, 4.14447582702788877573e-002, 1.11247552578134151213e-001, 8.91610749625254550566e-002, 1.75041000954627351538e-001, 1.99324178390498901736e-001, 4.63945269918419195276e-002, -5.75928720030864441104e-002, -1.22135477546312445907e-001, 3.11219827565695347435e-003, 6.05003997341626090223e-002, -1.24161793889856167383e-001, 1.83024681751855627931e-001, 2.66743167837934558317e-001, 1.96085610619125827458e-001, -9.10534314138457712313e-004, -6.10561909593651183648e-002, -1.40076016889759513706e-001, 3.62037804075372934842e-002, -2.96516418609809352669e-002, -9.66575391060674193877e-002, 6.02023203457114144954e-002, 6.98062740725568786626e-002, 2.38858644372346745621e-001, 1.88061601416250084862e-001, 3.98983831770929192606e-002, -6.91316540616886965331e-002, 1.76411934116300524178e-002, 1.94065806718108600781e-002, 2.00567170272289386698e-003, 1.70193152858093499358e-001, 5.74478898919688688030e-002, 1.08597541210875003781e-001, -7.36960184849852206757e-002, 4.54713571651566769716e-002, -1.84587561872792751960e-002, 6.28571809451877322461e-002, 1.26619190001622611286e-001, -7.13081426126233042240e-002, 9.53791218002619511918e-002, 9.74700188959284202772e-002, 1.63113314217243371429e-001, -3.60438860954421028127e-002, 6.33762995618045166246e-002, -4.11412538512930386903e-002, 4.27160403009777395189e-002, 1.95841069274229839792e-001, 1.21681848328549835347e-001, 1.84129292061745220010e-001, 7.85068698901559003378e-002, 2.13395271320204499288e-001, -5.69211703665202448099e-002, -8.53644773303946502452e-002, -9.92045640338480583242e-002, 9.29094172032688819796e-002, -4.07167167249766585868e-003, 4.96769033838346113496e-002, 2.27762320905547321903e-001, 1.52888609720299134542e-001, 6.06645936994006026999e-002, -1.07853609558708471439e-001, 3.95192422837413459558e-002, -6.11615790420711735731e-002, -8.59508651220061842269e-002, -6.43949390714066011165e-002, -4.90994903495697090912e-002, 1.84455538166393262500e-001, 2.02479581810861036795e-001, 1.73561877345055071142e-001, -1.53710432541377894911e-001, 3.40594117099402987625e-002, 3.95178404534263505443e-002, -1.59120677894781271944e-002, 1.49787340057039222024e-002, 1.50362718703408809739e-001, 1.95877412237214054702e-001, 1.90451918602772080069e-001, 9.47028261874424959199e-002, -1.56121252151160072597e-001, -1.79254487967135806015e-001, -6.31411345737379475773e-002, 6.19654594742142170172e-002, -1.86875856526126510326e-002, 6.90638601618627501200e-002, 8.67051465991955788715e-002, 1.79167133304924564019e-001, 1.43452115883372866012e-001, -7.15845762306074745451e-002, -8.02129095613991760505e-002, -2.86374827890745371761e-002, 1.57493430992631189280e-001, 3.81482126238780888672e-002, -1.12595874174093155129e-001, 8.08480549730159758770e-002, 2.67372503334582956036e-001, 1.32216287980699453986e-001, 4.93963373449472862436e-003, -1.51199716928694438689e-001, -1.16123863631776846894e-001, 1.00297233406891769802e-001, -1.52300498569277714678e-001, 1.10736527742362755866e-002, -2.13868465897820936306e-001, -4.11823597020486015241e-002, -1.60621723618642547882e-001, -7.56309678978466654042e-002, -7.76826209873126005689e-002, -3.94799522407093209792e-003, -1.04529723477188030145e-001, 4.90849412120607092591e-002, 6.99834605479093818658e-002, -4.95207552962229277660e-002, -2.08532275879843104205e-001, -2.14656484044076639739e-001, 1.24144347770378249418e-001, 7.70853018240773551345e-003, 1.66578455178530288050e-001, 7.20554465772303837090e-002, -5.56887823546211181008e-003, 6.11663594926552742215e-002, -1.85730212006180173123e-001, -1.40190453547550414326e-001, -2.35871523431692264872e-001, 2.05856207797614126909e-001, 9.63079850518742119903e-002, 1.86264864226604737185e-001, -7.34925131403934076002e-003, -3.23407151977359655359e-002, 4.52737186354957993339e-002, -1.33965358892261243717e-001, -2.67873483379217403044e-001, -2.10767742012387487849e-001, 1.01798973412598803279e-001, 1.84378853664610459218e-001, 1.61254462010345100964e-001, 1.11017602358331662904e-001, 2.30008467285319935514e-002, 9.57073068763644556334e-003, -1.93559331000170115056e-001, -8.62160090329695677491e-002, -1.34594258182154119519e-001, 1.24375109547684367661e-001, 1.74697854255430801151e-001, 1.26383717441092613409e-001, -6.87662252158214026831e-002, -1.37024815675952954530e-001, -3.67394543151267141678e-002, -1.84300712813876915730e-001, -1.21214773641452749908e-001, -1.62241211527106854451e-001, 4.57744773980381519651e-002, -4.81193099817874558877e-002, 7.33314110614803754684e-002, -1.40693605721200376557e-001, -2.62709978932939881846e-002, -1.33520149121155201621e-001, -3.10195642569771334873e-001, -2.59378227593971777409e-001, -2.05248124981005308776e-001, -2.85348565513866975207e-002, -2.06691160106070095925e-002, -2.49168229812917509103e-002, 6.52503036788061596685e-002, -1.60326185010411619014e-002, -1.32944102895175830792e-001, -1.86019673112231748169e-001, -1.09969592713849567689e-001, -1.70098962689606003629e-001, -1.11092750675161541785e-002, 2.21947926828247425746e-003, 2.98216392323885498561e-002, 6.46301561586120759673e-002, -6.07691139352909415194e-002, 8.12238590701103019276e-002, -7.88456762835645780241e-002, -1.97235304340865641448e-001, -1.98889051956179396807e-001, 8.83029325934696768252e-002, 2.16132270235680282178e-002, 2.52039068677594527146e-002, 2.08180534846955755945e-001, 1.10767878936291058745e-001, 8.83399538658415778292e-002, -2.28935050696381203750e-001, -9.33265649303714056595e-002, -2.68018403669890215024e-001, -1.03839538584406032573e-001, 7.73401373032334971125e-002, 3.48310283059030251218e-002, -6.63156978946727038160e-002, -2.21291578550386648649e-002, 1.34408466182614223100e-002, -9.21085919955276083426e-002, -7.11187426724026877656e-002, -1.33449077674007321459e-001, 8.30655468887790127130e-002, 2.45209146215830779691e-002, -7.17323868699594746623e-002, -2.95420128495916013700e-002, -1.21154603199071231323e-002, 1.08856524330871992645e-001, -2.07364666011649351196e-001, -3.15791430263959060909e-001, -1.57802581230503002896e-001, 7.49417211917904890761e-002, -5.56856969062482012878e-003, 4.97073940274634362702e-002, -2.42775350311652468593e-002, 1.19043410145080658102e-001, -9.09701066398544283542e-002, -1.77996936882677869729e-001, -2.11011038582166937649e-001, -3.09058389067360717029e-001, 1.05560756876101863311e-001, -3.05086349164994975747e-002, 1.09244658018331927685e-001, -1.16740199586877937965e-001, 2.67065338816767777752e-002, -6.02474219245395306577e-002, -1.40693462926839374383e-001, -2.69981100889591763003e-001, -1.71591499941565001075e-001, -8.41959700065511296163e-002, -2.73468635951939730011e-002, 6.66892882015476112789e-002, 9.44319884096295018849e-003, -5.73195926682751669134e-002, 4.60800051666688526009e-002, -3.26591623827348243037e-001, -1.64259396473083602030e-001, -1.58036835339843473314e-001, -8.82207456988877286586e-002, -1.67625517407264168490e-001, -1.34171965578002982955e-002, -4.03752269859024501275e-002, -4.41790892783754524098e-002, 1.53038695314889391236e-002, -3.49510865276560334092e-001, -1.61837287827351905545e-001, -3.06605634451460273837e-001, 1.21256604020981997860e-001, -1.12570570040932432798e-001, 4.65890024565187368943e-002, 7.02414455341785065601e-002, 4.03051218057972754361e-002, -7.24007480030704198004e-002, -2.54340766826534614431e-001, -2.79026968471604575051e-001, -2.15242889227018202591e-001, -9.45996937467400225708e-003, 4.31576511301351023464e-002, -2.27240945441852387754e-002, -6.38044546310710669612e-002, 7.00598131695963216581e-002, -6.88921958991554894691e-002, -1.34197381641502300198e-001, -1.66262172164149041320e-001, -3.02548277496365203287e-001, -1.11017175923290592476e-001, 5.29204407048947042536e-002, -7.39564077391349772306e-002, -6.85983579878406690700e-002, 1.38001104105820848050e-002, -6.20618838998123548145e-002, -2.47589567989521835978e-001, -1.76785203094551868208e-001, -1.31097357338684050720e-001, -5.40437677309206984666e-002, -6.38248377484271350868e-002, 3.16560932004112186022e-002, -6.28204830137506220478e-002, -1.29011486032170052951e-001, -1.51547341299028137662e-001, -2.64294749840926712636e-001, -2.83121821411117413625e-001, -1.20391134210725114784e-001, 5.09460238177764437872e-002, 8.85891290869420811038e-002, -6.81473304924910296132e-003, -1.17005139094478155526e-001, -1.79369451250910139084e-001, -6.93309526329285857882e-002, -1.25180857191607208811e-001, -1.93816678369354983280e-001, -1.78183643297268351491e-001, -6.64601043306960737045e-002, 4.85655986685647259038e-002, 2.57538134947013254428e-002, 1.77975817158933825868e-002, 1.35808968808927271049e-002, -7.88645677909001058259e-002, -2.54213094512385884283e-001, -1.46281869169363032412e-001, -3.73803045154318169807e-001, 1.28254813708459480814e-001, -1.23190800497002192482e-001, 1.25116777193787664935e-001, -6.47577633447657674548e-002, -3.03357573212857459244e-002, -1.72806871186019853082e-002, -2.26481256389642782167e-001, -2.97345893022330609590e-001, -2.69486820226026380087e-001, 1.41341174577253713557e-002, -8.00480968501699058359e-002, -3.88332775735440033360e-002, -1.63015591441260737637e-001, 5.77423934197797347756e-002, -1.16198094855125860780e-001, -2.68515028921432030717e-001, -1.54279636497970246145e-001, -9.11849822484428473857e-002, -2.57011698088648781260e-003, 5.83823674863926736500e-002, -3.31489551546901156653e-002, 7.73531146955990511760e-002, 1.66194456698313314247e-001, 8.37419718732397002844e-004, -2.37865235427792170997e-001, -3.63629795003884814797e-001, -1.85858431874935420280e-001, 8.40236196640177096517e-002, -5.27893078022217965284e-002, -7.85233472777489838190e-002, 1.10322719553693909811e-001, -6.33730300534157599962e-003, 1.93790515899857976323e-002, -1.64560409501366078366e-001, -3.03838521854905396768e-001, -1.27031628450257672025e-001, 9.38952219579253406778e-003, 1.16825122371303796731e-001, 5.29163846115708116913e-002, 4.06521773734724867211e-002, 8.13541364896598062639e-002, 1.76492329426192820496e-002, -1.28730123462863527140e-001, -2.39420776790971401304e-001, -5.95614897043331079085e-002, -8.20055241561174347309e-002, 3.06752356151839544740e-002, -1.20292653238746147237e-001, 3.68339898905325549561e-002, 4.88447900547119631676e-002, 4.19361497437460081783e-002, -1.99922018602124801356e-001, -2.74999123897612385292e-001, -1.48592872346960974683e-001, -1.34891553006963677008e-001, 6.48453804252440701994e-002, 3.06777817891908353987e-002, 2.92378210455374043519e-002, 3.37916083092496266627e-002, 6.10042371288793128237e-002, -2.40244396666508458482e-001, -2.67454878097725168296e-001, -2.00592974046699651369e-001, 1.23304899168648809255e-002, 5.58560578708828039951e-002, 1.19269087092316761201e-001, -1.19153714944249908281e-001, -1.45295987663731585027e-001, 1.79905102599187509405e-002, -1.53141602613269867117e-001, -1.17738892920740648163e-001, -3.94717383017977374582e-001, 1.44436719077216280116e-001, 6.16547860450267493082e-002, -2.34963216950169750952e-002, 9.84655690341632722218e-002, 5.40598992644069631375e-002, 1.57055724567949028803e-001, -1.16022923947446107706e-001, -1.95550157282512043766e-001, -2.45217684667230734208e-001, 1.12835666279218621577e-001, 9.13580240508740509808e-002, 5.52030105217885674884e-002, -8.56259812720328861158e-002, 8.24851104500530646346e-002, 7.26985435760176684772e-002, -1.70151872842293938604e-001, -2.57372438025564975739e-001, -1.57587689521594770392e-001, -1.13238527365441071781e-001, -8.26752043206741837889e-002, -8.89559446338834131085e-002, -2.67322624520871694742e-002, -1.33154797949384950950e-001, -9.85355860522087317888e-002, -1.40451885423634126315e-001, -9.38611150256087045651e-002, -1.60274713205177277153e-001, 5.24168703505455899072e-002, -2.92333994073113827283e-002, -3.00276286426370102312e-002, -6.06331752496405904096e-002, 5.40288977863899039233e-002, 4.44125881893118416160e-003, -2.98916115688159567121e-001, -2.85783932487771896724e-001, -3.29487484049120149532e-001, 4.84243342562097403570e-002, -1.00715490875067967269e-001, -4.58576443924841384292e-002, 7.18738205867637536262e-002, -3.48448151616785814499e-002, -1.55964524649748442764e-001, -1.74179989915247940280e-001, -2.08507231204856952056e-001, -1.83245301362663592926e-001, 5.69444123802091625719e-002, 1.58869199572778646568e-001, 6.67868824731889243473e-002, -7.80137428992045134368e-002, 9.13512836631034108592e-002, -4.07738408142731267869e-002, -2.28523006611853179981e-001, -8.61370078035447184206e-002, -1.99736438068907812271e-001, -2.71408333334606129139e-002, -1.86868471264055487080e-002, 9.42889123535512602148e-002, 1.80120008552703145472e-004, 2.16695815313905394695e-002, -9.86616993472053532832e-002, -1.65991910092356281803e-001, -4.87610207804093157002e-002, -1.93492534398428638054e-002, 4.73721856269985613919e-002, -1.19635627957172235164e-002, 1.59217973026455433816e-001, -2.60229177406429146302e-003, -5.34535462702193930884e-002, -1.84869056515161500620e-001, -2.33096063700792971440e-001, -2.75043056985599249087e-002, -3.14256172105979669773e-001, -3.03915380621251757232e-002, 1.40539022778083423637e-002, 1.47842811849294458737e-001, -1.91364048353144938774e-001, -3.83198236466982325443e-002, -1.78792360268265393408e-001, -3.07710217220465320764e-001, -2.48879049904850879749e-001, -3.27455736118334006512e-001, -2.59241518802935042021e-002, 2.11156208209199641734e-001, 1.09290380715325971539e-001, -1.61075149969567357755e-002, -3.70308838136327658774e-002, -9.74024369280396956627e-002, -1.85205754729787258617e-001, -9.33414494434850749993e-002, -2.30881918831726928865e-001, -2.54121333800417459337e-001, -1.39965129911554325703e-001, 1.33051084055633567216e-001, 9.76868184255735988453e-002, -1.41029877250700597102e-001, -1.39984245573983812072e-001, -3.26356694099120936414e-001, -2.44236155344955074842e-001, 1.50250293955980218641e-002, 1.79793882736268589850e-001, 8.63937495139397576560e-003, 1.86386205068259286355e-001, 7.29954148037924716030e-002, -6.34403280184257789553e-003, 1.15678102109695410404e-001, -4.31532930013536486502e-002, -1.41279719745573434375e-001, -2.12500033962462475667e-001, 1.10622633997182501231e-001, 1.69380765121047965893e-001, -5.10258563668723116868e-002, -1.48824342144109805774e-001, -2.38301149673107670601e-001, -6.64300575023010625442e-002, 4.46392903000425098070e-002, 6.20272831463167528820e-002, -6.94369288255815980682e-002, 1.22921636983013032873e-001, 1.62995936198792490401e-001, 5.19232875329195750491e-002, 8.73590955626288301339e-002, 7.91077194965948971017e-002, -7.54118587114384619774e-002, 1.33675801495280570375e-002, -1.39992192208878374338e-001, -6.23520852910228670640e-002, 8.37344721153459592422e-002, 2.15340792136214875807e-001, 1.68169438306403462580e-001, -9.94153715918296432275e-002, -1.64576699350519634057e-001, -1.64532286980902275886e-001, -6.07597195645381421558e-002, -1.26385665572112143584e-001, -2.14642536426574194464e-002, 3.18312407907632016757e-002, -1.85653275482161178589e-002, -1.41328133206281209011e-001, -2.01993623784085390982e-001, -3.61457319830567835872e-001, -5.70450457891676990241e-002, -1.99820968519598324287e-001, -3.29505798838184926769e-001, -2.96257419778963027035e-001, -9.35983693123690757565e-002, -1.31434956115244222508e-001, -1.65378624429855819455e-001, -1.43651382581668051602e-002, -3.27145070467936949221e-001, -1.16615683736068384557e-001, -3.16280035659956659799e-001, -3.60058426515298568571e-001, -2.31024429366454064905e-001, -7.48965938432420794829e-003, 1.06232211424683919976e-001, 3.23410805691567299069e-003, -1.55926219175744951162e-001, -3.15562441503192459002e-001, -1.47876246470209603279e-004, -9.54848788226076161667e-002, -4.82970459939977628250e-002, -1.33803140162392475432e-001, 9.36621454612427684072e-002, 7.11075250669023495309e-002, 4.96120031448863824108e-002, 1.06491982002719934308e-001, -1.72109344543866588095e-001, -4.91825500328471332256e-002, -2.30771787729548372159e-001, -7.81709720903273064252e-002, -2.48687181806749924018e-001, -7.94372386745025721444e-002, -9.97652720738116532972e-002, -8.32685666101208171730e-002, 1.33566325140442421215e-001, -6.66968608144233449098e-002, -8.71216575718025271202e-002, -1.59249931799674726562e-001, -2.20289688583267972977e-001, -8.05978369986491693933e-002, -1.78451193013428460743e-001, 5.44335202384110296292e-003, -1.83752785686425640366e-001, 8.38425924043427472920e-002, -2.69574904917525767778e-002, -8.28201495159049810857e-002, -3.05531845659345935307e-001, -3.07928332204089161284e-001, -4.40445738041843115607e-001, -1.70072509653637959914e-001, -1.37182761531879054973e-001, -1.13418950007212152031e-001, -6.37003887364367138435e-002, 1.81251475035205028563e-001, -1.30823598033257437745e-001, -2.11255926852245257130e-001, -3.50038522608631441635e-001, -3.30580031558772802214e-001, -6.59952518746434735331e-002, -2.84121330828073191677e-002, 1.10936686823691899040e-002, -8.31259177570808638347e-002, -1.25063984706940273250e-001, -8.21586205933668711765e-002, 3.70960248622437954724e-002, -2.00935189297413663301e-001, -7.31094578802194035305e-003, -1.97835468722384721918e-001, -1.14300652230700766632e-001, -7.33275124606238004610e-002, 1.11882908170297612482e-001, 4.56146846144047518612e-002, -3.54575799061547028423e-002, -1.07655530014551137352e-001, 1.05756511293666463636e-001, -1.87912707173254672766e-001, -3.08989677236856497000e-001, -2.09379170073443365840e-001, -9.16626673697166632904e-002, -7.41564855493589969448e-002, 6.16541393380157093373e-002, 1.09517822860106681104e-001, -3.49755677959069033456e-001, -3.74209964957643692607e-001, -2.37741538102893501527e-001, -1.53049437217126577115e-001, -4.51709252047671414032e-002, 4.12768662759574814225e-003, -1.09391224805363198452e-002, 8.99470419736537740718e-002, 2.77105816333067652910e-003, -3.31017430991322081368e-001, -3.05108754551343230865e-001, -3.24841178087397819407e-001, 3.25885916432400992923e-003, -5.84757873401374819733e-002, -1.25870842519610837140e-001, 2.06822304679154245211e-001, 1.33825346157929570001e-001, 1.02694781984462288338e-001, -3.35744366531903981610e-001, -3.26076261529474775713e-001, -3.82239030628218512398e-001, -1.83418604568194143489e-001, -1.39918542523885636175e-001, -1.95146421782459833505e-001, 1.60560208599812542785e-001, 9.96301599270720122936e-002, 1.81518039567337030604e-001, -2.96281045852041236000e-001, -1.04208995126505152284e-001, -1.78827235493150382695e-001, 1.06811206959104607050e-001, -1.50931372088096010797e-001, 5.74682870498161649242e-002, -4.39052362734417625512e-002, 3.81533303151674260678e-002, -1.11784903513327902452e-002, -1.98406773450898493705e-001, -3.11431181080560282037e-001, -2.36138105200168729736e-001, -7.28444582421849430587e-003, -1.34328759514019374643e-001, -1.59519926600914019321e-001, -6.66069076016264915996e-002, 3.54503407365251224648e-002, 7.17915475920953699562e-002, -3.96194773583414927565e-001, -1.50286554908567543398e-001, -2.17852042679762075705e-001, 6.29833326967888518233e-002, 7.82804856830302403514e-002, -1.00726758523141141088e-001, 7.47494835566652887637e-002, 8.85039530528193701953e-002, 1.27880717490281126114e-001, -3.27986751160228129365e-001, -3.94040751863995786231e-001, -1.46494938857238965468e-001, -2.25358083319004781631e-001, 3.34979337037115687536e-002, 1.41754677891557989700e-001, 1.69656823841930343155e-001, 1.81051870998081065878e-001, 2.22556992444528062292e-001, -1.78318261462283217389e-001, -3.19524083437551842390e-001, -2.23855853191932629986e-001, -1.33365390449459164657e-001, 1.30035428571564831701e-001, 1.45199517748953454976e-001, 7.74561118200950832202e-002, 1.39559208474020340907e-001, 2.28269033308439207863e-002, -2.34570419521273110242e-001, -2.25136995917411347756e-001, -2.40386126857161902537e-001, -2.61159394494322461000e-001, -5.75055246935491032670e-004, -4.11822721948035125328e-002, 2.81054645259782076572e-001, 8.68528666909705732158e-002, -7.44440327111291766382e-002, -2.65334180817735132418e-001, -2.09934562643953465111e-001, -2.44995408650085427782e-001, -3.50428750112239117964e-001, -1.60832556780852814482e-001, -1.47459401471097872882e-001, 3.83444152722864708971e-002, -2.58594743590752421114e-002, 1.19311713743234848462e-001, -2.27197534434380343793e-001, -2.80797068496962953787e-001, -2.76111848788213820605e-001, -4.05481446194013606110e-001, -3.27177035141025251974e-001, -1.49310122625470304003e-001, 2.47234833052829783284e-001, 1.62782559719321762159e-001, 1.35153452328112100300e-001, -2.51181029498345143036e-001, -1.93132138926901147924e-001, -2.58422387791581276151e-001, -1.16316064348802872264e-001, -1.22168028679625007005e-001, -8.93049507396947023219e-002, -1.43518293868181046058e-001, -3.76590650023046896733e-002, -1.39686015000418002618e-002, -4.56112017495049149041e-001, -9.50595272562451965026e-002, -2.67331423654330824213e-001, -2.08895769731363395438e-001, -6.65239343609048405792e-002, -1.83000925199861719239e-001, -5.63985118360712592289e-002, -3.36380283227259505030e-002, 2.90466603337092565962e-002, -2.10899324984487629431e-001, -1.65626054815169038159e-001, -2.75044370878499422339e-001, -5.59975910332161444516e-003, -8.41341919824889761248e-002, 4.92940879599834246710e-003, -1.34187967822003602347e-002, -1.02508561833705602595e-001, -3.02399132931726460916e-002, -7.77248538686133999542e-002, -2.30640721164787371178e-001, -3.27695346649936880556e-001, -1.77014085205667359713e-001, -2.13005587375066723910e-001, -3.14950853822881848831e-001, 2.58425417706243769345e-002, 2.48707448977753377631e-003, -8.55069327540822349265e-002, -2.66414550520687520851e-001, -1.76493112497904752756e-001, -2.27993631169551763671e-001, -2.31886920451017081168e-001, -3.02503274431955709867e-002, -2.84433649677644506681e-002, -6.33252496921761359738e-002, 8.21432219842715277691e-002, -6.92621192134480062608e-003, -9.66512423105127943534e-002, -1.86093084571285011242e-001, -8.39473840119240033442e-002, -2.66408021872003852870e-001, -1.25233077385173474649e-001, -1.78457123380787702205e-001, 2.03079073502622303726e-001, 1.05748247350286456170e-001, 4.88963147169370337952e-002, -3.51156521052262554639e-002, -1.40835128451792190862e-001, -1.87496195963113454486e-001, -1.50766000622584578350e-001, -1.21011706033150256978e-001, -1.87493510645154487504e-001, -1.59935533918661387798e-001, -2.44374813638632032431e-001, -1.99158703359211514128e-001, -4.18749774140327463146e-002, -1.86472852711539072157e-001, -2.68484810628045911240e-001, -3.28763665477814936988e-001, -2.65312371687383419250e-001, -1.86131427604544763543e-001, -1.15050557826506527626e-002, 6.04971380343532171009e-003, 1.96845361091212811555e-001, -6.92948474459366275946e-002, -1.02639700622371626837e-001, -2.63187737521902886950e-001, -2.06205986873268354298e-001, -2.59532092025511085254e-001, -1.33599208994227419689e-001, 1.37675440594313869443e-003, -1.75629023731735833813e-001, 3.87897050336753453428e-003, -2.99640472624434217597e-001, -1.97491617025515875383e-001, -2.69679766116237396023e-001, 9.52753062055487591475e-003, -1.62366990301901575888e-001, -4.75994882888729556325e-002, -1.34961562862543599239e-001, -8.41665459023518969239e-002, 3.90227661093361585798e-002, -7.45687907091873575238e-002, -2.61513125663812961985e-001, -1.72126784991395859192e-001, -2.79835824815889977479e-001, 3.37103561056997652612e-002, -7.52822627502589686310e-002, 1.58600802007795027571e-001, 5.87521561185865223709e-002, 7.13221077543052806025e-002, -1.24249284268673126919e-001, -1.36396712807332426420e-001, -3.12760391247591418296e-001, -1.45068889095192055105e-001, -3.88719636382590461379e-003, -8.38983834509600956419e-002, -1.17711020206445401981e-001, -1.81449342192157192510e-001, -3.83689681341868732423e-002, -8.14627382943386851855e-002, -2.94615546455786747604e-001, -2.41698218288927318964e-001, -1.67137365840002993789e-001, 1.15952528865576207084e-001, -9.42849219945433442147e-002, 3.28053120934438724454e-001, 7.38076594228564836220e-002, 1.93305074778380631129e-001, -3.14878850446432823063e-001, -2.34629667917431589119e-001, -1.77063037464284561695e-001, -1.76806973133077194316e-001, -1.80715832619364441536e-001, -7.70380655503695166431e-002, -5.37125478911589515629e-002, 9.00345412338140055342e-002, 2.18268312859827666450e-002, -1.74781431428623346136e-001, -3.12961584541798565340e-001, -1.62097740165537573809e-001, 1.28037620052650569225e-001, 4.61943210023594785785e-001, 4.48009171149899354525e-001, 4.66954167557213986606e-002, 1.92268853683648544006e-001, -1.31710248323298084738e-001, -2.00508231516633106395e-001, -1.27033816376695224415e-001, 1.66093519260488486911e-001, 5.28674460543516744337e-001, 4.61891082805989727778e-001, 5.22627139259734918575e-001, 3.83196404315577665578e-001, 9.36197605402319527057e-002, -9.09595059280383783085e-002, -1.58135063842345408025e-001, 2.37242747337665961516e-002, -3.92028645347241855301e-002, 3.13289868979188979026e-001, 5.96736486002974395038e-002, 2.19001986527582181985e-001, -1.40880351224828614942e-001, -1.29075827640129869867e-001, -2.00245577650014550120e-001, 1.74911454948023126210e-001, 2.51486733525401351397e-001, 1.66808421014980667874e-001, -8.62780362637835251949e-002, -1.01256731213905756817e-001, 6.74981975481642598735e-002, -1.92648669514885739762e-001, -1.27004878973939083764e-001, -2.85511176912971835484e-002, 5.64180397952454906751e-002, -3.70145804735423633591e-002, 1.39375081132494353653e-002, 2.95861913452265978819e-001, 3.97349254980068455900e-001, 1.73226350849988580682e-002, -2.02326769855338012283e-001, -2.00017695109322768410e-001, -1.57228422153988550702e-001, 1.34142387319604983187e-001, -3.77155869575567376240e-002, 1.57909787160106535042e-001, 9.11463387670747998692e-002, 8.17659865709164240810e-002, 4.56969209407497717335e-002, 3.45739813329226375327e-001, 5.49897606899993271479e-002, -2.48467739915233160053e-001, 1.20764243501349250592e-002, -1.30846456260836158103e-001, 9.93583303171916565333e-002, 2.40962917696075473728e-001, 6.03945749591565869685e-002, 8.03273362806168900185e-002, 2.68373834997129745439e-001, -2.26548416513119438287e-002, 1.36400531345275077832e-001, -1.24878573498992992419e-001, 7.93408181431461828614e-002, -1.69074186172830042384e-003, -6.19130143635672411384e-002, 3.45564520496072391520e-001, 2.72471323445861668411e-001, -1.46435901209237051557e-001, -1.23737813735376511737e-001, -9.74649069418316443825e-002, 4.88995713225529662904e-002, -1.63475368599733300590e-001, 1.00887039680166643030e-001, 3.27254028645461048086e-001, 2.20254233150342343395e-001, 1.21510256897530088960e-001, 1.25408673850002788663e-001, 8.11559368332625923059e-003, 2.88236395705946286949e-002, -1.40973385195748979193e-001, -6.18031585144788661590e-002, -4.94570563471838850478e-002, 3.09200003780692844746e-001, 1.13871790038159878544e-001, -5.89816155839990793885e-002, -2.63137171945256209682e-001, -3.24132866988731338509e-001, -3.18862854108754756322e-001, -6.32494845710694780783e-002, 1.39479191678241271068e-001, 9.49292585091467550074e-002, 1.77651335779260177716e-001, 3.01912169380811001851e-001, 2.61166166621055129138e-001, 1.52060983629074386592e-001, 1.72309111198646669472e-001, -1.32834951354654895450e-001, -1.42073986327637430405e-001, -1.77235452757096095810e-001, -1.73209380878805385695e-001, 8.58322851271715314692e-002, 2.33458120813468672505e-001, 3.45950807659002712580e-001, 1.71302703738943240541e-001, 5.97318115551590672618e-002, -2.12634372367552115790e-001, 8.88806607654435941457e-003, -6.30985905656962636767e-002, -2.61198830227547147687e-002, 1.29475249883847648436e-001, 2.80815237932808492438e-001, 2.02887631310581045829e-001, 2.48478248637928472720e-002, 5.38942936041030482008e-002, 6.41560238027108625802e-002, 1.00939199732058129677e-001, 1.76069263740464276857e-001, 3.35803679754498096699e-001, 1.81866309610571180722e-001, 2.67270918081611019712e-001, 8.92274130771379160587e-003, 5.61547489800741927990e-002, -1.06684103586739114505e-002, 3.14223137958172873963e-002, 1.49084542530571531604e-002, 2.01848242771986458033e-001, 6.41474285012099826320e-002, 2.01611948274036251183e-001, 1.60261159040217843197e-001, 1.66343777488379390705e-001, -5.27593512495573013776e-002, -1.28318410009274297412e-001, -2.21990447675816604534e-001, 1.24485408001335801781e-002, -6.33474911542009355703e-002, -4.59999670591226192395e-002, 4.51151399584358125949e-001, 3.34980230269772638607e-001, 3.52962336763623818481e-001, 1.67600930628145683432e-001, 7.25779014710425801615e-002, -3.69885087498083089952e-003, -3.44763514427901124337e-002, 9.26741388481177319481e-002, -2.06189277854598451700e-001, 1.89191029312566094678e-001, 3.43380093910833017468e-001, 2.45491702507660281007e-001, 3.66952533474028008698e-001, 1.07391405155957742057e-001, 3.03289439011105832478e-001, 7.07956862348585458378e-002, -2.41830865120709267990e-002, -2.83962260893007356621e-001, 2.73869832999050821787e-001, 3.38139354829943450387e-001, 2.17655218042601489303e-001, 1.59182515638816191039e-001, 8.93617678007461585521e-002, 1.68315179839059539391e-002, 1.97147796233502897723e-001, 1.67962166263407652878e-001, 8.71896130934870644547e-002, 4.30202253160992420522e-001, 1.07377037461837548937e-001, 2.81557283555741277858e-001, 4.73531635749830301374e-002, 2.97232955916616303771e-001, 3.88479296502978022065e-001, 1.27962775980771832629e-002, -7.10303102093232940906e-002, -4.40667398134374568852e-003, 2.69209871340088113811e-001, 2.31665919197278552533e-001, 2.58366322485806820808e-001, 2.60192564013684235480e-001, 3.86129964273492151672e-002, 3.92222814476092696001e-001, -9.60011478241207805162e-002, -1.37529047907969131925e-001, -2.15722264342386449432e-001, 1.73020574090527068378e-001, 4.10659084751324843232e-001, 1.08819130621580467677e-001, 1.94159758063564891195e-001, 1.87312303731084983660e-001, 1.82711008818667669518e-001, -7.24184352396470276680e-002, -1.32270292355690100017e-001, 1.60785630277106017516e-002, 2.24313704798355939563e-001, 1.15248473084316863102e-001, 4.10759733672147131500e-001, 4.51851257825466035012e-001, 2.48800822317215508672e-001, 3.68470342944688056264e-001, 1.36797406182684461173e-001, 6.30257796218408744560e-002, 1.73557730141975230520e-001, 2.82694776841824757518e-001, 4.70098674795114579439e-001, 2.45216782306227759625e-001, 1.27311980732974255881e-001, -1.12122842910476694378e-001, 7.98788465346620540908e-003, -1.08570669977169381726e-001, -2.87633290353887724478e-002, -2.63266500320696907045e-002, 8.59509991824006641670e-002, 1.32165559474728078193e-001, 4.50166910053066471331e-001, 3.61226569580046452668e-001, 2.29262503438443093762e-001, 1.16125341388283204180e-001, -7.62785772874746414995e-002, -3.33113632042244950382e-002, -4.36494761357623592413e-002, 1.26515182756266400532e-002, 2.95639549844257387701e-001, -8.95530341092241541356e-003, 1.29597062449666594608e-002, -3.05204297994864336141e-002, 1.93415437528821870794e-001, 6.12304070065309291593e-002, 1.92225581220735686205e-001, 4.41364784721746117313e-002, 9.28577456428298642077e-002, 1.68776757235912344690e-001, 1.60162982734061917767e-002, 1.40866012353954350722e-001, 3.09283539129302564863e-001, 2.83102477541435082475e-002, -2.20010900556031202546e-001, -1.88982059968798882243e-001, -1.99146866506174913258e-001, 1.83482929630813695887e-001, 1.00788662360938474638e-001, 7.73645086671207737883e-002, 4.68626572231986004979e-002, 1.55864757251420266160e-001, 1.23837291811936617281e-001, -2.28194707863536849768e-001, 6.89124053256717078453e-002, -2.23946503933736357217e-001, 2.83649379344195817776e-001, 2.30872127839557100826e-001, 4.20513592062018881634e-001, 1.99993476689627774912e-001, 2.53735899245288221149e-001, 1.48070944903604811982e-001, -1.87708263790701095075e-002, -2.48312970296200342946e-002, -2.53883246853071731231e-001, 1.55286018352545740484e-001, 1.99354235169402760341e-001, 1.85918924653085293475e-001, 1.69947575328261296645e-001, 1.01953601054272452453e-001, 2.41960419338337118234e-001, 1.28213485156115469810e-001, -9.48390351088884558939e-002, 5.53666110481417783618e-002, 7.01158441293989742604e-002, -1.50858021180065721145e-001, 9.27491802054845604353e-002, 1.21173020808858764030e-001, 3.19928188003345714829e-001, 2.33725977873640494709e-001, 1.07392919508816769847e-001, -3.96333324322599780953e-002, 1.93803741233708387570e-001, -4.09343236084308351175e-002, 5.57812213562136685607e-002, 1.33937956872347885273e-001, -4.74647495389299706181e-002, -1.23287357833694877218e-001, -5.03393534528628824876e-002, 6.64631603149905270111e-002, 8.67875249726152292462e-002, -3.76410040463281067580e-002, 1.24470313155936082583e-001, 1.80341019324203294394e-001, 9.21449722048523628404e-002, 1.92994985496972026873e-001, 1.47099069092251483193e-001, 1.41151253184738478819e-001, 1.75596265134114359885e-001, 8.48469854428123004819e-002, 3.20330305420627736712e-001, 2.74354601749122239962e-001, 1.41937791588617384653e-001, 3.87073308300442842089e-001, -3.24887492115232207404e-003, -5.57397921437050927751e-002, -1.84249925970538491748e-001, 6.26384167147317066915e-002, -4.69733418278655973088e-002, -2.77157037876958230183e-002, 7.68796036090771545135e-002, 3.91448219027622834609e-001, 9.81010958912523350905e-002, 1.44722543308961754116e-001, 1.87724593386338761691e-002, 1.51615004128383384918e-001, -1.15813776737348134160e-001, -6.76524808661345816718e-002, 1.64330368985407399007e-002, 1.67183145650627473788e-001, 1.98581032397134704670e-001, 7.88679156230575190145e-002, 1.17024856001945981587e-001, 5.00375863772856144251e-001, 4.27239772647049320664e-001, -1.07360349223128981322e-001, 1.23277213046474362623e-001, -1.37713688294265168555e-001, 9.23753527390861473023e-002, 3.80633488507207337626e-002, 1.89550923332312187819e-001, 1.78990011668939928702e-002, 4.16176326179857197785e-002, 1.49644795399321267615e-001, 3.84380483172209394538e-002, 7.09992963003833466029e-002, 1.17454854778303407863e-003, 7.27835914396514349622e-002, 1.91137763000349958364e-001, 1.95759154854820593972e-001, 1.16113899318986538156e-001, 1.32687636495267019532e-001, 2.94973697431226811183e-001, -5.10052599365302880563e-002, -1.54381508115390225777e-001, -2.09721096004065049589e-001, 5.35361421753482377706e-002, 2.56838165097611426102e-001, 1.70876491690759857445e-001, 6.58701828870079109102e-002, -2.25475026532525289757e-002, 1.62961625446090864477e-002, -1.50574814024860670347e-001, -5.05411411986845388045e-002, 4.44467449897472180464e-002, 6.15894121746819039886e-002, 2.53179386728531463646e-001, 1.79133361237803767629e-002, 3.32524184217475649028e-001, 2.65349760518778121643e-001, 3.49535838134190646187e-001, -1.01455164346713713752e-001, -1.38341985676382089876e-001, 3.27547085601724140974e-003, 1.09724231647255462962e-001, -4.45864211355683492943e-002, -6.70511870929147435483e-002, 2.47631941745941164257e-001, 3.15863308725125468968e-001, 7.21421601843710152968e-002, 7.85373745904503622883e-002, -1.81603075635200783555e-001, -3.65893085708831333758e-002, -6.58164446264489083616e-002, 2.24586885722283940980e-002, 6.23778848052158607640e-002, -7.43021218726502008511e-002, 3.85534563558801793293e-002, 8.59095394741522244697e-002, -8.28534029975925706557e-002, 2.65930915334143362638e-002, 1.07697761677257308754e-001, -4.57473805779548686745e-002, 1.51113700597730361841e-002, 2.24706497725356592332e-002, 3.58025056999512689138e-002, 8.04324569290394870980e-003, -9.37344996456003914931e-002, 3.96198382802767368194e-002, -6.18260902553524893666e-002, 1.06457064755349189999e-001, 1.24656552123449282377e-001, 9.27311518216183267027e-002, 7.17906949022425050488e-002, -2.24766543015793036214e-003, 7.40391950559922840808e-003, 8.51613067115227218018e-002, -1.83477253422932168325e-002, -1.00852428556105298135e-002, -7.13753241314703107401e-002, 5.21850524486696734638e-002, 3.15305827841127761513e-002, 9.78871966132729143251e-002, -9.86213284191463646078e-002, 1.28710319533462927595e-003, 2.62888274879543235030e-002, 9.66037926664384954956e-002, 1.04949355958483231399e-001, 3.19666941296088760738e-002, -9.33148348978591613001e-002, 8.11697542863617227393e-002, -6.97114564671670686874e-003, 5.50273257497566961605e-002, -9.07651488769439102056e-003, 1.07065468878150715781e-001, -8.03163576784136773457e-002, 9.59012573687407360312e-002, 3.75417719846071196166e-002, -1.30926970398752007263e-002, -9.05982620967872714912e-002, 1.57520770504680253377e-002, -4.75738113200901008293e-002, -2.27808623079975361425e-002, -1.15016132095731901663e-001, 3.53039265175593697244e-002, 6.79517798195518052395e-002, 3.34064311132184696418e-002, 1.65660804043258683138e-002, -1.01576235636333181422e-001, -1.03772990041024110175e-001, 8.45319923425389002647e-002, -1.10223112260747820729e-002, -4.80549705712023864090e-002, 4.21812041404931187955e-003, 1.80064731764119460855e-002, -1.10947926279029319280e-002, 2.54606211395840172085e-002, 1.00872157906032711150e-001, -4.68166276468584691139e-002, 1.65486738911611690195e-002, 5.43135889781759875761e-003, 6.77565346889175412759e-002, 1.25361267673897557734e-002, -7.11262709550709859574e-002, 7.98006253844381757689e-002, 1.06711476027468166183e-001, 7.85681458595859916194e-002, -2.63714370690306051936e-002, 6.10246793750733110273e-002, 9.58455898092162861257e-002, -8.62100873646455823085e-002, -2.72221634519915524353e-003, 9.28611800043914470404e-002, 8.02868010089573536092e-002, -1.22066543815472876300e-002, -2.40025232214160742783e-002, -3.38381643639783583066e-002, -5.12889231650053966510e-003, 4.07447085599486197305e-002, 9.53252497412927363163e-002, 4.31076095386016544531e-002, 6.32114446238012626933e-003, 8.68963127492588249812e-002, -2.43876838020601061086e-002, 5.77629463728263556344e-002, 8.44781087918352602273e-002, -3.57172540814140460075e-002, 4.41544386439091038343e-002, -5.65476168022230815668e-002, -9.36749435332991792214e-002, 3.96212876917922396380e-002, 6.18356403071638541236e-002, 2.50442877598065043177e-002, 7.47988300445108639236e-002, -8.47272728994891317911e-003, -2.26789130196504047643e-002, -1.13133558408185327937e-001, 1.10365052774539455088e-002, 7.30246338148590884431e-002, 7.47388264903429966335e-002, -1.12816515519754939634e-001, -7.04739811662524889835e-002, 1.77477559802445179760e-002, 4.93737001478453882419e-002, -1.37790182761607343798e-001, -1.17933924026335568147e-001, 4.40334644211383893775e-002, -2.16173611839744241048e-002, 7.91531899750168160823e-002, -8.20346120823023106094e-002, -9.46926092588910445214e-002, -1.01081257735605764547e-001, 4.76231455113328705497e-002, -1.09029442662108635997e-002, 8.97830030375650484098e-002, -2.25130890377573215921e-002, 1.10184556163467090029e-001, 4.73745718553231984216e-002, -2.89160198785465318017e-002, 1.74003981834191254544e-003, 4.61281217635439097502e-002, -3.84879246014849726865e-002, -1.11049642407259799293e-001, -1.35241980026745509808e-002, -8.87390426454627012642e-002, 9.34566309487427360203e-002, 5.28266639961991260610e-002, -1.74419899980044401308e-003, -4.01500333599853001521e-002, -2.06995044528495222846e-002, 3.07302015774788203628e-002, -9.18886354544669742284e-002, -2.37385564708122720479e-002, -6.07796453972833036761e-002, -1.02619418833456779727e-001, -4.05215062561432234900e-002, 1.08244286515000662230e-002, 9.30119913602196618507e-002, -4.86475768294220567434e-002, 1.33731477695203465617e-001, 1.12186613957663078311e-001, 7.01627417328207075853e-002, -9.52274275078165144404e-002, -3.39192519352022187062e-002, -7.35944167136625415626e-002, -2.35790147458587555362e-002, -5.10675755082497934145e-002, -5.13069504428181610844e-002, -6.79644351333987400965e-002, 1.22649429309481597383e-002, -1.16708957734205143186e-001, -8.45564883867543914953e-002, 8.99856602064615235248e-002, -4.73555576547081968908e-002, -5.97934360415925264531e-002, 9.97311381008890995847e-002, -1.70288519072147905009e-002, 2.24987087110817447766e-002, -8.09840738399795062596e-002, 2.75601729792356829607e-002, -2.22707624670717869997e-002, 7.58532518587591575443e-002, -8.96487073345188650864e-002, 7.42311022579368595675e-002, -3.96668594799660656491e-002, 1.37500571759609363509e-001, 8.28705141136319156647e-002, -4.71976857189416870719e-002, -5.65153826661349278915e-002, 7.28290731292704357491e-002, -7.78603481508991779325e-002, -8.46614223894049111596e-002, 5.26104698402525897127e-002, -4.89347484615712466360e-002, 1.01745575757618195167e-001, -6.46437222700015912125e-002, -1.13603341593974588308e-001, 1.79873209063839377408e-002, -4.03543355946723095173e-003, -1.20141496070256065254e-001, -8.64344474674229139299e-003, 2.57839584316006537046e-002, -6.28487179992427563713e-002, 8.04537210655880269394e-002, 4.78990683083194840330e-002, -5.92550703021887809063e-002, 1.85221434517522445806e-002, 8.94460057199888275425e-003, 7.59536698137158183819e-002, -5.54338419169816479237e-002, 9.57440175520874736659e-002, 6.65636548143252598786e-002, 8.59754659455580355631e-002, 6.28106574422772762079e-002, -1.23976207561994119372e-002, -2.53539465564118137939e-003, -7.09554668548811745543e-002, 9.23991421770627291421e-002, -9.39993591408950085464e-002, 8.23836212857646382757e-002, -1.45613671299001587456e-002, 3.70194559630084435442e-002, -7.54953418785213881126e-002, 8.86614902524668485606e-002, 1.78164602932223033183e-002, -1.13320957869887453673e-002, -8.98362052789179188483e-002, -5.55114843019910639277e-002, 8.39756329146043450917e-002, 1.05773765520792720207e-001, 6.14069814569201469223e-002, 4.97863876587097062276e-002, 1.19061074629622745680e-001, -4.04042838138602491971e-002, 1.89579914705486404086e-003, -8.10053158890702978967e-002, -9.69347963324594941170e-002, 2.02867118094624994395e-002, 2.49929747455514064680e-002, 5.33351357611807699866e-002, 5.93435538668926100547e-004, 1.68700238412692465895e-002, -8.06884572850915249287e-002, -5.37820271931210361349e-002, 8.48747147413976416042e-002, 8.34614665417956896887e-002, -1.26080013745552173277e-002, -1.04929852604873821709e-001, 1.04886538367085183077e-001, -7.97950534920557896790e-002, 5.34326230288119444212e-002, 2.74012523864832074905e-002, -1.90732745920443522158e-002, -3.82084515637295674129e-002, 1.12610914644698897891e-001, 1.00926856557615768351e-001, -5.36699649117181321056e-002, 2.92060344252987880154e-002, -7.02580265224423267112e-002, 1.24467396335917593331e-001, 1.04143259761485459935e-002, -6.15543950431904525467e-003, -9.33537805516686421126e-003, -3.29151152179288641886e-002, 4.25735619610000289026e-003, 8.15894053807817432045e-002, -2.82562231561073401789e-003, 7.02961298877042561895e-002, -7.73802532469788639791e-002, -1.02614298772539094817e-001, 4.94638454047549580572e-002, -1.12716447739113934112e-001, 6.69535280255148246287e-002, 9.16604390975522542728e-002, -3.41094754120583668056e-002, -9.32393845484557476366e-002, -1.62938947059506136772e-002, 9.86403049465595788137e-002, 3.58259864126890467673e-002, 1.56239377885188709255e-002, 6.70171113109750277159e-002, 5.72045294768691939269e-002, -6.11313903326771677926e-003, -8.41014768069689722108e-002, 1.42023120388823868160e-002, 8.11984366845758948061e-002, 3.99509208478548635823e-002, 9.73170906544795766280e-002, 6.73725067749589290322e-002, -8.90001907073310893903e-002, 6.43692660585967468823e-002, -3.33563064248450225069e-002, -4.47274356569003841977e-002, -3.08676972023059657466e-003, 2.31492592440630078066e-002, 3.43477790141172509286e-002, -8.36450631283069678812e-002, -2.33820551790638979373e-002, -7.89440585807704153787e-002, -7.15939051803694270770e-002, 9.95660758722103494955e-002, 4.83196943516061988566e-002, 3.70177352093894948548e-002, -7.80179415897800654367e-002, 3.33863681853589638893e-002, -6.38982405054852181658e-002, 5.99085409886097181031e-002, -4.33659132316337528334e-002, -4.30264378801764948990e-002, 1.46655118233965896246e-002, -9.35743245609604520907e-003, -2.67057881754370236849e-002, -6.46200844022306319925e-002, -2.41526541966005335593e-002, 7.07066752199394937817e-002, 7.80738010552361194616e-002, -1.13438963726952878400e-003, 9.43559721812431556609e-002, 3.80876295027711975205e-002, 7.06374057617633888118e-002, 1.13603997460966395228e-002, 4.18765431086849035380e-002, 1.45665447881484035920e-003, 6.76764115180319009157e-002, -7.48034916963177809457e-002, 1.58131433421273975837e-002, -1.18671593961102300741e-001, -1.26721561132995735877e-001, -9.73991796099783063712e-002, -3.97771239824631743509e-003, -9.88833569951119567554e-002, 8.96393331771016960152e-002, -9.28704988107182244361e-002, -1.28241802412206711698e-002, -8.73907515395179468332e-002, -1.58284434431599264903e-002, 2.34349594245127149095e-002, -1.21014673983702344962e-001, 8.28037036833520340151e-002, -1.17233890894071796085e-001, 7.93163635507976721994e-002, 8.93070502981423708366e-002, 1.16946206801533822417e-001, 5.21393391697207719826e-002, -1.15344192473823534129e-001, 5.73411439313514098570e-002, -3.28674412674236516435e-003, 1.00918257595858963660e-002, -9.97476256813081135766e-002, 1.20173939004556584731e-001, 1.31194487760758565775e-001, 3.11487325157775440942e-002, -7.81299531639276928496e-002, -4.51680497667170943732e-002, 2.42390107606399868301e-002, -4.40578507805221425420e-002, 2.51607526509304221807e-002, -4.19015336696566750851e-002, 1.33770674956526142152e-001, -1.18072648942467370303e-002, 2.86228851596317841743e-002, -8.76894145283129422541e-002, -6.08617705201624642486e-002, -5.77409848275417109109e-002, -1.17036497540094097669e-001, 9.11781409553810429092e-002, 5.60904041624613255990e-002, -7.56404917649768221422e-002, -8.83381226048477463664e-002, -1.00085067769897284595e-001, 5.03039744985103471492e-003, -6.08825494207461750951e-002, -3.94727196308416738990e-002, -1.92701814555022055142e-001, -2.40681035489643896375e-001, -3.16628322537895634525e-001, 2.00826480111007926732e-001, 9.79498458628366153178e-002, 1.32600006505646600408e-001, -1.75402394839509478963e-001, -9.09282197781987600038e-002, -7.74956753579520655345e-003, -1.65028015835765595742e-002, -1.72025063994726001848e-001, -1.98085976641010734489e-002, 7.12355542900427879394e-002, 2.28315784624511769474e-001, 9.76100120134065635247e-002, -1.01796735441237018449e-001, -1.25472948567563746813e-001, -2.88559845710134377228e-001, -1.34518166148793416603e-001, 1.17895874037103901011e-001, -2.52904301656943046595e-002, 5.75647959564817013334e-002, -4.91747329962848728213e-002, -2.62291309349684583635e-003, -1.83751066991992534350e-001, -8.83100045738385158733e-002, -2.43266028708352705090e-001, 1.72972797259581201335e-001, 4.06179499380580760759e-002, 5.51276581967751130864e-002, 1.32767711668214855036e-001, 3.97628014104383781246e-002, 7.66640735557317931637e-002, -1.42566890094569964642e-001, -2.01034218574089207365e-001, -3.12015458416721847001e-001, 2.45773045801733952542e-001, 1.31418978729829688534e-001, 9.80204958433898293491e-002, 1.06274964837311247656e-001, 8.17876297350693809429e-002, 1.41819713697205695979e-001, -1.94570704010583517274e-001, -1.47414687862878202029e-001, -8.39090757236461565194e-002, -1.02690028623603560320e-003, 1.68150068895608850728e-001, -2.94424697749898628407e-002, -1.50519763033713976919e-001, -1.42023828685540531858e-001, -4.48369600487436362202e-002, -2.36396566372008593016e-001, -2.70924878818295300498e-001, -2.91079781391445469030e-001, -5.12068608057640525799e-002, -6.08203753021129001066e-003, -1.60576306195079177019e-001, -3.37507870843856971899e-002, -1.00598662919279616124e-001, -5.39061504547662176390e-002, -2.72063525693332586286e-001, -3.63334268025965689830e-001, -4.21691936038954828803e-001, -6.26790022366220389571e-002, -5.35851250851625757199e-002, -8.96851108620541279115e-003, 3.97800194857589259345e-002, -1.91732284700220301232e-001, -1.26307824593492407095e-001, -2.35126935234238193528e-001, -2.44422066265747250924e-001, -1.78803960199000494535e-001, -5.52301265957032688769e-002, 3.22778061343362218660e-002, -1.62904284891680961600e-001, 1.88568360681916874499e-001, 1.18861399804543493852e-001, 1.23625229090933486109e-001, -2.28947461553724002092e-001, -2.72698222277311164152e-001, -1.03983700122182790015e-001, -9.07745549132080026267e-002, -1.56288467122350401006e-002, 2.91953543855356448256e-002, 1.49088769891145667135e-001, 1.64147288026543547446e-001, 2.73341172924851990439e-003, -2.13310565792965700638e-001, -1.59239665686478293338e-001, -2.42522110606821161838e-001, -1.32341132365549979388e-001, -1.77211855936216522434e-001, -4.27921946669502367699e-002, 6.65940064516109403447e-002, 1.00608095371224309789e-001, 1.04150079802764992942e-003, -2.55432026558047253761e-001, -1.94474057769889213665e-001, -2.60878090191266620579e-001, -1.49914609795485497673e-002, -1.50544759816830575616e-001, 1.17435286689112272293e-003, 7.32600481315725249321e-002, 2.25098364893302566037e-001, 9.89836215407976921510e-002, -2.90291204294088722726e-001, -1.75543678825422350132e-001, -2.97393678706946773538e-001, -1.19368616830252821659e-001, -1.44993829975573682023e-002, 1.49402177774224237394e-002, 5.60058763342138263286e-002, 1.63929222299127347329e-001, 5.00036214717011900932e-002, -1.80713934604049553112e-001, -2.20139992125930133993e-001, -1.41842411495777503960e-001, -1.51354047709505445951e-001, -7.65572490191687715644e-002, -2.29222945061602456640e-001, 7.71643091832566740962e-002, 6.58586265095394141067e-002, -6.27581519601093790195e-002, -1.34429531402415702868e-001, -2.04814107173827530950e-001, -1.34776659403172544005e-001, -1.72619349215995365743e-001, -2.11955036350763514896e-001, -2.44268190583138894434e-001, 1.44464297634133570503e-001, 1.63260032508472291424e-001, 2.40889408280940409135e-001, -2.21347799648326598598e-001, -3.28525625877682303511e-001, -3.27671163245246643836e-001, -1.36769972365078679166e-001, -2.79670650467547132756e-001, -1.12612037358808134146e-001, 1.21538268761532494699e-001, 1.67933516036919416869e-001, 2.44312379205294361029e-001, -3.65866444425790304784e-001, -2.83029872074741506438e-001, -2.96981241919385297034e-001, -2.09567211596592251066e-001, -2.20260963903889495086e-001, -1.55004555010320704822e-001, -1.47103772733452320409e-002, 1.64001124870312070536e-001, -1.52832063272361623474e-002, -2.05302558914917859800e-001, -1.92827118039521377968e-001, -2.92414107975176418286e-001, -1.93826019333461441185e-001, -3.09193014185741466004e-001, -1.35684452370710362246e-001, 2.06639968901366627430e-001, 2.14114597461210448559e-001, 1.16399415610715817326e-001, -2.54821111937895028454e-001, -2.57098205835218807103e-001, -3.08983332881272554360e-001, -1.52895659009863377209e-001, -1.40221590812470181531e-001, -2.83110380462368894927e-002, 8.43415551198224006102e-003, -1.97394211683693115988e-002, 1.57565449603659313293e-001, -2.31230467776836701166e-001, -2.61008703579129530681e-001, -3.32668660922253944801e-001, -9.83416645694053792592e-002, -1.87602954727123988343e-001, -1.59481930352994599742e-001, -3.89273231144546261184e-002, 9.68638213365230066332e-002, 2.70740972316637316941e-002, -1.98594466780364631298e-001, -2.27255904673935638094e-001, -2.73258188174161087414e-001, 3.66181755839648653827e-002, -9.59184015797043126872e-002, -1.69690437581176578608e-001, 1.52026079041303711914e-002, 3.93542308875031235371e-002, 1.82374360259074552726e-001, -9.35714848157601086776e-002, -1.69182677906278472468e-001, -1.88275843496538503041e-001, -9.10400957031273355691e-002, -2.00582769510719268261e-003, -3.41946763847353410459e-002, 1.53273360929052915314e-001, 1.33073012190530470811e-001, 5.99412953249686200619e-002, -2.68337162726607791896e-001, -2.38833316914874055348e-001, -1.74883477953414551154e-001, -6.23402076010758990354e-002, -1.75657840077480476015e-001, -5.84554438282880450828e-002, 7.93004368413843391261e-002, 2.06886261747345645556e-001, 1.31570066910703387109e-001, -1.97554305967551413481e-001, -2.37144053594187387279e-001, -3.58248442519303378351e-001, -2.35506769103795060571e-001, -1.02979743944604004713e-001, -1.59849295111613443066e-001, 2.27824345260576266448e-001, 1.52622838373821928526e-001, 1.41122004073602175245e-001, -3.45027656905228519157e-001, -2.01015025324405099960e-001, -2.59173419573846597341e-001, -1.79129525534040684454e-001, -5.41834545982448206880e-002, -2.24717131034554151725e-001, 1.74348080070181432610e-001, 7.62721886482969901877e-002, 1.06146528973083964509e-001, -3.46273887205140684653e-001, -4.48481464598495305207e-001, -2.64688243724760463582e-001, -3.21161418989788005618e-001, -1.84730384223710214497e-001, -2.52156156344364890121e-001, 1.39943573218040129280e-001, 1.10419679419638969153e-001, 1.11649825492428189655e-001, -2.11878782857345460133e-001, -2.78789995685343128251e-001, -2.60630090325864816059e-001, -2.47328041595426650900e-001, -6.28898373589604348100e-003, -1.55639651537591267028e-001, 3.60924363603091283292e-002, -2.39757282101044251477e-003, 3.29547309082205835962e-002, -1.68148279807827510934e-001, -3.15540686806941694798e-001, -2.87695934458855717697e-001, -8.49516557926493359743e-002, -1.12062309532690571046e-001, -1.29633573924258505006e-001, -1.74209718458583850964e-001, -2.69846705527805666436e-002, -1.27739559499283096555e-002, -3.14964143476053448634e-001, -2.13347013290737408386e-001, -1.94416124663167766418e-001, -2.70348711775298844451e-001, -2.64178719306181197801e-002, 2.03004421508078125580e-004, -6.92849825088344140056e-002, 1.47844558154708649589e-001, 1.17262749183064778069e-002, -2.84277958955333365232e-001, -3.55477080771784581525e-001, -1.81128861820794878623e-001, -2.21417580844058436984e-001, -1.84828892926640148131e-001, -2.19578400758100533707e-001, 7.59225392917593777664e-002, 6.27924699867966201738e-002, 3.78557202916374735402e-002, -3.29424784031769002368e-001, -2.78568654128740933462e-001, -3.04439472863779037048e-001, -2.19447399276781612842e-001, -7.76480572440471118745e-003, -1.39003601891867667462e-001, 1.67803358679499997619e-001, 1.06760170701611478705e-001, 3.34935366599059120007e-002, -2.61206867470044623580e-001, -2.73516860892739188671e-001, -2.83483354214684846184e-001, -7.50137132510537429919e-002, -9.51584980137580582760e-002, 1.53220383437459636150e-002, -4.12003988033347798292e-002, 1.10004363697149248891e-001, 1.53111791777168437800e-001, -2.99477196560230030098e-001, -2.87516876802896725884e-001, -3.24235976508664647255e-001, -2.33406910539234402346e-001, -2.22590682271094908451e-001, -3.61213351342874328109e-002, -1.82019371220656991928e-002, -1.62410551359022659046e-001, -7.45662968953358651358e-002, -1.55477552894974446751e-001, -1.72529346611129508204e-001, -1.41121365069878712539e-001, -2.66872170406711739510e-001, -1.49573751098265039783e-001, -7.74939124017743202755e-002, 1.84512767629655377588e-001, 1.71752805982335193802e-002, 9.73720192504749365581e-002, -1.50875400158455158506e-001, -1.73840880578589540573e-001, -1.96038309709544972259e-001, -2.30846848699650164516e-001, -1.44350881044018136690e-001, -1.08359020824543336725e-001, -5.99263492949422740125e-003, 3.15612237639754378282e-002, 3.83212505620279045293e-002, -3.33547803246300400559e-001, -1.58126327441369729510e-001, -1.66899627803218292277e-001, -2.09782606119719855498e-001, -2.30812449090202660706e-002, -1.09657122881320387431e-001, 1.32538070152490000675e-001, 1.28848640111990601215e-002, 1.40265082817003255977e-001, -1.50445321405501736267e-001, -1.22034933381300225719e-001, -2.18290258393551678262e-001, -2.76118195216061845798e-001, -1.43766734902087706810e-002, -3.29087462721428455903e-002, 7.51382163663573132695e-002, 3.33920878737123741353e-002, 5.20541740913192316209e-002, -2.34195074845298029098e-001, -1.90085780836458551057e-001, -5.59512178497762538432e-002, -1.33764638315063355556e-001, 1.08828248033663518846e-001, 8.78449304218869020389e-002, 8.35417965835855841350e-002, -7.83888370141814921910e-002, -1.24314122738441237837e-002, -1.49487371724312201327e-001, -1.73407852634776038503e-001, -1.43483487346724919442e-001, -8.17163425139911109296e-002, -1.08568876930551061477e-001, -6.30640553446571300311e-002, -1.80566734672583627253e-002, -2.19248390797130501828e-002, 1.66815718504683685453e-001, -2.89262084702862687369e-001, -1.75560992106212343522e-001, -3.03807454055279424487e-001, 4.28566455599950490996e-002, -1.21785149971613659847e-001, -1.50345289908054291494e-001, -8.42675879826998847077e-002, -1.16678662232070712301e-001, 1.27955556280261811830e-001, -3.80968338632538816579e-001, -1.80980962481250590157e-001, -2.61021202506192873116e-001, 2.90869823187316745017e-001, 6.98300964234482429704e-002, -3.03738318836735354811e-001, -2.13428205375323892801e-001, -3.09432410232444929377e-002, -3.70492506748617417278e-002, 3.86749395799610595770e-001, 7.68282026063554501771e-002, -2.83952022245019086721e-001, -4.18462554762369376427e-001, -2.18539896383508763789e-002, -3.92453772160122560386e-001, -3.11345466491946110121e-001, -5.51402555805721797388e-002, 6.81276363330231699011e-002, 2.41298448526635206379e-002, -4.82990492799909021393e-003, -7.13678788335307262569e-002, -2.53181058876802589364e-001, -1.26325699200995039684e-001, -1.42592005056722620493e-001, 4.65636194746602560812e-001, 2.75937976674383078635e-001, 2.62001491454898260969e-001, -4.98981033564561193838e-001, -5.03840751871025060993e-001, -3.85773346617600543240e-001, -3.88829904836197684515e-002, -1.31148564456667809930e-001, 7.40825020505604531218e-002, -9.90824971516712227348e-002, -6.56518166760174798346e-002, 1.34550239915443098360e-001, -2.63120379074939625408e-001, 3.88980830337200891855e-002, 4.81869895465067282769e-002, -2.54657511759648236271e-001, -4.41795749874568710602e-001, -6.08698837587076484190e-003, 6.35395865610927645939e-002, 4.38987554813716207569e-001, 7.04056713054928423601e-002, -3.11250438217553881959e-001, 5.08856117224754933570e-002, -1.77374258093504127975e-001, -2.96401682270429796262e-002, 8.46945647438862234124e-003, 1.42499650618584328132e-001, 9.16302038076977215519e-002, 1.13670322548553429098e-001, 4.33141190611388782195e-001, 1.52908275807894150633e-001, 2.56157663448385752858e-001, 3.34847659880446790748e-001, 2.20257602997083912211e-001, 2.48012938982770325680e-001, 3.61375133333931952695e-001, 6.49884590068798700946e-002, 2.75021085465118664271e-001, 1.94788874561536012875e-001, 4.59164496429075141837e-001, 1.13807829413702793486e-001, 1.73185356070825163810e-001, 3.55587910666769341228e-002, -8.52999460474437448676e-002, -1.12608318714645147529e-001, 1.83738020913223415453e-001, 5.02402896955164268711e-001, 9.37105138229353401558e-002, 3.20675283979483666252e-002, 3.73402072813953586627e-002, -6.36583289157888754239e-002, -1.31626749158418848706e-001, 1.13234755664927896901e-002, 1.20092526327197926528e-001, -6.42455475123036162666e-002, 6.08563902538086700517e-003, 1.43472992569574797628e-001, 2.27848244576354080904e-001, -1.28927162630794261977e-001, 3.34662200033986667602e-001, -6.48021192226222869648e-002, -1.08566677196726857346e-001, 2.87698432105698453931e-001, 1.15583311325221968491e-001, -2.16016274383904437195e-002, 2.85793558683197446157e-001, 1.62563413733230383018e-001, -8.21720498289157524896e-002, 7.82265957489882146625e-002, 2.39168098865483763626e-001, -6.22112479344294130867e-002, -2.25494371246807469300e-002, -1.63411453699286196573e-001, -1.40404902342284226835e-001, 2.58092207020999664380e-001, 5.89764294208361961047e-001, 5.42407256687073013879e-001, 4.72967769190097420129e-001, 2.06542563494174435945e-001, 1.31571918372518026352e-001, -2.03413779779777481593e-001, -1.79995790946730155335e-001, -3.86167898850855034754e-002, 1.20303224558424820545e-001, 2.82333137929719923953e-001, 1.09798366328839103190e-001, 7.14656428788279507458e-002, 2.38310962233072342123e-004, -1.68173292200643448302e-001, 9.01405077278234212468e-002, -1.16486357873327572160e-002, 5.10045237736878806500e-002, 1.51257429313654268022e-001, -1.08940310485362873427e-001, -1.02886719389446185113e-001, -1.61503971535342155663e-001, 2.91348411007284813223e-001, 1.29537404329045702234e-001, 3.85549348392385027307e-001, -1.00429303983684894974e-001, -9.31350701142423242906e-002, 1.33644785285804111596e-002, -3.33355560625977140332e-002, -2.39328006018341171712e-001, -4.46069822675562860370e-002, 4.22669092612355412619e-001, 2.27807334113412668364e-001, 2.38197336035094298090e-001, 1.66778603481648274309e-001, -1.05365989922547781399e-001, 9.24624133083253862964e-002, 2.25063348120059431023e-001, 2.51008843731620912010e-001, 3.89753233987726876997e-001, 1.01909774353851179107e-001, -7.87923503756444293389e-003, -7.10163241846085424580e-002, 4.88435378183996876666e-002, 2.55118649532491276188e-002, -2.40892140417987808687e-002, 5.06321139821903631884e-001, 2.14809504169825221664e-001, 4.14301138727582340948e-001, 2.10516950755153198216e-001, 4.26049340649871204068e-003, 2.60651930804052744950e-001, -4.80038385752575125220e-001, -1.95704340655875996813e-001, -4.16535572799272946209e-001, 1.43839981550634848917e-001, 3.02611331160391405781e-001, 5.56398244021243937318e-001, 1.62456416105654949389e-001, -7.50904427324576434488e-002, -2.64135725908270745099e-002, -4.53021314033751065775e-001, -1.37572374481433640225e-001, -2.42137991977966426926e-001, 2.12746888600281375270e-001, -3.68025474967155971640e-002, 2.30786866824042147250e-001, -6.46180571336094911050e-002, 1.60959585381446224073e-001, -2.04598028375617899122e-002, -2.77605500823212350547e-002, -1.38289477460509985240e-001, -3.41811776857314286726e-001, -2.97678700853372738000e-003, 2.57563178260038272427e-001, 1.53998125743926989051e-001, 1.55058595556730433040e-001, -1.70946724339364475309e-002, -8.41854767048389324158e-002, -1.33734854248991702486e-001, 6.28830804620454791865e-002, -2.14103472432258523650e-001, 4.76890032011088038644e-001, 1.54466672951461547747e-001, 2.53218778770499697295e-001, -2.02535501110180198026e-002, -2.15400966460698228833e-001, 4.40255224117089838387e-002, -2.45233285450689536544e-001, -3.20023808304002677083e-001, -1.74005711840333615603e-001, 3.17949986947682672334e-001, 2.12840024848979986194e-001, 3.05251082524317762790e-001, 1.25222918915777914339e-001, 2.10936721746204841610e-001, -2.95435095370712719198e-001, -5.31001184851757290772e-001, -4.59795417677800355438e-001, -5.81772952486961592022e-001, 8.63640486115289512936e-002, 3.46561127008480573952e-001, 1.52394670566813661416e-001, -2.27713237885137052829e-002, -3.22695156040241459827e-001, -2.27457442544747090452e-001, -1.38683325069106133665e-001, -1.23086158904659653812e-001, -9.26467378063813018496e-002, 1.98209070315881641378e-001, 1.68917662037585958323e-001, 3.21619547454331966563e-001, 3.06374010079019931663e-001, 3.03684502950367196661e-001, -2.59552913470360246961e-001, -3.02908272999648175983e-001, -3.41015669167915813631e-001, -1.48994668846897992953e-001, 4.65122281922567881729e-001, 1.35021654226577192404e-001, 4.66109122309643963966e-001, 6.67260707510666573050e-001, 1.14876067420326133384e-001, 5.00973895138374647473e-001, -1.88976225978046197262e-001, -2.00946532536955407844e-001, -1.74459881017169221584e-001, 2.91507031715209537215e-002, 1.21058695882985026260e-001, 1.36927975255739631244e-001, 6.06839290371441908434e-001, 4.62657729889714153249e-001, 3.90622744353813999840e-001, -3.02437317058056098773e-001, -2.45409082833693642511e-001, -1.74633818503122317800e-001, 3.55950531866176089757e-001, 3.13373376116980462136e-001, 4.21213548645402280357e-001, 2.14578801587793382977e-001, 6.64174394713174520710e-002, 1.97945726351914319530e-001, 3.03890623843522875158e-002, -1.75441245106182697189e-001, -5.25969497618419684626e-002, 3.26094259426281618541e-001, -3.41375155433629520751e-002, 2.60684919509937607085e-001, 1.44258141119278288089e-001, 1.01425905948350492114e-001, -1.18313502531281027064e-002, 1.70297242067086671002e-002, 3.56701408965725275113e-002, -2.89180664262949582710e-001, 2.38301570444496096934e-001, 1.02264379140759753550e-001, 2.18053827058307225784e-001, 9.76173505152229670223e-002, 1.21150923817159819618e-001, 3.62918824434467005013e-002, -2.35222227080098197916e-002, 8.79202169056707144579e-002, -6.61495791727619159017e-002, -6.85570221920557415496e-002, 1.57861608964015243117e-001, 8.98948696235183780656e-002, 5.84762927218808625796e-001, 4.74559329798015849811e-001, 5.68814344545854333468e-001, -1.73682264249866491479e-001, -2.01816562957227857433e-001, -7.34906949856234531504e-002, 1.63322669220823391001e-001, -2.64947114633989136423e-002, 6.14803110603083444174e-002, 5.73821102989846676401e-001, 2.85169965493490051855e-001, 2.79930157989288719289e-001, -1.06008602514035665115e-002, 3.38060450954103461352e-002, 1.10539349387235481814e-002, 1.74756573908948581453e-001, 7.94970889810941577780e-002, -2.70789084931985120364e-002, 5.07911667165345082076e-001, 5.31781070496231272893e-002, 2.16812015878948050052e-001, -2.09879303995319788090e-001, -1.99187148234660410528e-001, -9.90291558505701219328e-002, -3.05538161252312187588e-002, -2.70507145321683017958e-001, -1.15692676054167845057e-001, 1.00502816310088505247e-001, 3.16403457038385960143e-001, -8.81611285680139605825e-002, 3.11651695227634972785e-001, 3.10447210319130417755e-001, 3.69046740015469332263e-001, -6.03519459500121771556e-002, 1.27335377371274160313e-002, 7.31952303281367955279e-002, 4.16435637521342827405e-001, 2.46935852995540411348e-001, 2.91646965810276603825e-001, -1.02334130412511617458e-001, -2.08773472861071909823e-002, -2.90230858296512905792e-001, 1.39924122664800681254e-002, -1.29048554934998449539e-001, 1.12646456327785804419e-001, 2.26632307405557648083e-001, 3.49943651851766845962e-001, 2.76740493785819108297e-001, -3.59612920357130910753e-002, -1.52411234223472996652e-001, -3.53510476825363184616e-001, 3.39628415111547343752e-001, -5.17048884280557133342e-002, 1.40115863658237888023e-001, 2.50205908545776622987e-001, 1.15522662303906883952e-001, -5.16614789101928414961e-002, -1.19225762469546928135e-001, 2.87700256064708989601e-002, -9.75747935097713431363e-002, -3.28514275544520145678e-002, -4.20823396094853613425e-002, -1.64999655186183091793e-001, 3.33610984680521138745e-001, 6.87546671329184455601e-002, 1.09918714791064853209e-001, -1.30639176880974400285e-001, -3.00527281049063288432e-001, -3.41129402294149841612e-001, 2.82646661150519173944e-001, 1.23374230696014816622e-001, 2.43604136490229272738e-001, 3.83913638603065765498e-001, -7.41888841940559484733e-002, 2.07510889015256078105e-001, 1.08675610014910637574e-003, 1.13017459108493242836e-001, 3.78933321917267612600e-002, 5.58564001370007931491e-002, 3.00159286822291704322e-001, 2.22996268423529375724e-001, 1.04286674352926239662e-001, -2.30763389138819580149e-001, 3.84589985004056389428e-001, -5.39213173680777924091e-001, -2.73036675989650090557e-001, -4.92793838362217573312e-001, 1.87313182412673084887e-001, 2.60923006091042686272e-001, 6.54938230432957745747e-003, 1.33381742999806290895e-001, 3.42046793968175555367e-001, 2.95810146404849649837e-001, -3.07196124836012662840e-001, -4.14178359859394135123e-002, -2.12897559508271022599e-001, 2.60816810343960703289e-001, 3.79675051982669653494e-001, 3.49065659156234553429e-001, -5.55845322593868318428e-001, -7.02909166902163429214e-001, -2.00115091646857479191e-001, 4.00501391820250518538e-001, 1.81894727392377976438e-002, -1.38502822704966790934e-002, -3.27315586235128241910e-001, -2.76860997003647912873e-001, 2.61755724150769149283e-002, -1.05026613637798318934e-001, -1.70047853166641838030e-001, 7.06781072010350813750e-002, 2.46839813920770173583e-001, 8.67062509315189022807e-002, 1.92438857099000437678e-001, -2.48032234988516314678e-001, 4.97619634275507302656e-002, -2.25111907299496399881e-001, -1.26111221913261045691e-001, -6.56345045855237941429e-003, -1.65020424337694343597e-001, -2.72516619064691933971e-001, -1.59221034373978054255e-002, 5.22645620803456056880e-002, 1.25327864881365821231e-002, 5.97857072041859879952e-002, -1.56647516828822747081e-001, 4.16944347705635182111e-002, -3.57520791103036750247e-002, -2.04435467878090165739e-001, 3.19119441387070656990e-001, 2.91357432680499794930e-001, 2.51744738301684145565e-001, -6.39650874462903695772e-002, -2.04400822295643741500e-001, -2.86853099319541726686e-001, 3.43952770223813708572e-001, 3.33444165347700771651e-001, 6.59519399086860302894e-002, 2.03194875547291459172e-001, -9.45738146861579281888e-002, 6.92314651583362666853e-002, -2.30990007994653009926e-002, -2.36965220529005149430e-001, -2.75156369783416787644e-001, 1.74414945835513549022e-003, 1.46972294939243242062e-001, -5.85926197462318387732e-002, -3.00569832907969958224e-001, -2.99901426983109120616e-001, -2.67374605205842497124e-001, -3.93032898794799356867e-001, -4.78231007149461595507e-001, -5.16930299258026804132e-001, -4.11669108300388997268e-001, -1.72745631846098923745e-001, -3.30110540224118897967e-001, -1.09472797627173420998e-001, -6.14380476050824131384e-001, -2.00612501251276970082e-001, -6.36594695368728036300e-001, -5.58168918390973267663e-001, -5.48897544371768741911e-001, -2.98650725105508475787e-002, -5.15812830381849399264e-002, -9.64792032110116104526e-002, -3.20453845375818613395e-001, -5.16442623880266293845e-001, -1.16632236710311407157e-001, -3.58317745309769675188e-001, -3.29675853313183941928e-001, -1.21425658561153199111e-001, -1.72656830376157685580e-002, -2.41533549093426724852e-002, -1.57280616663770494990e-001, 1.63633866655616883046e-001, 1.03919843375655740481e-001, -9.02309468945598214251e-002, -3.90064134639647341896e-001, -2.37647981013927256377e-001, -4.50313429008327548164e-001, -2.46287399801353390494e-001, -1.36973126300789921350e-001, -1.56020376641356262049e-001, 1.38280466265979284923e-001, 3.06330891179023956372e-001, 3.89030720680820993329e-002, -3.07067964771401580304e-001, -1.49369160532680345099e-001, -3.46892327445469716984e-001, -2.87799726928090415790e-001, -1.75689088989641528649e-001, -2.71061844724605871537e-001, 1.06917336066565046848e-001, 1.83378972404990570055e-001, -2.13864268868041690341e-001, -7.15730896654498294218e-001, -6.43740930628397323154e-001, -7.81485510753168521880e-001, -2.30458694033467553774e-001, -2.19525805467673695848e-001, -4.57251912578511693352e-002, 1.53688231811515585434e-001, 1.73267116495887552041e-001, -1.31023116354751674451e-002, -3.84887168200643614568e-001, -3.71796162681019226603e-001, -3.40377011654634964444e-001, -2.51962865786509782051e-001, -7.56470761834053956330e-002, -2.11284498311417878735e-001, 1.47267227323269633832e-001, -9.01388206244344014628e-003, -6.27464421859101201262e-002, -1.79297866403854394557e-001, -2.24169993748290746760e-001, -1.51158733603190570394e-001, -5.51264405389440548255e-001, -4.41548160795288524572e-001, -5.45054936102379428142e-001, 6.52991305801991356317e-003, 8.44528838464820713616e-002, -5.71734725778610120006e-002, -1.60386428624666954601e-001, -8.70094879696940715075e-002, -2.24979290295056644222e-001, -4.33693251457353545764e-001, -3.83863900674292712889e-001, -5.26230761356033083231e-001, 2.79047555146195933040e-002, 7.53021639241036877532e-002, 1.78680174403055058718e-001, -5.47822926291479883609e-001, -7.22138802991835637712e-001, -6.96770493182993222447e-001, -3.26168525290839339537e-001, -4.78704316299397081291e-001, -4.23200422817560706346e-001, 2.21608333394226579560e-002, 1.51894071635038208079e-001, 2.75688734929907641735e-001, -8.51492127937075071742e-001, -3.93481512531073995831e-001, -5.52906624994371376225e-001, -3.31278069059744828539e-001, -1.47598990477537217458e-001, -6.22091491712667532532e-001, 1.38126780683044708686e-001, 3.31686570694031290785e-001, 4.70941854196158526946e-001, -5.18768170533576933323e-001, -4.83113077192656947823e-001, -6.03193069043218010883e-001, -4.91650423489020493850e-001, -5.06273045755549433444e-001, -4.09880520020671546000e-001, 4.15784717397870817734e-001, 1.69979729856758216000e-001, 3.60050835208477693072e-001, -2.77320069255927004193e-001, -2.54419452079254759802e-001, -3.91460502878677063521e-001, -9.24607497516721082986e-002, -3.92026623460420109435e-001, -1.07219013021533193797e-001, 2.64545902845953861959e-001, 3.03610849277843541927e-001, 2.97433774697608732662e-001, -2.64287894982031312807e-001, -5.49747198774734879834e-001, -3.57001365126384140325e-001, -1.06522491716824291297e-001, -2.49491681386272007304e-001, -9.94816163095747219014e-002, 1.73556979046664616728e-001, 1.39818120736840013213e-002, 1.53018420610017330530e-001, -5.04893291924703224716e-001, -1.81900951582309067245e-001, -4.44755002896739359830e-001, -1.96296267498839133170e-001, -1.57359320779013683866e-001, -2.82391267373681920105e-001, 2.05253875092742232855e-001, 1.30621273727899694928e-001, 1.95848016949346143134e-001, -4.02884084072890724659e-001, -4.12360746447653969682e-001, -4.97738733484210382763e-001, -2.75749151115964874492e-001, -2.56109775759301105946e-001, -1.04733608243612243832e-002, 4.97778263817597155239e-001, 5.42398047150213447054e-001, 4.01606114055049090439e-001, -4.16491459304778710582e-001, -3.75116945829595371809e-001, -2.92967325255563515451e-001, -2.84222813739533675115e-001, -2.43137516890831982541e-002, -5.07386046346839439392e-002, 2.26552390001145187437e-001, 9.60396189784940290668e-002, 1.93486076973123422018e-001, -4.74977034363142591733e-001, -4.65760610422336795988e-001, -6.26604079226221299947e-001, -5.81342119514682620363e-001, -4.01777671591732499223e-001, -8.57408685409267595778e-002, 4.74032226626980912609e-001, 2.78778906477102406125e-001, 1.77429340735703391929e-002, -6.55676971669920005681e-001, -2.59813819870104822929e-001, -4.77575686844894542471e-001, -6.42407716765698189043e-001, -2.03296642054105691777e-001, -6.65686016036367012028e-001, 2.85910626740130457968e-001, 1.80429983763058188195e-001, 2.73025480702018319423e-001, -5.19505066136221604900e-001, -5.69338388115268934087e-001, -3.47247644686992762431e-001, -8.18423061939502316520e-001, -5.26698236848031076107e-001, -5.08244735769711519779e-001, 2.66661091574329267573e-001, 1.06442531597061393334e-001, 1.77458611598360377348e-001, -5.58362660415573364148e-001, -5.93927324141200974061e-001, -5.70894633678000307242e-001, -3.17322074729139036453e-001, -1.38277193936415437880e-001, -1.99211874463729732287e-001, -9.27706810131944253905e-002, 1.46249490041536450713e-001, 6.76934365753528166643e-002, -5.52737683666644441516e-001, -4.79877188482925931545e-001, -4.44456565710744821995e-001, -2.04215095767605853139e-001, -3.08445136143862930211e-001, -1.87283540082353150424e-001, -1.44360204777314454772e-001, -7.09830288287954386250e-002, 9.32728930829620911380e-002, -6.39325239219929786216e-001, -4.01852319676879399246e-001, -4.29311483388367332026e-001, -3.46475736807742573653e-001, -4.04333165592789256504e-001, -3.89263645059073404298e-001, 1.70046095039026040618e-003, 2.91889556201436299598e-002, -7.30086567178124951072e-002, -3.57995222926192180335e-001, -4.78970356201047275935e-001, -5.08094935171751305170e-001, -7.48232865109837108619e-001, -7.24536797215781569470e-001, -5.34151066482633773980e-001, -1.50647996900885195598e-002, 3.96597953821234850552e-003, 1.34651620963929130603e-001, -2.53538059288961892257e-001, -1.37280635574002746191e-001, -4.75702420566353645359e-001, -4.51605668301159834943e-001, -2.93501150994461446064e-001, -4.32160333005377594873e-001, 7.33191913594858218906e-002, 1.76382842059359612463e-001, 5.87255788532872052832e-002, -2.53387997778050599873e-001, -3.23362475679427885389e-001, -1.60080210578172094094e-001, -5.17784131519081980422e-001, -1.87419375234966711918e-001, -1.85071382728138306151e-001, 3.43530086870021789114e-001, 1.18305330102433839401e-001, 1.30580876748067536974e-001, -2.48976899752912622654e-001, -4.53930479980292275743e-002, -1.65966707419363340703e-001, -4.14990302770485652850e-001, -4.80288627570201187567e-001, -3.99282838112061722047e-001, -1.26060337937680982945e-001, -3.37058444857451844356e-001, -1.37944267717896390524e-001, -2.76989306377904698220e-001, -2.94026123435244535198e-001, -4.17670909211143748241e-001, -5.90741897230202872571e-001, -3.37845502993395663260e-001, -4.41858115446243260305e-001, 2.48265666361469766743e-001, 1.10563177582925942222e-001, 2.64768495445328433391e-001, -3.52143838515178331239e-001, -1.37024207176090373483e-001, -3.21252152522076894758e-001, -4.86294174878149410013e-001, -5.15807995391180940103e-001, -4.39588245297372504083e-001, 1.94060107899673393861e-002, 3.06602764542241324613e-003, 8.67734445493762301949e-002, -4.09203310794373942283e-001, -2.31816149236028223868e-001, -2.45244961578811426772e-001, -1.90760108044447984632e-001, -2.44581907626054667615e-001, 2.57072505390250685697e-002, -5.58115285915998723953e-002, 1.51982017611438396942e-001, -5.12259364212847498332e-002, -8.84684518707734707244e-002, -1.86701376283209680151e-001, -1.04841390835967704365e-001, -2.70770671504635351834e-001, -1.77718225644520416706e-001, -4.15569156120814964250e-002, 1.18302730229984373600e-001, 1.15530351750816814849e-001, 1.44089067608887538841e-001, -4.58916112561125244529e-001, -2.48920434738997581325e-001, -4.57503461220829354961e-001, -3.30231434210232877025e-001, 1.39528808601363046860e-001, -6.68443020675455884527e-002, -1.96973348778417906013e-001, -8.32994944470185766372e-002, -1.15763465032089271634e-001, -3.40683454917115491334e-001, -4.10015620682743553438e-001, -2.91394948547807453032e-001, -1.59828882015153883600e-001, 5.94227418910947408071e-002, -8.06300106927248239064e-002, 2.71633168802901725503e-001, 2.32570131519098305395e-001, 3.58505554348403365772e-001, -2.86046990735679074191e-001, -4.55225174627167383790e-001, -2.24047501747352134638e-001, -8.85654621262846747376e-002, -2.31793017363797593244e-001, -1.67841717470599061102e-001, -1.22777294593700986303e-001, 7.50169925912211460473e-002, 2.21522049673752802201e-001, -3.55247864834589366367e-001, -4.37318716029531262546e-001, -4.42006795667581109388e-001, 4.73413569880824058878e-001, 8.24954886157878930497e-001, 5.50313103237014544789e-001, -4.03663268235455618971e-001, -1.86929046833271578221e-001, -2.65315284114032379215e-001, 3.05583716887290857134e-001, 4.39148233446252866941e-001, 1.34897109614398741373e-001, 3.17505253375807039440e-001, 4.22596650929312700473e-001, 1.10005877465094978329e-001, -2.76967681846076896335e-001, -2.89829289429696823621e-001, -4.27755779797979629464e-001, 1.76933306234311693572e-001, -2.97243701338083879393e-002, 2.24375886572385913054e-001, 1.34719921969981726306e-001, 2.68498908281548410992e-003, -4.99843930212440362704e-002, 1.86514893751698440649e-001, -6.90109913508500823209e-003, -1.19344007564400639287e-001, 2.95653477298779221449e-001, 2.35468042235812691221e-001, 3.53938351794911898462e-001, -3.80056809674574003211e-001, -1.34838074037525151860e-001, -6.51461473966319509765e-002, -1.87261300006516417938e-001, -1.81350191864224352667e-001, -1.93107365280903803262e-001, 4.92827335269894695191e-001, 4.87190908329926786191e-001, 5.97117315223907096922e-001, -4.19840234724916272491e-001, -3.52333178094299398486e-002, -2.41728267530051249556e-001, -4.16294858359950170623e-001, -1.90712219526197573893e-001, -1.01312343155832429442e-001, 3.13836950192580677044e-001, 3.87600266961842077063e-001, 3.75918004351259438245e-001, -9.85499191109622148244e-003, -2.64268735719240477344e-001, -7.09769973230143097487e-002, 1.89685424164219434973e-001, 3.51697297987862644852e-001, -1.75151663155063419541e-002, 5.72634976788678251580e-001, 6.49625522090765850081e-001, 5.45558207491703806014e-001, 2.76836093426155227526e-001, 3.59349890345597722252e-002, 1.67827728183875091172e-001, 3.04831477957141994128e-001, 3.93953859077801282762e-001, 2.68434295144037937675e-001, 7.94516177957396818599e-001, 7.08371465545024059374e-001, 7.48961865339180521417e-001, 5.15674589408278705172e-002, 3.12394610443756451379e-002, -3.64021278159158689913e-002, 2.28691750913887187346e-001, 3.27485898846395895312e-001, 2.37157250362251104114e-001, 4.43025082512780388200e-001, 2.82009028241996140274e-001, 4.04751926549756169127e-001, 1.39906626310061316110e-001, 1.45001263369746918874e-001, 8.20339833524613981641e-002, -1.90632306755389363540e-001, -2.12716888644914670081e-001, 1.30164075867153072180e-003, 4.26446866828411041972e-001, 4.20194381746210487982e-001, 4.93017356562454156510e-001, 1.07676357582727949547e-001, 1.65487763010522009877e-001, 1.01738441024140056912e-002, -4.52509076135080290371e-001, -4.48203964195744097854e-001, -2.02183090883556321193e-001, 5.83472355825189636924e-001, 5.84658336051682048229e-001, 7.17198366288518518452e-001, 4.34452317086349182329e-001, 3.85923097224145306150e-001, 2.54606275422977645917e-001, -2.45357918283422821171e-001, -1.76001573596150040490e-001, -4.36657293931417764266e-002, 8.36133040079577227743e-001, 6.82704259137831503956e-001, 8.70830188772373503525e-001, 1.95274302364702778689e-001, 2.64919517548728500334e-001, 2.61373437034381428390e-001, -3.13232968902055153304e-001, -3.54645612054935999158e-001, -3.34091272586355403362e-001, 4.20702593765653887203e-001, 5.28612105849426083815e-001, 5.50231434917896833348e-001, 1.25805056034904438889e-001, 3.08630596028371728679e-001, 2.10427874780930002085e-001, -3.00285714181516782961e-001, -1.77396461374360298047e-001, 7.73269992816564971649e-002, 3.38795543956342204428e-001, 5.18857068837138113437e-001, 4.69968506924567153149e-001, 2.45905283959716169928e-001, 2.96969120525463869953e-001, 4.34766600846648310075e-001, 5.09767890117823890828e-002, -2.57290893826851940762e-001, -1.30461121812143310272e-001, 5.31479978169111855202e-001, 2.96166361431299152152e-001, 5.40017740979079841068e-001, 5.06039318413574523703e-001, 4.54962668672808434600e-001, 7.03787242064110807327e-001, -1.10880920942052874079e-001, -2.04257265583819930255e-001, -3.18904846120131479914e-001, 6.90749266920498428135e-001, 5.61229993809032379204e-001, 7.21298851355490211468e-001, 5.91908169433049580199e-001, 5.59757254705213092016e-001, 3.88236142367708758627e-001, -9.08168414568719106761e-002, -2.93761906091719759981e-001, -4.91602181885575306719e-001, 7.65667724277900529906e-001, 4.81716300997698743114e-001, 7.16523084028028889314e-001, 2.75939265986445136924e-001, 3.12725825911383537026e-001, 4.74308415534841154582e-001, -7.69262793066326500124e-002, -3.94728400624192621304e-001, -1.43529923464987996251e-001, 5.74058192449665494195e-001, 4.90005059824259459056e-001, 6.12764603949959019147e-001, 3.85457665568012253221e-001, 5.45798619526018380377e-001, 5.05478482016774366414e-001, -2.53470351665072646252e-001, -2.27524473558860768074e-001, -3.74537765562179492118e-001, 3.75332822236748686606e-001, 5.55632306634657124889e-001, 4.39489382899979019736e-001, 1.22830494032381193348e-001, 3.57354204386568563567e-001, 2.07533139654272918984e-001, -2.22840552600015423534e-001, -2.48949540472190311569e-001, -1.89630687150696364274e-001, 1.98002996251843005338e-001, 5.43362652795480016721e-001, 5.09132908827646724070e-001, 2.25471225052654794530e-001, 3.99997122141770078407e-001, 1.23324289733732009311e-001, 1.09803757824907394225e-002, -1.39336054029601225102e-001, -1.57395698891945878817e-001, 4.52764190723113579828e-001, 3.62486791504842309486e-001, 4.17910567101591912120e-001, 7.99525939616031328105e-002, 2.47616281158384687888e-001, 1.87636909376463573151e-001, -1.54932618400545563109e-001, -9.95759197430309966892e-002, -1.56721650633795922536e-001, 3.96446635303886851798e-001, 5.96995522651903920419e-001, 4.98226516309786815473e-001, 4.70412933030889324204e-001, 2.03726645895613428516e-001, 1.58005162218990240219e-002, -2.72321736485345577972e-001, -3.82551075294003839478e-001, -2.00042885694180438971e-001, 4.29993749403373926032e-001, 3.66211664303400408205e-001, 4.57604471628456022092e-001, 2.43407626132682936015e-001, 9.94126258620714742253e-002, -1.06555041924233928619e-002, -3.19544571528849852271e-001, -3.45117519217966295386e-001, -4.88887992866720411111e-001, 5.98455965105828102679e-001, 6.74089503279238555500e-001, 7.25306267863442766242e-001, 5.89794546486697601750e-001, 4.32166906950096019191e-001, 2.08629394614489260817e-001, -4.45861210748484282362e-001, -4.33118997344836276220e-001, -3.07863709070142543833e-001, 6.10706997982314092610e-001, 3.42698273952609433479e-001, 5.01416814380022279884e-001, 5.39289419665086477984e-001, 2.86082252493492839029e-001, 5.05052132015958110678e-001, -5.67252182681931560460e-001, -4.34850460994558263295e-001, -3.37162802446312914739e-001, 7.94279284067582413975e-001, 7.39778137166092863986e-001, 6.60119794629930534136e-001, 6.48355931344579583531e-001, 3.89171808459964019278e-001, 4.60027943023095797770e-001, -2.83082695956130780957e-001, -1.79258789518400379892e-001, -9.89829976852334841864e-002, 7.05486736490871790828e-001, 5.37359207402685390420e-001, 7.56922315142150026190e-001, 2.15878093202179544008e-001, 9.31624770415893921349e-002, 1.61546401962661623219e-001, -1.01865321344449963337e-001, -1.98211745634322533682e-001, 9.83689577505355988718e-002, 5.03620650788001777975e-001, 6.74061093291195567723e-001, 5.35228139659116419757e-001, 1.68161367786366561239e-001, 1.16964487142834819289e-001, 1.89101259854845410446e-001, 1.97541566429256881809e-001, -1.21038446530938939572e-001, -1.78076569416105973120e-001, 5.41706722354771796901e-001, 4.60022008900731471659e-001, 4.71446169015630633936e-001, 3.47162150388401313794e-001, 3.53288407943429305647e-001, 1.99833858556948407159e-001, -8.63004180433251805171e-002, -4.00079562700451640822e-001, -6.72077294060263591424e-002, 7.15294064391994277585e-001, 7.84663959058478188702e-001, 6.40753057447612683895e-001, 4.16011449109572994942e-001, 4.76266965600300073991e-001, 3.05615417793504595689e-001, 1.35162504631485463902e-001, 8.73345080550176761092e-002, 6.43539910855910612941e-002, 5.71272020460097618155e-001, 5.45666833371448611878e-001, 7.64779981975391986992e-001, 2.55577418835060188318e-001, 2.96133816028270435705e-001, 3.02326059061759688795e-001, -1.87172142449777451079e-001, -2.92257463056151245429e-001, -2.81978840190927115827e-001, 4.23079162715956802465e-001, 5.13536341958095055027e-001, 5.01127260447730371595e-001, 1.87067147586451792973e-001, 2.30450828548659752970e-001, 2.45761301362342927945e-002, -2.46281896936586947033e-001, -2.02497988644533999381e-001, -1.78971199838739325472e-001, 5.52000333521740715881e-001, 2.83152483743553673445e-001, 5.27868553880898261355e-001, 5.63706535130149122281e-001, 3.94244288832632572284e-001, 3.81327635814543541848e-001, 1.22193068648040928381e-001, 4.03606536936457371834e-001, 9.91553754917592899965e-002, 4.28320462163467641226e-001, 3.78326834736192274544e-001, 4.60596117347302158596e-001, 4.05402758239844451804e-001, 3.95397410705686069843e-001, 5.09390685620145444723e-001, -3.12379230292715526218e-001, -7.78791529727049652854e-002, -4.06323747484985509093e-001, 4.91069326622466661991e-001, 3.83251683618685834443e-001, 3.90366209191165103309e-001, 4.18212325503473647537e-001, 5.26271385174322925415e-001, 3.07050004650299745990e-001, 1.11610690209956259222e-001, 4.53965219536677622170e-001, -1.25496490231737489046e-002, 5.60592744995039193867e-001, 3.91528793468834235281e-001, 4.04805544781493664708e-001, 1.99498998747750205807e-001, 2.32379063775135619174e-001, 1.61484853173605065468e-002, -2.62345244344297859329e-002, -2.96982393732409311049e-001, -1.35611435454292772462e-001, 3.80581395241698594578e-001, 2.47644477495224085706e-001, 4.04072927398329950766e-001, 1.47580820090804615274e-001, 1.68956316611430873431e-001, -1.90141263719947190003e-002, -1.82977008033977039947e-001, -1.31021708772262213127e-001, -1.58766504944121950027e-001, 4.20673721594342575614e-001, 1.56385199153603715594e-001, 2.71993342287720596406e-001, 2.61786595306429878405e-002, -1.23936523166250603389e-001, 3.98575285443264551444e-002, 4.17576497710200542079e-002, 2.58345618487528169704e-002, 9.99395969207416134950e-002, 3.25081735990292164384e-001, 2.98477717985554169555e-001, 5.01963918848131740447e-001, 8.51014577880967876267e-002, -1.35342675190505690175e-001, 5.22152053802059281512e-003, -9.01420403829798419504e-003, -6.91366342416696449957e-002, -2.51605858781701108295e-001, 4.79539509148554810025e-001, 4.84243855732182981733e-001, 5.79587327651137074191e-001, -4.68224190225517353237e-002, 9.88232087325293939717e-002, -4.73110826255126459827e-002, 3.32387744911227134281e-001, 1.70013030637163387038e-001, -2.33238119475645461209e-001, 5.12493148147089239153e-001, 5.45353265819248922419e-001, 5.14764016894338150010e-001, -7.73211444901708122579e-001, -8.36871561971106792122e-001, -1.42690681187081364056e-001, 4.31403852191045433795e-001, -8.49685698073028017330e-002, 9.50506482134914343352e-002, -4.92741521169709484340e-001, -1.69459712851566440817e-001, 2.20757243496235877611e-001, 2.43270483760884531632e-001, -1.20836034989212387503e-001, 4.92469910649410758108e-001, 9.59754015612545474667e-001, 3.88831976417473634822e-001, 3.82627930940514449087e-001, -1.44913579857232632797e-001, 4.05295127151007406052e-001, -1.61121580197399305590e-001, 1.22992604809079711381e-001, -2.79752411602251227496e-002, 5.08082200651956139570e-002, -4.07537989317990734239e-001, -9.61563218688803594825e-002, 4.71973788221957540889e-002, 4.33698344007692249136e-001, 4.69861433385210081060e-001, 4.09793866977305673571e-002, 2.37111913270901614181e-001, 8.76394254970041669539e-002, -1.95798153329185598004e-001, 2.38402030778540413580e-001, 4.35440198175845782913e-001, 1.16572216805454306754e-001, -2.14619970823947750493e-002, -1.48760122245208015190e-001, -3.18494708308527219032e-001, 6.32366085727293025798e-001, 7.28500446589337879999e-001, 3.02382893714229938897e-001, 2.89767639556294420711e-001, -1.55251941722961445125e-001, 1.16882147582045459178e-001, 3.50709422956952066031e-001, -3.48341270276979808607e-001, 9.76693858677057796802e-002, 3.74686162823383989151e-002, 1.67166609880754130080e-001, -1.11255902723331565052e-001, 4.49046806099274789514e-002, -3.39966762410094491820e-001, -2.90741466633836764810e-001, -6.14861127961069620085e-001, -6.76122260981249501022e-001, -6.77740548376877804948e-001, -3.57202815120240824154e-001, -2.63740970671888952381e-001, -5.08873774735369543976e-001, 4.27368302951990700067e-002, -5.93739548894457236372e-001, -3.25866072585967947450e-001, -8.04262100101719390466e-001, -7.96710744288573136096e-001, -6.21822969858680907329e-001, -2.52141112203116309065e-002, 1.86424770701330344558e-001, -4.88381091401594233381e-002, -1.23172526347186228612e-001, -7.33487475988817250183e-001, -8.22893384898545909856e-003, -2.95203727132201443339e-001, -1.82707179756002369153e-001, -2.39580042682526861419e-001, -8.61126900510334469807e-002, 5.13033631062239023346e-002, -2.67117917586521314011e-001, 3.62060025995189660453e-001, 9.11664522990263993807e-003, 5.07256667315788001282e-002, -3.13905368133509998785e-001, -3.75563485618111590411e-003, -5.81729824707294285169e-001, -2.10723188835608005176e-001, -9.09565335032793270686e-002, -3.38102362023410207836e-001, 3.05851080235269801033e-001, 4.09172573255743909915e-001, -3.38525917245496743568e-001, -1.83323824343230024070e-001, -1.72312948923016545644e-001, -2.76480381122299334606e-001, -7.32123835567165870408e-001, -2.58065578796789818483e-001, -2.91184495888904604222e-001, 3.12670934206352446605e-001, 1.91573959753174594134e-001, -2.76568590051456786316e-001, -1.01316894993557604643e+000, -8.68621931386404866338e-001, -1.20017015128490278641e+000, -3.16043636952223205849e-001, -3.75563265304441062931e-001, -1.75571980193994614527e-001, 5.28200982830357101960e-001, 4.57297487769973420857e-001, 2.52496976165653363999e-001, -3.74976358364308315352e-001, -1.60502229204494167858e-001, -3.26113633475254516281e-001, -3.49236585760453244198e-001, -1.20148726775327410743e-001, -3.56885634432775156188e-001, 3.49335078393861686585e-001, 3.40517122331576715943e-002, -1.10925426251898620600e-001, 8.11274066753510242345e-002, -3.63831187168739966786e-001, 1.24514010723367665734e-001, -7.27232464476378348550e-001, -6.04600588418647610922e-001, -6.95486344777156983987e-001, 2.86765651118020770127e-001, 4.66450248484270801885e-001, 1.11281001746057081614e-001, -2.15685834837961304400e-001, 1.50615261767679448068e-001, -3.43545690161372596627e-001, -9.15173789506055990195e-001, -6.25834614632745589446e-001, -7.49647597227459994151e-001, 1.94335097629077080406e-001, 3.12713341557984303432e-001, 5.34509669946993115630e-001, -5.65596180333193143674e-001, -7.72243660804935005970e-001, -8.20667012336636525482e-001, -6.13543990975532915755e-001, -5.98108559736276856889e-001, -4.86620584218469376392e-001, 1.58542307335418242165e-001, 4.15401344058885901855e-001, 3.01476238610957791852e-001, -1.21088880826203548757e+000, -2.76111214971790863704e-001, -1.13369655764869214920e+000, -6.86339107794490699277e-001, -1.88793839293070170315e-001, -9.20756061918437729297e-001, 7.36476891717110726532e-001, 5.79013058341696917886e-001, 8.76960628807126219009e-001, -5.09580734152693448635e-001, -6.26011311084125332549e-001, -1.12439339346024880228e+000, -6.59958567235876425450e-001, -4.32863843451204710622e-001, -5.27604478314272373751e-001, 8.93427387812501860864e-001, 6.81826053601218062816e-001, 5.37615470476436208003e-001, -5.03774109491815891282e-001, -1.46350293734526321066e-001, -5.69034838610753324062e-001, 6.20370913099434831417e-002, -4.04868202736099747074e-001, -2.28956907956387012426e-001, 4.78805377346967375729e-001, 7.37384342082659016704e-001, 6.56323794477082667065e-001, -1.86858014523279492014e-001, -6.98349763678964063907e-001, -3.10174768280278512211e-001, -1.17338894185132908143e-002, -2.01032945239884852651e-001, -4.14166445719715420326e-002, 1.16930959336056863873e-001, 1.10072909901596655002e-001, 5.71093587805730384943e-001, -6.30422260620006835730e-001, -3.65972758624451388609e-001, -5.48042401727828698554e-001, -2.26186495844878404649e-001, -6.67834336537118933297e-002, -1.22507161309196074828e-001, 5.00768357253401075191e-001, 4.97118901828664305764e-001, 4.43944986101142191615e-001, -5.69386802203859399008e-001, -5.80570308317324479397e-001, -4.71104108738477966867e-001, -6.26165206241744543014e-001, -4.09382432179508592984e-001, 1.41155353574366010383e-001, 1.09610652920421602907e+000, 1.10482471806627580158e+000, 8.62744960313561626286e-001, -3.94996741089888581122e-001, -5.09781182016377454325e-001, -2.80786409234853095995e-001, -3.72629349466002512958e-001, 5.65611424521601513504e-002, -9.12661172671426768055e-002, 7.46607688749439057929e-001, 6.01776350793261416428e-001, 7.10000825239683219792e-001, -7.07109555079185048143e-001, -6.63363110770954333972e-001, -7.71677668821859397141e-001, -9.22445261393776250181e-001, -5.25411928959354179725e-001, -4.16379457754893766985e-002, 1.05755339090172317817e+000, 7.34463710641000355750e-001, 6.50943329310867735416e-001, -9.93780333498989865149e-001, -5.25191126111540396160e-001, -8.37462308226881946283e-001, -1.23393645458898904010e+000, -2.64071515576580095885e-001, -1.16111322607826172870e+000, 7.35377990603889419852e-001, 7.64140036897279717465e-001, 5.69485308372745913097e-001, -4.27421804892300583045e-001, -5.60313868883757226769e-001, -5.01724245243150845930e-001, -1.32844861895967381038e+000, -9.43547138606604107736e-001, -6.72037033681468165547e-001, 6.65114620600923633909e-001, 4.70951368897893185572e-001, 5.80049445441028654891e-001, -7.43839205455300245262e-001, -8.23933280659720823635e-001, -9.08698602939224331365e-001, -4.69188738921185899411e-001, -1.73853151191591642766e-001, -3.54682816757616869996e-001, 3.03181392640439861808e-001, 4.58799252519638656178e-001, 1.81162540386824333360e-001, -7.87960759790557241367e-001, -6.33240784166358539053e-001, -4.76806211115539058110e-001, -1.69150985432013956089e-001, -3.44181052854043045830e-001, -2.04640740525031783470e-001, -1.18867708670790842018e-001, 2.84150852984444840521e-002, 3.05128230079046658396e-001, -7.64864902958759529383e-001, -4.53658275411434608326e-001, -6.70276944908931637812e-001, -4.43397163254819648426e-001, -4.54713432338253009668e-001, -1.94120411859356883921e-001, 2.83032739657470777672e-001, 2.46254317751249396373e-001, 3.28374901053918644145e-001, -2.09976940989924920622e-001, -6.18602141756890988589e-001, -5.85129887162786799237e-001, -1.06592552742245616493e+000, -1.09096455136898429217e+000, -8.83355697626470592887e-001, 5.10707748605430666977e-002, 3.49199638596319417161e-001, 2.05584667832990258818e-001, -4.15112979158810124769e-001, 1.62715366923262792775e-002, -7.96230411428531903439e-001, -9.20451225655262050829e-001, -2.06036117396812740177e-001, -5.50708496131350533354e-001, 2.70114295170682597313e-002, 3.68619063344832353923e-001, 2.78206041197603337611e-001, -3.61490589453597188641e-001, -2.97875668714995989195e-001, -2.29290938621602463643e-001, -8.40322831148446303118e-001, -2.96586955603740987097e-001, -3.20508212653138835346e-001, 5.20231120283000891824e-001, 2.56311462728806505051e-001, 5.71530574493126719560e-001, -1.64712851271275662057e-001, 7.05474950731490614564e-003, -7.47523743720690386771e-002, -5.92561933011672592464e-001, -7.63771271666855766647e-001, -4.97355247830316149482e-001, -3.14660483548874214677e-001, -5.51913447547839663976e-001, -1.89429687177879418902e-001, -1.77409282703107767931e-001, -3.03386361057964404342e-001, -1.91425921165730456019e-001, -7.61471307265199626180e-001, -5.68186710582192389118e-001, -4.69695945870189257576e-001, 2.65035612145510968141e-001, -1.12150026523447493565e-001, 8.41841325903837311984e-001, -4.61090229755034497483e-001, -2.78782511296991108996e-001, -4.61861107822736038919e-001, -3.06351330986175285354e-001, -9.95727338034845255166e-001, -4.58138459699651001689e-001, 5.81649719135191103914e-002, 1.00796275920610398091e-001, 4.74153233121998418653e-001, -6.05100559133310733628e-001, -9.78187661683641018762e-002, -2.13796866326939644098e-001, -2.28238883013425208901e-001, -3.23180868594444670183e-001, 1.15586326459478222484e-001, 2.31466247995769786039e-001, 2.60942350535242562071e-001, 4.21173722310763554155e-001, -3.32498655933996106748e-002, -2.39728773469624623083e-001, 9.16781811918558342533e-002, -6.57599483625553538069e-001, -2.27288369392626921073e-001, -2.40872800213827426008e-001, 7.50918261422287458551e-001, 5.95843568435209802736e-001, 7.40636411342576628236e-001, -5.21942087476154781278e-001, -1.87493654848402607760e-001, -2.86959447643089282654e-001, -4.95999708930781990635e-001, 2.63220977859607407900e-001, -2.93773018868818458493e-001, 1.80290013041690316831e-001, 1.58456366936875675533e-001, 1.75259336102966123416e-002, -2.18613157056349760587e-001, -3.80375628292182133006e-001, -3.03714057914358792623e-001, -3.64484092481123067575e-001, 2.16431391211842572009e-001, -4.77480750431636680187e-001, 8.53735221951583134192e-001, 7.06186800583431417699e-001, 7.13309660417462132465e-001, -2.42502557523383566185e-001, -6.44937231143956180013e-001, -4.19266177485813240633e-001, -1.14735456988182285554e-001, -3.56388985304442351687e-001, -4.15673976217649732146e-001, 9.80200804223150395922e-002, 2.54118049246679772457e-002, 5.02244642596509249799e-001, -4.16171255432864484192e-001, -6.39826694618603197817e-001, -7.26249975274209202958e-001, -3.50351715980090627767e-001, -7.09219659470685992453e-001, -6.52153525393025290668e-001, 2.15839093638159229549e-001, -8.17946875532828965305e-002, 1.36893941771710575539e-001, 1.28216053878514174569e-001, -1.47312119610401359715e-001, -2.55240727809466105835e-001, -7.82163422850182254997e-001, -5.62494834284554157122e-001, -6.55152383846422159408e-001, 2.33888849189685416041e-001, 3.05459524645720126301e-001, 4.93642984343382107415e-001, -1.43973647352455158543e-001, 4.60239467798612134075e-002, -1.23234593051912227901e-001, -3.30528631649470217013e-001, -2.17425256556962709364e-001, -2.34777158393510904100e-001, 3.19408407211022704608e-001, 2.31950684855184302569e-001, 2.89002717072694703671e-001, -5.34503257846674184606e-001, -2.79602720633536694361e-001, -4.34354896418403468861e-001, 3.24967052295020569774e-002, 1.20460614870873602977e-002, -2.69540623039981441789e-001, 2.87112291252652251927e-001, 4.04870925556519489774e-001, 4.73579831422904662386e-001, -3.76873048168844204664e-001, -2.66736996081508637157e-001, -3.82486635321164281098e-001, -1.08613042049523114696e-001, -3.01792200820987677190e-001, 7.19903881271713175227e-002, 4.71305824595763700469e-001, 3.01009148729903419639e-001, 2.70408596414064061886e-001, -2.03925061590222028718e-001, -1.28355829595642928487e-001, -3.42734603768182100048e-001, -3.54676507125720880120e-002, 1.74452678089190960087e-001, -1.71845535843408753207e-001, -1.36668017243672723637e-001, -1.76036249433242142359e-001, 2.63984580597774076693e-001, -1.70325396530406486528e-001, -3.39830503677967687981e-001, -2.68333471701632020334e-001, -1.54524091010395270285e-001, -5.18177427799819539933e-002, -1.34647619657686373751e-001, -2.62708089988654081015e-001, -3.88421258180605133425e-001, -3.70054314005162199308e-001, -2.30825589384902996049e-001, -2.43575890405737988109e-001, -4.33688953966168078136e-001, -1.01855169015916832698e-001, -3.12491417870587373518e-001, -1.19541326488245364112e-001, 1.05621573942774132915e-001, -1.39699325533720969394e-001, -1.90579214015526854364e-001, -7.99372740759535793664e-002, -6.50503561395605334194e-002, -3.44222586393667873139e-001, -3.80314150965440467278e-001, -1.30280291507274548213e-001, -2.09591171146829347016e-001, 8.94824464857346263402e-002, 1.54303049976862671766e-001, -1.26706325511999590150e-001, -6.54378430843062380839e-002, -2.79504020100867667242e-001, -1.82770842550780354685e-001, -1.77168250161630097539e-001, -2.08782870662872682699e-001, -1.56032713564913855242e-001, 3.64692654450041009451e-001, 4.43572487305655516199e-001, 3.04524398217790648324e-001, -1.35575223696086849534e-001, -1.61492111752283923343e-001, -3.37365676353980292745e-001, -4.13298955613578544721e-001, -1.77347333692489617096e-001, -6.05580085585869398734e-001, 7.12397988758680864030e-003, 5.27473632831915936747e-002, 2.50706365415736709412e-001, -2.45057979808661924315e-001, -2.15543084583434713108e-001, -3.09036061732789024692e-001, -1.99280525895552007576e-001, -3.24217927456020460486e-001, -3.29871550762020293579e-001, -1.33201203889405428438e-001, -8.81110646115764069297e-003, 1.65514836425965233824e-001, 9.24459739049917905707e-002, -5.56024157181658276738e-002, -1.61358224087259138901e-001, -4.69075684218802302361e-001, -4.26780865870578174359e-001, -3.95999890664067932811e-001, 1.33799034960192880783e-001, 2.73282790658245962334e-002, 6.98113660465183305526e-002, -4.18208356028185235242e-001, -2.53483728648966843977e-001, -3.21435084699014550491e-001, -1.69168010883921693388e-001, -1.86515781019867904478e-001, -1.93016169547542304485e-001, -6.69415720302210942583e-002, 3.31286244432361431933e-001, 7.09048364809986980672e-002, -2.20114951989549084699e-001, -2.18646915398218288917e-001, -2.98431334564880856863e-001, -4.45412747031736111492e-001, -2.49617099411985565727e-001, -3.83305382103523106796e-001, 2.41468122330173118328e-001, 1.58228557668679409298e-001, 4.81081966778519887207e-001, -2.83794290495451073664e-001, -3.78116759583679851175e-001, -4.33853865510983038867e-001, -5.43640556958690068790e-001, -6.80180110489211120495e-001, -6.32055182830261963467e-001, -8.49976302921877369112e-002, 5.22175534261681284498e-002, 2.59833980031937528121e-001, -4.21625797218556752632e-001, -2.49327597302955006331e-001, -1.59594025862247412828e-001, -4.84891291734544205294e-001, -4.65119857417724991144e-001, -4.92715173762028113558e-001, 9.74750706691727801523e-003, 2.27003857027480354658e-001, 7.16699414072574647605e-002, 7.91709846685370727259e-002, -9.97241033498098838894e-002, -9.31964805803361245884e-002, -5.02256384871986760743e-001, -4.78258951477223526183e-001, -5.10801813084583944402e-001, 1.08425788479832724276e-001, 3.80400705358412138946e-001, 2.07473833430584897464e-001, -1.32819543490811625697e-001, -1.99970616257028971363e-001, -1.60106931873588320681e-001, -4.07604680219526116502e-001, -4.57312862159587829591e-001, -4.18993945856968530439e-001, 2.84310260118473101532e-001, 3.01637055741821702437e-001, -1.66359797641453505124e-001, 1.01530893189256711528e-002, -1.34871572910359366348e-001, -3.18225714517726798736e-001, -1.86361865068796289657e-001, -4.02617449269692562197e-001, -3.44798205851155281643e-001, 1.73407989256524862343e-003, -4.45841008662229143500e-002, -1.15846712348679242721e-001, -1.09650074561966417996e-001, 3.57236382342215399999e-002, 1.66712335126808219865e-001, -3.33965242803612671896e-001, -4.53512477739029917778e-001, -2.54530507736907607441e-001, -2.17109267995022808817e-001, -2.80837728900745320360e-001, -2.66522993841682931393e-001, -3.46885464406892080058e-002, -4.25667568953878860949e-002, -5.57746485879604542157e-002, -3.58122229842108730224e-001, -2.86690529418642869874e-001, -4.59355566193358599847e-001, -8.65015671953889980772e-002, -1.70162829507077811853e-001, -3.78865638262072756959e-001, -1.73577426787382471662e-001, -9.58851636220913461361e-002, -1.12500724767838330975e-001, -3.94479686042547073033e-001, -5.41153927596920270027e-001, -2.72184083141493227131e-001, 2.71857543634563235402e-002, 2.83465191210288014467e-001, 2.98399331537376910628e-001, -3.39743435256408710110e-001, -6.30034781918103331533e-002, -2.88616702990054041500e-001, -3.96030138352349847519e-001, -2.56748739700788042306e-001, -6.43996732622208800656e-001, 1.90909205561623579461e-001, 1.25609999245131609413e-001, 3.27282324010569947159e-001, -1.82911487294415170402e-001, 1.17803895519998647057e-001, -4.87242853879254270155e-002, -3.89265145048721561416e-001, -1.30925741115956506544e-001, -3.79280581601255495361e-001, 1.60056748897449106772e-002, 1.25663534961854173044e-001, 3.85453084139562029975e-002, -3.03463470851300765041e-001, -4.10725951229496455408e-001, -5.66750186085540133551e-002, -3.95339774861075132772e-001, -4.18367532362470373464e-001, -3.17132894546059140861e-001, 9.81435666279514840049e-002, -2.08618992411426507072e-002, 1.12628733911039460858e-001, -1.06809756051368748286e-001, -8.18152938672464941083e-002, -2.23751906164224273477e-001, -1.28624445114492891307e-001, -6.43263793677052025943e-002, -1.69990500482610773503e-001, 2.17684971807634158880e-001, 5.67828097234340870014e-002, -2.39978417974463398288e-001, -2.19006349028683905411e-001, -2.44330642264313974144e-001, -7.75171792441313872724e-002, -4.09326179552689170538e-002, -2.58279902108809800154e-001, -1.96269051348539114166e-001, -2.72643160660603955936e-001, -1.48244934999182176316e-001, -4.86451747363502370880e-002, -1.02972694459224356489e-001, -2.16323624584174104002e-002, 1.34344277391081817763e-001, -3.41595069821770291885e-001, -2.39953401324065063172e-001, -2.74316884062970722802e-001, -1.30891591009170527027e-001, 3.60009107916059278853e-001, -1.39084653039450500955e-001, -2.76361480100820455785e-001, -2.15498711041421264767e-001, -3.95464083876118976946e-001, -2.56798026453879391084e-001, -1.48501890063393704455e-001, -2.78613354325933315625e-001, -1.12135934409810428258e-001, -5.26162627123996293199e-002, -6.22095526300273510278e-002, -2.50641789470691600528e-001, -1.60485136604425066009e-001, -4.59020195641940131903e-001, -7.52008801660232345521e-002, -2.72601547601791283082e-001, -3.09937049328860403374e-001, 9.26887708917445152235e-002, 2.15674163233509991189e-001, 1.63618162704038783151e-001, -2.39901770439945871694e-001, -2.94819429204356608931e-001, -1.76971767305896310329e-001, -7.78259503367779437166e-002, -2.25117053432589142581e-001, -1.38724634375931243913e-001, -1.28555652780536960877e-001, -1.69475087374385685601e-001, 3.83329575842587394474e-002, -7.84031136160868863394e-002, -8.43759576741205802319e-002, -2.86194277881117953299e-001, -4.99235676534225514267e-001, -2.69312224228516639002e-001, -4.74883507184350628361e-001, 2.85883557126262066728e-001, -1.80404824463262780654e-001, 2.36244517304665613278e-001, -1.04476267566174757517e-001, -1.67467293370773817607e-001, -3.99825993338982083047e-002, -3.52396466980476275044e-001, -3.64134098309909504110e-001, -3.76401935570329193581e-001, -2.02136303129241023946e-001, -1.98094995285755498537e-001, -1.30329324941345664479e-001, -2.42265264588798545642e-001, -1.82359637137742780499e-001, -1.26730018569855690247e-001, -4.64819015509574884337e-001, -3.78609478387311293446e-001, -2.13664241648564318110e-001, -2.13003018345472194817e-001, -3.84502860352517961129e-001, -1.78615198806274577681e-001, -9.21752849201136759127e-002, 3.55629664203632595010e-002, -1.98923731955123195281e-002, 1.24543664072950133886e-002, -5.78894179971171998766e-002, 1.20726022741207014710e-001, 7.79452734373242972499e-002, 1.53448425877609095913e-001, 2.75869521518727206510e-002, -2.48917304286481767817e-002, 1.82410014253371915993e-001, -2.22921666641271963571e-002, -1.97186103602649792643e-001, -7.12263576109096602229e-002, -8.61752796408144297602e-003, -1.10020279881183832837e-001, -7.95072860463078429083e-002, -3.01335447758050545275e-001, 1.53720709549027747393e-002, 1.09354560005943401979e-001, 1.97289439282454986957e-001, -4.55078287243109065596e-003, 9.65157341949685887439e-002, 1.32944575073469267723e-001, -1.14038837383135596704e-001, 3.86975523730427178881e-002, -2.63921756637086113439e-001, 1.98978326940304518777e-002, 1.58523765879859501737e-001, -4.77296792443610493062e-002, -8.61005828934182926293e-002, 8.88625038405045919454e-002, 1.32046996776727654233e-001, -3.64472801110415967063e-001, -1.16857025348874349335e-001, -7.81572868985932478481e-002, -2.76389069122666072853e-003, 6.01310387620141856280e-002, -1.07903595493882967227e-001, 2.49392566041458568771e-001, 4.70170426852986340222e-003, 7.54354089610965866664e-002, -4.26602203330011198190e-001, -5.41255848693469543420e-001, 1.51413506188485341708e-001, -3.18852788521374955200e-003, -8.89156681431649276171e-002, -1.41512351980017714315e-001, 1.04605957899172902215e-001, -1.49395923430342747462e-001, -5.46488067007895206295e-001, -1.99143810730072982201e-003, 1.64458826382587325332e-001, 1.29456162212582080034e-002, 2.24454947550800198997e-001, -7.13524351836119646864e-002, -7.94008321904527275548e-002, -3.79975512087553091156e-001, -1.23642763470900488021e-001, -3.10701311796688306455e-001, -2.83277881858975788543e-001, -1.01720276563671982450e-001, -5.07084966628553110435e-002, 2.12322241226799018898e-001, -6.41524153108696398862e-002, -5.05766236807729460678e-002, -1.35684795389446444247e-001, -4.82619454641453268784e-002, -9.56832802993388686907e-002, 3.56150588010394134053e-002, 1.85738345659809150900e-001, 2.66667149160211489067e-002, -2.85151932570363864095e-001, -1.87482889807017161221e-001, 6.83221408061438773007e-002, 1.52343066146917575400e-003, -1.94291520293817854270e-001, 3.82887668390683583164e-002, -1.03556527033768122625e-001, -2.64572612069535806345e-001, -6.64087258889941994822e-002, -1.64494515129446711166e-001, 5.28916924873797014012e-003, 5.47014584776320117454e-002, -2.33396553219766073051e-001, -3.15870327321464083870e-001, -1.03813178742503037233e-001, -2.77657089340447513215e-002, 3.32639557539895325267e-001, 1.17231278460088531035e-001, -2.76350124167342559023e-001, 2.35879377122062833250e-002, -2.98832402475848295242e-002, -8.24413226778680785500e-002, -9.61327815464233376153e-002, -2.00669719768960530537e-002, 1.32311928527160567459e-002, -3.21271519591411966466e-002, 3.24454577315869518994e-001, 2.07997954518390953949e-001, 2.21008828443426813548e-001, 6.64633149894917618639e-002, -4.31691069252387454869e-002, -1.28393935389262664470e-001, -2.66443788476713634694e-002, -1.31825893834072477295e-001, 1.48807326022327962578e-001, -3.60424070439174706187e-004, 3.06955359532696592240e-001, 4.51203528123462205279e-002, 4.80661355586529115413e-002, -1.62211982780659597081e-001, -3.19730331692203884053e-001, -7.65212697658826240810e-002, 7.90851166471725208762e-002, 3.00734933908611778985e-001, 8.89387212040587404882e-002, 1.30015392993622826839e-002, 6.41143488369571579177e-002, 3.38431400408770524657e-002, -3.44013133726581876726e-001, -2.46115361908915919464e-001, -1.37439089314230128425e-001, -1.74623027291728294408e-001, 1.11387671009849656412e-001, 9.68618913567211303750e-002, 2.07304428251282979456e-001, -6.39489120025012319770e-002, 2.05497664929879253481e-001, -4.68403198127007452944e-002, -1.34548173021795197668e-001, 1.43564609548965410601e-001, 7.70536397109822662754e-002, -3.05320656968330189640e-002, 1.59279111562709047023e-001, 2.06753848716483529246e-001, 6.51166029659409617558e-002, 1.20567011124012746226e-001, -7.49369277817845264034e-002, -1.36993418670043443086e-001, -2.41161217375834013854e-001, -1.66498550824982494145e-001, -1.29230215737597631254e-001, 1.90769258578176864605e-001, 4.56342358869474107319e-001, 2.72751655216379451652e-001, 4.42159991113565964405e-001, -1.83762126583085251552e-002, -3.22888128230595372603e-002, -3.90854242529812156981e-001, 3.29646454003048802739e-002, 1.05481327772662586417e-001, 1.01611197474961459375e-001, 6.74940318543283540587e-002, 9.47052374283576317571e-003, 7.74983899470647052965e-002, 2.91085569389250720801e-003, -2.32714151725794959891e-001, 2.71648612825026794515e-002, -1.16975084422837119491e-002, 1.73759596688103701290e-001, 1.03517261671461344164e-001, -9.56208859847688941169e-002, 7.41138744786151854038e-002, -1.34929587082143476184e-001, 3.92603821075883929748e-002, -1.21021426632171719140e-001, 1.49776619906339225619e-001, -5.46252884751756914716e-002, 5.98854885936265547708e-003, -9.86901458424872812802e-003, 1.39361401485068897577e-001, 6.11624992100542469453e-002, 1.36704394028487580259e-001, -1.59745529593341012431e-002, 8.16472936222495957251e-004, 2.18214540490511699211e-002, 1.30564140677843637528e-001, 2.30877023309168372123e-002, 1.22005195280403114233e-001, 4.72947510537679305376e-002, 3.07455003471542254179e-001, 1.22742026299837950210e-001, -1.72251080058720168475e-001, -8.93772136438491515698e-002, -1.39506150194456030045e-001, 1.27508653145201655832e-001, 1.37881843608477883123e-001, 2.26420189317659420469e-002, 3.05307541063986442875e-001, 1.58101952320538641228e-001, 4.23735643755709712188e-001, 9.30273710744652926330e-002, -1.56992456644386463305e-001, -5.26647700909952960063e-003, -8.23433434698802591001e-002, -1.46603635474893384538e-001, -2.78570315438671389785e-001, 5.97079663929287185464e-002, 2.90176126314548699092e-001, 4.90917074844308853887e-001, -1.05531694485085439372e-001, -1.17337034573024953654e-001, -1.56758072643593843187e-001, -1.44758858678339652482e-001, -1.18038463031761867161e-001, -1.29830380663465777547e-001, 1.81888477689247457514e-001, 4.20913054259447749761e-002, 1.47191623901441109856e-001, -2.60913164325254132159e-001, -7.87397367020182675779e-002, -2.12841496785484141085e-001, -1.68903518242089517587e-001, -1.70642021312496561247e-001, -2.32451521882454742451e-001, 3.86244662014243872461e-002, 1.90836084651365978093e-001, 2.21297580549438682729e-001, -5.18536725436306647485e-002, 1.44447575096055963462e-002, -3.11269151733933435722e-001, -9.33007854918923573706e-002, 4.24354597829694618616e-002, -2.21290887120181550829e-001, 2.44729793062030909212e-001, 5.84114569870614469549e-002, 2.67927226151817077238e-001, -6.65881535497794413425e-002, -2.32737934440789134838e-001, -1.46152127307697998759e-001, 3.40970911205996842636e-003, -1.03061422527281426609e-001, -4.51406255587077503977e-002, 2.02968608651192816694e-001, 2.09641983136319071113e-001, 9.82802722626269220640e-002, -8.56264350282062991493e-002, -1.03501939133082185296e-001, -2.14122056101294477859e-001, -3.18769832248021245391e-001, -2.15600085555182702235e-001, -1.82370613544927839822e-001, 1.65375510247124629659e-001, 2.45493535889633768265e-001, -2.88408928752665744133e-002, -1.88288971659972659278e-001, -2.15951055551665244137e-001, -1.52245547741503228778e-001, -6.42155947197211585120e-002, -8.34678248274745154811e-002, -2.39528546723222018899e-001, 2.57981140939089914621e-001, 1.66071326454669820905e-001, 5.85803529056315094858e-002, 8.76852443306118042865e-003, -4.54041008280312990975e-002, -1.46616830316716323379e-001, -3.50526746919039733363e-001, -2.10418899969626982394e-001, -2.05417697602343879426e-001, 2.47375603105846608720e-001, 7.43462872342221803290e-002, 2.50008434972161963650e-001, 2.53263607607016882906e-001, -2.20113878389581796302e-001, 2.28007998513970383536e-001, 4.49995400804465983668e-002, 4.91710334410732710642e-002, 4.50117932608804990902e-003, 5.46446927090798936777e-002, 5.09830703564131820782e-002, 1.57496060843495294668e-001, 8.19806986381631103145e-002, 2.12420767548046118822e-001, 9.13208553337668989258e-003, 4.85332024388176186402e-002, 4.53433391739877095228e-002, -1.22409990233640297852e-001, 8.78092532741215486825e-002, 2.31061772080923405470e-001, 3.17014308389492627249e-001, -7.64028231150963021978e-002, -1.74956807056638574682e-001, 2.54275185471034628759e-002, -7.95933435548963758022e-002, -9.91419863014327967798e-002, -1.57882930921273173519e-001, 1.36546587257465323884e-001, 1.29712326482612383405e-001, 1.40799923910113422565e-001, -8.23026534055403408141e-002, -1.07691235877343693961e-001, -1.31981614452930495762e-001, -7.02594699891908869294e-002, 1.66947827582439978222e-001, -7.13674097454664643075e-003, 1.87316807528416312545e-001, -8.00461429419342118674e-002, 3.76350175198564979029e-002, -2.92356148999327658533e-001, -5.35538897742603645091e-002, -1.04652305724001276621e-001, -5.31421736561407606625e-002, 1.33301518039457729536e-002, 1.04326257386967810592e-001, -2.45109447448553618987e-001, 2.51947810424803853024e-001, 1.99642120326699645805e-001, 2.57353002194974589401e-001, 1.71567420997599140442e-001, 3.06767229921893647138e-001, 1.38015353138804863775e-001, -2.59933200321318946813e-001, -1.92551593266468867860e-001, -2.52702323618288100804e-002, -1.21722354796119008880e-001, -6.16123359047420493528e-002, 7.57600942010192429654e-002, -7.98745789426758695528e-002, -1.50475018036553415124e-001, 6.29442855326537709093e-002, 6.04824531074995216939e-002, 9.42341397960844984194e-002, 2.41170091192058899665e-001, 2.91431307778761070071e-002, -5.85386557641275201425e-002, 2.02244857108145131841e-001, -1.55161562277245264341e-003, 5.59893730350606716462e-002, -7.26224720629034710406e-003, 4.65771582701637737456e-002, -5.88290583081987547565e-002, -1.92616945207013598451e-002, -1.57645846375231019065e-001, -1.72287530266861776962e-001, -1.83330625942090985614e-001, -1.36139567865219329734e-001, -1.16171602864792916643e-001, 2.03131552114392127661e-001, 2.84979942240063066627e-001, 1.94341729249329492335e-001, 1.04484072206808067951e-001, 3.68881018283573128280e-002, 2.79378324711957483351e-002, -4.63721294374013354167e-002, -6.90656621527671460425e-002, -1.71550382999680860185e-002, 6.03142173367018363805e-002, 2.98933155971962072339e-001, 2.33988768877444429373e-002, 2.47435604036765094405e-001, -7.85568431959356335004e-003, 1.99367010806153183156e-001, -1.14187994006553134030e-001, -2.23684771859839794106e-002, -1.83451435137906328221e-002, 2.42745999351320074222e-001, -6.79457847913854245947e-002, -8.27401147132427045028e-002, 1.02440149040226649579e-001, -7.64967230946777126954e-002, -3.56453712542598652457e-002, -2.42244521229840997778e-001, -1.76160060784990510352e-002, -3.77303893446843230386e-001, 6.57055020236141790191e-002, 1.23271533347166450945e-001, 6.59333389815842246806e-002, -1.83122870190752864983e-002, -1.21235755738578199203e-001, -1.04076170832258188548e-001, -7.97831614460196708594e-002, -1.50476937804202431925e-001, -1.40605916606503039690e-001, -7.38216803332528842541e-002, -1.05212009080636520464e-001, -1.89259025194004823489e-002, 1.74679234546480849355e-001, 6.89428995551870787972e-002, 1.27088453371200421627e-001, 1.32230645562676274452e-001, -3.23109382091937347159e-001, -1.48809250786899993635e-001, 1.80319797821032135055e-001, 2.07000175429360083745e-001, -1.95594760929995378773e-003, 1.18581715293069475670e-001, -3.81289681793022597334e-002, -3.10029896197455386367e-003, -1.80327037143313634315e-001, -2.39125659096431908424e-001, 2.74764834999195288467e-002, -2.39233881378343921087e-001, -5.76089580126587438857e-002, -2.69978483400637625511e-001, -2.65886206962166540824e-002, 1.27769163429292453849e-001, -1.08481973408486406796e-001, -1.44907701465937899243e-001, -7.32339762250243941910e-002, -5.37879775977534238529e-002, 4.78369858535418121526e-002, 1.83716944016259556283e-002, -9.94844572891515586954e-003, 6.98795773281537246913e-002, 2.12265895628017620123e-001, 3.20822827785108177778e-001, -1.31202435911852682837e-001, -1.06674939321794240432e-001, -1.56277548131287996602e-001, 9.24514836316694676999e-002, 1.13069382854761119050e-001, 1.56094241573851624100e-002, 2.99956431270061163463e-002, 1.03099302968373107703e-001, -2.74972894675605816772e-002, -2.71680536944601813687e-002, -9.67945263349108686590e-002, -8.08453821056479837726e-002, -1.43046128828666269106e-001, -1.04327009288148975230e-001, -1.48335375077572884095e-001, -1.39037257430740211761e-002, -6.80315812591622270933e-002, 6.46227633881529955895e-002, -1.41973098534685038263e-001, -1.53047820072385404311e-001, -1.36545593407059101532e-001, 1.26784233411276481274e-002, -1.23800282335827183111e-001, 8.24184905192443251210e-002, -7.75486879280797153369e-002, -1.02333915447205936466e-001, -1.17690115911237430657e-001, 3.84678524430027216074e-002, -3.05795220160620401934e-003, -4.58889558998310832794e-003, -7.24395297312816904833e-002, -1.63657079857989745664e-001, 8.71491411945943955653e-002, -8.23447275768440789534e-002, 1.95256778598662853429e-003, 1.91024366713114651661e-002, -1.56109406996131350187e-001, -2.74417356444266014037e-001, 1.39600271770417092704e-002, -1.11320447186255000460e-001, 1.99616838482603781157e-001, 8.14654779652470018014e-002, -2.87479925313268380727e-001, 5.29189539960299784593e-002, -1.60641603835253082844e-001, -2.40544358548949649412e-001, -1.98507369345479661726e-001, -8.51429289610830392077e-002, -1.51512789512870088560e-001, 1.16972184711255700051e-001, 9.97456469748830010236e-002, -1.38480675120071332340e-002, 5.88391600479047163774e-002, 6.05475390789680448234e-002, -1.65936571270968502567e-001, -1.83801177324883352471e-001, 9.03375321265703912221e-002, 5.36135784384812671965e-002, 9.81374948757121785825e-003, 1.98079212066330972997e-001, 1.80440974777111212690e-001, 3.62133011645788052690e-002, 1.65789678733558931700e-001, -4.54151813956884739532e-002, -4.72987243836896636973e-002, -1.22229542999351681321e-001, -5.50636070880230962810e-002, 1.85110933311830538894e-001, -1.67674775765586370202e-001, -7.18142434083043484927e-002, -8.32769823453151786241e-002, -9.94962131013922140843e-002, -4.07904674647042130020e-003, -1.46403685856985266156e-001, -9.90940692373291492911e-002, -8.74716720065809860696e-002, 9.31902276719275973749e-002, 1.06268533448213922665e-002, -7.06833483103479071064e-002, 3.88639880879020904736e-002, 1.00357535346312070484e-002, -3.57124472576511586830e-002, -8.81063420443570360918e-002, -9.25763706854022816461e-003, -1.19831362172971037094e-001, -5.02564938054822010760e-002, 1.75539681521989787694e-001, -7.71305598263501840384e-002, -9.46067765382327119372e-002, -3.80134540272043866538e-002, 1.66108855505168906408e-001, -3.12315447033289471379e-002, -6.93197300917174630275e-002, -8.07395641151196878649e-003, -1.52378000238237332198e-001, 6.33722715941181097277e-003, 1.06950185402214945074e-001, 1.80421897017980809030e-001, 1.77947374376027867005e-001, -2.84511767234517758129e-002, -9.00024822431795962219e-002, -2.02951406141410467532e-001, 1.26849218534713897855e-001, 3.69086140853770077255e-003, 4.27483050777835854594e-002, 3.23825071209253578797e-002, -7.19729824660653993984e-002, -1.18764595360131858942e-002, -2.09846236558212870249e-002, -4.54808812679967575110e-002, -6.16441485500203861791e-002, 1.55244836319329247709e-002, 2.06204445962945404069e-001, 9.88042894020491752061e-002, -1.11767804287112703515e-002, -8.00036284536840142101e-002, -2.14930856236173473128e-001, 2.17312602655790158834e-002, -9.95228261194693458735e-002, -3.60866763027264739194e-002, -1.41594002846976013688e-001, -1.67748889762520114743e-001, -2.40038589016322335967e-002, -5.70103649337614024062e-002, -3.73417444954091820586e-002, 6.47907994328739550438e-002, -7.53111222188596329818e-002, 5.86017000627991682671e-002, -6.73903318255190397768e-002, 6.82716641521469158604e-002, -4.68737961189549870444e-002, 1.56737866581298495444e-003, -8.28997525717009992041e-002, 1.87148687826469928286e-001, 1.70593702618887316236e-001, -1.50001878279065220534e-001, -3.60392111805778250777e-002, 2.95990766951784722849e-002, -4.65298919074173741861e-002, 7.11479671387857809384e-002, 7.04823869772223804420e-002, 9.22105647591483224002e-002, 3.01823674364095212441e-002, 1.23155603949356998172e-001, -6.99189511444745122326e-003, -2.85774880993815566521e-002, 1.14117269039010607590e-001, -2.04189448449929061846e-001, -3.07611112706738187850e-001, -1.22377209755065205488e-001, 1.01684456545948820327e-001, 1.51472924621926463562e-001, 6.21856140031657456113e-002, -1.36512671061256585237e-001, -5.31793385046062799804e-002, -9.39579825711593236148e-002, -1.90459382915616620702e-001, -2.16742745966058664164e-001, -3.49787747945131607952e-002, 6.50084499011449740147e-002, -9.38506763384788778026e-002, 2.03198435311475855691e-001, -1.24049357276191166144e-001, -7.78416984790121085913e-002, -1.19725516784063054643e-001, -8.61877515445184649856e-002, -1.27091371549718584744e-001, -1.07015090867149040288e-001, -5.42835894975869856505e-002, 8.35566965659516325271e-002, 1.19985095526999360760e-001, -3.26412427634235474683e-002, -1.30944534030767611998e-001, -4.38658164466445774088e-002, -4.74887461237352911936e-002, -3.10349379359361049469e-002, -3.71996553341269187154e-002, 4.83411628927550365842e-002, -6.80912561514980807509e-002, 4.90747491723561926613e-002, -4.96270619158967959961e-002, -1.14929236923522012925e-001, 2.48681867455651864351e-002, -9.32402503106329327842e-002, -8.69635955622538679016e-004, 1.06774436702853817160e-001, -2.54804235827357401789e-002, 4.01421910964251532628e-002, -4.44673004325138940263e-002, 9.36322871806990614241e-002, 1.03109610043916125055e-002, -2.89352919428107653588e-002, -2.24280554604697784926e-001, -2.88468907812429870008e-002, -1.41976494465618191532e-001, -3.89592739679640587269e-002, -1.72254432208202674578e-003, 5.61448485219177839678e-003, 6.29161045268731566882e-002, -1.07666739793895502308e-001, 5.81514095616291696450e-003, -5.31450410958483332458e-002, -1.93135115240928467717e-001, -1.20596585175957851654e-001, 1.61886283274708137059e-001, 9.94496476031596771117e-002, -6.56492913523736704162e-002, 6.91138922445200809541e-002, 1.02281172897429731283e-001, -8.53846054224650582998e-003, -1.32436640538712208093e-001, -3.15590345411021155897e-001, -1.50343893931674549291e-001, 1.32037166241268433264e-001, 1.12047713070065321772e-001, 1.19682259419143038892e-001, 1.59252225166822636293e-001, -8.95046090806888433589e-002, 2.79306808139786755252e-001, -5.09600658408157214385e-002, 6.31615278278486874663e-002, -6.68265156917094288458e-002, -9.93135095131833511850e-002, 4.82521701340691347437e-002, -8.14447788325263488662e-002, 1.63927740799521132198e-001, -3.85118474020175668993e-002, -6.72770267341950833906e-002, -1.23922290495263584531e-001, -1.28131979057191536242e-001, -1.44348527819000121974e-001, -5.16718310345937736905e-002, 8.51470337776275149055e-002, 6.20094566488375784075e-002, 2.33795985752116609879e-002, -1.08696886762514169367e-001, -5.69738818775544081374e-002, -8.51165064244366054158e-002, -8.72006900549819885526e-002, -1.60053809154181748975e-002, 1.33402510204298219154e-001, 7.13677075870973176563e-002, 2.99635173961314629776e-002, -3.06780214508924550798e-002, -6.35165128941153622755e-002, 1.67466411571893410148e-002, 8.52096040577578622832e-002, -2.98686559433549055076e-002, -1.01328612770593420866e-001, -2.17045743747253869205e-002, -2.19472775573949924199e-002, 1.30690675454367497693e-002, -5.77764452463624678114e-002, -8.57899829181335976669e-002, -1.18053618453107481145e-001, -1.48940340576824481467e-001, -1.49931620973653506601e-001, 1.35935877873807009486e-001, -1.50473566584631096577e-001, 3.03334011996678649947e-002, -7.41640366362451008975e-002, 3.29755170397128885562e-002, 1.34382990685307374124e-001, 1.45438186622614928911e-001, -7.23569352173458468780e-002, -1.47134006205638684373e-001, -8.55070498315972926662e-002, 1.12092234461151227243e-001, 8.41425745182074885653e-002, 3.11519649285472537137e-002, -1.23864018448577084541e-001, -4.57096853443590550592e-002, -4.42814581086977063218e-002, 4.21208460697285458352e-002, -2.04199575992056486795e-001, -1.78711282088424766590e-001, 9.36011822274698396251e-002, 1.70048810019894809653e-002, -1.51665758440682835184e-001, 9.92630838076991872665e-002, -5.26493485711774858449e-002, -2.18642541128865719458e-001, -1.27096315623084349378e-001, -1.60576680455670028902e-001, -4.29758359349797364191e-002, -4.36274793212390876729e-002, -1.69491090414081141402e-001, -2.22650281547873557519e-001, -1.25202411472756153232e-001, -3.50986620971004692482e-002, -7.58510466050068138388e-002, -2.38943588939533602122e-002, 1.69404801328295107066e-001, -4.68032759887421906386e-002, -8.03255989092747815609e-004, 9.52314371176784107975e-002, -8.42539767664115396562e-002, 3.64028946166554262520e-002, 1.15441466830887035783e-002, -3.69406179530764738894e-002, 1.22348926274902652933e-001, 1.67400348402319154584e-001, 5.99052298001883365419e-002, -1.25570347018662074184e-002, -4.55841466268525827288e-002, 9.58071303956573167016e-002, -1.15268875472111384517e-001, 8.77775338049518183414e-002, -5.67634670864544752661e-003, 8.55113700962417400131e-002, -5.16268937907000680099e-002, -5.71555420835572133842e-002, 6.90752214471592046463e-002, 5.04441437110239032648e-002, -4.51293366011612309685e-002, -9.96676981011060253435e-002, -4.95114577214452525333e-002, -2.25861363952499588637e-001, -1.67363310155336036944e-001, -1.56842614514377080848e-002, -2.90527229417098529010e-003, -1.25300467572984242093e-001, 5.07521958923111207729e-002, -1.28015010314398158808e-001, 7.06183702153251047218e-002, -2.05105807806321774334e-002, 1.04414796429732718852e-002, -3.15177317466038345306e-002, -1.10746759116103321574e-001, -2.07664040118336820639e-002, -8.07855783087733370085e-002, -1.25407488724986582174e-001, 5.83549320758103839957e-002, 1.21103295945395428301e-001, -2.66198764743469540317e-001, 2.74880868369348982383e-002, -2.14238236323495180591e-002, 6.44728872937661290354e-002, -4.86463932893054559065e-003, 2.35345677849365317313e-002, -4.75084861604766345300e-002, -1.40447949494449692009e-001, -1.23088095399238511840e-001, -3.22881077593390963809e-001, -6.10848846024531003107e-002, -1.83602834178563482925e-002, -7.97146105328955766056e-003, -1.08232448579141493639e-001, -8.36214203473782946574e-002, 1.08681117863497114784e-001, 9.09948376167595135433e-002, -2.02938473919019285452e-001, -5.69407787781825922013e-002, 1.40147005059410717509e-002, -1.85386068026979003442e-002, 1.02829819325957437515e-002, -1.88433764650538820851e-001, 9.16034074205606257957e-002, 4.79989752334152169899e-002, 1.70869894027092378286e-001, -3.93607009231604576538e-001, -4.70438198364805049145e-001, -5.45014277807200020476e-001, 1.66405017227518131628e-001, -1.39847768985985970724e-001, 8.56869112619661546515e-003, 6.36318099481831961350e-002, 1.47900318292240040563e-001, 1.00559845623112917301e-001, -3.34405828289183248980e-001, -3.92254424793840705821e-001, -3.25387653862820425132e-001, 1.52797793622624411558e-001, -2.92747578228028486336e-002, 4.60201462554062842858e-002, 1.61556967859492917050e-001, 1.30968983812299929331e-002, 1.56823281485142344838e-002, -8.12009158996019331234e-002, 1.37207454179062993127e-001, -6.24715212336764205703e-002, 2.66791692573680877532e-002, 6.75728421287044578314e-002, -5.60557340182424729269e-002, -3.02511838730695542185e-003, -1.11625778150323734517e-001, -2.93369419319994533674e-003, 4.77888413126544078779e-002, -3.77476778128120818434e-002, -1.58514074791120757046e-001, 1.16439888500605038396e-002, 1.46516919311056231789e-001, 2.78299838118830980549e-002, -2.73726286620864164845e-002, -3.50347054274730701495e-002, -1.18828845579056166515e-001, -2.92478746828893527987e-003, -4.26533574412274602006e-002, -7.46489483768749406689e-002, 2.46596255888547666313e-001, 8.30057702948919923225e-002, 2.87850953155069887168e-002, -8.04087421126126744575e-002, 8.20761834623864316995e-002, -5.63271271950244317717e-002, -4.20604606300660228274e-003, -2.70793931364883035118e-002, -1.36867790527974569903e-001, -3.72524839123542228503e-001, -4.34243832760753900590e-001, -8.45084277664133326491e-002, -1.87481849536459466155e-001, -3.01080729518345635576e-001, -3.70208366208032324529e-001, -4.09826699675944039480e-001, -4.28349107422209440799e-001, -2.61611639074057544807e-001, -3.31128823136188910059e-001, -3.33224163805726392162e-001, -2.91801400556666201691e-001, -3.79928544384100896902e-001, -3.71180484837599966585e-001, -1.27318120658053507421e-001, -1.23803864839094460160e-001, -3.15676899412012934576e-001, -1.10355980947040632767e-001, 1.83013991205572490450e-001, -1.35744161034781873898e-001, 9.11041477779995501063e-002, -2.02290307697458010550e-001, 3.18620212927650525714e-002, -1.62971105958307049821e-001, -3.63725938319284958222e-001, -3.21132268988760238848e-001, -2.76890097429794035389e-001, -1.50706319293112192548e-002, -1.17664697090323788764e-001, -4.94916616547318860553e-003, -2.38376382964281159638e-002, -1.35393287823929852481e-002, 1.03142110144491302992e-001, -2.71101231610058557298e-001, -4.04059615313843933926e-001, -2.86101980159706781315e-001, 2.34743740491676788906e-001, 6.54294076990087764001e-002, 8.03596207066041984257e-002, -1.19014619223038908835e-001, -1.02748534740283156697e-001, -1.60978801402526211506e-001, -5.29150082702105506449e-001, -3.07654349561541085034e-001, -5.15537708769146507670e-001, -2.43287214114701203296e-003, -2.02575959550438083889e-001, -1.84184463086725230818e-001, -3.91806429076684697987e-002, -1.12289103742566218069e-001, -2.27972138403852719879e-001, -3.12176160779750966334e-001, -3.73973509758583011475e-001, -4.97012745867969174540e-001, -1.99058543422670874978e-001, 2.79117581156036076440e-001, -2.85170596437136873724e-002, -7.56407038099467937675e-002, -9.43231547081921084530e-002, -2.03522843103750628035e-001, -2.26942943615053738249e-001, -2.52013066236969840439e-001, -2.64300848475964467177e-001, 7.06854641340791400861e-002, 5.46740213267833952138e-002, -2.60707959785094145477e-001, -1.80194271450372561771e-001, -3.56575012847124284132e-002, -2.74617035993809967265e-002, -1.28539314400401338823e-001, -3.66897055913805170135e-001, -2.03987344706071466183e-001, 2.88930314633232959709e-002, 2.21077566741156833485e-001, 1.29071557305734302412e-001, -1.96431108253243058570e-001, -6.56717294760112701990e-002, -3.51801013701965037406e-002, -4.47748082775223377183e-001, -3.50906826099963931043e-001, -4.25781762865933055551e-001, 8.76198657713612300002e-002, -1.10361601444299694402e-002, 2.88689808121035618171e-001, -3.06978327366716208235e-001, -2.82888045203352422874e-001, -2.39304253925949755866e-001, -4.67248328610339158651e-001, -6.95972888857929961048e-001, -5.77958258704448057941e-001, 1.51176443243747631213e-003, 9.61564528559867987001e-002, 1.85076125434567057004e-001, -3.65871832140867603300e-001, -2.21135550326774510399e-001, -1.41005870550432482746e-001, -2.41107607112020838613e-001, -2.21510870559334577257e-001, -3.52862724343023959062e-001, 8.08150691069932092248e-002, -2.35558354280025680771e-002, 6.48839380501243512267e-002, -2.94598151175402556134e-001, -3.20377448604703352064e-001, -3.39459893513743560245e-001, -4.01116141062388187333e-001, -4.57886630695798269031e-001, -3.29504526770830419302e-001, 2.44588173918507317817e-001, 3.14811061760112809171e-001, 1.90993101157600209117e-001, -3.20100122490851513035e-001, -3.33200549893161557247e-001, -2.76013280123738047322e-001, -2.71534896364101441257e-001, -2.74329560776706171676e-001, -3.66147172182216262826e-001, -2.21920503335366788022e-002, 2.15281799640783342437e-003, -1.21609426219442054440e-001, -1.93103061939256553936e-001, -1.02298442448132020921e-001, -2.94499018325255212947e-001, -3.43436199324224922247e-001, -2.94268866895803726802e-001, -2.54647990869523888069e-001, -2.80881718500534505178e-001, -2.62071275956056726208e-001, -1.48416822983987478635e-001, -2.08262811795029562090e-001, -3.50016192874362974674e-001, -1.95293676222983991764e-001, -1.86805273019188172734e-001, -3.54592729986973387302e-001, -1.49262147703820430289e-001, -9.13879030869377273483e-002, 7.28271896333758037012e-003, -1.76705869499841627945e-001, -1.36545605053450064270e-001, -2.73962099093830180330e-001, -1.73420111248017871919e-001, -4.27784578076923105439e-001, -3.48714689474855954465e-001, -3.37614956541769484222e-001, 2.74159008989523882149e-002, 1.30330395901228468514e-001, 1.07650139753808285481e-001, -1.71992371213372852168e-001, -2.98300733076242663433e-001, -3.93064479811168321355e-001, -3.55456123289395853337e-001, -2.84770526257919875945e-001, -2.61332815353473635334e-001, 9.97920157596609430639e-002, 2.38050606699359290630e-001, 1.87081536877595280832e-002, -3.48535847295060596807e-001, -3.30549588655636217283e-001, -5.14228899242014980686e-001, -4.10091340393246794882e-001, -3.16855139787405593044e-001, -1.92916452723463721641e-001, -1.55533541575538971496e-002, 1.39472581811162482657e-001, 8.53512939616644320667e-004, -2.53107028543174739088e-001, -1.84903945282591158916e-001, -2.36768947430256782027e-001, -3.42288732921854688129e-001, -3.52206643594983714873e-001, -4.45501110845964110041e-001, 3.69770452171143793052e-001, 2.64138345033669397210e-001, 1.11194338174329582225e-001, -4.54186754895092525963e-001, -5.15659684498695924937e-001, -4.29203571769326441832e-001, -6.03799718009683350495e-001, -4.03135462824941059878e-001, -3.93973138138829059862e-001, 4.57913635999741067129e-002, -7.93573157774499909900e-002, 1.24956398131815152319e-001, -1.54845355640862519797e-001, -2.51569223808323916280e-001, -4.32949695944391976798e-001, -3.49847208945866461338e-001, -3.78819032367661179261e-001, -2.81909145451314457897e-001, -1.23895580351377224138e-001, -6.45584600626744331553e-002, -2.05858428958431899369e-001, -3.11279659019095711336e-001, -2.92160310928889610516e-001, -1.46619746277918960864e-001, -4.51912435047818084044e-001, -4.52751218660787435599e-001, -4.56357387593605334786e-001, -1.64251908857719230994e-001, 5.82020434035497996605e-002, 7.32667914338548664777e-002, -3.77338086752908530297e-001, -3.65906702643997217006e-001, -2.40286730096306716531e-001, -3.19236596732227040363e-001, -3.20613932585049055124e-001, -2.98543558718334212099e-001, 5.48343535048333510784e-003, 3.69590134990410712490e-002, -1.56997695824577454538e-001, -5.41242064693699287403e-001, -2.45820714280484187153e-001, -2.88273613820223262305e-001, -3.44481291555045754382e-001, -4.40122545980038859526e-001, -3.65461770468268554168e-001, 8.71776940218518398007e-002, -2.69822506650405580242e-001, -8.74171205664876077579e-002, -3.19675650223506024883e-001, -1.71141210162766344016e-001, -3.81376922149615160684e-001, -4.64437241258988775527e-001, -2.78713142623770726569e-001, -2.23482343855114229392e-001, 1.79604200079697101655e-001, 1.17139304825387757791e-001, 1.79675831167334265626e-001, -1.72282279989772801887e-001, -2.75321094307636349274e-001, -1.87771524781245618962e-001, -1.96466105188674605708e-001, -2.34273115858529806799e-001, -1.46072097840618392306e-002, -5.89663770591974389923e-002, -2.23087008583732378242e-002, -3.35129159329028633585e-002, -2.49551590275446738554e-001, -1.76172849816578297455e-001, -3.36155731495841714196e-001, -6.58403824997291664545e-001, -3.64490079228960262014e-001, -4.52473862282024463788e-001, -1.60878452564398671809e-001, -1.72567246679615204918e-001, 6.50248699669542674223e-003, -4.92311353685113486933e-002, -3.49894979190945643044e-001, -4.92041364632807010082e-002, -4.11766271178808651587e-001, -5.75654536855670251327e-001, -4.80626949355799970576e-001, -1.17922817810518623660e-001, -2.77085291920238334373e-002, -9.13269118977233229639e-002, -6.13062810495961785229e-002, -1.02524318719487556040e-001, -1.91739885991023567557e-001, -2.78135873671558508935e-001, -4.78592109827693734658e-001, -2.52623997140229650249e-001, 1.37219805020041329957e-001, -1.25219125624456584234e-001, 1.25277260906965027046e-003, -8.53726072720926432158e-002, -2.11827320410346908730e-001, -2.97279011662732128851e-001, -1.93350608546989405356e-001, -1.79602776059237079220e-001, -2.86331816129006044847e-001, 8.97432628166023732552e-002, 2.59252987722839389750e-001, 8.39268439551855427450e-002, -5.77404606947133358652e-002, -2.90288537473229801833e-001, -2.46407353792588712516e-002, -3.44855752288413586193e-001, -2.25003141296068270849e-001, -2.99444397228131820032e-001, 1.30839709337347426255e-001, 1.53997224480607652897e-001, 3.56039924824595320658e-004, -8.20152376931599647047e-002, -1.18608813748146135758e-001, 1.33090886202950176020e-001, -2.45947920281179038815e-001, -1.87767249609769010243e-001, -3.46134874861111996314e-001, -3.70811825676139461549e-002, 4.40529981593837591247e-002, 6.13704253656316509741e-004, -1.53347260451240946511e-001, -1.00677616364488291267e-002, -1.69721376506139470797e-001, -1.73833651154337159861e-001, -1.37094624782743285119e-001, -3.53865835935487232922e-002, -3.45331542014481879255e-002, -1.36542995464300088299e-002, 8.56975253930704339300e-002, -3.82167842792278944497e-001, -3.88044591351613732400e-001, -3.52316314742647740399e-001, -2.35763457649948410255e-001, -8.42418524995178635839e-002, 1.49455220062726656938e-001, -2.53172197996139103360e-001, -2.62699311073672781003e-001, 2.30476196648254971766e-001, -3.52850459648579750649e-001, -4.58429189687364180283e-001, -1.95188005884954801639e-001, 2.25908516606907722180e-001, 8.09892311936986408760e-001, 1.27795815622038122505e+000, -3.85003606735263181893e-001, -3.24238559840431761483e-001, -4.07506887315229826552e-001, -2.59348515963103487536e-001, 4.55247008375661788016e-001, 4.15810199085176246392e-001, 7.43043341005278912270e-001, 4.56273005484893245942e-001, 6.22027315973950667427e-001, 8.27135363460310968353e-002, -1.56585113309121587433e-001, -4.62418616554814088104e-001, -1.33861370708905469407e-001, 1.86434124616132457231e-001, 1.85361756300761737482e-001, 3.26397095740210418935e-001, 3.68960872847191694024e-003, 2.22617178829901118942e-001, -2.50709567855296966421e-001, -2.83255301495834943548e-001, -3.51029807136086224872e-001, 6.75606360731835331457e-001, 7.18043838020645086573e-001, 5.91260492945528293163e-001, -2.44225423706908806309e-001, 6.25584917458642144998e-004, -4.53238687229236061893e-002, -4.91820855891061559095e-001, -2.24142329685852764731e-001, -3.81850574408896914491e-001, 5.66964966703488060240e-001, 5.19132988207516965495e-001, 5.68888998629996422984e-001, 4.05947435599540110834e-003, 5.84010018477733816589e-001, -6.31923765228772499336e-002, -7.61183247213665592490e-001, -7.91407259196317824923e-001, -4.67435539564036051097e-001, 6.02743573344082572696e-001, 1.40660095670664120338e-001, 5.25236496472261005231e-001, 4.64507148815306650236e-002, -9.69519312935428895228e-002, -1.79203912769454049014e-001, -3.26899749527344088418e-002, 7.62625178490618088611e-002, -8.83630767934882599413e-001, 1.93176937122662178981e-001, 1.74350752797097885427e-001, 2.27669620658286886439e-001, 4.60711670605830486691e-002, 1.03179820696074217579e-001, -4.64300829421331398561e-002, 4.12672977138587651624e-002, -2.37102643190135048412e-002, -1.08088630268155655445e-001, 1.65676119373499020071e-001, 4.79331287112970627629e-001, 4.34440631982391856081e-001, -3.21248995206147719417e-002, 1.84944797417402967410e-001, 1.71431007626788478593e-001, -8.52503579953440004946e-002, -2.63162760378138071982e-001, 2.56565078374112964799e-001, 3.09860518211655111553e-001, 1.25712148929885081383e-001, 6.19909325776271447062e-001, 4.56368997979556101363e-001, 8.12314923063573862683e-002, 7.47552677996010800365e-002, 1.07340227546553035332e-001, -3.02571555975709005626e-001, -7.02900208298946338470e-002, -3.00861300373333750979e-002, 3.52071099484284943948e-001, -6.01632257807497225488e-002, 3.43620471275563957314e-002, 3.85774236857739719064e-002, -1.27041099754279157574e-001, -5.52453505415727685879e-001, -4.61419216860691039361e-001, -6.60262182626405236263e-001, 2.00781187447256065370e-001, 3.13519740615125663830e-001, 5.23733412554436061903e-001, 4.83259729953205985353e-002, 1.21530661850744944874e-001, 4.19251237031803503097e-001, -1.39747902134928526918e-002, 2.84420357759734045155e-002, -6.48231970591711892382e-001, -1.16581760325069200279e-001, -1.63036224699972337460e-001, 3.67365178941370384980e-002, -5.11795309252745592166e-002, -9.28557989586407603322e-003, 4.21394326922174544681e-001, -1.93037373065723966148e-001, -3.40780423603323223691e-001, -5.75643298462095831525e-001, 1.14128309493614618630e-001, 3.35482902662853743614e-001, 2.56200008323193506588e-001, 2.86094564097489678645e-001, 3.76056933638687640453e-001, 2.96246770358546906987e-001, -6.02004194799736436217e-001, -5.49262941464103260358e-001, -1.76808904991189619338e-001, 3.88499552865658792644e-001, 4.28373605047540406687e-001, 5.76964184243297095733e-001, -8.23376382468612826038e-003, 1.81544102080888961059e-002, -1.23637821897017621819e-001, 9.28753168339584295188e-002, -1.41992983289019158999e-001, -1.46913316548888839286e-001, 4.05617925900764675351e-001, 4.69586780761235778048e-001, 3.50099104505764480155e-001, 2.29812412861084475191e-001, 2.32020775061354683766e-001, 2.17929738389415927902e-001, -5.90069675476009636306e-001, -1.76321030481330076611e-001, -5.36148179994078155630e-001, 2.65457706509442892262e-001, 1.27162940171439753367e-001, 1.82593205130650276802e-001, 4.13863194468331418996e-001, 4.30185412514552001362e-001, 4.55996950931131739271e-001, -1.71274647451236966544e-001, -4.44321083046468001676e-001, -7.04870489472161021460e-001, 1.48483516693773492934e-001, 2.58653542294898119991e-001, 7.90740582292694532685e-002, 1.26909533815690395153e-001, 3.09427673642340916871e-001, 2.57310895396133720858e-001, 1.65191104650280695676e-001, -2.49133127000496529257e-001, 1.32214147764236539251e-001, 2.35573331929345763935e-001, 6.63384557631671312183e-002, -1.30962367929552070400e-001, 4.68809737324636877087e-001, 5.30376277257868067316e-001, 4.13170230546942129912e-001, 1.71197341125144571194e-002, -8.01421021349386364374e-002, -2.02371963451112246712e-001, 8.13316559054228366277e-002, 3.01625338989950309010e-001, -8.82978963932832539019e-002, 3.58712344391302395685e-001, 1.88266810767081044231e-001, 2.17628762579408024935e-001, -2.23261875334779952285e-001, -4.10815561492425609935e-002, 7.44919949485936400135e-002, 9.88678652378192357464e-002, 2.01403677731513491844e-001, 1.58220703090393904899e-001, 6.00955116164855959737e-002, 2.62252735316395868548e-001, 5.99755793439432749459e-001, 5.54694719341580905203e-002, -1.68233964105179989446e-001, 3.48628449309434998438e-002, -1.04126910146545126334e-001, 1.81018804973839736450e-001, -9.92797743999411230753e-002, 7.08305565652003893407e-002, 3.51890556322023706493e-001, 1.25333673607271101069e-001, -2.76985386167331926188e-001, -7.32225648941313839169e-002, -1.87446098198119831535e-001, -1.11545451852519718339e-002, 1.43319945763812871264e-002, 1.86591805370121127661e-002, 5.03036565666281076936e-002, 3.23571619172915575513e-002, 2.98120229087324328798e-001, 3.42166100413166196503e-001, 1.02208099996070722604e-001, 5.35280211000814465372e-001, 6.65023039812189936670e-002, -8.08206236810255079783e-002, 1.75936710632908083207e-001, 1.47260143512254609854e-001, 3.26231462191740095857e-001, 2.33087923594512635983e-001, -1.82204342337895730530e-001, -3.01857469033402547876e-001, -3.86933567932257638233e-001, 3.64627356084978759831e-001, 2.84197501786815520664e-001, 3.74926947317915704172e-001, 1.09385097495735023054e-001, 1.39016702050521242379e-002, 7.34456013626690773499e-001, -1.85297588458111839316e-001, -4.89501051853717603080e-002, -2.97836766807458797057e-001, 1.12168634095133307182e-001, 1.29235393605038245690e-001, -2.58934780458103808165e-002, -1.49474279151161265622e-001, 1.32839016947724972151e-002, 4.31970457164215781987e-002, -3.45627332132433628953e-001, -4.60494550434931371186e-001, -3.18672545666321638258e-001, 5.12693130366409066667e-001, 4.53993906805348845790e-001, 2.89236276619722065817e-001, -3.42023819943731571813e-002, -1.46338385677307253330e-001, 2.31491232458813714357e-002, -2.84101045626088899443e-001, 1.09306479145575438650e-001, 7.90499024867049177034e-002, 9.43245413123101755781e-002, 5.37893915992954524397e-002, -1.59012972761845700065e-002, 6.77770689304031843936e-003, 2.37554817621960900897e-001, 3.01942501959966483338e-002, -1.88542111535428213998e-001, 3.24933445444577848060e-002, 6.54323734260563172338e-002, 7.36880006905594187039e-002, 3.66082406282501604533e-001, 7.38298154411850399148e-002, 1.23572150634916194667e-001, -5.26785442564221273454e-002, 1.73056846899079019853e-001, 4.12601765999900782500e-001, -1.39602798043382936299e-001, -1.73762996119117933691e-002, 5.80399147823354583098e-002, 6.33987128196273203029e-002, -1.13011058134053488100e-001, 3.46758574097482119569e-001, 2.38468710173981635059e-001, 1.43282090145168794493e-001, 4.47531015710805613050e-002, -4.42298168426341897774e-001, 2.61913336814589003954e-002, 6.59979981385251601722e-001, 4.20002226236113052060e-001, 5.30682387733092619797e-001, -2.29491506375743031798e-001, -4.45270046344582393072e-001, -2.84892172550070321702e-001, 8.31874958869293634756e-002, 2.95313224240762506323e-001, -1.35908670851572176141e-002, 2.78824633434417212818e-001, 5.34951695254785475342e-001, 5.62764175786707898652e-001, -8.28408886303595992651e-002, 2.75225235238676785299e-002, 1.42782926488310035751e-001, -1.02392649040183983389e-001, 9.91503460725649127250e-003, -3.41811538064394571101e-001, 2.00228407729441060248e-001, 3.39417182052568766615e-001, 4.59605331787803550458e-001, -2.14189313544458165284e-001, 2.03058841198001487072e-002, -2.08621681425313482139e-001, -1.28618341697541022084e-001, 6.46910805265685229237e-002, -4.35052575656973070095e-002, 4.30128082443649584210e-001, 5.35460639799558824059e-001, 7.73098474230959231690e-001, 3.47010413192719802122e-001, 1.87018424730410387502e-001, 2.31626501803285977932e-001, -3.87626632185082309334e-001, -1.51702983350188752576e-001, -2.68143983038981514877e-001, 1.06572054148907344184e-001, 1.62665375806323980745e-001, 1.39034268661838933401e-001, 8.71696397239101056220e-002, 1.54308392508503033902e-001, 1.89492136982108760890e-001, -1.15049394087371983919e-001, -3.49027779894330092425e-001, -1.00303610920846678067e-001, 1.03692045536412175144e-001, 4.74549888852881518453e-001, 1.46211900862421639857e-001, 4.44259617134114992432e-001, 2.05554016801069827647e-001, -3.73493040555749212378e-003, -2.95479265634734020174e-002, 5.76402000671854319869e-001, 2.79701145929411087998e-001, 1.62873451573854827190e-001, 3.07476937857669829768e-001, 3.10359481724109265155e-001, 1.21252680998379575028e-001, -3.17413496307575619323e-003, -1.37682391049907648650e-001, -6.92524814020073070653e-002, -3.01866798779629574856e-001, -1.56091987734049003622e-001, 4.04582804963283748645e-001, 2.01557980822390792053e-001, 2.55540552263326670168e-001, -1.28788410162097660683e-001, -5.91939576021467683820e-003, -2.11469798371334144482e-001, -1.42354024252114186311e-001, 1.49863734144223548217e-001, 2.21514365478145569543e-001, 1.95580035786149580498e-003, -1.09037698199662795584e-002, -1.09136392780579179890e-002, -4.11355214883733444342e-001, 1.96203839332267898632e-001, -7.87925562883598912256e-002, -3.08681251688647517728e-001, -2.94668260512497837134e-001, -1.78630855679240085898e-001, 5.29881515359865024051e-002, 1.26637653114916814978e-001, 8.01574635093921794571e-002, 3.25106450413816042144e-002, 1.23072227054659366630e-001, -1.94032074062518267166e-001, 5.47486801061652705869e-001, 1.49329369181510046571e-001, 1.81043078815940366999e-001, 2.85862200923752196591e-001, 1.35835958802788647759e-001, 3.88247589747450161379e-001, -1.59727632507786515559e-001, -3.59597027243489686388e-001, 3.10032446662159393014e-002, 3.76766917960420943956e-001, 3.10193149866623663069e-001, -8.38041495156108956488e-002, 5.75504743517872910386e-002, -6.91325209386116357191e-002, -9.91119550639200375119e-002, -6.31319937705700079400e-002, 3.39302181597000845903e-002, 7.83055522487751121119e-002, 7.14127426011562094210e-002, 1.46082747566098458680e-001, 8.45783766112836316031e-002, -1.52129899263790197006e-001, -9.63829246121934574143e-002, -1.67004120250624332744e-001, 4.13417757285587869620e-002, -2.82269738028975425426e-002, 6.06341048814796196309e-002, -5.38484968414406767190e-002, -7.33592676806820997992e-002, 1.21657065943229406035e-001, -1.60130100671224295805e-001, -2.08835071895444979173e-001, -1.77442222599838522745e-001, -1.14537213471532436926e-002, -2.92961520165380823189e-003, -2.35635611989158076651e-002, 2.13800934293472168213e-002, -1.87744317407132377262e-001, 5.03880598755871086936e-002, -1.37635328863532413468e-001, -1.54464528927306138373e-001, -2.16342487569979563533e-001, 1.94484268517709155133e-002, 8.79691728226261737689e-003, -2.11931368370476373719e-002, 1.55033394834459631317e-001, 1.49796933337604798453e-001, 1.05416696023412873040e-001, -1.48437218869681170075e-001, -2.26263682466872145804e-001, -1.48890199502475395477e-001, 1.23578291389608740936e-001, 1.86550940097927553385e-001, 6.40117256147637592179e-002, -4.14560485711557291655e-002, 6.85321104169372107007e-003, 3.80037065885019606504e-002, -1.47930510280030791392e-001, -1.94980575066845573939e-001, -1.67624473237056419161e-002, -7.43322738678689563102e-003, 5.29850366660048893719e-002, 3.24745367711564772439e-002, 1.42421616312783036462e-002, -1.37231298383017535913e-001, 3.64983215360997967358e-002, -2.92211855659155694820e-001, -3.13235749620563552753e-001, -1.57055548452428972439e-001, -5.41598356216056904533e-003, 3.64050272718511661041e-002, -6.28446256506727529700e-002, -2.76624033715553718782e-002, -4.85992643809932886589e-002, 8.28405936421518079849e-002, -1.72001985079024866110e-001, -2.19024678950824058798e-001, -1.73239237119635791640e-001, 7.44111124831290954990e-003, 1.00786545966915386252e-001, 3.14926004780447174602e-002, -2.91947413240269577905e-002, -1.67502320915882518815e-001, -1.08934453966973016081e-001, -2.67552914533633889871e-001, -1.76508729685111026564e-001, -2.69354283381300685374e-001, 4.87234112767815918943e-002, 1.08977095946894003697e-001, -4.05737300163593675451e-002, 1.12988770987573733384e-001, 2.45906585610646058471e-002, 6.27019050338982614212e-002, -1.19700579538147930392e-001, -1.28811968768239304417e-001, -1.97495165263263938726e-001, 7.49586491798539672482e-002, -2.03920351356674765808e-002, 1.62517505144711721377e-001, 1.61569481125129893462e-001, 4.25811264280962706308e-002, 7.61408574284147127154e-002, -1.47310187174330309290e-001, -1.71089957736724446180e-001, -2.33935733302499060393e-001, 1.31520583840098632955e-002, 3.34243312410498032150e-003, -6.66655543890060514611e-002, -8.03526460469705661183e-002, -7.61057756055178585841e-002, 2.33616953963491635893e-002, -2.41460008248670338071e-001, -1.72115804140804740108e-001, -2.63727738714133186360e-001, 1.03484252627248918266e-001, -7.55869656867405453893e-002, 1.69936936438207036003e-003, 5.75584655886203708230e-002, 4.64013042414765722321e-002, 5.63269357247544524836e-002, -1.18053661783569061039e-001, -1.66766747140407789463e-001, -2.80479544088023113879e-001, -4.49473010648538048861e-002, 4.44860508809865190516e-002, 1.08251445494516984613e-001, 1.48131520078246370353e-001, 6.05117877101007117790e-002, 3.38181354794488894799e-002, -4.28384935363631119687e-002, -2.12670893398633292781e-001, -1.20901986203411498932e-001, 7.09137602934312438752e-002, 1.14909026388858484524e-001, -6.85655911439345677749e-002, 7.23860433232462185948e-002, 9.99000843141071986908e-002, -4.33786537403022809389e-002, -2.66837749491086961839e-001, -1.70867916246307344208e-001, -7.72630627868733654839e-002, 3.23974926040677402295e-002, -3.47688628242651337832e-003, -1.55239973966891042778e-001, 8.61531566830149170277e-002, -1.19647154727071415581e-002, 1.61469945078719472054e-002, -1.96686036802200009399e-001, -1.55039217621335934094e-001, -2.22253292789253126260e-001, -3.32312476423903685463e-002, -1.08042339192633257694e-001, -2.84683373897105101991e-002, 9.09385299542207065082e-002, 1.02371377405325161836e-001, -1.39364934349503356154e-002, -2.49411380717580982713e-001, -1.00834185993142561033e-001, -1.76035847056808469890e-001, 8.50308287131424922478e-002, -4.67291748525610270426e-002, -5.07258650002344602115e-002, 6.18443432988669619665e-002, 4.52739957965785505545e-002, 1.00387977448339854591e-001, -2.28763134928930633727e-001, -1.22522843922407392858e-001, -3.05786471436428231030e-001, -7.98357792417545703012e-003, -7.00035326526142476222e-002, -6.90121198333464580532e-002, -6.00757003682152318502e-002, 1.18896153330085838085e-001, -2.84097392491776679080e-002, -1.85019925006163016290e-001, -2.23924289259775061156e-001, -1.81293774059163387280e-001, 3.69473714856393964379e-002, -6.43750398620306779618e-002, -7.51212041090950494171e-002, -6.59364252858644916966e-002, -3.51557781585871420571e-002, -1.86058738894426993829e-004, -2.00225399161176098595e-001, -2.54739750370801654178e-001, -1.58144905483510012090e-001, 1.30861961840760283177e-002, -3.62642779312466953523e-002, 9.63059607849952037384e-002, -4.30737670752516649264e-002, -5.28973170197922157310e-002, 4.86599806437564008643e-002, -2.48608022932778838232e-001, -2.30784055741932114802e-001, -9.38443062430424634890e-002, -1.90324953596035378878e-002, 6.20102823899590788193e-002, 1.37529521054111120160e-001, -3.11809083239928258591e-002, 1.09467926777916418901e-001, 6.77553810284811097731e-002, -8.93070162096087638570e-002, -3.13934317974178034305e-001, -2.13829177741264114809e-001, 6.34084788623728995427e-002, -5.47540005010460073542e-002, -1.30984030848223589882e-002, 4.72545463822588787672e-002, 2.68753707188076784718e-001, 2.08653195408741942707e-001, -2.45326106910063235222e-001, -2.48714984710552866609e-001, -1.49900980386570542580e-001, -6.65720517368076185327e-003, 9.71387189707757503498e-002, 2.44352631887471659355e-002, 1.94784678205842110010e-001, 1.11879920438683277961e-001, 8.84423583573443194972e-002, -2.98801502381551731258e-001, -1.49319673061401037018e-001, -3.14097542367146986830e-001, -5.28500541055258732381e-002, -1.06203615602108086824e-001, 1.35127167713788659542e-001, -4.27007232335136974188e-002, 9.72819439164127469644e-002, -8.86801132346650977656e-002, -2.75404709328526564605e-001, -7.80306101114203592983e-002, -2.65908424660242503901e-001, -4.94942802533261463904e-002, 1.15236108174189194608e-001, -3.61827581375677720388e-002, 6.16357643105556671226e-002, 8.81694893774118276797e-002, -2.42180738802959469314e-002, -1.68395283170723164545e-001, -2.98202703784528899700e-001, -1.29909616216578538417e-001, -6.05388498132277061425e-002, 1.81007416142279081717e-002, 4.79684207806910928307e-002, 1.13609983047386911559e-001, 1.04056734900118560971e-001, 5.31982325171054884483e-002, -1.59321470047387531155e-001, -1.36631070088749806413e-001, -1.30952329464328887099e-001, 6.17385917024822032662e-003, 2.20830900112916443667e-002, -1.00952248882300990585e-001, 8.86203161239696030060e-002, 9.06690511431662571340e-002, -8.65869139267691489970e-002, -1.49137442286779109413e-001, -2.15910624210946783252e-001, -2.20268426400346550853e-001, 3.95815747419712080091e-002, -9.83306659479485228870e-002, -6.82462430741340442264e-002, -1.07637138930494730138e-001, -9.42142452072659009055e-002, 1.14009426817738138138e-001, -2.50855166655510386509e-001, -1.70490152978668568773e-001, -8.10892322991004221855e-002, -6.21700121800099758662e-002, -6.79860152027912945094e-002, 1.00023788057358176129e-001, 5.46844581836181189982e-002, 1.52831255354908962518e-002, -1.81450907081209637794e-002, -2.14566066611492661798e-001, -1.70083484318873628949e-001, -3.08368609465462850672e-001, -7.99467384748555887075e-002, -1.22597391638332595121e-001, -1.17244736358112500163e-001, -7.63090794427731672345e-002, -1.03760772230846232134e-001, -1.34487341526661530189e-001, -2.23205034350216047212e-001, -1.40518407455769461789e-001, -2.59357968358311985480e-001, 6.11333196917579202445e-002, 2.47600543503051807870e-002, -9.27538010837426346589e-002, 6.04324581924269646493e-002, -8.57604607440941302254e-002, 4.81125281763666381996e-002, -2.05848249090003432293e-001, -1.21538040238402172966e-001, -9.12946008139676884463e-002, 7.92726983056276091055e-002, 1.16344609871237777976e-001, 5.00692931745188862802e-002, 1.37741577563610967383e-001, 1.12931910658673195780e-002, -4.56575953786128585499e-002, -7.64413193371612093019e-002, -1.14644697117230146000e-001, -1.89508101056752531477e-001, -1.01298627437047636390e-001, -1.33937338780062864529e-001, 5.20637432819353040969e-002, -9.76313034922712541519e-002, -4.32363870747841799735e-002, -8.69664114866939286230e-002, -1.57664343339296325608e-001, -2.29523774640363747990e-001, -1.93058943078909556190e-001, 4.18075082410529399318e-003, 4.54961897897648917533e-002, 1.95707758146307121694e-002, -7.93559115555270838671e-003, -2.34505888367464131183e-002, 1.75225018749142813501e-001, -2.68142730963227993168e-001, -2.32032061626793545406e-001, -6.18570541032603810061e-002, -7.37133121068623692329e-002, -3.98676649266740124045e-002, 8.06789502200140062893e-002, -8.74918271211533732368e-002, -2.09505429139117266280e-002, 4.61121244477991562571e-002, -2.96541065375725554354e-001, -2.58642793646379320904e-001, -2.47284832835888090941e-001, 4.83105078767819898222e-002, 1.68705627350478476467e-002, -4.30313049103050529465e-002, -1.58915665286686963453e-001, 3.00089503220010711537e-002, -7.64234289705435776430e-002, -1.29638596488684115782e-001, -8.53393461084409193917e-002, -1.60008297688011308368e-001, -1.12763985676155465560e-003, 7.18288192277007631059e-002, 1.31670057968373860335e-001, 1.28465739783711306587e-002, -8.39875560517939351302e-002, 1.15890789688107440081e-001, -1.86416698681449638508e-001, -2.01110391699334256632e-001, -2.33611107684041807708e-001, -6.07266390633790578701e-002, 1.55141534883700849684e-002, 1.24340141849733729074e-001, -4.34941152398814340208e-002, -6.39357306600149277731e-002, -5.86871961276238182648e-002, -1.90007778484389516782e-001, -8.91405864130694197689e-002, -1.98535942882198612747e-001, -9.06776299522641243689e-002, 1.34346904550245949128e-001, 9.19540335115318907544e-002, 2.47534423723533569817e-002, 5.30713664237657950506e-002, 1.15659470845911216408e-001, -2.33702245674144742926e-001, -1.85435693883497815238e-001, -1.27338489503675850179e-001, 9.64810857042374819814e-002, 8.43296356126527341113e-002, 1.41570813032338232995e-001, 1.48656381075945968895e-002, -8.49887239196228105875e-002, 6.64362259840432095581e-004, -1.03036301969927857058e-001, -2.85125664186084704088e-001, -2.38561838675854842595e-001, 3.52520506581686987602e-001, 7.05510519117368839481e-001, 8.49678404470140424820e-001, -3.21311930141062518373e-001, 7.50402613141556984466e-002, -3.13981605542567321354e-001, -1.28542910895703244023e-001, 1.43979485138401558375e-001, 2.54148182227276475675e-001, 7.51883326368086191138e-001, 6.41723583855765333794e-001, 4.81504159506613571562e-001, -1.19958064398494851366e-001, -4.32579570971590499084e-001, -4.52987407092927341079e-001, -5.41419449742069069931e-002, -1.92610409318494969766e-002, 6.48580509189299325712e-002, 6.41547575242577688970e-002, -2.80794677726931396489e-001, 5.13070350687785323163e-002, -2.64240684344008602835e-001, -3.94676626121055862395e-001, -3.39474266645579392243e-001, 3.39291925304483876769e-001, 4.61251569518210668974e-001, 5.27449721857025766170e-001, -3.45972272868166674797e-001, -2.13226753250982142829e-001, -4.72634559395811934546e-002, -4.32241683010167243584e-001, -4.04095052182766201199e-001, -4.26451212732471884870e-001, 2.83085059607418920713e-001, 2.35640911790789470137e-001, 4.84172129265500184037e-001, -7.07626333256128337013e-002, 2.28841535602120560444e-001, -9.85710330111602556213e-002, -5.96275118543942217464e-001, -3.81777766482950198235e-001, -4.07903524571900044648e-001, 4.11014468470366489683e-001, 2.16856278794427620449e-001, 2.60263435741610871244e-001, -1.15245653842453346649e-001, -2.07844836740095878502e-001, -1.85533584495448711227e-001, 4.31195832764661279857e-001, 2.50198866140811104763e-001, -4.11509810797381914149e-001, 2.29436136940608825796e-001, 3.00736343851803367144e-001, 2.46351295491709171293e-001, 3.02158063513507046949e-001, 4.93267357111741855391e-002, 4.58265810774534237959e-002, 3.17039423022032529342e-001, 2.32673437883218509059e-001, 1.59786922332393402368e-002, 3.28583563944480849806e-001, 2.98805967644364234292e-001, 2.58832296168187703245e-001, -8.28982971557592068779e-002, 1.32104053440088881066e-001, 2.88021717130070055435e-002, -3.63371700487424120762e-001, -1.46734397612381328724e-001, -6.29399938781660395204e-002, 2.63893315277807904984e-001, 5.40093071786332881712e-002, 4.82699157938906442400e-001, 4.49774159203241652438e-001, 2.37973060721034579412e-001, 1.62787959510932549179e-002, -2.03511062790001251432e-001, -3.96058657959164506224e-001, -7.62816594344382092885e-002, 7.57845658965884821923e-002, 2.00440136590002787598e-001, 1.10891434454034348844e-001, 1.36482255498949156536e-001, 2.40421362861347437390e-001, -1.33504860596211027968e-001, -6.11908453327678181211e-001, -7.09173320174939059157e-001, -5.79210089030851027481e-001, 2.05568710009049443466e-001, 1.91260447616179413144e-001, 4.53912055681481962921e-001, 1.23186483723733058993e-001, 2.67846461969838633976e-001, 4.85402670577214423453e-001, -1.32784825754587804125e-001, -7.19727677712783536768e-002, -2.78151625246075784315e-001, 3.19492999154524712213e-002, 1.23637770195998003553e-001, 1.21226433699571770064e-001, -2.91251029513717174524e-002, 1.33098149878511040622e-001, 2.66545726138362082391e-001, -2.73857588448003959336e-002, -3.19961907335971740274e-001, -2.87235694813050890239e-001, 5.30551530270671270473e-002, 2.11200756220504270999e-001, 1.50346262754434939479e-001, 1.58041911930186851354e-001, 2.59610963668855443398e-001, 1.82728060441906675626e-001, -1.47529019488014390138e-001, -2.85105999491687134295e-001, -2.21037589188047361999e-001, 1.97460322891394951528e-001, 4.01952188869044435560e-001, 4.98483659724875904917e-001, 1.67304740346048919086e-001, -3.95595303787255256345e-002, 7.38648267700724604073e-003, -9.14973831401698703414e-003, -3.16879998076355640091e-001, -3.10703558722708605977e-001, 2.01860232542960593705e-001, 1.86845010020615709401e-001, 1.00111622175049888583e-001, 2.58838512739037851507e-001, 2.68481125375114149101e-001, 3.33513703830264296446e-001, -3.67784758178969661824e-001, -2.72854367207065406919e-001, -6.85487773081881024417e-001, 1.17225418736296924105e-001, 2.00232939588589425872e-001, 3.07767391599104378486e-001, 3.87976602928046032659e-001, 6.06984048052200853007e-001, 3.96880575510594468813e-001, -1.10862175092135792354e-001, -3.01507272824044825210e-001, -3.22795745526563648831e-001, 3.69862394179226228186e-001, 2.06074371800098354868e-001, 1.50066462636542941045e-001, 2.60696212962269413538e-001, 3.12708053193948509740e-001, 3.60169699008589250244e-001, -1.80609654672595210112e-001, -3.64842184010767345281e-001, 1.47976252993638479616e-001, 2.82946272192811654200e-001, 7.08963093787560588721e-002, 4.73673129234967529855e-002, 4.17363323866505153692e-001, 5.71710978094018162921e-001, 2.92171699852222410687e-001, -1.94891754970314495798e-001, -5.09369408992371153211e-001, -3.46754451392967399936e-001, 1.85597157441211080275e-001, 3.73237521437941421887e-001, 5.13805273282923885558e-002, 4.60743757783826868302e-001, 1.98190824597001546969e-001, 1.00203947297941423078e-001, -6.42943404098468840324e-002, -1.80570160514718136557e-001, 1.42157130608225185098e-001, 1.74599578405940335235e-002, 1.52654378851210775769e-001, 2.87899021905783480957e-001, 1.20420585827995266226e-001, 2.50724282265461062558e-001, 2.99122229604227130029e-001, 8.21034535184567287880e-002, -7.31881162566402065917e-002, 1.24853459824152468460e-001, -9.58406992790770961843e-002, 1.83686456724707597443e-001, -1.22458690668244524202e-001, 1.70718544137623447210e-002, 4.28161415501988829035e-001, 2.07514874775269919649e-001, 6.81499076620134276033e-003, 2.12732686940981741142e-001, 2.00283554520208684213e-001, 7.95221076940839100011e-002, 2.10130029823451164317e-001, 2.83460209353055492265e-001, 2.31733839413565539944e-001, 2.59562493529169269202e-001, 3.04507725456099387351e-001, 2.07449287862011916284e-001, -3.81066482591823699200e-002, 3.21030729465692277191e-001, 1.44062160503377334475e-001, -6.41447856275230293699e-002, 2.07368499225638297512e-001, 1.95234096155206399148e-001, 4.40909479003659010576e-001, 4.78313455165563991556e-002, -2.93057680766221073654e-001, -4.45199110296444378054e-001, -1.70997416201568469551e-001, 3.06304643338209614534e-001, 2.12372841582484789269e-001, 3.58407322121679194904e-001, 2.24918162384704800605e-001, 1.88915060199495915549e-001, 3.49482881283107116310e-001, -7.13722397669016433985e-002, -3.41808154930097640722e-001, -3.78514735872373442316e-001, 1.65948786582024609970e-001, 3.05475054389916476916e-002, 2.04129147933118870739e-001, 2.19967849798657189009e-001, 6.09575271947062832800e-002, 1.01629563711098658274e-001, -8.00468627921583353313e-002, -3.88129841488828231100e-001, -5.09736331601695104310e-003, 5.38043880124689399835e-001, 6.21497548949637601545e-001, 2.05445474331566929616e-001, 4.73794632227249670753e-002, 3.03188317609809736275e-002, 9.00882549901522999836e-002, -1.05893471181990952990e-001, 4.66939725531029733996e-002, -1.09905962069007129278e-001, 8.78860718971461174487e-002, 1.40114565441632393794e-001, 2.10561631202704130361e-001, 9.38236632204329928930e-002, 1.23850178330254120929e-001, 7.20502173824196512353e-002, -1.99646339987889692713e-001, 6.64942797118532463729e-002, 1.52603731079701959716e-001, 1.45774490620515367878e-001, 2.86814068991494808269e-001, -9.56899927952407081122e-002, 2.18426112921861120819e-001, -2.91833059100656232177e-002, 2.17828726812814649216e-001, 2.27123973874194945433e-001, 8.17918993708812019916e-002, -4.32026509773694861183e-002, 1.50740450755335597677e-001, 2.11411512406878998593e-001, -2.48924516925506413012e-002, 2.74787183948860536109e-001, 2.53584766467340072538e-001, 1.37646215892138434889e-001, -6.81655483235486386873e-002, -2.74345235316599433961e-001, 1.34491638600189380992e-002, 4.98718672718512945341e-001, 4.67230116082573199154e-001, 5.93871562762576354899e-001, 1.88706973011659201456e-001, -1.53845324636227964721e-001, -5.26971996756362345837e-002, 1.73179348203977484522e-001, 1.56020043422681581324e-001, -9.04284693214108120651e-002, 2.43599079139483032375e-001, 1.80447799994426949510e-001, 7.31092422210035342012e-001, 5.12343728012373197944e-002, -3.39105592346543235904e-002, 1.53282053189840061780e-001, -1.18110134556763848868e-001, -7.72521940547000740551e-002, -2.38546796864468224619e-001, 3.55814569057591512102e-001, 2.85885037575768718998e-001, 3.35551422578811764375e-001, 4.01564043628634473326e-002, 4.82341193723975422691e-003, -1.70740476964109877400e-001, -1.41275441354909991887e-001, 3.95719979187039300195e-002, -8.28220315683480534652e-002, 3.32703139959861338149e-001, 2.29498350798433614628e-001, 4.22088440175324153270e-001, 4.72826628852409835968e-001, 2.90134686822245912996e-001, 5.00659918498446598889e-001, -6.39218546116022828807e-002, 9.26872475907822013230e-002, -3.89261095196559991916e-001, -3.08978595590137967986e-002, 5.72952194925593488728e-002, 1.12872163428730978851e-001, 3.45838844714535686986e-001, 3.31750357863260125768e-001, 3.55922778032188469322e-001, -1.66886123534812080837e-001, -8.37742915743607541312e-002, 3.32344174928310143180e-002, 1.15598562792800896304e-001, 1.88889438047905255935e-001, 1.22645118035131756029e-001, 2.34151651975920249704e-001, 3.60681633049069416685e-001, 1.34032969623262804282e-001, 1.60440880146605513445e-001, 5.03155146453406088014e-001, 3.91767490803427709256e-001, 1.21242727409271236483e-001, 2.74289839721372719072e-001, 1.52759950960283996668e-001, 7.35238634688794856498e-002, -5.92038011939930511329e-002, 1.81125263580588467816e-002, -4.42143620511982401999e-002, -2.40624816647734524055e-001, -1.02018177099368653749e-001, 2.60235526828454799553e-001, 9.76113570192433388506e-002, 2.42525106752480498762e-002, -9.74599124227388952102e-002, 1.09918900305340988544e-001, -6.66840729901209405828e-003, 3.92096292571394305915e-002, 1.20814015470944058350e-001, 3.33351548994482993482e-001, 3.59207692472980483211e-002, -2.14010481031993465839e-001, -1.32798263164647684098e-001, -2.28530470259486334639e-001, 6.86467451047084557814e-003, -1.07938554228569238980e-001, 8.12567431491745262306e-002, -2.49190093930058226279e-001, -1.18039781303385535316e-001, 6.37816734799687562463e-002, -1.04277534805952490360e-001, -3.97922462474158689094e-002, -1.06043924802555603049e-001, -1.25314456613448033107e-001, -2.50856395573791302045e-001, 4.86113335468895291225e-001, 9.82457466534692736015e-002, 3.19445202063193656183e-001, 6.53009487619357620325e-002, 1.03647697625428192314e-001, 3.11720994508508042475e-001, -2.25241049304142570975e-001, -3.59702055376600826619e-001, -3.46233992158855752308e-001, 4.57530200778109186199e-001, 4.88685976733254257010e-001, -9.43801789771767651871e-002, 1.20467785003075290862e-002, 1.15128509156785949208e-001, -4.73343806403501363156e-002, -1.76267117539132572857e-001, 8.30745266371041291009e-002, 1.46124480007145757243e-001, 1.81862110740353445648e-002, 3.74456050930763173490e-001, 4.03965771995952391271e-002, -2.90167029359959971480e-001, -1.02227817452269706400e-001, 7.05939609812266388733e-002, 1.42033699611785163563e-001, -5.64489328263594880575e-002, 1.58766824052851529547e-001, 1.01197932854871133074e-002, -2.08329901724422200671e-001, -1.79711267558285009427e-001, -2.13436245419504844190e-001, -4.56990268747371475300e-002, 5.69226891463121553727e-002, -3.60676946672440379427e-001, -3.81155623405333765508e-001, -2.72907071811084978030e-001, -3.84893868386287529848e-001, -2.19776246375651490572e-001, -2.93598991825141097944e-001, 2.88777046204420018150e-001, 1.58656242262949082056e-001, 2.81392992373871497769e-001, -3.83291833681541849188e-001, -3.80980886536697760381e-001, -3.20691168594716968787e-001, -1.63749866949745692679e-001, -2.58963885205259036759e-001, -2.03922518973952915378e-001, 1.12579844841697918056e-001, 1.01049552950941243235e-001, 1.59973369911187685011e-001, -5.37616439054700093192e-002, 9.98660062531311759626e-002, -3.51979947893142561255e-002, -2.04912436993876040381e-001, -2.50390658601711835196e-001, 8.27839125153325902651e-003, 1.49554455526427487744e-001, 5.96021476717626119690e-002, 4.26030186441685790322e-002, -2.77811559352293457881e-001, -4.22802405589014995702e-001, -2.23074707502349284249e-001, 1.50724726724402319222e-001, 1.68939355896755211139e-001, -2.96483181833945008687e-001, 3.92562993435151275090e-002, 1.11248990116318807742e-001, 1.38322511281537829930e-001, -1.80476912357435376189e-001, -2.40230455694223132834e-001, -2.99021971124832031119e-001, 2.38646900801864569885e-001, 9.49469625553772955673e-002, 1.10775749989892258185e-001, -9.28931597231596878350e-002, 5.61223532801734675823e-002, 2.12405722186861212197e-001, -3.59530619822852726131e-001, 2.23414243441517161581e-002, -1.10501310308379910308e-001, -2.30489413210659771503e-001, -2.12531584110415672217e-001, -2.89187736646941639940e-001, 1.15950065552340692010e-001, 3.52683574372844726996e-002, 3.38648616759219700523e-001, 5.43043256763341766757e-002, -1.11213986811674866995e-001, -9.13740531264908006914e-002, 8.25030573920297882751e-002, 7.22241290521128537216e-002, -6.30339024095763339472e-002, -1.47772007374905089971e-001, 8.60976221105945183076e-002, -1.36886244030771597746e-001, -4.57252214984915639207e-002, 2.64812232947242709447e-002, -1.84632748388261713757e-001, -3.66924265219772172131e-001, -3.17460910635305293415e-001, -1.25157466339193751415e-001, -6.46680696126458870454e-002, 1.57347059822629364856e-001, -1.00314829963538104662e-001, -8.36500161450795670648e-002, -1.26774355633355068074e-001, -2.14862513215979267223e-002, 1.69452014841623235276e-003, -6.47968050214412470689e-003, -1.65411895298897160256e-001, -1.23712927030577526932e-001, -2.38334804898436447562e-001, -8.59296351510458467082e-002, -9.85623176390177102579e-002, -1.86039616689381639980e-002, 5.98519329699146729329e-002, 1.00156698374913213923e-001, -7.39369699048050971202e-002, -2.59233468604269157165e-001, -1.94793544435914872670e-001, 7.16578145315129866333e-002, 1.11487444065668378501e-001, -1.15098436765759606915e-001, -1.55372058732424433991e-001, -6.04617354082716829122e-002, 1.93839054577769828724e-002, 1.28461835983222111279e-001, 1.30041350506008318577e-001, 7.02203515407741896137e-002, 4.75621290442909856744e-003, 2.91194143825080457855e-002, -2.04453824002715084385e-001, -1.34095882204568611629e-001, -2.75088048988063382794e-001, 1.70697048810905666061e-001, -9.28940894584921184052e-002, -5.41783706737607659298e-002, 1.95417324622793986411e-001, 2.21312551084904829413e-001, 7.49351789018040254087e-002, -2.24708525775201450880e-001, -1.68616475154435146999e-001, 1.52805204935029248503e-002, -2.27027172452772735278e-001, -6.00136994021237199504e-002, -3.12771322444275523544e-001, -1.16250163090465593457e-002, 4.99228142706137564821e-002, -2.01706710634420686989e-002, 1.36263813225817459474e-001, 3.11535647116928771094e-001, 5.40288670641990848020e-002, -6.52495394211016904729e-002, -5.27515114031300372255e-002, -1.83751509225336034925e-001, 1.14763253458255151673e-001, 1.58450791256489920134e-001, -8.84523686142290044288e-002, -1.08954769372969828556e-001, 1.44739867726532467351e-001, 7.63266998525983508816e-002, 4.26392606006157290355e-002, -1.71363642996356008164e-001, -6.41101116106731084426e-003, -9.87675972323664858044e-002, -9.46817871839591845839e-002, -9.06703386597654814594e-002, -2.57800141334827009887e-002, -4.08636091219349434356e-002, 6.15221029016422282787e-002, -6.27836333009706634711e-003, -3.06588360264598402960e-001, -5.69923552374006006649e-002, 1.36809807953947121240e-001, 2.68302257601535254494e-001, -9.15279414848395311832e-002, -1.88683936924479659508e-003, -3.28726500848934288790e-002, -1.03958257515991085024e-002, -6.20749409082331504717e-002, 5.26465633451853390334e-002, 1.09200265442741653588e-001, -3.48874535295088661346e-002, -2.59787503518333628971e-002, 2.54500485176885060667e-001, -2.69463694692449517998e-001, -1.37930028170858837155e-001, -1.34849074168166965793e-001, 2.74350831300223030329e-001, 1.79812153235406446683e-001, 1.69086933102330555512e-001, -7.21277189116963368676e-002, -3.54328536503273408553e-002, -1.56550472450711145034e-002, -1.50429153144909982798e-001, -9.86101378281234175471e-002, -2.24888520088117438434e-001, 1.89726899539853499643e-001, 3.34140813007282044822e-001, 2.76191845889799614255e-001, -7.23359508746697910109e-002, 1.52309593570572731486e-002, -6.48000353880776452931e-002, 1.54785354139021363862e-001, -6.57594122509275041955e-002, 5.93007156381156197433e-002, 3.64650561476981605047e-001, -3.64388932627138228959e-003, 1.78057512069475454286e-001, 1.86711517040122121358e-001, 8.45044829484178083856e-002, 1.04555380849632006957e-001, 2.37431077014550948046e-002, 1.14227008321698644822e-001, -6.06497511858471727297e-002, -2.01280789542098922928e-002, -1.93454217146595608412e-001, -9.31190273454160361011e-002, 1.99825985990318977237e-001, 1.22380358533020802692e-001, 1.92620340064856343520e-001, -1.86923111847412143360e-001, -2.63318309498383584799e-001, 1.89596430135885951618e-001, 7.26461054184006638224e-002, -2.09823607884481122543e-001, -4.22331846112079467570e-001, 2.82833185512449125643e-002, -1.95619752281265768534e-001, -6.15156834309118286108e-002, -1.02121161534164617279e-001, -1.70978252954387927032e-001, -1.00648704267751978869e-001, 1.24681520091587519361e-001, -2.49076426210224549651e-001, -1.13660866676516203455e-001, 3.26187704413479051535e-001, 1.12323032516973578265e-001, 1.79890580045641568230e-001, -3.60040834154344457918e-001, -2.54684798972602599587e-001, -3.63327632082953599912e-001, -8.52932927846809102457e-002, -2.20688087806639766930e-002, -1.76051487830623354380e-001, -1.02118822785293023037e-001, 1.48607467035434693409e-002, -4.04917276915181048591e-002, -2.26973630703486251026e-001, -1.15201208466149909726e-001, -1.17388017967090335647e-001, -3.90548634003679354110e-002, -3.77178562113853615978e-002, 1.32078425762687717837e-001, -3.96904393165769669993e-002, 5.13367432306168006151e-002, -1.02500915124903377307e-001, -6.64604848604888470698e-002, -5.05882001269343864469e-002, 8.63355825369130081004e-002, 2.31220485694370453400e-001, -2.47517473265971184315e-002, 1.64588452298799509110e-001, -3.64246518728231008510e-002, 2.68662568466605800044e-002, -4.64785135903267865309e-002, -1.41220369211440821555e-001, -1.40023409140924065541e-001, -1.40025512486419673186e-001, 7.06627470263105628145e-002, -2.51364846710688649711e-001, 1.54453791880468649378e-001, 1.83993047432957773646e-001, 1.72530755748915326508e-001, 7.22342721577106522401e-002, -3.22010085260996503642e-001, -2.71977747986953899417e-001, -3.37965879280589243105e-001, -1.93919406568200364260e-001, 1.31951238257533381981e-001, 5.68150077434885283911e-002, 5.81642461329868742936e-002, 5.41513964937365005481e-002, 2.69683855811720163409e-001, -2.07729446234978715191e-001, -1.60281436906712676516e-001, -1.41446580246918141022e-001, 6.34638405387123218093e-003, -2.13853226196617472732e-002, -2.05300045263423686093e-001, 8.60397672717757300287e-002, 1.55860889292517734717e-001, 7.42867933471118152555e-002, -2.47807115131293359545e-001, -3.41691126839268943804e-001, -2.96168644493573329779e-001, 7.74732335080789008552e-002, -4.36373734566581142347e-003, -4.24952451093208796729e-002, 2.11002513662051527366e-001, 1.72989605152782638386e-001, 3.31026719063124974518e-001, 1.75776259327817985234e-001, -1.10865428800511353624e-001, 8.13990196956706907327e-002, -1.67739708761276945514e-001, -6.43914809432649531962e-002, -4.03508660247172579183e-001, 1.63141073570623948430e-002, 1.09201625106052732650e-001, -5.29388188539050980053e-002, -1.96541999358897351291e-001, 4.56586751305688154368e-002, -1.22619019596386769066e-001, 1.48898802703035681994e-001, 6.87066439926979632968e-002, 1.74056831573298820270e-001, 5.74225563721633344705e-003, 9.62691446497433017671e-002, 5.30697057934139265756e-002, -1.87875242787431617764e-001, -1.98612023111824381738e-001, -1.57697307723578039607e-001, 7.83964389469204991912e-002, 2.67063171614077554672e-001, 2.94350007415906722574e-001, -1.76200415489980305450e-001, -4.92282208554293415625e-002, -9.15105771367583642473e-002, -2.44635361037341209078e-001, -4.08856292357754280697e-001, -5.95861789126789567761e-002, -1.90610369498334014660e-001, -1.79043369185703321600e-001, -1.10571208110276236747e-001, 4.89408348276459473358e-002, 1.68306481577879668565e-001, -1.52751432749408166956e-001, -9.47534229150842066680e-002, -4.79389408169575981233e-002, -5.41276256040701259087e-002, -6.92130343762867999979e-002, 7.78571399663075258690e-002, 2.23552946060096208170e-001, -1.79586075998638572404e-001, -3.16126761238366638107e-001, -4.07660766613375802336e-001, -3.69929820343275317374e-001, -4.54520032873409959850e-002, -4.68170878453016622855e-002, -3.10953259079173177648e-002, -1.29406585887803154966e-001, -6.80985987354573302222e-002, -2.66669504742456875412e-001, -1.86692863128301023146e-001, 4.81941272559949923648e-002, -1.92336502738667758372e-001, -2.88883652549703218160e-001, -3.63315914751471180644e-001, 4.32865910470928261233e-001, 9.50662749739574902685e-002, 1.03227858030377525611e-001, 1.07525684570532506501e-001, 8.55955356949476553474e-002, 1.90230924247982824404e-001, -2.68145843533526051505e-001, -4.65560052997617990211e-001, -6.76553421991145653713e-001, 1.37918640725518376611e-001, 3.77896904091070351406e-001, -6.65596274342547533642e-002, 5.86848973408519020145e-002, 1.15760303922199908611e-001, 1.83999285453267207024e-002, 7.25000423864404497376e-002, 2.77107489997335088017e-001, 1.59676434932525396215e-002, -1.60949115502508136033e-002, 8.76240298093337033336e-001, 2.03338468755618867467e-001, -2.38786311554913532884e-001, -2.89988722892940586906e-001, -2.27448062955997537538e-001, 2.85854480070012011150e-003, -1.02644463537711838619e-001, 1.37436518337634761000e-001, -1.20312508515015403887e-001, -1.93571938995948183981e-001, -1.92503406829216475171e-002, -9.28593179251169520416e-002, -4.90887167971127025279e-001, -1.46452432321319159225e-001, -3.26376070831375209025e-001, -1.24192763175199213932e-001, -3.41132703118487368155e-001, -1.64735325955307321255e-001, -1.50880227025209617819e-001, -4.66838965299372285478e-002, -5.59719315664778116481e-002, -8.92893152665217015862e-002, 8.27551404117304045815e-002, -2.89291230502139840031e-001, -2.20900004715535086541e-001, 2.13226785192571002825e-002, 9.03959716453633099764e-002, -2.43659998941511662940e-001, 1.84364661131409673933e-002, 2.85402877635436251491e-002, -9.03711627348114249214e-002, 1.49199098988407885535e-001, -3.94327840469681778490e-001, -1.44002901432130736570e-001, -2.16235606440058514277e-001, 1.53719339278919925329e-001, 2.98134466326724301144e-001, 6.33337784406926423975e-002, -2.98983395058440348802e-001, -5.39278019855019483120e-002, -2.52409143590771323229e-001, -2.63510587273088070503e-001, -1.82956075669062606659e-001, -1.72853884631110038539e-001, 2.61306998112322330652e-001, 2.31785415057836896580e-001, 2.24571634127625374688e-001, 2.12213711012580630300e-001, 4.32959992647376848418e-002, 1.88286474655223606822e-001, -6.22042662491603948194e-002, -1.07740600113566911689e-001, -1.40332025981999536368e-001, 3.79402237095382066645e-001, 2.52592805613943816034e-001, 5.60151667057863678068e-001, 7.57588877158077711460e-002, -2.06861027816425402381e-002, 5.12586629130397583576e-002, -7.33169246554793568871e-002, 1.90099804605025485271e-001, 2.95624554317043541918e-002, -1.05612857639942520072e-001, 3.18164611579399514429e-001, -1.50281355903456731449e-001, 1.51451950683963720845e-001, 8.29485552858452018787e-002, -1.56833230080037416485e-003, 1.82949814616104988740e-001, -6.82649100738118158604e-002, -3.22262221788047129034e-002, -6.15073829447131265047e-002, 2.76595143095458018134e-001, -1.89992232327872781483e-002, -1.94265127161744155515e-001, -1.17806164789808223703e-001, 4.83966697523212918686e-002, -1.80179330118931085858e-001, 1.45359442243392783523e-001, -4.07021385560727907982e-003, -2.87969576192176723861e-001, -3.59557907021537004333e-001, -4.92069328573361344792e-002, -5.85731104355791953875e-002, -7.20092829608454665369e-002, -1.28789889515625005645e-001, 2.61411696023215844864e-001, 1.59714345479896879798e-001, 2.81158005944393274422e-001, 1.44361898963160040221e-001, 2.60277353890996987484e-001, 2.50701885538913094020e-001, 3.30749094010208632977e-001, 9.74049737338882754001e-002, 3.35486489085804029386e-001, -4.31712637731893611459e-002, 6.13916477461564705220e-002, 6.81076527617112265078e-002, 2.55085353099114064968e-001, 1.15197963830973845734e-001, 5.54118309667334316138e-002, -5.32462092528401265135e-002, -5.35412074902570228607e-002, -1.27504249897259863689e-001, 3.73837839651241787831e-002, 1.22730675582644693788e-001, 2.08831464034005015451e-001, 3.05481053580590411478e-001, 3.40033817880231681308e-001, 2.80035851546953318270e-001, 1.29701002171712542754e-001, 2.35100520139816457355e-002, 1.24024600132374603068e-002, -1.43754902358410562024e-002, 5.68909072857805495071e-002, 7.60112077888779602564e-002, 1.50119328049741262987e-001, -1.74129344146649961411e-001, -2.80615660728368354615e-001, 1.31394039299204595794e-001, 1.31576694493822261844e-002, -4.99590214609872407259e-002, 1.44637932498559329542e-001, 1.10226810740172126435e-001, 6.57110070623889153119e-002, 3.83107606096180254573e-003, -4.16157758938385524683e-002, -2.17796240354072578871e-001, -5.01561250734114047467e-002, 6.05653379715626744018e-002, 1.17274980443612245051e-001, 1.31407947765329324863e-001, 3.12917002216181738827e-001, 1.86962081868758234204e-001, 1.62663978165499406581e-001, 1.98199392594181567073e-001, 1.28256258706674730607e-001, 1.98294022953897364214e-001, 1.45815116571908709453e-001, 2.42667408261741823772e-001, 1.69161418810457458983e-001, 1.20486503237532072141e-001, 2.79215530053097849006e-001, -1.22252018479016080765e-001, -2.97116407017717520933e-001, -1.10149756184336963805e-001, -8.20772149835799630369e-002, 9.93845663834728859642e-002, 3.12278212515624577217e-002, 6.07978035002398539688e-002, 9.54940136907864445259e-002, 1.37875265888776743495e-001, -2.55772404849072432231e-001, -2.97389241825230798977e-001, -1.14208728225734953976e-001, 1.89713214455508150103e-001, 2.34812303100481706286e-001, 4.53447527497529492835e-002, 1.33958110095532600958e-001, 2.21757982648362578226e-001, -1.15066692353275837335e-001, -1.26850863768909249973e-001, -3.70748793765260764577e-001, 9.86489007622128183383e-002, 1.44284539870328076816e-001, -6.59691259669284574274e-002, 1.21356178273140741242e-001, 7.38202198020831562575e-002, 8.14264830543433709709e-002, -2.29797894419002335376e-001, 3.57628997573023577061e-001, 3.58525034750229565361e-001, 1.99580050918995416387e-001, 3.01929910762161503313e-002, -1.23014234576617184636e-001, 2.45566862642563679686e-002, 1.90461591987643868995e-001, 1.94084546753132053398e-001, 3.68093398866143686754e-002, 2.83647679809559516428e-001, 4.71518853047835417858e-001, 4.98462634179388131006e-001, 4.60019130944901710745e-002, 3.68404998264365846072e-002, -5.16347288255601111207e-002, 3.17936075483171487477e-001, 1.39569399266429333695e-001, 3.24784498230025059362e-002, 2.95667296074476670942e-001, -7.07066886857132120836e-002, 2.19735501362332802389e-001, -4.07096155281484670119e-002, 1.08066824355749352415e-001, 1.72795921470674768150e-001, -6.88117135979467598600e-003, 2.95107735199475695875e-001, 6.05941967718000504273e-002, -8.55869313686556838772e-003, -3.16320995615920086408e-001, -4.37407903028268207901e-003, 9.34535141003227376455e-002, 1.50277384350078185155e-002, 4.13108766309543129491e-002, 1.47171296918732624759e-001, 9.45210210611307360962e-002, -3.21449624480038345653e-002, -2.30399869683150550215e-002, -3.63104472997145488744e-001, -4.40798884061236906362e-001, 1.89992176843916643625e-001, 2.48966078012802655151e-002, 8.26785968372774071611e-002, 2.59074754236775173233e-001, -1.14210724650378639411e-001, 2.27614051521929067201e-001, 1.91051206158443953598e-001, -5.87460737939608512725e-002, 3.67148904657966401732e-001, 1.58828219175808083019e-002, 2.75225286317210882103e-001, -8.80176659101304936783e-002, 1.44337601420613470538e-001, -2.91145721347676432467e-002, -1.43856061574495652788e-001, 5.90902196559876802251e-002, 6.62336396967379628653e-003, -1.57259317153776223552e-001, -8.58483377666015706753e-002, -1.58748441674063212048e-001, 1.25471444553677230482e-001, 1.37774925739314237777e-002, -1.48865910536543716303e-001, -2.29287111728751769046e-001, -1.50667393661033637703e-002, -2.86681608616255051425e-002, 9.80123216008539077659e-002, 8.79910925557109147022e-002, 1.82032023403954551499e-001, -3.04687037320802989182e-001, -1.78210479291786350053e-001, -9.40918306304208557078e-002, 1.28337846663899829425e-001, 3.43543467263431878678e-001, 6.65109130476782883790e-001, 4.17252436788003777668e-001, -2.52701219349517900228e-003, -5.92626813260985554899e-002, -1.66769702135036390622e-001, -1.34227227088406481093e-001, -1.94576718203267606810e-001, -1.00273719174529277187e-001, -1.28401376427377898054e-002, -9.42405800565969675731e-002, 3.37574676536151696560e-001, 9.83014236590812676142e-003, 2.08979253893703559308e-001, 1.28484873286799056169e-001, 1.15886566415413658215e-001, -6.97538344625951104577e-003, 2.66634735285586788045e-001, 1.61553047767278967761e-001, 1.44437825117085024557e-002, 5.98107309134825182451e-003, 6.82374224482960173299e-002, -3.26980676387555943552e-002, 2.62126201124717461699e-001, -8.27227995348932959585e-002, -8.98489368884416161887e-002, -2.09700884287013195051e-001, 2.15255956118528046783e-001, 6.18254366317008627330e-002, -1.42405287545772890612e-001, -8.20028139964923963312e-002, 2.13660874561691499496e-001, -1.02675611254535281702e-001, 8.93131878566580904300e-003, -1.19789846425821341902e-001, -2.73771623412724596225e-001, 2.39710410536818352423e-002, 7.28232436692142631740e-002, -3.04829643702564448415e-002, -1.26407085981342925951e-001, -1.91635089202712965983e-001, -1.21203023124152750589e-001, 1.06175222004283975608e-001, -4.15459162638135356960e-002, 1.90984764402879231282e-001, 1.22457566903523037971e-001, 2.19762280171970719733e-001, -2.82757514282360178370e-001, -6.76183844351445351162e-002, 1.03266858513470657921e-001, 2.03727194090136676241e-002, 7.48054462256938362819e-002, 2.87387854005030862758e-001, 2.38929966437156998671e-001, 3.30710394467555290898e-001, 2.40135149365066941085e-001, 2.42149837711997467649e-001, 8.73169581085622564798e-002, 5.87213287823451848824e-002, 1.39410671547189557451e-001, -9.39570542567623873120e-002, 1.28380682930404194098e-001, -1.27209508797669262892e-001, 3.91361312821254636596e-001, 3.09505714343419280343e-001, 3.43601654862788041811e-001, -4.82758019040650382392e-002, -2.52816964200547500408e-001, -2.45753083428834562252e-001, -2.58682846058227222663e-001, -1.78069558665053973012e-001, -2.06224513625965832908e-001, -1.05740807912580184191e-001, 2.18247755662467401994e-001, 5.59009166021808834302e-002, -1.82362518640467125008e-001, -1.33204170692730133885e-001, -1.62799897481039429481e-001, 1.14721254713235895628e-001, 1.83465798393779647157e-002, -4.82372421795959696600e-002, 2.63013038934374554501e-001, 1.08125001320585320541e-001, 2.53028431925320373974e-001, -2.05748570357080273752e-001, -4.00363583141720658087e-001, -6.06812473977467625730e-001, -1.74345251612979673661e-001, -3.63375026939908585266e-001, 3.24134302978536376072e-002, 1.43581361239559557319e-001, 5.71241907697891057594e-002, 1.17957925000186161779e-001, -2.70140940978135901673e-001, -4.63881869469526253447e-001, -3.27659591923246118483e-001, -2.22198340609973288284e-001, -4.29251651809472944965e-001, -2.07990060735639109568e-001, 1.34670181189213422623e-001, 1.66094649584798970121e-001, 1.73223460989451016889e-001, -1.17092783257781704598e-001, -3.58795248690438536854e-002, -7.44829503587626506889e-002, -2.76099394405139642039e-001, -4.43816689906482320094e-001, -4.52254564587038665469e-001, 3.26365089882245551500e-001, 3.73655311987447280586e-001, -1.64878807151400325059e-001, -3.17828192270074652570e-002, 1.09755363816773823804e-001, 3.88091583750453314461e-002, -5.60490546862054267452e-002, -1.63615348305753804947e-001, -4.19759969352331147041e-002, 8.29474674120813104672e-002, -1.83993288049687647723e-001, -3.28458384185877846906e-002, -2.58383064736444068021e-002, -4.97181411458892039135e-002, -2.61009450025882321078e-002, -1.69775724547688550148e-001, -3.42436994184550716480e-002, -4.45990885727871357036e-003, 7.36144799168152175195e-003, 1.76817418140876508881e-001, 1.29664113361855959372e-001, 1.12475576930658682784e-001, 9.33218360007597308448e-002, -4.60235013878269871856e-002, -1.43427957350088820798e-002, 5.82981333041417623675e-002, 1.03103739186665849248e-001, 1.77611749643707073076e-001, 7.22992413133741879117e-003, 1.32664389359825413139e-001, 8.65905217730915666152e-002, -3.77130297981137507790e-003, 2.11314962400268646636e-001, 4.01628455880596660355e-002, 9.57497098764272525084e-002, 2.99923731624894066017e-002, 1.63610295145870388023e-001, 2.09534817835240472217e-001, 1.23274665154851928439e-001, -8.70950423168439721855e-003, -4.44067110180388913143e-002, 1.20236442355994899156e-001, 1.53881028203353753536e-001, -6.19023160725299670393e-002, -1.16851199361060979071e-002, 2.86173353993051327038e-001, 2.15901243133210324343e-001, 1.41874086059050608100e-001, 4.59357869559168519036e-002, -2.37989080512389927780e-002, 1.33282688352190648029e-001, -2.57726532085384429926e-002, 1.64778688731092332054e-001, 1.69473094544303932996e-002, -1.70753744347970720652e-001, -1.03769082284842287245e-001, 1.97818883369160286589e-001, 1.02442296516887087349e-002, -1.37677510986374873614e-001, -5.16805004574536208661e-002, -1.34116105326120449437e-001, -1.32827106365459218784e-001, -9.09363202337259701746e-002, -2.54882275759735835163e-002, 6.86710627587111266390e-002, -1.13365483678262851663e-001, -1.71396355858482313250e-001, -5.19829616165077938728e-003, -7.10826464789140327616e-002, 3.56180752944161710394e-002, -6.76774453607166259772e-002, -6.67071849118142240487e-002, 2.94967430858649570791e-001, 2.10814996536979855704e-003, 1.08930824209287457904e-001, -7.83443424755302375573e-002, -2.39072587070585053023e-003, -2.96730758192336879775e-002, -1.50715692617052116065e-001, -1.26896481118212128662e-003, -1.34294736557777988351e-001, 2.04213263074975975853e-001, 8.78250330070452778219e-003, 1.20391664563305342273e-001, 6.30639419064133871506e-002, 1.06719809161760284533e-001, 1.60511918045694312873e-002, -4.61574739267824121769e-002, -4.96317075912425936801e-002, 1.48398191467198105331e-002, 1.34000320034143582948e-001, 1.07684289697833876498e-001, 9.82538865856162763057e-002, 2.99352857092361757108e-002, -4.81262567833066270961e-002, -1.43409726229734579839e-002, -6.55081142691771312059e-002, -3.68609948904316227572e-003, -2.66871232713803530068e-001, 5.30458339837382095161e-002, 1.72649869656997696776e-002, 6.95030518154414050924e-002, -3.04344767565669221954e-002, 1.15728987384718207121e-001, 8.06111591208234501416e-002, -1.96541811359869679487e-002, -1.57002382780757732128e-001, -2.30730964046222571107e-002, 1.19519698895229661839e-001, 2.71821291819997090666e-001, 1.24073533466078203547e-001, 1.07134527422033526411e-001, 1.16389075298595046082e-001, 7.11966866337388204489e-002, -4.19674423207676977610e-003, -6.82968288930284883609e-002, -1.08731315471789449778e-001, 7.91365586496429046504e-002, 1.87181668884885098192e-002, -3.03831299093143096524e-002, 3.23431825170526158347e-003, 1.99793714140271520818e-002, -1.40635634796564337745e-002, -1.70959632949140100111e-001, -8.74578235881425247733e-002, 9.10863598699964555072e-003, -3.99784108726876086237e-002, 7.73574806023191313686e-002, 1.88738574681180631964e-001, -2.34937036910482094365e-002, 6.23275062931850989956e-002, 5.58751984182801059164e-002, -1.44133024314609331853e-003, 2.88510576609439300597e-004, -2.02560820275852204730e-001, 1.29808607210654403108e-001, 9.19121894854634940986e-002, 1.53606768362679640960e-001, 4.53663812245064176909e-002, 8.92478422616993505301e-002, -1.01863697305218076083e-001, -2.18027459592923411602e-001, -1.05337269197121288777e-001, -2.35373423809216886227e-001, 1.42295386242742266658e-001, 2.00734665856782124038e-001, 1.62916121884211728688e-001, -1.87924083836200933595e-001, -6.49522227420437497925e-002, -7.14665192754476708004e-002, -1.70078057619400591083e-001, -1.91960271495056969404e-002, -8.00269929130456025845e-002, 2.99327044916827322840e-001, 2.15821768371401490061e-001, 9.64488307357961316413e-002, 8.14426682445703806201e-003, 4.26008998984437267654e-002, -8.82640842566230210409e-002, -9.72213069339636498656e-002, -9.41793171965056297168e-002, -2.29132719716367255769e-001, 1.40368171893206244993e-001, 2.51238535365749415806e-001, 2.32328698242879494451e-001, -8.47420147831420278450e-002, -6.20960320977087393279e-002, -7.88187118000943653939e-002, 4.36491871274515691459e-002, -3.13547495567456126209e-003, -5.96930545345951760194e-002, -8.89340002107873728310e-002, 9.50174580797842616153e-003, 1.36961154922356553865e-001, 9.01234388654495871540e-002, -3.39198813100393195552e-002, -1.08276394484309396171e-001, 8.52000363172905270104e-004, 8.33012039928731351512e-002, -6.06150743708165906654e-002, 8.36377483774845414954e-002, 9.86490123963708054333e-002, 2.27277564014136713999e-002, 1.59839170496705240340e-003, 2.51523718270396830221e-002, 3.74683890494779681113e-002, 9.14759583291124001025e-002, -3.13079947348484646449e-003, -7.50014113912188251643e-002, -3.95886660147720254033e-002, 1.07700262453278906329e-003, 9.12775200365050637386e-002, -2.44191020564940783344e-002, 3.77675043332945173380e-002, 1.25384349048952042915e-001, -1.30510790922156255656e-001, -9.26776716947537299029e-002, -4.05970499257108652369e-002, 2.49067765385602296613e-001, 1.91443455284571295572e-001, 2.03149942673380490277e-001, -1.08240854088485605189e-001, 6.03219848248564630144e-002, -6.59892049878261499618e-002, -6.26186588817673472906e-002, -4.56725916302605297603e-002, 1.83504488940587386081e-002, 1.00454550529136932280e-001, 2.69721176892665226443e-001, 1.33092338729399156660e-001, -6.17935092545188469071e-002, -6.53861611465534620091e-002, -1.57918214236968695863e-001, -1.65935987362777120913e-001, -3.58585860108047091432e-002, -7.61922696218951672753e-002, 1.77262183844176191005e-001, 2.42999432932685444086e-001, 1.61038275100767153125e-001, -1.44783969999471212597e-001, -7.39828482267101822378e-002, -8.61462122431947280310e-002, -3.04903269662772334614e-002, 2.81602724425676180509e-002, -1.65471693009810044694e-001, 1.33200293334451186356e-001, 1.98658416373199309124e-001, 2.54623840212802876604e-001, -1.11838854048143615527e-001, -2.26934001845489619065e-001, -1.18269958296031124645e-001, -1.39643324074768065968e-001, -1.30193112610828609643e-001, -3.87308059940434587509e-002, 8.20489519045531773278e-002, 1.92105145045052244646e-001, 3.55116011920747987052e-001, 8.98273188723391902144e-002, 4.43711940657803352583e-002, -1.04738511204265374865e-001, -7.48247921060961156126e-003, -5.15839285784085582742e-002, -1.43879496341173251928e-001, 1.97960384383056159363e-001, 8.39157058543199031730e-003, 2.85796021974847672120e-002, 4.15836307281448325224e-002, -5.63874037304985253893e-002, 9.86388328529837210557e-002, -3.57369319094097631986e-003, 2.63265736838774327966e-002, -1.37241002664045180781e-001, -6.79188303958366684787e-002, 1.75364650024640494896e-001, 1.31615624366338113127e-001, 3.59906348400123726750e-002, -2.02927705675377295647e-001, -4.45687656041641247495e-002, -9.95506078856088771900e-002, 2.97771628073564397637e-003, 1.76258734358248556062e-002, 7.40654527942276735830e-002, 1.62932796069675450701e-001, 1.02530813595965067386e-001, -1.33936680472376085094e-001, -1.50508914246829633710e-001, -1.73013680855727935981e-001, -1.62337893843228081581e-001, -3.35248940222493407859e-002, -1.48901813388707920938e-001, 2.02203822965144580648e-001, 5.26680096057186575287e-002, 2.21055451897366500580e-001, -1.67686424290377583679e-001, 5.25383260433598744954e-003, -3.09692733015835441890e-001, -8.95286191670666003928e-002, 3.40975468358830219318e-002, 2.11460043826346422158e-002, 1.98313313736080631955e-001, 2.46784715492165129813e-001, 1.80510499780220962096e-001, -9.81546416284923839424e-002, -6.73136843439351290064e-002, 6.98807357777132542864e-002, -1.15999603261290551437e-001, 2.76443403373169693804e-002, -2.04347933572950925252e-002, 1.50524917532982194235e-001, 1.97413276495180062264e-001, 1.64789277352579921487e-001, 1.45138466262637894771e-002, 7.84322920690415370526e-002, 1.64282928097763125663e-002, -6.43687736060934850846e-002, -1.01180373456774788665e-001, -5.00560719910075335726e-002, 2.30017307361169848212e-002, 3.02836313738230854253e-002, 2.13895081868989783702e-001, -3.04660818671398034296e-002, 1.01621273512390794536e-001, -1.05260521020782739365e-002, -1.22742120665354281783e-001, -1.56126047645042648204e-001, 4.10750678036863534071e-002, 1.84879606274713920167e-001, 7.74518467070334781788e-002, 1.40159224761107814583e-001, -4.79311583822722517972e-003, -1.12666773667782965651e-001, -1.14326167172311504716e-001, 1.70625159073121319964e-002, -2.36507284532590400516e-001, -1.09345587864353444019e-001, 2.00165779325932102761e-001, 5.58278384299140395530e-002, 3.32402904341633290142e-002, 3.66151165608143286390e-002, 2.07894718705878937814e-002, 1.42701712034588229505e-001, 8.38442022371392869928e-002, -2.29733042343347217129e-002, -1.04423932934038024567e-001, 1.79385517409162281721e-001, 2.34870581990818588780e-001, 1.76861222104129522936e-001, 1.94267566835439275952e-001, -9.67605674181426650415e-002, 5.96395619984791056090e-002, -2.02465200959651675516e-001, -8.36121682938081728365e-002, -5.84387455512607109642e-002, -2.56827294481559824380e-002, 1.64871102234481564652e-001, 1.22500138272206883505e-002, 8.85454094210491454708e-002, 1.87580837024969582227e-001, 1.77862056555787295675e-001, 2.74899074269191467934e-002, 8.81658273323959913725e-003, -1.33983712009007854826e-001, 1.76485938232003591875e-001, 1.02895685300000885865e-001, 1.30969108070194475979e-002, 1.04119774796049474608e-001, 1.24155638971999906367e-002, 2.67071303023101030982e-002, -6.69818756199751369484e-002, 1.22805506964509328349e-001, -5.29259218550315810314e-002, 3.84782550192823077917e-002, 2.15583134072584281515e-001, -2.23275730394976220511e-003, -1.29577461994476395013e-001, -6.35011801433119638105e-002, -3.84410963217015413940e-002, 2.22360569622427305114e-002, -6.57219232888636532841e-003, 2.49627774219345954787e-001, 1.28443919030272218906e-001, 1.24213104048058728401e-001, 2.51578842135955382808e-001, -1.57773157453987789012e-001, -1.86656476537644389069e-001, -5.08816683599340249811e-002, 1.38565462182625886989e-001, 4.27610665716803450831e-001, 5.78382692479764370930e-001, 2.19739691769021000534e-002, -2.81265854465287290509e-001, -2.30325548609299594893e-002, -1.78920257760539880287e-001, 1.66878191438964734727e-001, 3.42329098515563146066e-001, 5.22666383699778136496e-001, 4.29220178616060266119e-001, 4.50125312184888770606e-001, 3.96259747973596809789e-001, 1.59517227597979399656e-001, -2.03035481124701350231e-001, 3.06786528043457018544e-002, 3.77719155126388428378e-001, 2.77906655350046605246e-001, 3.78216072539698078270e-001, 9.18209318568247168102e-003, 3.22318635068330638926e-001, -1.17303522692405418071e-001, -7.96089862522412067269e-002, -1.12210767824320239994e-001, 6.08088370493519381199e-001, 7.87447686003009295064e-001, 3.94977858589152297508e-001, 1.15901427856841699598e-002, 7.10905548093913736141e-002, -1.06728053296972547059e-001, -1.22220756046189607535e-001, -4.30316865257771713482e-004, -1.47628839845568404776e-001, 2.87504048657262534228e-001, 3.77861723822628003955e-001, 4.22437013355202117815e-001, 3.46112558767231293100e-001, 4.33655112077372728585e-001, 1.63931208437908988718e-002, -2.47381585478250148880e-001, -3.72438993628896319876e-001, -1.59756258937276268695e-001, 7.16978112103002218625e-001, 1.10713768329030556870e-001, 3.44961937265006957087e-001, 2.86487584711343168387e-001, 8.57897478167330418408e-002, 1.18675897331802893131e-001, 3.06005491773767790420e-001, 1.47975236825647532557e-001, -2.26104617954615311204e-001, -2.10713545103416062532e-002, 1.02927884203711267341e-001, 1.47895311723288319650e-001, 1.73044317870258090863e-001, 1.33771104425113335212e-001, -1.76145520404033278927e-001, 4.34236039726549283291e-001, 1.77761826876686845900e-001, 7.74476150845699318204e-002, 7.39064767638200753597e-002, 8.92302159094079810897e-002, 2.16741115807047052266e-001, 1.13520135905920666053e-001, 1.90365211418123708720e-001, 1.81399971817947036623e-001, -1.12200983251682775976e-001, -1.04304115191792862172e-001, 1.01308777895648932654e-001, 2.59005942677726808121e-001, 4.16964913424947014597e-002, 3.30247912002138932497e-001, 3.30430360926458110971e-001, 2.53739499197675189013e-001, 3.21408258015350029035e-002, 2.47990460783389043975e-001, -1.32347265361571597708e-001, -3.42787047784128967587e-002, 1.89456089966591162410e-001, 2.45545225945829059810e-001, 1.71742521469717052129e-001, -5.06521119020013066425e-002, -1.93548253584960847952e-003, -9.95116900267850740258e-002, -2.57468519677584217753e-001, -8.04580838096671802084e-002, -5.12051306474027967397e-001, 2.78059152021228717100e-001, 3.20055664325180566632e-001, 4.14199572288240502882e-001, 3.72757074894975101720e-002, 1.98607976045251766184e-001, 1.19830180929465651696e-001, 1.62951640776237388630e-001, 1.13605948493267439048e-001, -3.31597613870135365932e-001, -2.37797021117993223616e-001, -1.97715128117356586657e-001, -1.73771630329553589123e-001, 2.00321047162639126471e-001, 2.35447475916206266922e-001, 4.82356154970300154972e-001, -6.17092395198019574853e-002, -2.57980101100481577781e-002, -3.35238355430332535256e-001, 1.23974240679726663283e-001, 4.64477538009413826181e-001, 3.15180951500790618169e-001, 1.84032064188828253792e-001, 9.21342679691290050714e-002, -4.54082833318797327027e-002, -2.86799082128648075152e-001, -4.55308262533920204973e-001, -2.89722506255159550914e-001, 3.56915481848272153620e-001, 2.23177045025528764111e-001, 4.33388048008950754753e-001, -1.36871898188149765385e-001, -1.06739156717348942366e-002, 3.39397019430274851648e-002, 6.50431880216015972929e-002, 7.97654799410755371847e-002, -7.01288909932296783412e-002, 2.18166223737629755286e-001, 4.79304239609434801217e-001, 1.48575373818655209757e-001, 4.34050393180627769318e-002, -3.45813755284761631392e-002, 1.34296155690862756282e-001, -2.57730464441261020170e-001, -1.35703681907523715511e-001, -1.46852796627123693973e-001, 1.00614219924009734575e-001, 5.03627270190653564264e-002, 1.05928280060788290728e-001, 1.98711766359113001235e-001, 3.65447511220918896946e-001, 2.14659383212982640687e-001, -8.57666713330520608105e-002, -2.17931787528517079133e-002, -3.29205735130663312837e-001, -1.73899572686781495046e-001, 2.74944437709483457954e-001, -1.33753390212945105775e-001, 6.52447723555309860854e-002, 1.42757252884908841795e-001, -7.49592091790825670872e-002, 4.56020444505761568532e-001, 2.72973709737036884793e-001, 5.28734771874291853422e-001, 1.59609879739319782121e-001, 2.97678550529386909407e-002, -2.30823812429138214286e-001, 2.84209243957973645145e-001, 3.96168941682055242293e-001, 1.65516042903100624173e-001, 2.12938656659747815869e-001, 8.34862287676339243081e-002, -2.47616799122332836847e-002, 1.66610789740843506790e-001, 4.26439219924049983668e-001, 9.75997189533840403541e-002, 2.52249251108053240689e-001, 6.29583342525831118897e-002, 1.95087671244896621037e-001, 1.72613348867535598696e-001, 3.02834634817167935861e-001, 2.48401138365146739728e-001, 3.03666523812847977126e-001, -2.20188565703858286915e-002, 1.97018236784315514676e-001, 1.74477791601913678754e-001, 2.93180871327761882750e-001, 3.68955804229560979657e-001, 4.89834984949793078579e-002, -1.01101174001622357013e-001, 9.37315369088804473119e-002, -9.62903986866302380454e-002, 9.01792310259936363837e-002, -5.29473098912263823168e-002, -1.08317548414262002782e-002, 2.57572802446504822704e-001, 1.37800167455965905106e-001, 4.72848114270807348691e-002, 2.62329869210806643220e-001, 3.96616105461115517339e-002, 1.63372931112270358689e-001, 4.29740571551009420403e-002, 3.02416541867191634996e-001, -3.57974871329481136861e-002, 1.11493867888231207308e-001, 2.46690616106550658637e-001, 5.49577718169729667608e-001, 3.87218419724342455268e-001, 4.54177207252081938105e-001, 2.76763992822420881734e-002, -9.95693387562677535707e-003, 2.66429418697928077631e-001, -1.71191648449146791022e-002, 1.83585647756823372445e-001, 1.11301892656224907241e-001, 1.19671213824416700078e-001, 1.91954893373297796888e-001, 6.17504809997514100828e-002, 1.54557724094153803307e-001, 2.50933796713874446294e-001, 6.49242314488917560134e-002, -6.60863754641373424281e-002, 5.84122161028484583600e-003, 3.54852644739804989893e-001, 4.47082338696449366200e-001, 4.66918381259355530499e-001, 2.23324910405461651841e-001, -1.98450965433194827237e-002, 9.95013573203205325957e-002, -1.02101299847757287509e-001, -3.09577918797702356102e-001, 8.07901354719478825839e-002, -6.22055223019006564567e-002, 5.04744289771369555528e-004, -9.73228945274752649253e-002, 5.67712680416670584238e-002, 3.23791257767825191305e-001, 4.02717740230002119173e-001, 1.90259018868175949768e-001, -2.07433881098638972507e-001, -1.04309684636745433894e-001, -4.52968225752464273559e-002, -6.86747300317415571014e-002, -9.01743794623733642413e-003, 3.39772915072170056394e-001, 8.63317084887979951935e-002, -4.51219637229402711909e-002, -7.03913670502809979412e-002, 3.37093089629609474200e-002, 7.78017185164269209352e-002, -8.96139173432079078063e-002, 1.25106538670573919081e-001, 8.24767056326723008164e-002, 1.97541176017248021335e-001, -7.52402864615225042133e-002, 2.38673569584949674116e-001, 4.52268124652658014967e-003, 1.49020024266116185574e-001, -7.01379231483893750276e-002, 1.85604080940591720239e-001, 1.19634507328615052879e-001, -2.12874584554050727547e-001, 1.87906193802353210787e-001, 6.71565619055892060879e-003, 1.43690416452697481559e-002, 1.03615332572626256402e-001, 2.79631276262623296169e-001, 2.05789842560453017928e-001, 2.50454604433814287390e-001, 1.11843256349542733569e-003, -5.73898543589779347451e-002, -7.03749226899081786746e-002, 5.40119859107674682441e-001, -3.52456294071407383317e-002, 1.77857712783351662456e-001, -3.61445284230371366441e-001, -2.14330565898697977811e-001, -3.55522346009299772263e-001, 9.54872551450889478497e-002, 3.64218531868164219212e-001, 3.01248590868837040624e-001, 1.71677666150265278988e-001, 2.76069106274272613177e-001, 3.96720280559992199976e-001, -7.78473554843093704103e-003, 1.61577597928497379565e-001, 5.07129549656065159446e-002, 1.32367023204365136246e-002, -2.38612003787451454340e-002, 2.09964329719478856595e-002, 1.64960014039731400759e-001, 3.20199174401060604467e-001, 3.54281920992057242081e-001, -1.16218976525704870140e-001, 2.57217250080816917102e-001, -1.10071270620341041258e-001, 1.36379649122575330455e-001, 4.34473463772829457397e-002, 1.05533535373953088476e-001, 4.78336607051575879446e-001, 4.10777078142197382693e-001, 5.09729763458168227963e-001, 1.49795286431247454129e-001, 1.18740296884628102059e-001, 2.08822256142861872874e-001, -2.24125771958154917929e-001, -2.13420277418835596661e-001, -2.03085703447294874113e-001, 1.88948166581107745987e-001, 2.01933700219939449294e-001, 1.38463117486901765574e-001, -4.85781134658218247124e-002, 1.64215359034256269677e-001, 1.88713295774696393492e-001, -2.89984157158497124485e-001, -3.02787185150550974821e-001, 1.20714874670776725618e-001, -8.36735982684233201012e-003, 1.57754283651018234469e-001, 1.33595203937985712583e-001, 3.19870197100969089199e-001, -8.30749332563999742796e-002, -1.55770295414995346706e-001, -1.99531899640213727931e-002, 4.37522779409569184672e-001, 3.77386880972505556198e-001, 2.12881507197970804013e-001, 3.28431843571435400087e-001, 2.75840406888774480887e-001, 1.90185012528183178260e-001, -8.95946193109018601541e-002, 1.16937898523368305481e-001, 1.01859296009832123175e-001, -1.28683535156584760717e-001, -7.26881475150196326718e-003, 3.73307324744668156402e-001, 1.85469646600713217177e-001, 2.51972856337990935849e-001, -2.13587613303907186690e-001, 6.41734416609237856566e-002, -3.38663457027647343822e-002, 9.60285243241423419613e-002, 1.77101949158129851059e-001, 8.24276183102402582037e-002, -6.20384664922870240900e-002, 1.65057923114538679377e-002, 1.06321839152906133519e-001, -1.01850531120673729046e-001, 2.21451677562640281138e-001, -1.60175820291009435303e-001, -1.08262031348754325655e-001, -1.44447630345100636040e-001, 1.53027610837821320677e-001, 1.43060140875934087984e-002, -9.87332242698637924105e-002, 1.78427627087772988634e-001, -1.02257036363176304072e-001, 2.57921854230364122618e-001, -2.54766004830738801434e-001, 5.04539320493765930387e-001, 2.16661785563130676602e-001, 3.53108336752328777486e-001, 2.02120036088518528761e-001, 5.96606665938244420944e-002, 1.48640236039514928024e-001, -1.06620011374727499676e-001, -5.21318690030872777808e-002, -1.39770439679129582222e-001, 2.19352373261799821202e-001, 9.13810935240234045729e-002, 9.24180923245137425637e-002, 1.21446567267658581124e-001, -1.40687564956174016029e-001, -1.47609740646994919144e-001, -2.21853142459064234249e-001, -3.33596110595034578417e-001, -2.78787758764798387912e-001, 8.11336609932287455837e-002, 3.43064249606806759285e-002, 1.83686001269227378030e-001, 9.66121092889275639992e-002, 9.32307667068166950886e-002, 1.31935645677293628131e-001, -1.84205956786157976079e-001, -1.26212894754220372739e-001, -1.65599084682604286156e-001, 1.81469811447354412159e-001, 1.28557078836508464903e-001, 4.85683801096469108804e-002, 1.42928558584765136308e-001, 1.77595161532941130111e-002, -4.35788129105538907249e-002, -5.71572024555871277540e-002, 6.75378872441082800382e-002, 2.38642787009791454422e-002, 1.13750850595043473401e-001, 1.49230380220351871445e-001, 4.77975070622136538612e-002, 1.42021867233719234491e-001, 1.65038793716757521864e-003, -3.15748887768449656988e-002, 2.35285952732425286682e-002, 6.53069523424681108725e-002, -1.63737785438423488760e-001, 1.14064650800137112885e-001, 9.80642425721512250858e-002, 1.08569783160090249652e-001, 8.71753693914211758020e-002, -1.05573589191691285909e-003, -4.57233802836877756270e-002, 1.10744604724967901643e-001, 2.44568444647994594904e-003, -1.43018024893596634728e-001, 2.49558327822777037408e-001, 1.43336813099767312885e-001, 1.13470469936672688216e-001, -7.98649689054319565640e-003, -5.99256805807221251681e-002, 1.74218946367639127004e-001, 2.76456909313636360614e-002, -9.68840910429913937385e-002, -8.50947138459719372439e-003, -1.21456500564303751521e-002, -1.31669425974351439468e-001, 1.16529825566777572865e-001, -1.67319898027348049063e-002, -1.24108762539366854205e-001, -1.30788680224672354546e-001, -1.80162441638989007098e-001, -2.49483998664091988218e-001, -3.33128363282226697129e-002, -9.51781757317523846584e-002, -2.06809969197037119004e-001, -1.30925124567778966567e-001, -1.39360776313940948334e-001, 9.31238316274637656367e-002, -4.64725212827977116059e-002, -7.98898628275166305945e-002, -2.51285325135524803541e-002, -1.96199892325539387850e-001, 1.75493360123242403414e-001, 7.68228009009745832492e-002, 7.74029296307372355335e-002, -6.95870657926478675126e-002, 1.88745005614510269476e-001, 1.05860494800636681378e-001, -1.40150477684339330731e-001, -1.77805469665721638250e-002, -1.94968365765827489344e-001, 6.60068612206721611058e-002, 4.12812220239498553487e-002, 2.19938097278196062478e-002, 1.01175766677719311537e-001, 1.12313467820607498782e-001, -4.72592601401245343551e-002, -3.52219732257828335720e-002, -1.56032210438470070324e-001, -2.20360212480828293602e-001, 1.27225617443680355523e-001, 2.39517360309292021148e-001, 1.66044374431505964429e-001, 1.20234674905121519117e-001, -1.72660981736539251297e-002, -2.90554138571136634506e-002, -3.07133515460665751373e-001, -2.77480588589661902876e-001, -2.86838385604422874131e-001, -1.59457552670727899236e-002, 9.97330321763495036835e-002, -1.04354797554555497885e-002, 3.66279759484399499575e-003, 5.01798016005030947384e-002, -1.05722342221522842137e-002, -2.34047290246292005733e-001, -1.57108611124289532235e-001, -3.26389434738845948814e-002, 1.61536418159056643917e-001, 2.25701620665513136288e-001, 6.08308461616278162154e-002, -1.99155140226859976582e-002, 4.35624977447469086123e-002, -3.44131564978501711116e-002, -2.14977463362421544746e-001, -4.11950173425602375610e-002, -5.21907336460630463804e-002, 7.56757111912368107820e-002, 3.25469020727423424821e-002, -9.49495949331678051886e-002, 8.07176329800697589523e-002, -1.00022750802258364455e-001, 7.96388213423502716592e-002, -1.45101828005251454190e-001, -2.25189300144868376208e-001, -1.34898386169338552198e-001, 1.16135014225691154954e-001, 2.13555593032330570669e-001, 4.19917126686333228025e-002, 8.47519671732927665220e-004, 2.17783472896982466249e-001, -3.59834407235976178052e-002, -1.47518553537979046908e-001, -1.45283298565525853530e-001, -1.13636552305077520586e-001, 9.83936825214543481222e-002, 6.41807704028678066566e-002, 1.87749597615327890043e-001, -7.98578310951529035666e-002, -1.58164700100539498684e-002, -5.64848317895199139582e-002, -1.21797085060718263128e-001, -2.28447148198848842826e-001, -1.47264348560277952283e-001, -9.61706045688900668100e-002, 9.97560043811351361553e-003, 1.78453572114744163368e-001, -1.87124902879828636237e-001, 9.21962678414664504878e-002, -1.41173284995537329234e-001, -2.07781632102504359993e-001, -7.80067825689887278662e-002, -2.10416663624277994193e-001, 1.58202380166966583008e-001, 4.04987673106151149782e-002, 1.62501131297095383066e-004, 5.79926331466393066294e-002, 1.64392106447084178356e-002, -1.40441697797895649613e-002, -2.25973230475190495214e-001, -1.84073193071355001305e-001, -1.50506694940029384089e-001, 1.37400690299803368566e-001, 2.51910841944887609056e-001, 5.34744168138435033155e-002, -1.00783157740828535620e-001, -1.21576005931340828253e-002, -8.03248369668778799957e-002, -9.49106292366581200115e-002, -1.81395088510755725375e-001, -2.19944874936940926169e-001, 8.82798059835370949044e-003, 1.41855121365717807419e-002, -3.08194000805095125184e-002, 1.49598759551259376244e-002, -4.37095691030267401167e-003, -2.05286117504492517799e-003, -1.52364323572639737137e-001, -2.10782099931351968314e-001, -3.68872306772088515148e-002, 1.57367657582399671223e-002, 6.78466004609151185356e-002, 1.65034351625586439560e-001, 1.15575440286450337180e-001, -4.97000202675339231018e-002, -2.28734155057858136451e-002, -1.73330921289825079512e-001, -2.41563392317769909390e-001, -2.32521664242240216902e-001, 4.07086625307786706407e-003, -8.04323047281219061233e-002, -7.69555254655149116594e-003, -6.04572380362509362306e-002, 8.38848362623663967863e-002, 2.23807610176841934035e-002, -9.23869763189672232873e-002, -2.06353615167546966536e-001, -9.51081438316532662425e-002, 1.19969291000298905470e-001, 1.95758400047270436639e-001, 2.01297107737699904062e-001, 1.24345500961310514998e-001, -7.88933664543141066616e-002, -5.92030128605528851993e-002, -6.53132218308353912350e-002, -1.17209917692984388893e-001, -1.74962970006137613632e-001, 1.98912314977428505980e-001, 1.61742788849173452226e-001, 1.03969568122980304814e-001, -8.25116836376453034740e-003, -4.27459172946460380649e-002, 8.29797887674594940310e-003, -1.44435425950674739548e-001, -3.25951731460769472681e-002, -1.90630837436418898445e-001, 9.87104037274541962210e-002, 2.76723668047148319005e-001, 2.72525588437585383761e-002, -1.91335372038541539838e-003, 5.27021991037001924507e-002, -4.95133598501692681615e-003, -1.39037437381978101758e-001, -3.21445403380163086116e-002, -1.86759762012721874935e-001, 1.33586913943334578692e-001, 9.71994241732067332240e-002, 9.84004793435676455848e-002, -1.28474020457355952995e-001, -1.00169166400661382998e-001, -3.17102154209960712672e-002, -2.30235670477778847642e-001, -1.81116875960934869960e-001, -1.26941874560591416721e-001, 1.11216138376191819859e-001, 2.62697581900358211049e-002, 7.72403665014281121115e-002, 1.09334928238745299200e-001, -9.92465966536973109857e-002, -1.35655925843987060914e-002, -2.39495567484817928339e-001, -2.07000949754197471897e-001, -1.59884237241065069179e-001, 1.31736697663999619001e-001, 1.44409226244684996132e-001, 8.83298120337102921074e-002, 5.55532283401825935365e-002, -2.67347064953587509883e-002, 8.16177911166449665537e-002, -1.50109858560511649772e-001, -1.33508693635642152094e-003, -8.97048867097879343291e-002, -6.01195582348795221073e-002, 9.92494560340593107162e-002, 5.06830023182336993764e-003, -1.12383429425621253483e-001, -8.85066832636094424913e-002, 6.99071529632218913175e-002, -1.79538901242140641612e-001, -1.89828435181768451212e-001, -9.27237026793101826172e-002, 1.24708702110889704806e-001, 1.90245107492641007951e-001, 1.05238492118624960003e-001, -6.63028584385637054233e-002, -1.04098625150062337741e-001, -1.54165333969029733074e-001, -2.92930201798274059133e-001, -3.05733334391536659691e-001, -1.36191730126817234225e-001, 8.57584250480105531045e-002, 2.72239207977355464341e-002, 1.42093264727628537658e-001, -3.91168825811748083199e-002, 7.61780674348513514582e-002, -5.93720312571124134160e-002, -2.22337593554015000574e-001, -2.06571137985460812070e-001, -2.30568978228030657673e-001, 1.01776558550242354761e-001, 1.04268906688711082698e-001, 1.57849404294251483005e-001, 3.01851536921253216228e-002, -2.18810253619438899175e-002, 3.89082133964567464246e-002, -1.63633802930544164367e-001, -1.15315735179047237913e-001, -9.66899909234549687076e-002, 1.81892399883759825485e-001, 2.72823974890675207544e-003, 6.15673279989386364880e-003, 3.86459369109701800227e-002, 3.28090705083809719422e-002, 1.32598112026752722181e-003, -2.52150320896923130221e-001, -2.46762988952502121398e-001, -5.51742368679914926832e-002, 1.14981369469483417356e-002, -1.36919439434025430602e-001, 7.10366577032415236204e-002, 4.84701225871095597864e-002, 4.99199758494995038394e-002, -5.48311130356099601935e-002, -1.17978970014683617884e-001, -7.91378802637654754637e-002, -1.70538040397646806223e-001, 5.54812376168985418867e-002, -9.53124069169914572841e-002, -2.60787173664768709425e-002, 5.88776809664858513660e-002, 1.80220450067588966458e-001, -5.79437206909155511081e-002, -6.46056797612694078126e-002, -1.15766302544352689408e-001, -1.97424679870869868026e-001, 1.10814044034745748379e-001, -1.05207882586371398448e-001, 1.16139385659214361413e-001, -3.27241119595899077055e-002, 1.51917165403090248521e-001, 1.57905709604421018444e-001, -7.69498280247883775784e-002, 8.29682181851328255651e-003, 8.90781613859610273479e-004, 1.78172538929941143282e-001, 1.06717525655273204332e-001, 5.06034318237086749859e-002, 1.40638425446645093375e-001, 1.61397206156791622744e-001, -3.66330224943249224689e-003, -1.97462643032221385475e-001, -1.92868446649378466606e-001, -4.88989437681653302259e-002, -2.83063216220368583931e-002, 1.04123853423145514008e-002, 1.44624701534524141566e-001, -3.26804286675864627543e-002, 1.36070212467703094417e-001, 1.00556545330804089633e-001, -9.74715473430473183791e-002, -8.55696715819436737327e-002, -7.02924853988236425506e-002, 4.23283278701876569672e-002, 4.93690446770764096440e-002, -5.26365826059607341825e-003, 2.31192897238172712093e-002, 1.70995596900887746050e-002, 3.97735612436093607935e-002, -8.92546725029995102751e-002, -6.19808082196506571204e-002, -1.34836071672224055984e-001, 4.09970026021679034844e-002, 2.66693394849017925696e-002, -1.90121479348548845512e-002, 1.15511140505567974635e-001, 4.68405630916007495457e-002, -7.79847963516435566111e-002, -5.90699407623150110624e-002, -2.72537705908793212450e-002, 3.43521413857302698736e-002, -6.24453855987555025986e-002, -3.56490693049746829035e-002, 2.33400489252979265187e-001, -9.27146318138828695599e-002, -1.30828109370204392903e-001, 9.40277034162762814784e-002, 3.72832323424644396237e-001, 5.90476991007515494836e-001, 4.60648089565926344147e-001, -1.46189594829664593068e-001, 1.34002972300687583918e-001, -5.43726755393964256147e-002, -2.55659698272298618882e-001, -1.19428906465271586490e-001, -6.81266415129198749101e-002, 4.94163539740630486374e-001, 4.08374510005369617538e-001, 4.12765222040307688811e-001, -4.39789965152784789737e-002, -2.92187097727499150990e-002, -1.15670739739751476938e-001, -2.59212493452277148442e-001, -1.77869129793631564063e-001, -1.50085750314381705106e-001, 1.29348109518642617743e-001, 1.10385944722145801222e-001, 1.99608606501824520363e-001, -8.84095940174907390929e-002, -9.32794339463168947768e-002, -1.66867065651106316615e-001, 1.37354736732177816483e-002, 3.16217243547663798275e-002, 2.01181356438861966285e-002, -1.00446848842792493817e-001, 7.08855177456790969126e-002, 1.39842564290591025999e-001, -2.53488107327894507392e-001, -2.57209255295002103825e-001, -2.68709681021144564106e-001, -6.69935744181787023489e-004, 1.05817525305599374752e-001, -4.97412294181253794578e-002, -8.62602587683007349106e-002, 1.31094958152585511213e-001, 4.24969601983649289401e-002, -3.58499053472148609956e-001, -1.98017311982181865027e-001, -1.58436921078835390997e-001, 7.05299278134296214748e-002, 3.12180558553920642351e-002, 8.29116442094207095614e-002, 5.92254854916130987763e-003, 1.99097889385205090163e-002, 8.91497858499067513671e-002, 3.24151336303525772209e-001, 1.69913910533855405660e-001, -6.98120777916121648676e-002, -6.35793290934515697987e-002, 1.17078938100645263409e-001, 1.26422743454064373525e-001, 2.90342649901772109633e-001, 3.73733035369946842152e-001, 3.53496536604094135914e-001, 2.12491692756964362099e-001, 2.22921328490681247558e-001, 1.25767129455065074239e-001, 5.46632126607496660053e-002, 5.99430684101947414133e-002, -3.08306907164597673865e-002, 1.67910433022937122249e-001, 4.06007158741468865415e-001, 1.10189352865534717640e-001, -3.38697468387699832104e-002, 7.48339950957816885113e-002, -4.81848023009386963733e-002, 1.20656066292433014620e-001, -1.18212855268189739877e-001, 1.02501903324542953388e-001, 4.50759697164488160048e-001, 3.77164767797472488819e-001, 3.69572450288153941944e-001, 5.10930128455390833442e-002, -1.17652770733033026906e-001, 1.73541382581659346662e-002, -1.60383447624369152029e-002, 3.13938304562840159520e-003, 2.38033945591142187537e-002, 2.28421529414562757276e-001, 2.92595246428553001916e-001, 2.00834120367040097621e-001, -3.97923245443785100761e-001, -4.16604689752422485682e-001, -1.21352400537883514664e-001, 3.54491902155796081986e-002, -7.31052961136295642586e-002, 6.52293638075959608669e-002, 2.70464996583390071550e-001, 4.47419838013266624177e-001, 3.43520163945086998147e-001, -1.09200708408497590418e-001, 1.92991210536519117169e-003, -8.60731278819306805383e-002, 1.62007258400271331178e-001, 8.91019713434810789465e-002, 6.92254807363811425214e-002, 1.76379118376240207056e-001, 3.02838624432465453040e-001, 2.81567040568236337528e-001, -4.77219060146708701220e-002, -2.51450890656156611502e-001, -1.53258709512840207712e-001, 8.31260590939919899456e-003, 6.22041183947944220645e-002, 8.06118798779954653932e-002, 2.86753655483037772633e-001, 2.01236374450286359394e-001, 2.83797421655830661713e-001, -8.25870232078650262642e-002, -4.97326152878657598566e-002, -4.42846525284621220231e-002, 3.87482746928394378161e-002, 5.71047805875801589570e-002, 5.06285782014307978588e-003, 2.60908072130589530069e-001, 3.43444553318048684254e-001, 1.97725783493809259550e-001, -7.55742223333380619410e-002, -2.49877671471982858165e-002, -1.21990075426118838031e-001, -8.32851690983441167448e-002, -1.37759026246391025339e-001, 6.51712734095368367848e-002, 4.07906409672841807623e-001, 3.10692194764911999716e-001, 5.33930521489041187699e-001, -2.23424817669178571444e-001, -3.58761737774914435395e-002, -2.28629619286364799136e-001, 9.63152775677306172142e-002, -4.46215422633538909281e-003, 1.83929827405586943101e-001, 5.87914804693471793051e-001, 5.15618715608101019221e-001, 6.17460128076222192206e-001, 5.86667694515734458593e-002, -1.17074585761949540030e-001, -2.02886805120991831064e-001, 1.40987383462434195946e-001, -2.36611380219962641469e-002, 1.01532269823873907977e-001, 3.88010086350206173655e-001, 3.79127154598898730153e-001, 4.70856317679348046479e-001, -6.79057656635326939432e-002, -2.60625288418305955940e-001, 3.09504448729818817942e-002, 1.30227477370776389964e-001, -3.59539876524752471942e-002, -1.28968179998440485301e-001, 4.36321799135441723561e-001, 3.31178766897294973859e-001, 3.84726729629713548597e-001, -2.50679625480257683989e-001, -1.82124838557389479021e-001, -1.09577491403920507240e-001, 1.82691651825601208969e-001, 9.14722697245237414965e-002, -5.43110973033268315535e-002, 2.40627492617970284439e-001, 3.60447521311868190885e-001, 4.02442931730592257100e-001, 3.92933990008500141911e-002, -1.46408033802367439774e-002, 1.21086213388107641342e-001, -1.58999453876594656898e-002, -5.49188245235205652062e-002, -5.46798657143214017484e-002, 1.63205182291024319952e-001, 3.72974923110299227957e-001, 2.83295033341526003579e-001, 4.67949012420701623838e-002, 7.30609588412223232012e-002, 1.40971700892381313075e-001, -5.92194505429667478191e-002, 6.53071611589129824571e-002, -1.00246987201634413234e-001, 1.44361564407254922004e-001, 2.81246926926018658843e-001, 2.52866931171925879429e-001, 3.37902866602672212124e-003, 4.91830955026519300866e-002, -1.86302264583777729690e-002, 1.06654825702360719908e-001, 9.56376733928177152899e-002, -2.54557849166212636638e-002, 3.64746685724241126447e-001, 3.92559731069987871699e-001, 2.40488013178646958812e-001, -9.37494964846464912123e-002, -1.92767266828631732289e-002, -8.37849708643897267413e-002, 4.77460074541213603389e-003, -5.34755323047262018377e-002, 1.86032964678123718949e-001, 3.12147172085543878062e-001, 3.30713793735788186279e-001, 2.28826234857177318593e-001, -2.05755208079524604114e-001, -1.82098029593431853801e-001, -1.52681784455145658219e-001, 1.04985949785612250884e-001, 1.84239856703179133435e-001, 1.46023885054274077389e-001, 4.22220685131556083824e-001, 2.07399195162878691168e-001, 3.27570095076591405459e-001, 2.17780121621642709651e-002, -2.08352504176257641300e-001, -2.00796020398530200568e-001, 2.19920961811641366840e-003, 1.17490308092570178850e-002, -1.31448441571392654614e-001, 4.48165322035027846592e-001, 2.48400839254981686821e-001, 3.57093456704965173110e-001, -2.00715902971699389212e-001, -1.95516378544287688923e-001, -6.08671512163126843253e-002, 2.47122210505583889129e-001, 1.53454557975808869585e-001, -1.69819676380077964895e-002, 2.90681055226301887640e-001, 2.92429726464855876955e-001, 3.68082294138638299597e-001, 5.42600042300085197433e-002, -2.09766987394543608092e-002, -2.07902263185737762319e-001, 1.19665345355326857568e-001, 1.06114622824430973602e-001, 1.23797893772890174602e-001, 2.39100920964333940599e-001, 3.14985861558968460727e-001, 2.44373661711122291962e-001, -9.90995594241315669315e-002, 2.10695420030258470656e-003, 1.28876497388653327852e-002, 4.38613398311505919835e-002, 8.68852087877321210829e-002, -2.48131563038602065419e-001, 2.33173558844141010082e-001, 3.28806341906363763794e-001, 2.97394542617949730889e-001, 2.09021848975828122841e-001, 7.95803308082773663834e-002, 7.28752461740703738613e-002, -6.58874952404649577575e-002, 8.01031687236401085395e-002, -1.34446678147537978382e-002, 3.11124352234565970665e-001, 3.39473296732308804646e-001, 1.85752875358320357346e-001, 7.34219934444059196821e-002, -2.09352453767523927208e-001, 1.91500455090833937577e-001, 2.64573744803405563886e-001, 2.72263168556385160013e-001, 6.21704844965856734396e-002, 2.76577963393559667082e-001, 2.42827681616586910085e-001, 2.13495234892031121587e-001, 5.28703821317394948021e-002, 1.41397141778126539391e-001, 3.15723933930037725659e-002, 1.44729405447539372087e-001, 8.94224995285650275934e-002, 2.22328725624626605262e-001, 3.06290638179932572793e-001, 3.53037890823332700663e-001, 1.82121941955516175593e-001, -7.01393933669844024670e-003, -2.14947939952343132497e-002, -9.89026290270263175319e-002, -6.07850497573159814779e-002, 1.72850126572526102686e-001, -1.44067656227431395433e-001, 2.39589855382890987157e-001, 1.57188144974893889705e-001, 1.86735648697048728373e-001, -1.78274949981025776502e-001, 1.25934073503961262153e-002, -1.35446680167138067130e-001, 8.13385513205080873389e-002, 1.18527770216798646052e-002, 2.08923996829200903091e-001, 4.26035057614960410710e-001, 4.72147035381269286614e-001, 4.78308493390919686750e-001, 4.51675515889988186957e-003, 8.57910943503536610466e-002, -9.88776453662035675896e-002, -2.69221893362557203322e-002, 3.76474317366794479934e-004, 3.99003096014225178134e-002, 4.65109539224158596848e-001, 5.62437663481884730921e-001, 3.20442211683822419932e-001, -3.42655170704696046546e-002, -9.17791223996064359225e-002, -3.08776957104874884286e-003, 2.34043768425318482809e-003, -1.19490283649537759603e-001, -6.25916619258519574265e-002, 3.04809536121903756900e-001, 4.10514880505537860245e-001, 2.90132522889648025721e-001, -1.40586536797742828186e-002, 1.45436160785069351631e-001, 4.06651675279282656672e-002, -8.67234237652347687841e-003, -9.75738996383263001988e-002, -9.06302553606489480487e-002, 2.77641809455944021945e-001, 1.77784758641817308700e-001, 5.01895616386559620392e-002, 8.81325581208073152717e-003, -1.45297090102540993328e-001, -1.04648672814127388642e-001, -6.36764658684252637944e-002, -3.98983165277368330426e-003, -2.05893247997794737181e-001, 3.49509330127928730114e-001, 2.11245351862101388152e-001, 2.66798803034216325258e-001, -4.32020995906207405657e-002, -1.38473552262551896641e-001, -6.22863663933437197023e-003, -1.80268781624380425299e-001, -1.02158021126837084136e-001, -1.68750383672299691940e-001, 1.76125977304347286490e-001, 1.08902421313121958169e-001, 2.69869915944204452618e-001, 9.25902864285410992506e-002, -9.93983241039156362184e-002, -3.01559139406061063604e-002, -9.81327367535416300592e-002, -2.42447502835326983428e-001, -1.13497863070469912072e-001, 1.26252645647707467669e-001, 1.87821048018011804714e-001, 4.72930881521223811514e-002, 2.33678392034327137017e-001, 1.03860866423361661304e-001, -4.23321074363169000399e-002, -1.39406294780173245496e-001, -1.06054217279940146690e-001, -4.91978938644505453537e-002, 6.18395727079295090545e-002, 4.81196859372283597400e-002, 1.06510578428951785401e-001, 2.91066700251033372293e-001, 1.52679060981722042323e-001, -1.33790917625285249448e-001, 7.96183724802925069097e-002, 4.81576980918027031109e-002, 5.09146875608866289475e-002, -3.01897035687312909058e-001, -3.50964704504589275480e-001, -1.33232689488146288648e-001, 1.82408971980759254672e-001, -6.83390234846076027875e-002, -1.83044608864794912037e-003, -1.18851550708927333755e-001, 7.71619513424328662410e-002, 8.78298790216367197825e-002, 9.96333472190924669676e-003, -8.66732477075412427459e-002, -3.08919735526632134592e-002, 1.31552208850234636506e-001, 1.84240990675809193644e-002, -5.62328690996662314272e-002, 5.06134723718601048370e-002, 1.27773739545283288033e-001, 9.39589235397145922102e-002, -4.42254193330246583860e-002, -1.89158398856900472618e-001, -2.27585725141175171382e-002, -1.31336278800628147856e-001, -1.04711744271327081290e-001, -1.68923071053213649795e-002, 2.60993148515088035921e-001, 1.70281944355390513213e-001, 7.68641542113935871683e-002, -1.63600103833144105980e-001, 5.88643288387503821335e-002, -1.74589128225947631812e-001, 1.40690822780636770606e-001, 2.46429944586955482211e-002, -1.70252355095167192886e-003, 1.77536593286042737594e-001, 9.21861641466311526605e-002, 1.42721711754311253451e-001, -4.25318101280807991937e-002, 1.61988462084819956344e-001, -3.26126009849221111525e-003, 9.45241226644172177762e-002, -3.31619654836448965463e-002, -5.24966024954674065350e-002, 2.43168891621881294585e-001, -1.06149111781770645602e-003, 1.84753863947143298629e-001, 4.80988487455094072820e-003, -8.41736366177859574034e-002, -1.43666405324233775742e-001, 6.98160742701316953257e-003, -2.48998905052969871088e-001, -6.37143162445554245288e-002, -1.74591237473687311416e-003, 1.15701423746963575484e-002, 4.14224635731206616840e-002, -2.82184585126897868879e-001, -2.73426768560385391460e-001, -2.26457712538299077432e-001, -3.27610013269721096416e-003, -1.79346683988153732248e-001, 8.85105346301516410223e-002, -1.83748660825228088411e-001, -9.36152482006112618418e-002, -1.16550005657293689887e-001, -1.65073067362422443161e-001, -4.16707200080832090849e-002, -9.48791690122023495535e-002, 3.15559582985932771115e-002, -1.65415776617096166312e-001, -2.60857098883759790098e-002, -7.05531487137075596222e-003, 3.17767192223766675729e-002, 1.47250763427717784593e-001, -1.37428402843461000549e-001, -8.99750494710026549328e-002, -6.58275698113174878578e-002, 1.94573334946792325661e-001, -3.11863060568353042679e-002, -4.15277425009059411587e-002, -7.97215571346715085044e-002, -3.68523971676903983052e-002, 3.07403764259498550604e-002, -1.61061922972476956328e-001, -1.10589297726685728551e-001, -2.76668618785850084496e-001, 9.80686467118603855120e-002, 8.60596518561593110119e-002, 1.38663618727538212605e-002, -7.47870059756824707292e-003, -7.65290352385715618409e-004, 1.01583590037711574833e-002, -2.84249490548017236247e-001, -2.51696746596725251521e-001, -2.12895382245699649193e-001, 1.57600036440867535825e-001, 1.29446570435384517017e-001, -1.12507052257878395474e-001, -2.70825585573722382726e-001, -1.44069405074845641179e-001, -2.40542853489582847404e-001, -4.84205672792266950122e-002, -2.58275370453642738600e-001, -8.76752179443322510188e-002, 1.49918368889704722857e-001, 3.49535078774441468341e-002, 5.25615926411762551806e-002, -3.95176216519944889516e-002, 3.49423104640372572671e-002, -1.15457621390641584913e-001, -7.36790232389869254731e-003, -1.25559027716730053914e-001, -5.95789760717586464045e-002, -4.17380887122916904852e-002, -4.69167967024114625219e-003, -3.79756833749331085270e-002, -6.91326513918887400334e-003, 1.15286548497208637953e-001, 6.49399855339472809046e-002, -3.37683809348788388505e-001, -1.51000747991326955688e-001, -1.76506021952001324049e-001, 4.53984605018967549150e-002, -2.22338887831735922129e-002, -1.63575201095240950477e-002, 1.01620906084186266027e-001, 2.42826125364399347806e-001, 1.06092245083643330061e-001, -3.63995719183690058518e-001, -3.12115002111821804309e-001, -2.49555930667498926390e-001, 1.06550734064390695277e-001, 5.73052684060167197289e-002, 1.57693821003532214098e-001, -1.62225515128562175482e-001, -7.33940698581383443866e-002, -8.04638578053986329441e-003, -1.24358190620354719380e-001, -2.40002287822199067424e-001, -2.79654729488608255750e-001, 6.10175992744598286177e-002, 2.54367516458533643453e-002, 5.12657333376557375337e-002, -1.40986435413974930952e-001, -1.07924373150999272641e-001, -1.68563637980299413366e-001, -2.34272970543088765449e-001, -1.58027587877898390012e-001, -2.99807591763825653786e-001, 5.20694882659582594653e-002, 1.89765540427302829320e-003, 8.00703559644720952448e-002, -1.07744984248008976446e-001, -9.41602950736839111601e-002, -8.02854217457556751381e-002, -1.69070752470286606028e-001, -5.69981010691152922831e-002, -1.33729116041623713462e-001, 2.25065902975993742396e-001, 1.02632315409832766684e-001, 1.03244128793083811413e-001, -7.65670378629200731879e-002, -7.55799545658693977535e-002, 1.76680598203206931651e-002, -1.53146346945463741190e-002, -2.07679650471798538103e-001, 1.02347168020318294440e-002, -2.89195233769854315176e-002, 2.02824135906838259880e-001, 2.26240345934893088975e-001, 1.04315224230176598064e-001, -4.92662317094950431839e-003, 8.46625157140076106677e-002, -2.28100521552868418240e-001, -2.13160959388273896220e-001, -1.26744198366259719357e-001, -3.13200469718668481067e-002, 3.71673166551419811854e-002, -4.64743671638033692406e-002, -1.48025073298026693669e-001, 4.75574740596307402041e-002, -1.33469550510226131479e-001, -2.91002806005128053513e-002, -1.66535515332499294006e-002, -1.69174682411157462081e-001, -2.89716837489998723515e-003, 8.91376911024354817714e-002, 1.09710095792322714914e-001, -1.69929608817938421206e-001, -1.14667287400498044136e-001, -1.16150753040394683069e-001, -1.70043885280530382431e-001, -1.19963054836948038173e-001, -8.93012439991137385586e-002, 2.98826001544031716328e-001, 2.33931298556888350726e-001, 5.71491462087261661851e-002, 1.74115713128295754308e-002, -3.76697352329270970794e-002, -1.04929909611294280847e-001, -8.71075021410148003786e-002, -9.88577666636028529190e-002, 4.72193217333730305696e-002, 5.07177275540478395000e-002, -2.82806302780221931192e-002, 4.75427550035399867912e-002, -6.38004241224710694214e-002, 3.77394277855227187890e-003, -3.36036338267777859312e-002, -3.19895376532392416991e-001, -1.36745316869850086494e-001, -1.50578141457278019688e-001, 4.69781702204142559420e-002, 2.38922539129246352951e-001, 5.58018372592020694967e-002, -6.55034290383100792354e-002, 4.18223472799343076733e-002, -5.34640076727430427206e-002, -2.73724012258758087057e-001, -2.05380681173187112920e-001, -3.37206668981919754913e-001, 8.91857810736746137170e-002, 7.27186977554691443837e-002, 2.28667635003733549226e-001, -6.93422318610831117658e-002, -1.57337400006551414444e-001, -4.26854099084474913894e-002, -2.92212425097370942506e-001, -2.73779380642743264129e-001, -2.04148990175431310767e-001, 3.75340676327439934368e-002, 2.81584821066443516391e-002, 1.78802577923690558803e-001, -6.17593460046650735706e-003, -9.23204651779587354143e-002, -2.35271479451800782923e-002, -2.26587854102813623935e-001, -1.53100962251163069672e-001, -2.27481611850015613685e-001, -5.11685205500894482733e-002, 9.82173540839912512235e-002, 1.38199024120673114036e-001, -1.88508484169834955591e-001, -1.03128053978574427130e-001, -4.71662480793783589483e-002, -2.13332088122995006119e-001, -5.63754828877141289656e-002, -1.69101950937039086087e-001, 3.36077551931330334445e-002, 7.01417114398548563470e-002, 1.38306415029380375126e-001, -9.93975175725732990051e-002, 1.28038282737167989633e-002, 5.06899081569920327561e-003, -2.15518079633650466720e-001, -1.66570544582492569008e-001, -8.80332422289342581001e-002, 6.50389405590577618366e-002, -4.71570959406140619019e-002, -2.53091314288423560597e-002, -9.33126415280540466579e-002, -1.60546921840879514010e-001, 1.80639716110555341444e-002, -4.11649782820393883576e-001, -3.39203459491243031199e-001, -4.05633036737948760031e-001, -5.28041170060460363089e-002, 1.02165758739644133013e-001, 1.19118940121176714042e-001, -3.76733223225144478463e-002, 1.26707384274021700454e-001, 6.08563249979953077573e-002, -3.03449247579932523955e-001, -2.71694250641551948711e-001, -2.90160272935287233409e-001, 1.42077624100123492412e-002, 8.68429695307658920667e-003, 4.55862064449361337193e-002, -8.19384905413500508331e-002, -5.09831986118318217227e-002, 6.45766649730318900713e-003, -2.54318920339527410057e-001, -1.73268022505738805705e-001, -2.31784472848435812997e-001, 4.62866381825378647719e-002, 2.26282062585426504975e-002, 9.67223866403714438444e-002, 1.15087808418800230381e-001, 5.41309342164158421862e-002, 9.02561431415151160795e-002, -2.93182098156603565542e-001, -3.10037037275866955710e-001, -1.13965837953415000117e-001, -1.53391121975340410932e-001, -2.62897956867755855370e-002, -6.52078752775109987683e-002, 8.90490969209278282470e-002, 3.17484630211176122039e-002, 7.96059242022007923500e-002, -3.28911289812611307148e-001, -2.45230431818687061307e-001, -1.76954439826566944927e-001, 1.56161221861912585807e-001, -7.82274531395283079238e-002, 7.41213314085909236173e-002, 1.18188755086559346003e-002, 5.43962400358588421545e-002, -3.66886975351130503742e-002, -1.58025437422259662501e-001, -2.36048605162721303330e-001, -1.53288114619663212723e-001, 1.31890885087609460724e-001, 8.38331275331499585490e-003, 1.60585244757139006255e-001, -1.75083178278690299035e-001, 6.62393552635681948093e-002, 7.24278935241543658785e-003, -1.19682935280241847797e-001, -1.41047736153635139278e-001, -2.18546468814993954943e-001, -2.75150801491112553809e-002, 4.23599526706038287394e-002, 5.38005303816118107818e-002, 8.83516837184538522676e-002, -5.43682964355914552512e-002, 3.18442906420209059792e-002, -2.75849903443448285500e-001, -1.93763017400356313269e-001, -4.42108336881408686692e-002, 8.83002014849063460167e-002, 5.38599207162079249289e-002, 1.17043789575851986395e-001, 1.05200195693175194145e-001, 8.36895819410902186419e-002, -3.16483784228658721061e-002, -2.06623871334359415775e-001, -1.53505632218227799912e-001, -1.94856556615651016484e-001, 4.83275294960947426892e-002, 1.02694388946523940120e-001, 7.78606400013448080033e-002, 1.07467002148562654207e-001, -3.18889429876296343069e-003, -6.23685428221125090498e-002, -2.49590593700490498419e-001, -1.37898867905720257099e-001, -2.74563688565651553564e-001, 1.19278762702499818715e-001, 6.99318029504986948819e-002, 2.09378062065154441074e-001, -8.89486062523563020266e-002, 4.71233965710746022237e-002, -2.54178252455074353555e-002, -3.82936362003583469216e-002, -2.73576986782933628817e-001, -2.31869347211005299991e-001, 1.44479315314277406701e-001, 8.85154404895917290563e-002, 1.68881588862431625264e-001, -3.57652136607966297799e-002, -1.53963474877786915540e-001, -3.63429570740537652429e-002, -2.19511777331423851845e-001, -3.43002772036880898554e-001, 9.08487048475008773796e-002, 1.99355436370163008331e-001, 1.98065575323985249012e-001, 6.12157566251157053694e-002, -1.91055197268069465455e-001, -1.47102544451048200536e-001, 7.62267380341796613186e-002, 6.57719128261012725423e-002, 1.30150567415121182213e-001, 1.30115606361212582387e-001, 3.56194839397594442687e-001, 9.30988209647678616188e-002, 1.61806178407208955949e-001, -5.20743970097856667678e-002, 4.39162950598987328332e-002, 1.98150864084299556389e-002, 2.48286039230795202437e-001, 2.76380350784528605601e-001, 3.04598732440124787824e-002, -2.56492146627528783132e-001, -9.08099046882619165277e-002, -4.85045597011298582069e-002, 3.10897479680750932207e-001, 1.59043725522308970755e-001, 4.72322910949281374315e-002, 2.47383625039273274959e-001, 8.10653151684583156422e-002, 5.87781207083272385500e-003, 2.14469894225245510944e-001, 2.76752903934910698958e-001, 8.24672538361877205393e-002, 6.75628373209036063585e-003, -1.79398262460822160991e-001, -5.79546181388337841578e-002, 3.87730249401510906893e-001, 4.35621478393079741842e-001, 2.43527619388260618827e-001, 1.16563078490284827149e-001, -1.99297552071689317021e-002, -3.74885488624243784495e-002, 1.24989520964927450231e-001, -1.16521125744402223590e-001, 6.90878942662401240860e-002, 1.03654228696111336272e-001, 2.16481737024392967284e-001, 2.64756591179702398253e-002, -7.16104583130435790039e-002, -2.93609669815236562496e-001, -2.00417532960559308108e-001, -1.50095224973506524702e-001, -3.43238815976205591252e-001, -3.49761375714828015582e-001, -1.05966930559144620339e-001, -4.51931142473452410191e-002, -6.22948401228288553555e-002, -1.01591351993636558326e-001, -3.27961764335711003504e-001, -2.07183162298154727177e-001, -3.30192671043695540334e-001, -2.70456719180769744604e-001, -3.62030209333115693404e-001, 2.94223203137935554463e-002, 6.97326380250619243251e-002, 1.20326261426556460621e-001, -1.12593002788632060018e-001, -2.28755191679925445891e-001, 5.20541391019146981733e-002, -6.55764234552675961964e-002, -7.90392508237181129482e-002, -1.43791825159379854648e-001, -8.57272664702677690551e-003, 1.39200386423465577446e-001, -6.51786778479684081322e-002, 1.83021565698545718437e-001, 9.28271308765780123196e-002, -6.19966015865454703193e-002, -7.53349710773054820345e-002, -9.77253252648858788953e-002, -2.63168897045391592115e-001, -2.00199622321479524245e-002, -4.38976102303144238848e-002, -6.10050791452512522484e-002, 1.49250200678227529227e-001, 2.60743008406630560891e-001, -1.44536875178455814783e-001, -6.93452859527321635591e-002, -1.24322128503110349018e-001, -1.74674997441831403311e-001, -1.38868650237031904249e-001, -1.30502320691337769798e-001, -9.92741734417303123283e-002, 1.52570628621777087952e-001, 1.55168814196364052149e-001, 7.68692066917788380254e-002, -4.32235823682362019227e-001, -3.42829468098679313037e-001, -5.29372868615303748818e-001, -1.31694728720147230527e-001, -9.73708020829144732522e-002, 8.68460662710007907927e-002, 2.58737403607872340494e-001, 3.78973861541790690843e-001, 1.84242764061566505207e-001, -1.03177492092291697712e-001, -1.43468108257583742970e-001, -9.76568678534809886393e-002, -3.61444952623338686126e-002, 4.08554626044824592546e-002, 3.93145491958625803441e-002, 9.10526982210393825978e-002, 1.64416741280541373049e-001, 3.03923870773418584867e-002, 1.17218355264535736837e-001, -1.09313297603356868182e-001, 1.32481349054810182420e-002, -3.52901678458624523671e-001, -2.38483910657956571510e-001, -3.19338480513894629187e-001, 2.03227009417115800360e-001, 2.35012045293494092890e-001, 1.26992585352661890852e-001, -1.61399010846620033499e-001, 9.07263942826763841731e-002, 2.31849609610975219975e-002, -3.60323897184870456378e-001, -2.37575260902326917956e-001, -2.36693931194714907162e-001, 4.93545559843255390864e-002, 1.73494339365075300741e-001, 1.50704747252820958625e-001, -2.26340654355233927841e-001, -4.65338058828142664414e-001, -3.64207671465152649226e-001, -1.96427797175089069448e-001, -2.68588318149599880602e-001, -5.18737064334316363978e-002, -9.87279372680437486420e-003, 1.94168296272922202839e-001, 2.45895370475298691293e-001, -4.08715796748855275666e-001, -3.06847724963007495447e-001, -4.52814341318756308219e-001, -7.39130078866161582818e-002, -1.40163085358868150232e-001, -2.40463106568909623650e-001, 3.78797943679787640914e-001, 3.01254764763208560119e-001, 4.67180518380901965703e-001, -1.47031591368435715639e-001, -3.07975644409170135063e-001, -3.48485774984454210745e-001, -2.41704941417325375186e-001, -1.80259946299930723379e-001, -1.43021290819654534054e-001, 3.00055954384463141604e-001, 2.63789483899661114652e-001, 1.59802362721771673559e-001, -6.55237033239590288547e-002, -6.82273960281797181571e-002, -2.71239792457953043936e-001, 3.92261889280283854164e-002, -1.55547619109802109927e-001, -2.37514006198088420407e-002, 2.38065885867249332764e-001, 1.61749291702825398476e-001, 2.89082728947494593807e-001, -7.70993329579768987836e-002, -2.43847321388579896251e-001, -1.85203906746448598852e-001, -1.29009122784927904304e-001, -3.89791369731731507375e-002, -3.01933148731151155403e-003, 3.57267107507263440014e-002, -7.33741574249777289696e-002, 1.79141584258674491092e-001, -2.30676739440146910676e-001, -2.34350835963852754951e-001, -1.88439209557642789461e-001, -8.93019063658248568593e-002, 1.34726252154322073684e-001, -9.57007897563139919850e-002, 2.14004302270570267996e-001, 7.49075105126811302547e-002, 1.51407441048640956094e-001, -2.65929441621064743817e-001, -2.80253659043012637309e-001, -1.93964267881761243117e-001, -2.66453513890290538679e-001, -6.50645722782607072165e-002, 1.29091854392229310466e-001, 3.82699709018815725781e-001, 4.39631894543686063681e-001, 3.85966139221611936883e-001, -1.78799948460190122335e-001, -3.25029822251544087131e-001, -2.04001670637979609646e-001, -1.20496954250608204195e-001, 1.86484758601017930335e-002, 4.43540479738756543426e-002, 2.44890452803815550364e-001, 2.61104043919027417608e-001, 2.79779568118031674029e-001, -3.45612280096406654373e-001, -3.01894856999334659786e-001, -3.43095777653441125210e-001, -3.51933791176277377399e-001, -1.70466633247710691590e-001, -1.29255461031123758397e-002, 4.00946117357284304017e-001, 4.32215847008551479203e-001, 1.75520436656152911681e-001, -3.38439593954912187890e-001, -7.08933662146727372466e-002, -2.09087924540802411189e-001, -5.60927181067710334261e-001, -1.32656914279339427365e-001, -4.23968837815949073367e-001, 3.88699005799636676528e-001, 1.72279417891946506902e-001, 3.25909499178257788810e-001, -1.63975108940049435491e-001, -3.40235198904853208823e-001, -2.20799869768196627140e-001, -4.34441497450405167413e-001, -3.64726116195295047007e-001, -2.75509623769248368497e-001, 1.10390348079333025511e-001, 1.49854607157032609921e-001, 1.77045415494377827992e-001, -3.83131534882870605774e-001, -3.85020761101012409799e-001, -2.83592285364495599875e-001, -1.99742461501623863596e-001, 7.54427311301446995584e-003, -1.62117427153912058158e-001, 1.86807274938258716102e-001, 2.59911398410585414709e-001, 1.10767957303964742488e-001, -2.28589634162621402336e-001, -1.81595574845425045130e-001, -7.09718647272470637422e-002, -2.51367254690288630115e-002, -1.59311085415591885406e-001, -3.97664641928950415850e-002, -3.58767459120219317503e-002, 4.88801864694153875845e-002, 1.35651542250044249149e-001, -4.22098107624264251569e-001, -1.69304052508191749116e-001, -2.87032079999940459292e-001, -2.07931406645876282191e-001, -8.37024411220926300992e-002, -5.21458583667310446308e-002, 1.72595732153255104757e-001, 1.41370998150155219308e-001, 1.51413090929828131337e-001, -3.08463685256969667378e-003, -3.76446318698858806151e-001, -3.22393060962323507734e-001, -4.32056112977592610136e-001, -4.16089965590759003344e-001, -4.76884102722509695127e-001, 1.12108933238370234164e-001, 2.66675583490327439140e-001, 2.61989320192056243664e-002, -1.38236533241474279787e-001, -1.01367630554158164036e-001, -2.76586553947532787223e-001, -3.15028576402108684285e-001, -1.58356980449690931678e-001, -1.95440539098600818413e-001, 1.78731370757389845805e-001, 9.40218070197006566824e-002, 1.12238219535545427630e-001, -9.30204968001075230277e-003, -1.15229638647606227875e-001, -4.23333011845523007888e-002, -3.30667912428719568130e-001, -1.38777786812387671223e-001, -4.10651609242266082966e-002, 3.30046465396940713610e-001, 2.30442757983291918178e-001, 1.88190815357449248157e-001, -1.03756474043069965574e-001, 3.54198963760475257767e-002, 4.63899774690873234473e-002, -2.19460410948451228874e-001, -2.57440346390351182393e-001, -1.01974828041879531093e-001, -1.76929484099095674088e-001, -1.75399942355450588760e-001, -2.02623104305562462546e-001, 2.81614345714903888118e-002, 5.98291019435567492102e-003, -1.64617871442844843077e-001, -3.89161159505036657880e-001, -2.52247878725664287369e-001, -3.26888387088603904473e-001, 2.64733611690753489754e-001, 3.70703776051502162381e-002, 4.14200317283837049498e-001, -2.29242680648048119396e-001, -1.09255036176067701903e-001, -6.45930613350085003344e-002, -1.55976944626045332942e-001, -3.14149533095483657341e-001, -1.67645314767367270559e-001, -4.77628370828979895157e-002, 7.06851699243191133881e-002, 2.85502893458511652902e-001, -2.33534896414777232154e-001, -1.44263840223816802721e-001, -5.93839352227452446642e-002, -1.83369390424240330528e-001, -1.16048359463679195969e-001, 3.71732951348385728951e-002, 5.26511061226082252573e-002, 9.04643571474675889377e-002, 6.91089791423276922355e-002, -1.89822890339286232120e-002, -3.78335867105184034398e-002, 4.25321714613753482093e-002, -2.64924316793782643753e-001, -7.11133425292839738141e-002, 8.05003762848684328857e-002, 1.37113448835252643709e-001, 1.17984414249798871821e-001, 2.32756723126791437162e-001, -1.32279910638914782739e-001, -1.66686895727627432118e-001, -1.53039596103003133765e-001, -2.15049151768937601981e-001, 2.39006976230174722486e-001, -9.51879328761413671944e-003, -5.44749559219634416074e-002, -5.62547037935674787423e-002, 6.40625167042845403143e-003, -8.18752781495384399091e-003, -9.47465662438997241468e-002, -1.88632785034032718352e-001, -8.50125203780742605408e-002, 1.45599125669044815456e-001, -1.78939721458557354783e-001, 3.13664679943601421019e-001, 2.63963946858619291636e-001, 2.84863571887003230731e-001, -1.35176659503821489094e-001, -3.07349937590277566546e-001, -2.36138209175135782569e-001, 5.86072147653263347822e-002, -1.97799107244772176539e-001, -1.46477918054611244703e-001, -7.92589215870847935141e-002, 3.75817409915428640721e-002, 3.37372005188361634431e-001, -2.56258683612689608378e-001, -2.25285349841648080416e-001, -2.60480208877105545717e-001, 2.13047702986102455158e-001, 1.47053028715324191067e-001, 2.26659268246516915069e-001, 1.67378235133296450476e-002, 9.26056036039102185853e-003, -3.39145074031580381901e-002, -1.12084947334214174441e-001, 1.03166411433773357043e-002, 8.15908136534903571935e-002, 9.85621671760335965606e-002, 4.89729631940713922011e-002, 9.24804596161714342895e-002, 3.31125937450836571596e-003, -1.18997269051300078035e-001, -4.85517277789376117125e-002, -8.81147420204869413762e-002, 9.34402446712704198850e-002, 7.04734146522422721937e-002, 1.49232911381928456951e-001, 8.56099775233353788018e-002, 1.47172890351235902129e-001, 3.10584391312835189636e-002, -7.44492789197945536994e-002, -1.60019153904151556489e-001, 5.58762927049846480632e-002, 2.45769234028062272604e-003, -3.98901558866962477334e-002, 1.24084995592335253778e-001, 2.86073105586062415018e-002, 7.02829340271540932428e-003, -9.97725605111647873002e-002, 5.17679508373735039473e-002, -1.60218185202077478824e-001, -3.77116658332203591453e-002, 9.13856829459284009110e-002, 5.35318115901910959731e-002, -5.64879032973626821201e-002, 1.08592458609029871019e-001, 1.08330535347597553542e-001, -7.55831151207423251881e-002, -3.27418680391481434211e-002, -5.84167600158593258719e-002, 1.05720641323346742357e-001, 8.15449232776620791530e-002, 1.15101193154552930431e-001, 8.26088533494675619773e-002, 1.15527415986138276560e-001, -5.36608267326371818351e-002, 1.65883118817883618012e-001, 1.18672803863367308519e-002, -3.69890376690684072325e-002, 8.20702105957287625371e-002, 1.09002330333018204733e-001, 1.71735007236163167432e-001, 1.50309754158192108997e-002, -2.02237864523980952203e-002, 4.35604386043373648096e-002, 1.78939758023598349812e-001, 1.13921159240944286362e-001, 1.43693372242186229171e-001, 2.09177351362147045943e-001, -1.39367735489542461658e-002, 1.11596635662125770461e-002, 6.37071148948630122666e-002, 1.38095244191221960817e-001, -4.89685551051374789999e-002, -1.08482713879939560164e-001, 1.25779403477959336732e-002, 3.02433089542992576682e-002, 1.01374357808976342521e-001, -6.36306854400413429707e-002, 1.09611379008303380655e-001, 5.11014565138618592766e-002, 1.64102919367044075560e-001, 2.68453322605209654395e-002, 3.89682458289407201990e-002, 6.46341571795042701964e-002, 6.84907213987308860492e-002, 2.24315768530497956779e-002, 9.44593268326769305854e-003, -5.50659014493144333136e-002, 1.61613043247547716330e-001, 9.90313377640051895057e-002, 1.54440602263772625014e-001, -3.94646593349176275090e-002, -3.34076781426844854339e-002, -1.26427597393761831368e-001, 1.38680545453067488593e-001, 2.59990791630960449421e-002, 7.37724734715693858389e-002, 1.51377868770935508635e-001, 8.94527822438320463494e-002, 4.17079530574009302302e-002, -8.00404020657197456945e-002, 7.40593687225415131525e-002, 6.76316758599647821493e-002, 8.79049706720755677503e-003, -7.22485687150038191628e-002, 1.48725417765147388538e-001, 6.59179410024350875830e-002, 1.37736508456667711142e-001, 1.81329095780897980861e-001, 7.23012233553844557710e-002, -1.95694732962506494356e-002, -1.25070929424043020273e-001, 1.12409383415044555887e-001, 7.14533918739682222254e-002, 2.16950295752621445666e-002, 8.55904768167940494666e-004, 1.51843730312250707604e-001, 1.65422477670285228424e-001, -1.27651797829492624770e-001, -3.54971891141255893598e-002, -9.45925789355229890143e-002, 8.53391873935490791192e-002, 6.28587411498434944779e-002, 3.46247852035238903867e-002, 4.45386893489782900724e-002, 1.28922822152683247410e-001, 2.73846923148304312312e-002, 5.35728650590373695062e-002, 3.27159148657248308179e-002, 6.86804142919079652074e-002, 1.24439682265877288314e-001, -2.68446403173226710859e-002, -5.12871176460863373303e-002, 8.92784309207260290409e-002, 1.85068733346464259215e-001, 2.30499150810160063907e-001, -1.07162050483641357879e-001, -4.44085465445341609492e-003, -7.95200446618241074681e-002, 9.85930379993686240025e-002, -3.12933082385126945524e-002, 1.18062182162674000896e-001, 7.99329607337541658829e-002, 1.70657071640197416373e-001, 1.57545714201539899246e-001, -9.19320826340414565259e-002, 1.74125566273999020372e-002, -1.02216654485882907366e-001, 1.84769642386026555769e-001, 1.62123755477147579729e-001, -2.19378390310954150821e-002, 1.26900620283433213098e-001, 1.76905242953194832833e-002, 1.45100022273710660414e-001, 2.60041339191945976295e-003, -1.04460944685729223425e-001, 3.20290552925480906388e-002, 1.60074628867822754685e-001, -1.04061400063347811451e-004, -7.53672345619674499684e-002, 1.85560038717201530867e-001, 1.14989386524902079123e-001, 2.27312737505929951531e-001, 7.12543275127492659049e-002, -3.91045673749031361122e-002, -7.62658032835428732754e-003, -4.80495290906146621523e-002, 2.37134704105115869111e-002, -1.71479306086074721749e-002, 9.79120031968677972944e-002, 1.85800555309651921343e-001, 1.48179375497166310183e-001, -3.60666496937352212826e-002, 6.34687460729616015342e-002, -4.20369349110988471674e-002, 1.94291579229981456467e-002, 1.08436080926115271938e-001, -5.70652556650726380805e-002, 1.87841913290639039857e-001, 1.49333969959759171875e-001, 1.81118767599775160049e-001, -2.08649072206117391914e-002, -4.43567841130537154903e-002, 1.08940998946537817571e-001, -3.83979748402928297568e-002, 8.30275399040764916503e-002, -6.51191100109463488765e-002, 2.86382135400664386560e-002, 1.62714000084770160637e-001, 1.02807156675189179107e-001, 6.52767572640252230487e-002, 7.31920739245634222048e-002, 6.73608648657224584611e-002, 9.14084646012255745695e-004, 1.45744993143995971163e-001, -5.14674838751860361241e-003, 3.14328860061706474860e-002, 1.39461565481974331115e-001, 1.26057673303734907311e-001, 2.33967082944359049124e-002, 5.83920657295912068352e-002, 8.46510012268999467722e-002, -2.51201975542548611164e-002, -1.49979147630907357763e-002, 8.26881657442880557696e-002, 1.53733719416541597669e-001, 1.52079058223565766195e-001, 1.55033621674588423245e-001, 8.32465699881800996751e-002, 2.79961450840928161021e-002, -1.30863719029276404093e-001, -3.10972939285101626639e-002, -2.15783499002322118332e-002, -2.74065212783446386646e-002, 3.39114642487967701823e-002, -7.53212249813286962435e-003, 1.96248597447376688097e-001, -1.01914121857261716353e-001, -5.92779089854645890867e-002, -2.02552113576990738819e-002, -3.20890376822908218735e-002, 4.08369349090304048500e-002, -3.58639971261193735153e-002, 8.59943356248502044359e-002, 1.81675385135113109936e-001, 1.93663273438128086257e-001, -9.68617789571779158608e-002, -1.70416641504380100836e-001, -2.15085169277627651432e-003, 1.25956779694840925732e-001, 1.94800833760546132645e-001, -3.42165951519298947026e-002, 2.30715356593023057652e-001, 9.50696150422221802900e-002, 2.02942344895082095457e-002, -5.97187747133974683456e-002, -3.92628440172732712243e-003, -1.31395636990996239613e-001, 1.02692762630778172683e-001, 6.80541266347122614233e-002, 1.25243053707369354083e-002, 1.33883798107259338606e-001, 1.49524494660518730837e-001, 3.08886498192975228472e-002, -2.95831335703943439086e-002, -5.75233482670810883364e-002, -7.77447512245241778572e-002, 5.64518691425168542275e-002, -2.81399908970519571638e-002, -3.71085837913245272790e-002, 4.00112661139090941553e-002, 7.69851385823045741841e-002, 1.82772332796783190667e-002, -4.38086201487724868908e-002, -2.49448856200945694173e-002, -7.15609463745813106916e-002, 1.85101484773620289515e-001, 1.21036294611516839770e-001, 5.90144209526631408069e-002, 1.48064619864338692379e-001, 1.23314089167615797971e-001, 1.23530742487471478785e-001, -2.17214783515154510884e-002, 5.63557100617773920614e-002, 1.09131482118439412932e-001, 2.85022654504582424739e-002, 1.25241058394276127963e-001, 1.05006112012166225034e-001, 1.67848516361120636553e-001, 1.93711253818120737735e-001, 1.84848437408248383873e-001, -3.79766471159077509401e-002, 4.93991577225082606484e-002, 8.96828695362660577306e-002, 9.38721866219213996185e-002, 1.51967824927241562660e-001, 9.28607285417037547903e-002, 1.77746167457233983367e-001, 9.39617811100854904982e-002, 1.24506661309261634774e-001, 2.00412616153507368300e-002, -8.74581362379680954389e-002, -8.67987176495499945794e-002, 2.87040842472538332286e-002, 1.55316304405822502854e-001, 1.03337731237844149268e-001, 4.51103964235580606745e-002, -3.12600633877691963525e-002, 1.24163010424092890016e-001, 1.03366479695857743648e-001, -2.14675561171213218070e-002, -8.69209856723481832930e-002, 5.23110538679881012514e-002, -5.37892171501898504193e-003, 7.71217784437527587027e-002, 1.19211728037454389728e-001, -1.97925174542742179917e-002, 5.05008700757925282909e-002, 6.18541329305918458070e-002, 2.47208119451543008316e-002, -5.32007355818327545838e-002, -8.04086424426091184170e-002, 4.22629128660528888273e-002, 4.13113604340528128844e-002, 1.83880719868848629961e-001, 1.95968606554801583197e-001, 1.22852721613232272052e-002, 3.97904565403423213232e-002, 9.19975155524627857817e-002, 2.63848281971289719272e-002, 9.83246331253129352001e-002, -7.95873258591494117664e-003, -4.60748942297873262386e-002, 1.35925211518913263697e-001, 2.45241413462274654433e-001, 6.62843886358815276294e-002, -7.10545462493708812612e-002, 8.75676341743760050518e-002, -5.84411054470111782089e-002, 1.48889036483284248336e-001, 6.06350347024883010172e-002, 1.02452149909894804636e-001, -3.17552358605287894308e-003, 2.80603742783563300800e-002, 4.47340928812707261386e-002, -9.11810630795153453931e-002, -1.10549461705032728287e-001, -1.76685924962296896090e-002, -2.36190002171279660181e-002, 8.47788922754139917526e-002, 6.91641947338006018997e-002, 1.93165095948862990116e-002, 1.36574370680201812034e-002, 3.74521018265746366560e-002, -8.48784263101096392301e-002, -8.57970052049977782715e-002, -4.33584756812606247900e-002, -6.66450550385849910251e-002, -6.76716242754423213945e-002, -8.31280732864655286241e-002, 3.94945179987095038032e-003, 1.08747237106855534905e-001, 4.79496833908546193914e-002, -1.07300313911493361285e-001, -1.11811839677505520108e-001, -1.99993618785533899818e-002, -7.21463713156697827866e-002, -7.24463029163185251447e-002, 1.35610887168836957706e-001, 4.00085191058674460862e-002, -3.32351325869263969359e-002, -8.10244402151039377902e-002, 5.14508737711188227082e-002, 2.01287427796465823518e-003, 9.14608487217053178764e-002, 2.72877853843888143470e-003, 5.66086038978615146977e-002, -2.42126589285771853799e-002, 1.53538220000211611538e-001, 9.15252515981138103918e-003, -4.82461631754184869236e-002, 2.67368250646329540243e-002, -2.10021196901478707925e-003, 1.93002128865934659274e-002, 2.08025067423263029798e-002, 5.53948830842364361993e-002, 2.63249111261505382500e-003, 9.44889196146797213927e-003, 8.67478801887443112806e-002, 4.16469395617640791851e-001, -6.95543915030975568037e-002, 1.25779682238384926674e-001, -1.11829146022264180882e-001, -4.08793087858276629754e-002, 8.08115699954074645506e-002, 1.20237407493321138419e-001, 3.36927641340044381479e-001, 1.79118151514812307123e-001, 1.81817198283501790801e-001, -4.27299182085535758646e-002, -9.23143788490462802176e-002, -8.92094105078416049759e-002, 1.66982586060541332053e-003, 1.61715694671397403059e-001, 2.07219936015014483122e-001, 8.52930131396563567803e-002, -1.41100509852130157062e-001, -9.96330133115317373438e-002, -3.29499243828408394652e-001, -3.58918303471251698422e-001, -2.28781123305268202506e-001, 3.18245096926455472985e-001, 4.43516793325701930151e-001, 3.78403186856722972831e-001, -2.12259596380456300180e-001, -2.51669355515417969560e-001, -5.97424753914529635401e-002, -2.01270320786477198427e-002, -1.07467964192475382013e-001, -2.54526308073101281693e-001, 4.21380116196884590973e-001, 2.38977907463563510326e-001, 4.65569760937994625571e-001, -1.39120640607162698865e-001, 6.94854739270945598317e-002, -1.30365071494785461637e-001, -2.94822584502518025840e-001, -1.53646485124509651898e-001, -1.24115844901479116524e-001, 3.52314626960587462534e-001, 4.97661541066999058014e-002, 2.51798549499117563233e-001, -4.30124556320203646487e-002, -2.29403540390129945248e-001, -1.88133037841068634366e-001, 1.57680601932950248401e-001, -4.70734376382170166542e-002, -2.17145862843357351224e-001, 2.49854768618096079180e-001, 1.91568618651942745856e-001, 3.13909846939198211579e-001, -6.80667429438824578281e-002, -1.87257144799438779437e-001, -4.96879657312456757268e-002, 2.39585744637620889907e-001, 8.45772839793998976177e-002, 1.86780768066258484605e-001, 2.30445613247604930152e-001, 2.37804459349023805670e-001, 2.90475479698410365970e-001, -1.70365620963422115253e-001, 1.13501054821385921612e-002, -9.46636044396360759601e-002, -1.55300072680449152696e-001, -1.13271114593204852428e-001, 4.85660125739154763247e-002, 2.16188111844070690593e-001, 1.44898130807030067757e-001, 2.53048739154608848256e-001, 1.88156018066838626179e-001, -2.13002674799688783425e-002, -6.68382341320632872295e-002, -8.68049023357410180768e-003, -5.64600885848873593198e-002, 3.41882520192829386652e-002, -1.63392562621102123595e-003, 1.49506498435975188066e-001, 1.66026342116533026649e-001, -6.24063278309880398176e-002, 6.60735017016244319255e-002, -1.50801616679057531867e-001, -1.80341837235392210559e-001, -3.05746543357469757751e-001, -1.61431657637959080631e-001, 1.28594401551652304239e-001, 3.25504868732758578798e-001, 3.32198078834118448732e-001, -7.60409561418604468264e-002, 3.67534882649870192628e-002, 2.48221311476007233665e-001, 8.47169505012082130202e-002, 5.90139286051126893407e-002, -4.09750867855485367830e-002, -4.38916389836375639422e-002, 5.39408473140215796726e-002, 1.55392186081904720707e-001, -1.67395709929102465274e-001, -9.80319151794097343178e-002, 5.86518406504203532181e-002, 1.70648426570732036911e-001, -1.69765166660771182894e-001, -1.63527473801309219947e-001, 1.46351095302565875622e-001, 2.84642943157540129206e-001, 1.84532286065624051563e-001, 1.79039294695413839231e-002, 1.30828372552817095986e-001, 3.37827762698257724402e-003, 1.02628428282383027392e-001, -1.21342790439793221657e-001, -1.01691989503186253074e-001, 3.61866422473205329169e-001, 1.51242912198739948293e-001, 3.09595441908004920251e-001, 2.21382312745646153695e-002, 7.52953770872103744782e-002, -6.65521622718844435562e-002, -2.17436952479947709360e-002, -1.36186372108192871311e-001, -1.85189877110846431996e-002, 1.41601563314114664571e-001, 2.02671829291856842037e-001, 2.64240731157807495766e-001, 2.66575620042212727348e-003, 6.01496632390042529348e-002, 4.11787781030098845592e-002, -2.09414279056992641559e-001, -1.00030694591999577692e-001, -1.92743531643432330913e-001, 2.42711835783861878957e-001, 1.06868741228683422628e-001, 1.15204505007686974771e-001, 1.76153161051707168872e-001, 3.07513020522136193424e-001, 2.51551711587604531761e-001, -3.50984872100686406959e-002, -8.96169431382677766917e-002, -1.03938094545244386069e-001, 1.92674447800089021499e-001, 1.50126083062277621005e-001, 6.86086773275873113009e-002, -1.02668996987040614388e-001, 1.27403759974120435461e-002, 1.33997020678485900813e-001, 1.69256351116728043227e-001, 1.99405845282062885171e-002, 2.39587636413371468658e-001, 2.62206872162206061638e-001, 9.81479765307490814585e-002, 7.39726441078768781612e-002, 5.25356348479685403285e-002, 1.56390489718125774710e-001, 4.16059254906302605770e-002, -1.41374974962387323085e-001, -1.73832551735034812612e-001, -4.82236103124400877773e-002, 3.26238387144726194045e-001, 2.44348538110662483192e-001, 6.10605722721868707237e-002, 1.30224868704673563125e-001, 7.51230786687269724844e-002, 2.24935936457556599766e-002, 1.95768297081380555913e-002, -9.35373050273480277639e-002, 1.28744530652653871305e-001, 2.37473631360407305690e-001, 1.66498453225055270677e-001, 2.50863795044584336758e-001, -1.05866305415081387621e-004, 1.47197601859606563846e-001, 5.30394034508600564770e-002, 5.47671845682059718619e-002, 1.84788041538717640044e-002, 8.68741395022544771187e-002, 1.34619894277235724322e-001, 9.15191152613156061468e-002, 6.92968254347412632166e-002, -6.22948021091197304266e-002, 1.65250098268687778402e-001, -6.74267017764882958808e-002, 3.58911055774167389587e-002, 1.97211389020811533879e-001, 1.59934603681109177575e-001, 2.14685763227170200995e-001, 3.00491346694897083769e-002, 1.99617614566687612276e-001, -7.53042534974447674845e-002, 5.08113431001932097653e-002, 1.46493139572662106618e-001, 3.20255153230447231483e-001, 1.33466032236452647464e-001, 2.17639088126890922759e-001, 7.50453539211733966496e-002, 1.18750189653484911068e-001, 1.30128923064777024532e-001, -1.98610130799712798766e-002, 1.28406314457035430898e-001, 1.72132052019765002804e-001, 5.85426129053735963548e-002, -9.26394383986131747521e-002, 1.36984713218956458136e-002, 7.63617604690470241913e-002, 1.82142311264673811833e-001, 1.22118851190368901682e-001, 7.71553635992589248449e-002, 3.72403418656772275397e-002, 4.71265799361118495336e-002, 1.06888899065375131414e-001, 9.81199936477595430206e-003, -2.12999087474562802391e-002, 1.24174321383742375380e-001, 1.50955005980717565928e-001, 3.13160761789760683227e-002, -7.18850040636810488914e-002, -1.23533749319896302143e-001, -1.37638311031758470149e-001, 6.44592601034497947321e-002, 2.59085569726590497774e-002, -1.66319232262461709493e-002, 3.66002603240670743023e-001, 1.70426281383008887405e-001, 1.85322155479626271557e-001, 1.39452762310606458163e-003, 1.45339856047538244083e-002, 2.99937158911346216095e-002, 8.18460248820431363059e-002, -5.77573564595698293878e-003, 1.04212304382174644757e-001, 2.29878214234990919940e-002, 2.15431631042787147257e-002, 5.57032483562143257427e-002, -6.97237274383636761871e-004, 9.05239773879936704404e-002, 4.79503004020535796188e-004, 3.23255301047452592300e-002, -4.41775604441472513617e-002, 1.47706989652675202418e-001, 1.83520135815362361864e-001, 2.11090121064032326670e-001, 2.35689175759263777610e-002, -2.80271565946395226354e-002, -7.17563992169473630761e-003, -2.58668065437488992053e-002, 1.02576399696229832864e-002, -4.16933692158666519001e-002, 6.51495661988166219203e-002, 1.78513464449864822647e-001, 1.14771542681865984514e-001, 1.49818890286639749831e-001, 1.38065794388555485028e-001, 1.49421338133484626898e-001, -1.02439413792484966537e-002, 5.54495974101029479031e-002, -4.42320261262581712614e-002, 1.67906658089149035673e-001, 3.55522151648658468748e-001, 2.10917162116048023668e-001, 3.29253021898102737897e-001, -1.02642934361014140365e-001, -1.83727470744851573148e-001, -2.44857856150160063669e-001, 1.66234402721833415817e-002, 8.22838846494049896974e-002, -3.22906005737303714032e-002, 2.87506788983978855967e-001, 1.45530950528472508010e-001, 2.57785783961173464718e-001, -1.41744476976053884743e-001, -1.36944445295380579086e-001, -1.00886159075345746561e-001, -4.34386665459139328926e-003, -3.13123943837948434665e-002, -9.84329254755638843877e-002, 1.73672749543397259009e-001, 2.06036935823130012979e-001, 2.03031156440567212007e-001, -1.97211809868090892639e-001, -1.50567445017658091411e-001, -7.40299804664775878971e-002, 1.08367254468153331737e-001, 8.18294791384200637108e-002, -3.72837017993211533584e-002, 3.51688787134813773960e-001, 3.14038786157612048733e-001, 3.47445441350771266897e-001, 1.21290102525886692164e-001, -1.39980673081786077816e-001, 5.14605937931884374614e-002, -1.23235151175103946342e-001, 4.62439850727835374822e-002, -9.97951719900590783485e-002, 1.34817821150731653734e-001, 1.99495567723766836776e-001, 2.27006219464069763925e-001, -4.77144727526503872883e-002, 1.34930876698574342409e-001, 5.22506566706896213859e-002, -5.52449267329531215620e-002, 4.89361217808685633468e-002, 2.29475464227429475084e-002, 2.02830863939109512506e-001, 3.07391076140075270029e-001, 8.91113304559366659063e-002, 5.31017879101304407508e-002, -3.27951388436180588104e-002, -5.66930622360978103691e-002, -9.29313472566374240702e-003, 2.57106593859455112572e-001, 1.90864331722958441295e-001, 1.24356971831552226559e-001, 2.52718007258220356270e-001, 1.27203745575485499542e-001, -1.42614638554737993559e-001, -8.16668765659184781036e-002, -2.42580222993495076000e-002, 8.97211563399524375528e-002, -7.84138318108187210020e-002, 6.02756574568506717227e-002, 1.13249679820068907543e-001, 8.70341847509482069434e-002, 2.58091548502967338408e-001, -1.56169964792515381102e-001, 4.59588156343122902769e-002, 7.92855074251253288953e-002, 1.37696885214996067592e-001, 1.85937143274617827648e-001, 2.73066614557872233693e-001, 6.44678172433612028946e-002, 6.03455947581474153041e-002, -9.86422777614003598590e-002, -1.31247230518585999981e-001, -1.31809837026348963818e-001, -2.07646017933348997486e-001, 7.90154679028815531971e-002, 9.25203899597819567902e-002, 1.36569222931351902384e-001, -1.81461666703708942444e-003, 2.54850957415112717996e-002, 1.95477684856514649647e-001, 5.02073245240287902025e-002, -1.11570307025221152064e-001, -2.44211747137369372673e-001, 3.42451027693758569548e-001, 1.74034478456863705986e-001, 1.32505255173863550899e-001, 1.30873426210424748106e-001, 2.07847177906908098244e-001, 1.41675217511255252534e-001, -9.28004299597917359232e-002, -2.09069933824474751827e-001, -2.87381224090735021282e-001, 6.26320882196650663420e-002, 1.36259167964521005212e-001, 4.46435149910644132887e-002, 2.25262988354222537524e-001, 1.35294911173575366226e-001, 1.27677995227441221093e-001, -8.03898571637919334698e-002, -1.76891129620989184801e-001, -1.79498296280717728468e-001, -1.46731135945405682941e-001, 2.40881675119016432085e-002, -2.13321346975024611625e-002, 1.71949887375290794145e-001, 1.97321397830492378800e-001, 7.33708504495603347495e-002, -1.14415145029550927025e-001, -6.03297872857123454460e-002, -2.45388070417970199921e-001, -1.47558029588414379996e-001, -1.13235212241810184741e-001, -8.00271092336608952378e-002, 1.18535076991055171591e-001, 2.07118717205462155029e-001, 2.07191507387390172479e-001, -1.46021363083990329823e-001, -2.08675301806061003207e-001, -2.65202659761869130595e-001, 4.25645993556761220722e-002, 7.94162363594746734119e-002, -1.20350403527994337383e-001, 3.76785669051071664404e-002, 1.83147718204717924184e-001, 5.78122979455913330038e-002, -2.24489171507617213397e-001, -1.06105672665677858157e-001, -9.45661707388845279576e-002, -8.49859185336583194958e-002, -1.12569784113370208178e-001, 1.13678978983956114474e-002, 7.62674582577473614275e-002, 1.85199395023998597543e-001, 6.03994047043762971594e-002, -2.13504537836218893920e-001, -2.66268801806753829808e-001, -1.77024030714299646094e-001, 4.20155258558917773376e-003, 7.40701389793178427423e-002, 3.76911304113842701713e-002, 3.50764151657667333506e-002, 9.77196662681177052878e-002, 1.38998417255015022098e-001, -2.34391398421299024246e-001, -8.53298817243684226685e-002, -7.02885749644200363839e-002, 4.99550012010895813641e-002, 1.95091025366375091232e-002, -3.77917975670306188762e-002, 1.22512162994684287165e-001, 2.09595027616703871720e-001, 7.42780978729622037848e-002, -1.99038784976142135719e-001, -2.11010478699604681063e-001, -1.51307960504065308616e-001, -5.09993906941430714952e-003, -1.72031771835184075538e-003, -4.25293047801472423597e-002, 1.19715213340706186362e-001, 1.40027950359141811765e-001, 1.72027382844113396754e-001, -1.44979234262693434943e-001, -2.07218884379170104060e-001, -2.61715173230088915535e-001, 1.70770678649870451260e-002, -7.56896168302523958404e-003, -6.72814141876875750070e-003, 2.34449983156930358286e-001, 4.22597971703899261131e-002, 1.51948859486493031978e-001, -1.81822815530511550097e-001, -5.27611194725190330024e-002, -2.27789463115256163306e-001, 3.11356808123134098931e-002, 6.96691366028659025966e-002, -7.30383853821876954937e-002, 2.57289478418566364137e-001, 1.68176061852853830914e-001, 2.16667541054106294052e-001, -2.52832180848144683072e-001, -3.30753154478680908013e-002, -2.59233283601071229363e-001, -3.40778232265612629481e-002, -1.01561760438437273524e-001, 7.39085134087719697327e-002, 1.03978972503336652977e-001, 2.06792067538564716678e-001, 6.69767869112577601820e-002, -2.56220803305962752106e-001, -2.32981835226327677058e-001, -2.32398319132052444402e-001, -6.96986234382974967350e-002, 7.77084029997935216150e-002, -1.18793454263520170677e-001, 2.52050280516360303285e-001, 1.49808560437664356479e-001, 9.55818835118560222730e-002, -7.70541351940251667552e-002, -1.63920780477508798434e-001, -2.00545768509361038712e-002, -2.30991690824140782912e-002, -6.16331519238848546394e-002, 1.92910278148092119432e-002, 2.40118690680273139115e-001, 2.06219875009408332156e-001, 1.90147823703711194021e-001, -1.70764548701054147406e-001, -5.84344001625473133399e-002, -7.78353463021300290281e-002, -7.68218878212476169454e-002, 2.35015535919296976453e-002, 4.94560765967954618638e-002, 8.61118332398861791033e-002, 1.36427960396044156699e-001, 1.54142917495377812509e-001, -8.13772770784737808913e-002, -4.83020577196932310304e-002, -1.04238763889701491205e-001, -1.02981506313838067079e-001, 6.36899346119969983482e-002, -6.31877941050105335075e-002, 2.17247832423118097944e-001, 2.42903588962250727157e-001, 2.59461055122742645374e-001, -8.51962758735759634332e-002, -9.33254448342522163751e-002, -1.95778628543806426654e-001, 6.60013293828224795190e-002, -1.01334038476930607398e-001, 1.68900608642053549902e-002, 2.20677793396800742132e-001, 9.90936136432876424340e-002, 1.16478824150571452778e-001, -5.79051532001677131400e-003, -7.46319410468468807940e-002, -1.40062534438075481091e-001, 3.15010072982437813738e-002, -6.88728877859954152774e-002, 2.37210840860436547595e-002, 2.46536413956799205227e-001, 1.50327158682321299077e-001, 1.24501117961185597816e-001, -7.42748903826348505497e-002, -5.52444839067214241157e-002, -1.29283681495913155279e-001, 2.05941201510602134306e-002, -1.32113037292115320653e-002, -1.74566388421115749330e-002, 1.12311245027089570692e-001, 1.01386260598015739975e-001, 1.73523627946685243817e-001, -5.21577176489287433481e-002, -1.03578373356922937010e-001, -1.04418966801861412552e-001, -1.07438835077206751301e-001, 4.24813617357654420975e-003, -6.64533795397058008048e-002, 9.30113092164136373574e-002, 2.12430031715749784160e-001, 1.68400024737803827302e-001, -8.54811337426688994112e-002, -8.26441130180300409513e-002, -2.41874059502416027811e-001, -1.31700236902272421746e-001, -8.78399487847905668936e-002, 2.78356323310303202523e-002, 1.21910756643132389687e-001, 1.40273763576309884460e-001, 1.99918225061528509467e-001, -1.05990167341835972437e-001, -1.27102767437285990582e-001, -1.00101583866560484015e-001, 4.29925518018128074993e-002, -1.15519520614878495879e-001, 5.47453587247111322922e-002, 1.44938537602376571467e-001, 1.91898051444370942864e-001, 1.34534729166482291962e-001, -2.31700284647659737747e-001, -1.80630221530208995295e-001, -1.94435882203067261775e-001, 2.34487676916021042794e-002, 1.50944907023771914684e-002, -5.12054257537108772902e-002, 1.30957873718989648015e-001, 8.65846272688963330966e-002, 1.01511656054883617206e-001, -1.85900815502526239875e-001, -6.09416015243480421737e-002, -7.61279661108256733293e-002, -1.66814228344295600870e-001, 4.30666879073278007634e-003, 3.31008287953774710255e-002, 1.80689641780685583683e-001, 1.96714988012684388607e-001, 2.24175633208013452835e-001, -7.40171737803279328194e-002, -1.09775169622647467138e-001, -2.60128730287135512267e-001, 4.47527875094718557980e-002, -4.91287729234102174547e-002, -8.46665022628098618007e-002, 6.96724793249150209373e-002, 7.19689519201780203428e-002, 1.15813368428213547823e-001, -1.34544950270559043881e-001, -2.17961372927908347830e-001, -2.40748776626672378320e-001, -2.36320340292743014121e-002, -5.28043627704102083720e-002, 2.13576375232923040826e-002, 1.12009909886946742996e-001, 2.50438742480510789790e-001, 2.21067785507004149759e-001, -1.50368935603360787123e-001, -9.34850066273083812884e-002, -1.91190249972462950057e-001, 1.03277686468602643288e-002, -1.03392096969610478019e-001, 3.03138868805802284834e-002, 2.17923644509296049465e-001, 1.82837379507610503504e-001, 5.74508384736160879203e-002, -9.32003891903677023079e-002, -1.51693048495591453761e-001, -2.13843782877740473669e-001, 1.88462305735727052303e-002, -9.93945771840524655572e-002, 3.12323529870952541765e-002, 1.41857275171635738298e-001, 5.59045974207713139426e-002, 2.36023796135158864251e-001, -4.44308235847738625113e-002, -2.22445477560623300350e-001, -2.18194164158401315845e-001, -1.36504691748358386594e-003, -7.61413287427947088615e-002, 1.37271971057168096220e-001, 7.52102720360843246539e-002, 1.49143757318959846447e-001, 1.51624507720893086926e-001, -3.79889632376935390545e-002, -1.95480992574159018194e-001, -2.37783710744648463242e-001, 1.74763343656567510243e-002, -1.10589791977517878929e-001, -5.08334252781651313446e-002, 1.41424099295897470752e-001, 8.17906473776066900161e-002, 4.07587264456578668437e-002, -1.59505422477269453996e-001, -2.78642388398318494036e-002, -7.39059933368521465580e-002, 1.30110610163162547515e-002, 1.24565583071855369435e-002, 5.12733315647437015716e-002, 1.60606059922725891154e-001, 1.88772560063511563033e-001, 2.43725734447285097284e-001, -1.21977042514781648663e-002, -7.02263132764554820486e-002, -1.99983572677420951003e-001, -3.74576466836518268133e-002, -2.48629173803378566987e-002, -1.61448280256322419454e-003, 2.29742252212850966986e-001, 1.62943331005357600061e-001, 1.45529109716455717916e-001, -1.38513849869842498030e-001, -1.22958346878922236689e-001, -7.93552369040924077126e-002, -2.23654456119402426928e-002, 4.60749674289958610629e-002, -1.04522283623819503551e-001, 1.33801826729193801269e-001, 2.61183924293748148671e-001, 2.99202133754802729326e-002, -1.16004032224507711013e-001, -1.98656054018173294784e-001, -2.25990449684939143093e-001, 7.30227771134253356156e-002, -7.84932949904038751443e-002, 6.62243902370575204808e-002, 1.91574029176619031745e-001, 6.03163861522569566542e-002, 2.06033109753366833194e-001, -3.25560338066063284512e-002, -4.42633062236155103153e-002, -2.13793531520851287642e-001, -6.32395506783749727919e-002, 3.39171187554825623658e-003, 1.16920220569167274127e-001, 2.53757054897550793360e-001, 1.48905891108536331258e-001, 1.86225505455277218214e-001, -1.86209418612076432753e-001, -6.99598598517338771119e-002, -1.85619331581096197459e-001, -1.43560705545259043037e-001, -7.19897598330295901414e-002, 1.02741217885784323627e-002, 2.01254286395943393639e-001, 1.61475875707579402674e-001, 4.00011639863879775447e-002, -9.89841950031948025757e-002, -1.68158523392691466869e-001, -2.35089512320746457652e-001, 2.56024376742118205119e-002, -5.58650166693123867434e-002, -1.35043056321328710893e-003, 1.98661658161302073777e-001, 1.96483197639047618699e-001, 1.83727230598159790853e-001, -7.69971518766798118660e-002, -3.71477022014971569597e-002, -1.26613691842625997186e-001, -9.47233541814909707490e-002, -1.36653018377851209753e-001, 4.08087247263404367947e-002, 2.25902508491473030805e-001, 1.19575618799591040786e-001, 3.14490344901964605229e-002, -1.86611509585962981328e-001, -4.87447112239437485570e-002, -4.79076328348364208209e-002, -1.39455503215298428146e-003, -4.48856114805302186532e-002, 9.21902547906603975214e-002, 1.71206303720015495795e-001, 1.95456130625949464630e-001, 1.45845835596812134494e-001, -1.05256734726361975141e-001, -3.66644215981670601456e-002, -8.04862605782498685691e-002, 4.30617465771080190629e-002, -5.70103663163644847761e-003, 1.16242603733311050673e-001, 2.46695372014967578833e-001, 1.76034500593264087165e-001, 2.22205647080037982377e-001, -2.00188703245707783074e-001, -1.70140076618448599088e-001, -1.60000233027475430303e-001, -5.21452726110297470896e-002, -1.41963402873527960724e-001, -1.23670149777448307171e-001, 2.03586874386253252611e-001, 2.00225436621664504289e-001, 1.66790988327924522006e-001, -4.95638541431264387227e-002, -1.52150635062598682534e-001, -5.32547408851069409286e-002, -1.09058548997453486074e-001, 3.86116728288011246129e-002, 3.59705645524503597743e-002, 4.12220248915667053513e-002, 1.48997379035839788708e-001, 2.69954114336751482828e-001, 1.55243570594478158542e-001, 2.33800943595982829715e-001, 3.54008901534032305314e-001, -5.84027148569213408469e-002, 2.59924366327920035313e-002, 5.82857164951317147095e-002, -1.13187578446120540310e-001, -1.18848818889773222285e-001, -3.28199644374124813173e-002, 2.63601907060354301304e-001, 2.28870874634573034934e-001, 4.12140343103808537428e-001, 2.22175926698553113936e-003, -9.54457334520459332872e-002, -5.14522689869766208792e-002, -9.55561857282719029349e-002, -1.88227288442836565574e-001, -1.02166419705915612059e-001, 2.56367120957321170671e-001, 1.75047172804459277851e-001, 2.28459139419964901707e-001, 1.99900689105760344388e-002, -1.59017479371213771300e-001, 3.63552608126331486260e-002, 1.06822063658336713354e-001, 1.53547385731909596940e-001, 5.53755418404790478171e-002, 8.27926855776975473278e-002, 1.93541217168824608574e-001, 5.34464972015240430414e-002, -5.66562634473523410450e-002, -1.02865182698802532651e-002, -7.53102124837841807592e-002, 1.26132656111750063310e-001, -8.18825070504433788487e-002, -7.83289367428699201401e-002, 7.02277366815832193581e-002, 1.39620625369444695263e-001, 2.10808771241628584159e-001, -9.28710762662462163686e-002, -7.03329593840486683165e-002, -7.90120700108265655581e-002, 1.22153573436154599952e-001, -1.15968303480944306960e-002, -1.05617269341134994987e-001, 2.33700148178123484621e-001, 6.72578422194274883061e-002, 2.10268931881798598615e-001, 2.40979114548336703638e-002, 5.83500301958088558874e-003, -1.53866006297554119842e-001, -1.34477176287693317436e-001, -2.41965189117513863881e-002, 4.88658706418215130901e-003, 1.04808265592151991785e-001, 1.62655592204280413648e-001, 2.01029185489578765544e-001, 1.56434846237913205425e-001, 2.68356755373352490190e-002, -2.47060916821675857769e-002, 9.11823630640872934139e-002, -1.00165142707958149115e-001, 7.76055356387742589774e-002, 1.19215047385982833572e-001, 1.22058228887854128275e-001, 1.57342643827599298900e-001, -1.41699823375655564739e-001, 6.31053834920072692638e-002, -6.79524619278316574511e-003, -7.70028451349339809751e-002, -1.30179047747854353956e-001, 2.98579792385166541135e-002, 2.91900396537228046245e-001, 2.83554267389104552866e-001, 1.79042059267859460236e-001, -2.81336464853771499317e-002, -4.25297838147756651628e-002, -6.44604720553021010021e-002, -9.08576221523364757626e-003, 9.79817199223223106452e-002, -1.87264918208904396213e-001, 2.37405500677304870383e-001, 1.91858892331589869773e-001, 1.64468214675966228899e-001, -1.52300164852609110078e-001, -1.32049201363716228741e-001, 1.69839050313698317410e-003, 9.55195881065109136943e-002, -2.88418394209559864061e-002, 1.36413581730219446442e-001, 1.81051936378652300608e-001, 3.12436379012642262420e-001, 2.24219982396766215338e-001, 4.25340983774500983050e-002, 6.14401085966609014632e-002, -1.42986455010300234775e-002, -5.28823781088377381510e-002, -1.85802323372788985578e-001, -1.64780820062944248494e-002, 1.28619232169086605833e-001, 1.80956340511525815007e-001, 1.61575401699787291054e-001, 9.68550438906815198969e-003, 2.59612687776582772015e-002, 6.33687059451296524903e-002, -8.55535202034677089156e-002, -3.50294052390576343692e-002, -6.77311203195398447985e-002, 1.35755490567281589254e-001, 1.84709189105972337863e-001, 2.66604355833423345423e-001, 1.14605576700812214486e-001, 1.22374452429251535240e-002, 5.91435461315035215790e-002, 7.47627969969627687030e-002, 1.97141343208547398236e-002, 4.18229798550547940406e-002, 1.12175380908817609593e-001, 1.13161217311038272970e-001, 1.26207175545642424908e-001, 1.61370433542846941632e-001, -7.97723592891079330558e-002, 3.37368238815317772472e-002, -9.83917537589120427821e-002, 5.51603490058139092622e-002, 6.58718615272180368914e-002, 2.81805500454823720791e-001, 1.90905392730368800303e-001, 2.25038438879818475380e-001, 4.35774954245942980346e-002, 2.49041614158327468884e-003, -1.36540439986498646219e-001, 6.48490113827498299015e-002, -1.16335309307062317874e-001, 8.01013782145406777468e-002, 3.34858671084276582341e-001, 1.61377790775915880284e-001, 2.72265921037994407250e-001, 1.48215067384658866212e-001, -1.27477613170121680669e-002, -2.06714399828521952496e-002, -4.19416523341803806901e-002, 8.58853435207655203920e-003, -8.84157009373467694946e-002, 1.45306189794082413203e-001, 2.35648583314217813234e-001, 2.44105607413132030814e-001, 1.42450149533545539215e-001, -6.46938145957319243884e-002, 7.76316500130137983338e-003, 2.85570747616443951222e-002, -4.74398522603485875426e-002, -1.63056669202974874322e-001, 2.71578050692329209248e-001, 2.16789880138869739401e-001, 2.75561593177538088906e-001, -4.09596698230803649143e-002, -6.61824881783454888051e-002, -3.71506361951934663268e-003, -8.74712397711835260017e-002, 9.13184843819288688538e-002, -1.37058381871487638959e-001, 3.21621682913633688550e-001, 2.23979582688394768253e-001, 1.86450828178473443364e-001, -5.07230465777930294990e-002, -3.55054016529941854352e-002, 1.27516002198728828354e-001, -6.64009278864213514648e-002, -9.73185722197523750410e-002, -3.99308284014072145673e-002, 1.03169066964626229832e-001, 8.52894742660931376443e-002, 1.50818096506927984413e-001, 1.60999473330781794900e-002, -2.44928738456734705620e-002, 9.17937077303817156038e-002, -7.68782403416795462325e-002, -8.54251613965083395064e-002, -1.66874449933960833370e-001, 1.53107798111519588513e-001, 1.61515650388836473628e-001, 8.60967534373451998109e-002, 6.19903274564624559573e-002, 1.79872190828799349838e-001, 1.72332095347381197836e-001, 5.74321546817648312389e-002, -9.15243372257320692009e-002, -1.08350748315066788829e-001, 2.05775051228123589953e-001, 2.44736464338446840783e-001, 1.80629509933661114296e-001, 1.23490580553325041135e-001, 1.16464275898532476639e-001, 2.19714328616120252446e-001, -8.79150470999254113336e-002, 2.17150760799538541240e-003, 2.37744474002330660745e-002, 1.89750276737265771709e-001, 3.33262099352529983509e-001, 2.01853667966409966450e-001, 5.23241917133826922592e-002, 2.93394531387768525699e-002, -1.26526912464914754325e-002, -1.02526462295530279567e-001, -2.22679023534228005821e-002, -8.41557292046517940731e-002, 2.17176713191288672800e-001, 2.35148090418514754685e-001, 3.30940388910898941610e-001, 4.64519940182089724479e-002, 1.28365675996428424410e-002, 1.10155304330442668781e-001, -1.34748915130928875739e-001, -2.43901564740273586740e-002, -3.73136751890401907605e-002, 1.82031460485295421003e-001, 1.73169560652751519658e-001, 1.07519691875709727524e-001, -4.45090015725920634670e-002, -1.12287905059931844565e-001, 1.32149261911750248721e-001, 9.82382814710749258102e-002, -7.21335868047656564306e-002, 1.27969608491245671195e-002, 1.31721961932338454959e-001, 1.26483836617505562838e-001, 2.39801624872640173347e-001, 1.35740296946708777215e-001, -1.40663707430557956279e-002, 7.35398279744768762489e-002, 2.70019031309902835664e-003, -7.04445981129109451147e-003, 8.97551042952418193233e-002, 1.14390896536750913404e-001, 1.89647794365733091126e-001, 4.09038894736471897451e-002, 4.24243783093229687164e-002, -5.39628116962633935794e-002, -8.03681184756197403152e-002, -1.35326355300716988372e-001, 5.75119520465341149684e-002, -1.75996468394547855851e-001, 1.86603241368324845872e-001, 1.76044785244199974983e-001, 1.38227872737472667897e-001, 2.10643831388607483124e-001, -6.95109476129118220022e-002, 9.49332914155058132932e-002, -1.32984158120706769113e-001, 7.98599018010080347052e-002, -1.51408443817561116224e-002, 1.75293115976276364654e-001, 1.81158160806025425593e-001, 2.12014057607449263321e-001, -1.60892888107538843678e-002, 5.94526150066298567087e-002, 1.69946737298774991354e-001, 8.20235278427787761757e-002, 1.64604559240790378205e-002, 7.57957818442201308740e-002, -4.70480383757367320169e-003, 1.34285365116856569845e-001, 1.74378119373455819918e-001, -4.81325563241938522707e-002, 2.24549442387600474424e-002, 5.63694703298830979143e-002, -2.06638589036587626280e-002, 4.46154551676972068591e-003, -2.65958025976113917807e-003, 1.44239326023518910080e-001, 7.51665697473723748434e-002, 6.66911058345925761293e-002, -4.61645398295513489321e-004, 1.06379216469787360455e-001, 2.93605242155309219265e-002, -1.56250130269419383600e-002, -7.47897389465458500846e-002, -5.84098740689956430483e-002, -2.56497879430750003182e-002, 1.53390912155601411015e-001, -6.33078348361754486562e-003, -3.88265220628220206200e-002, -3.58816843205823007845e-002, -2.69907982579684103952e-002, -1.90873408751267396866e-002, 8.91924369219960488930e-002, -4.37617838988965945912e-002, 1.01828062020856216496e-001, 6.70902920073077335683e-002, 2.17018917204269329302e-001, 6.17922112472434961750e-002, -3.11382211940940921424e-002, 4.25431430039334840254e-002, 3.59640881671051682034e-002, 6.95123826332869759748e-002, -3.42858336061143062490e-002, 1.27532454949085716223e-001, 2.71631670111541934087e-001, 1.70633729558856028774e-001, -4.05351808509438263362e-002, 1.73622126764534610854e-002, 7.01431116815464245073e-002, -1.15830402997955175803e-002, -4.26775893252944044098e-002, 7.44279661812921461417e-002, 1.99717448476498360410e-001, 1.46851103633092894274e-001, 1.65477119760929380909e-001, 1.21783335575344528467e-001, 7.56050441617472229749e-002, 1.22654548562565801628e-001, -9.44881868764759630386e-002, 3.05589924278506230859e-002, -1.21536885424304158532e-001, 1.88612379460382728613e-001, 1.73596935249796496814e-001, 2.60348480464117015831e-001, 1.12184716335227280259e-001, 7.21175269276854401246e-003, 9.15778341812697599389e-002, 9.86727231775588742302e-003, 7.51175600788208872038e-003, 2.50351730182736403885e-002, 1.18462050493918391592e-001, 2.85844900427274062338e-001, 2.89752871048056526160e-001, 1.22536536278401442246e-001, 8.03429790992273851202e-002, 8.79075024229515472607e-002, -7.62859406012727919721e-002, -1.71144110463022386392e-001, -1.93544589106001863055e-001, 1.53793734873970966426e-002, 2.47889774148368463580e-001, 1.65691996983765105211e-001, 3.50617506565217770809e-002, 9.96587581713613140932e-002, -2.40834753387057093343e-002, 3.14555616959494022122e-002, -1.82396510081130391878e-001, -1.19257565370890189493e-001, 1.83984483973195306339e-001, 8.25592680720057536803e-002, 5.43513684625334947409e-002, 1.00224591479790001158e-001, 6.08375959412926839431e-002, 1.74208993941822154472e-001, -4.41052423461828144169e-002, 3.17708619517540272192e-003, -3.20043538952861708613e-002, 1.69356078590253589233e-001, 3.94199827057299181932e-002, -1.86342015958922413432e-002, 1.77511563140133221683e-001, 1.26472192981945702472e-001, 7.28629649980494231709e-002, -9.71490080309574954853e-002, 3.72466842654268076585e-002, -6.43820023206468916577e-002, -4.22857936063027073370e-001, -1.71928602563798244018e-001, 6.16647810332033863290e-001, 2.71564866886016331726e-001, -1.04783819793196578130e-001, -8.45031635676500858523e-002, -5.83415320892749944548e-001, -1.00742064239719653074e-001, 6.88171502636901633032e-001, 7.19631012162602279325e-001, 3.53272580652076895191e-001, 7.84442239240469962880e-001, 7.10777760280433046347e-001, 2.19488819744999952288e-001, 7.28713397216565125780e-003, 5.00526365933317562984e-002, 6.86383474853898944978e-001, 1.36535625452083753117e-001, 2.60113146069289813411e-001, 1.12349384685301020848e-001, 2.00706510675501853536e-001, -4.75546838182621889324e-001, -5.58421287560884160861e-001, -4.06568587367227951557e-001, 8.11234403915350843484e-001, 1.05714957248698104841e+000, 4.62889630261663576061e-001, 9.77411784272088357550e-002, 2.33219790475245075667e-001, -2.73348127126993134528e-001, -4.85997727076538862945e-002, 3.28753678684662098419e-001, -5.77141112019495805541e-002, 4.07304191086690692281e-001, 2.56525089284723728511e-001, 3.34589043656903672996e-001, 8.12681205263685035867e-001, 9.37518762516471260149e-001, 2.68595496182598536539e-001, -9.92635822583713967049e-002, -6.57426421309531661130e-001, -2.58438206931232095087e-001, 9.18941094842244399210e-001, -1.42898680822029999771e-001, 3.74223959561024110965e-001, 8.50984434347149820699e-002, 1.07053542404211721184e-001, -7.04665588647980095649e-002, 4.92983081705990339172e-002, -2.71730558726161142147e-001, -6.48688638035226805556e-001, -3.14843667974098906370e-001, -4.48281736532061825251e-001, -3.51485571481894409906e-001, -1.47739294522810094001e-001, -7.30257645171423774855e-002, -4.88391668499402464843e-001, 4.63610310280383242088e-001, -3.18265897146055631861e-001, -1.18638930640508885594e-001, -5.97534969074829724889e-001, -4.11161923269604823172e-001, -3.32371506382376724620e-001, 1.60397961742277175845e-002, 3.23069048016463911122e-001, -2.79016061964350685354e-002, -2.24905325444449882832e-001, -8.03438484902851746128e-001, -2.46335189681566113853e-004, -2.43389238278692188189e-001, -2.44843950255431985763e-001, 2.16683216961395641587e-001, 3.06901692850023000148e-001, 2.04023240328904564844e-001, 6.86661775587679434896e-002, 5.90368286367178085605e-001, -9.56176577519584347531e-002, -6.24529876865254005014e-002, -2.61920842378724760824e-001, 2.52416239516037477220e-001, -4.91955539014707454726e-001, -2.33322188225020300811e-002, 1.08334753036623820943e-001, -4.87710560347772659195e-001, -5.01898208680292903794e-002, -2.44480171056362799442e-002, -6.46942433769638225449e-001, -1.29039290511180237964e-001, 2.25694325489517205741e-001, -4.05107608120372358895e-002, -5.67618812948000872609e-001, -1.09172381827505585086e-004, -1.79706265840042844761e-001, 3.28702143524825463050e-001, 3.27689949500712840447e-001, -5.09940105819658984210e-001, -1.13590681787801761615e+000, -8.21412663398208064969e-001, -1.01667667052366561542e+000, -1.40094322183776487378e-001, -1.06153489817101265302e-001, 2.17486427514570229702e-001, 2.45800433656470584953e-001, 1.96739671997832488159e-001, -2.76326446303289008366e-001, -1.45586527899888545923e-001, 2.11821912086200769831e-001, 7.56528388442408300518e-002, -1.56630339516610726791e-002, 5.01776314590443445196e-002, -4.26984441045895501965e-001, -3.42390265728217749186e-002, -1.90019721450876560853e-001, -4.58423795431415537216e-001, 2.97815728434490278875e-001, 1.23287798873262161026e-001, 5.30790684545255575522e-001, -6.48452002530189863805e-001, -4.71006809834450201890e-001, -5.67098024249714005585e-001, 2.19989852710603700503e-001, 3.47084513390356563800e-001, 4.37937178876678240291e-002, -3.28427218677140794756e-002, 2.46743320961583773032e-001, -1.73352160570250185545e-001, -6.85299866336782748100e-001, -5.09901518336808634579e-001, -4.55210980722351055139e-001, -2.21369760331740217385e-001, -5.39177818407562195469e-002, 7.30615146162742479241e-002, -3.58355805098727220326e-001, -6.82688422911730596887e-001, -4.66724586752352676999e-001, -6.49405464818070404798e-002, -9.92584493934720556163e-003, -1.22599754478022515691e-001, -1.24999493184960078218e-001, 3.10675040835518723181e-001, 1.77877910806779546138e-002, -1.03638228093296391741e+000, -3.41165944872486415207e-001, -1.05698544122387261268e+000, -4.27224000634266187770e-001, 5.76707509934531580703e-003, -8.01719678632819565678e-001, 7.85616541333463924701e-001, 5.51038147326083471711e-001, 9.76131102977732645343e-001, -3.39962275277115033578e-001, -5.38265824843214391038e-001, -9.88350164458610458418e-001, -1.26404656978725909999e-001, 4.89396785646522419766e-002, -3.78276338118508803632e-001, 7.43122957949240547926e-001, 5.02065521022685423702e-001, 2.87816078998600954897e-001, -2.26234210858917844655e-001, 1.10669159611980705282e-001, -6.21323097597336393427e-001, 3.09894556255730924121e-001, -7.66742268561014378436e-002, -4.66729451375008045494e-003, 3.83256853612981840396e-001, 6.32463035153415509271e-001, 5.97061439673559402053e-001, -4.64354025682038873413e-002, -6.04906768875939970798e-001, -1.64772063039549998553e-001, 5.77948816015268970747e-002, 6.09788328053468484113e-002, 4.60116697292034082523e-001, 7.58137891011483044945e-002, -1.45785936848254971121e-001, 5.37229059782108775423e-001, -7.25831063710537072176e-001, -2.52299438534814290946e-001, -5.04741627062579967244e-001, 1.52476520180792017578e-002, 4.38935449716552295030e-001, 1.80499957544771633122e-001, 3.04063621589837296266e-001, 5.26348309834222982673e-001, 1.98934906212745815646e-001, -4.21213749940992643328e-001, -5.41496748090952384480e-001, -1.72879276386946084676e-001, -5.10241000842977077134e-001, -3.25564508154050358257e-001, 3.44876916439146363746e-001, 1.16874811410481727059e+000, 1.03618625843052813984e+000, 1.03282083833498328218e+000, -1.87518716240319349708e-001, -6.45346107220063025522e-001, -1.76242472887184503660e-001, -4.58675512579107408362e-002, 2.58827287096177027781e-001, 1.14062503694780659202e-002, 6.58238657916173197648e-001, 6.23575681834813155824e-001, 7.21595663678373577810e-001, -5.96281076051670688720e-001, -3.01431350368235428938e-001, -3.74770889832994946733e-001, -7.75138732295630128455e-001, -4.60107089220612830438e-001, 1.84934243201956755032e-001, 1.03679556513843929011e+000, 6.12409247964702641021e-001, 5.57281455059272068375e-001, -7.68702096568955717260e-001, -3.45015764605420771627e-001, -6.69483897648546433246e-001, -1.14290878328799805352e+000, 8.34892157215689489913e-002, -1.10015434701581682475e+000, 5.83522285778927396471e-001, 4.43141305464247181600e-001, 5.57646588293869704955e-001, -1.01520778678616590759e-003, -3.06060474889024491940e-001, -1.20297283732606424822e-001, -1.26384962241510701020e+000, -8.13901306904465271508e-001, -6.43074164699195205408e-001, 5.77769051097926644722e-001, 3.66459555522871238686e-001, 5.98464447104006036504e-001, -5.52456714914745350420e-001, -6.99336652447643869479e-001, -7.83231581032469814652e-001, -3.67198045067809952791e-001, 8.56881112365182467938e-002, -3.14042161017495824460e-001, 1.11765354389543991598e-001, 3.82479539323173356458e-001, 8.91621210995782731423e-002, -5.81685843675899039162e-001, -2.75031072747341787110e-001, -4.32959386857654338066e-001, -1.70799565420605148347e-001, -2.59730172157224659113e-001, -1.93415378141716179372e-002, -2.40841267519851603973e-001, -3.31735621828835480773e-001, 2.09461259665644106143e-001, -5.02130052021982797861e-001, -4.11723744201409169730e-001, -5.59500822094775029925e-001, 9.16262370109568735632e-002, -1.53579974773317626258e-002, 7.82290746043847254332e-003, 2.30593242437348661111e-001, 3.91178880383942217946e-002, 1.57482585021303272965e-001, 1.88210951407457638407e-001, -5.48598575513553177174e-001, -9.25422219041200089240e-002, -1.08282502514644463076e+000, -1.07035569688698828372e+000, -1.14803816586331230987e+000, 5.20404271407805610328e-002, 3.80355900522948098263e-001, 3.27446891189274391643e-001, -2.07248031664196002977e-001, 2.35698555822766553369e-001, -3.04085951804790255437e-001, -7.73296425673719700633e-001, -1.08259523251022587997e-001, -4.05742453416945092481e-001, -7.78000978276576909964e-002, 1.91367162949131253136e-001, 1.39934614008235341798e-001, -6.61935429345064663131e-002, -1.95242405597854717936e-001, -3.50500295543049785602e-003, -6.00015206365865028104e-001, -1.04653478950029452110e-001, -3.31880292610566285383e-001, 4.54179773467015157618e-001, 2.20805781738538570158e-001, 5.31064293459903691286e-001, 2.03512446506858235562e-001, 4.68402499325265120333e-001, 4.36733498773142048144e-001, -1.10508698548517261817e-001, -3.44255293375800963673e-001, -1.26481987415197005831e-001, -4.37685183255548115877e-001, -6.44695377943217962091e-001, -3.94944769878977308686e-001, 1.22981885127902250410e-002, -6.90471401283179325725e-002, -1.93464884404210030189e-001, -4.45606951607728396514e-001, -3.91566686480060877074e-001, -3.41541034235290696941e-001, 5.20702603737569699738e-002, -4.05639941323078068169e-001, 4.87080066559310853602e-001, -5.25445358806616136249e-001, -8.90632930392621161020e-003, -4.01770572018724014818e-001, -1.36447971966853875969e-001, -7.45739945710812812685e-001, -4.42417982881794902283e-001, 1.08335843261251757452e-001, 5.36138881828521984829e-001, 1.00662573960347412338e+000, -2.90772319388327316059e-001, 2.68815434309540614299e-002, 8.17515960869457519733e-002, -1.31811457240822105241e-001, -3.76116044037921981591e-001, 2.19074425516263771030e-001, 3.50311039471530194511e-001, 2.89346195226048041871e-001, 6.20694248586001751100e-001, 2.54473127491703365877e-001, -3.44595390838221618535e-002, 4.06988026202905361917e-001, -5.87792110941103840283e-001, -1.13345311686088769804e-005, -1.47347291652251410898e-001, 5.70237821261296629061e-001, 7.63504439712616278513e-001, 6.78764879658578235144e-001, -4.05743080376052167590e-001, -1.01223062387769929815e-001, -3.30847730481880597520e-001, -6.46170075076633709799e-001, 3.92438397086155521531e-001, -3.92034756933555661451e-001, -1.34393975506140100906e-001, -9.17709325977487666570e-002, 2.60323780948181371375e-001, -2.02922232170755334479e-001, -1.86010952619540925745e-001, -9.19277929026708767735e-002, -3.81658531183548199728e-001, 3.99878695562032704380e-001, -3.53756276448466744355e-001, 1.02411887484784913660e+000, 7.30692769826549071155e-001, 6.61304100093751845435e-001, -1.53117726208709004077e-001, -4.99109295377336559252e-001, -3.31007473489540182676e-001, -2.34156695054802105327e-001, -5.45524024863957901488e-001, -4.89858737828710866236e-001, 2.11764684105490957888e-001, 6.11603743188123168129e-003, 5.59555563275986878047e-001, -3.22197209265905892828e-001, -5.97950475838377792925e-001, -6.86245887269865129099e-001, -8.89210095454321947095e-002, -1.92529556995697459509e-001, -1.15968832038593400169e-001, -2.02823174275857630311e-002, -1.30362489097426453855e-001, 2.54100118645242747939e-002, 1.25387329753154364020e-001, 7.37082956822814744369e-002, 5.72909890408382777016e-002, -2.51960301275428566470e-001, -8.67132538985253692454e-002, -1.67354715909884543823e-001, -1.59564025451390638366e-002, 3.10761678307751795791e-002, 6.58403374805762164890e-002, 1.72223857475220509805e-001, 2.89164956774988352040e-002, 1.00389121847680631849e-001, -6.40895170968944771772e-002, 1.21580967048924432072e-002, -9.72181532749338689348e-002, -3.12183672804455178418e-002, 1.74026662535896825545e-001, 1.10977210900781261826e-001, -1.51387962656780727944e-001, -3.19279380927758784509e-003, -5.90432923710693391417e-002, 3.62947080580049222243e-002, -2.83260866003936448432e-002, 4.73760885916305676813e-002, -5.87810785088171000590e-002, -5.49182672206353986177e-002, 3.35828773628747134783e-002, -3.39304386440901634137e-002, -3.97172689532970524251e-002, -7.00914220002595844683e-002, 1.16074438737375079667e-002, -1.45561322209750935303e-002, 4.83165037226690047278e-002, 1.59104608186509344225e-001, -2.37598781989483594235e-002, 7.08603213669082576676e-002, -1.39582188129675599519e-001, 7.94882294887556441199e-003, -3.45325644047749097387e-002, -1.77521550556611826255e-002, -2.95748434451091057884e-002, -1.53011012223949832700e-001, 5.87537107103448044687e-002, 2.22545666164829687717e-002, 1.25093177401279787020e-001, -1.23662471673534942601e-002, -7.83071050112567196289e-002, 2.73241840973548234806e-002, 2.97432002194544693741e-002, 5.22234844742478984680e-002, -1.11483589094821533561e-001, -2.04002824561730605746e-001, -7.13507857887216712101e-002, -8.14164163208286606466e-002, 9.36046645730130161267e-002, 4.57750294400910903714e-002, -5.20619162636898197283e-002, -9.61053978440964545849e-002, -1.52770066847096402940e-001, -6.58562970691555227276e-002, -1.68610012422708115121e-002, -4.43364319106767310052e-002, 9.27760328020700991702e-002, -1.70760111618209649287e-002, 7.06698819088008856060e-002, 3.68405519276263221373e-002, -2.18498052989474889074e-001, -1.04428441157036935860e-001, -1.54790409918327653838e-001, 9.03570081519003767689e-003, 4.85457964721420845433e-002, 5.65936768302005357989e-002, 8.11877643847788432740e-002, -5.57808921581562922043e-002, 2.10252465585941336612e-002, -5.05756963852799640291e-002, -1.84414499545006493886e-001, -7.33037288296101707807e-002, 1.55406442268975847343e-001, 1.55085961549347867150e-001, 1.08609769566899660997e-001, -1.78777799719115268462e-002, -8.82669711002709439507e-002, 6.74117364352644771186e-002, -1.40978912291965741144e-001, -1.21940880975916154938e-001, -1.09392624280067740639e-001, 5.18443779896379519645e-002, -8.17121782603479479556e-002, 1.04510377623583769480e-001, 1.29153722514246671604e-001, 1.37170033535475077713e-001, -5.16691635776758417808e-002, -1.11637505598670791485e-001, -1.55452290340009596781e-001, -1.95459883286999147600e-001, 4.30285715015437039699e-002, 2.02586908032076655137e-004, -9.24944940317877148384e-003, 7.76756606146674077884e-002, -7.73679352686353211110e-002, -7.50897787986983117348e-002, -5.10960726610870316633e-002, -1.96843924462723085522e-001, -2.12223546470789198315e-001, -3.34532743907492990942e-002, 5.58724376322202523348e-002, 3.01708271433434142839e-002, 2.24019555147481098933e-002, -4.77836057133781445805e-003, -9.94602037468966249101e-002, -1.86496761716924558394e-001, -5.40909062229240483743e-002, -1.88040760628483710759e-001, -9.77995716282271665420e-002, 2.76962486020178276502e-002, 2.85055116886400866649e-002, -1.45306365207157284214e-001, -3.13799107738770705067e-002, -8.63282492720565119981e-002, -4.46606190832960197462e-003, -5.74476797977119396643e-002, -1.40152867910930067907e-001, 9.24876278412077312829e-002, -8.10312387515444432218e-002, 3.11994047295617096816e-002, -3.72843332652952538786e-002, 7.86636121935590792997e-002, -4.85191447987597390679e-002, -1.94595271156087934461e-001, -4.63786506952070520793e-002, -2.16163740966654999154e-001, -5.70402751630244980730e-002, -4.36610295260000738637e-002, -6.17367579470519886597e-002, 4.54932419910245716688e-002, -1.04663285302231817697e-001, 6.44210580813858041394e-002, -7.16463478665610616070e-003, -1.62142018885031102826e-001, -1.66124664994004217489e-001, -1.48245227967532089419e-001, -1.17300948386041159477e-001, -9.45735326404891080143e-002, -3.71151871734943586412e-002, -1.38374920013302460907e-003, -1.71734662133486495894e-002, -4.51055671663475737931e-003, -5.12679349623765354821e-003, -1.88660734753052894419e-001, -2.72276267508715572041e-002, 8.20200555561401006832e-002, 8.23983414737346486767e-002, 8.44984417359259665226e-002, 4.74194409122863091977e-002, -1.08296215119906294455e-001, -6.60402084823580176609e-002, -1.03800209358806738713e-001, -1.98070369213919128537e-001, 1.14174623752457161940e-002, 1.03220451660859566245e-001, -1.45879085103250510924e-001, 9.71342918826354623230e-002, 1.00841448204508063458e-001, 5.27268471579070766020e-002, -1.30915894914068658972e-001, -4.24711962613156246427e-002, -2.52860485097530741580e-003, -7.91045175037321801614e-002, 3.08607037190978018837e-002, 3.62960027749794711741e-003, 8.43314886925364687320e-002, 2.25838907718817552550e-002, 6.80830173968682561547e-002, 1.16193597253104602407e-002, -2.21199614400293509409e-001, -3.73108610216069599974e-002, -6.90604837972169371962e-002, -7.63958935112163256553e-002, -6.90062885556624698580e-003, 5.82152857765117839883e-002, 5.44984200973875967944e-002, 8.65405286689064495720e-002, -1.21885172526098845003e-001, -1.22183450354857281450e-001, -1.09673824608597897390e-001, 1.34045464039704107645e-002, 3.17123928527284770773e-002, -1.52967734818936981767e-006, -2.68610381428522441982e-002, -2.84873507470131915806e-003, -1.15616208908208867312e-001, -1.14942281913037267632e-002, -1.48957039675645303012e-001, -2.32134684319217667048e-002, 4.43657793605432837492e-002, -8.70623873717838725472e-002, 3.50188674301651001186e-002, 5.81732512527549303072e-002, -1.77071520581199466637e-002, 1.05633432501488766508e-001, -1.35091710641894624523e-001, -9.48338086935518187470e-002, -1.93449899829478438873e-001, -7.35946699709034146686e-002, 7.12165554388908828010e-002, -1.02218323030621102698e-001, -1.07051871193162534412e-001, 1.13516907683129372741e-001, -6.31162410036222448761e-002, -1.56135101070553228286e-001, -1.09749298667397979234e-001, -6.54802157471944534795e-002, -7.92278547970352436947e-002, 3.04764482083678157898e-002, 6.23550104886382017266e-002, -6.06970983413325226863e-002, -1.93140460092821597549e-002, -1.64512467626818552693e-003, -7.33995439435058127930e-002, -2.77486795517080421514e-002, -9.15052880437898369381e-002, -4.04342955500820722126e-002, 1.61510590565088728299e-002, -6.85316795809435275189e-002, -4.07103590727422859352e-002, -7.04045544110273036065e-002, 6.86497754553081068751e-002, -5.65771880963472015291e-002, 1.90637879763800380251e-002, 3.82517199662322504583e-002, -4.51101133513404708997e-002, 5.37350916170726486398e-002, -1.76893340362205206406e-002, 1.03671654951657518651e-001, -9.52447557184119414364e-002, -3.18775352459058636256e-002, -5.06308770479821368404e-002, 2.93696966901737140099e-002, -1.46964754717791523664e-001, -1.67452013695073204103e-001, 2.97242014701107372388e-002, -1.04298534406868384505e-001, -9.31737381351082777359e-002, -1.51022151582196461489e-002, 6.55289959895642964288e-003, -1.85099098354222724172e-001, -1.81665331300249338620e-001, -1.79933427475318985511e-001, -1.70793016632071192884e-002, -5.56529583328178797941e-002, -8.81439913994236934336e-002, 3.53802871366975177359e-002, 3.63406472783499648327e-002, -4.86015576570713939142e-002, -1.06149936762299265669e-001, -6.45124610695928940585e-002, 8.80723988536737945054e-002, -1.24504533223985539014e-001, 4.03411651757470679502e-002, -1.55990503311694769795e-002, -1.67886471695970519724e-002, -4.51232241843023476613e-002, -4.74316689654083953331e-002, -8.88626326762426144157e-002, -1.05193350472455274258e-001, -1.31190876379165238808e-001, 4.62080270919413768627e-002, -7.12379320281810862747e-002, 3.88517532225960901537e-002, -1.22610638584282824470e-001, -1.58267465303306847924e-001, -1.23548711094527127741e-001, -3.98680562222122475413e-002, -1.61969338643051075088e-001, -7.20233486812204559691e-002, 2.66676964220542052353e-002, 3.28158513758376180203e-002, -4.67804568421310990045e-002, -3.69552945784615144431e-002, 5.27761722811735806138e-002, -2.10676386508883844995e-002, -1.37714509662354323005e-001, -1.65216191799451100897e-001, -1.80592100239400948913e-001, -4.96058954807380783625e-002, -8.72503084314800725352e-002, 4.90191925916479281922e-002, -8.19950308665974431088e-002, -5.29558040690590592359e-002, 1.34854335581666828076e-002, -1.24265215521329741577e-002, -1.96373773602940199234e-001, -4.26593589118021004891e-002, 6.54330011290257113066e-002, 4.44125610575747883924e-002, 7.10465029347728399545e-002, -7.64898921838644135773e-002, -1.27334761731050152139e-002, -8.76881306513059566310e-002, -2.70941074830061100209e-002, -1.48290856203582149808e-001, -3.39178484245891281867e-002, 5.26522910715771230716e-002, 2.66984005311250438552e-002, -8.56996197585438990174e-002, 5.90998522026785488848e-002, -1.31339492849174080402e-002, 3.26511388284451628539e-002, -9.79415876704079341186e-002, 1.50475295772478558781e-003, 3.50309445240341030617e-003, -8.72603676173602377242e-002, 8.42083115793868519638e-002, 9.42000936300076835428e-002, 2.76312270039147066247e-002, -4.48832912485474799791e-002, 6.65452690891375625570e-002, -5.22961248160546971625e-005, -2.52096600437244945658e-002, -4.40631191698248741995e-002, 5.50256408307634309329e-002, 1.98270755195984645092e-002, -1.84768983216684584692e-001, 1.24335945468818404036e-001, -2.98230336252586665513e-002, 6.44992425239594713293e-002, -1.20966856083149373879e-001, -1.49172136596623178262e-001, 6.09357340225119004096e-002, 7.15462033916787931882e-004, -1.40182363524209568917e-002, -5.49061955880882635039e-002, 1.20671650074113276374e-001, 9.97540550924248814457e-002, 2.70780878764691687599e-002, 3.49198164101486990818e-002, -4.46111941087814836693e-002, 1.43604900849362800749e-004, -3.75057131202853541452e-002, -5.52454308984134043192e-002, 2.43167713835405092937e-002, 4.10508502186919463361e-002, 1.14350970430310630577e-001, 2.80708920746750370534e-002, -1.44373970044980676208e-001, 2.20727098151369607870e-002, 8.91306156046549474814e-002, -1.79289927318777131404e-001, -2.93191029924496672499e-002, -5.56773399560929957430e-002, 1.05652976652031591054e-001, 1.55740079270071697659e-002, 2.38860503443934640844e-002, -1.64004694247164434229e-001, -4.48661950838557602173e-002, 8.97502275416509898154e-002, -1.23797081817524579073e-001, 3.25173965719712632083e-001, 2.99158328138863449652e-001, -1.66460251737566594654e-001, -8.25802732036496622836e-002, -2.66246993748517866984e-002, 8.13375093400693291446e-003, -6.88329333040104823782e-002, -6.61981266011080621281e-002, 7.87300674020851715129e-002, -1.85060756510275065123e-001, 1.50451103101391731043e-001, -4.23636295445498967105e-001, -4.34729838353859476818e-001, -3.90281241959523184093e-001, -3.44867343186458064075e-001, -3.12231608364816282108e-001, -2.78226035617156308710e-001, 1.31748941052676565855e-001, 1.33038146242879865011e-002, 1.92291930061040616806e-001, -3.19226636928189200226e-001, -1.48496292557447340243e-001, -1.03937015474664412595e-001, -3.81705974741737119604e-001, 2.66136382794516929140e-002, -3.91524761973130255854e-002, 3.49823109070890536643e-001, 7.69750313681322462234e-002, 3.12144459442399102578e-001, -1.35019331408934101235e-001, 1.43142039833409322885e-002, -8.17577843530232217795e-002, -1.13015425979481928809e-001, -3.76060994623638525369e-002, -1.70390239165241425337e-003, 1.34592972122140663860e-001, 1.14807329155721699054e-001, 2.40982517849663874232e-001, -9.32886098739020980242e-002, -2.92242663327223040071e-001, -1.73955080153332386494e-001, -3.87199575211876034775e-001, -2.62448376832430441130e-001, -1.89460869495342826285e-001, 4.48528591040460389294e-001, 4.80779592953314294235e-001, -2.38435680652949538727e-001, -2.70033822921406818640e-001, -1.07507098967598857531e-001, 6.34551761703062988662e-002, -1.26788717629225000660e-001, -9.32774577666381238955e-004, -1.46789267428662550952e-001, 4.87158095568317878188e-002, -1.28776854195468387632e-001, -7.37759180138023579199e-002, 1.88192769195948544914e-002, 4.04360319897328346350e-002, 8.47182188281639103611e-002, -2.77840078282988456326e-001, -5.66697261414989550410e-002, 5.71347832668195054762e-002, -2.44526722490775394458e-001, -3.71373369774551029265e-002, -3.35665475637952237520e-001, 1.48395968021442503648e-002, 2.36945248497750192429e-003, -4.29426700087041854359e-002, 9.81568323632935890721e-002, -1.44133744987027856421e-001, 9.82469715510565222427e-002, 2.24117255140333621055e-001, 1.84454728791082073203e-001, -4.62232823995990318999e-002, -1.64885669698217524060e-001, -1.46855587937953974143e-001, -2.20090302277288429877e-001, -1.17149724947823358212e-001, 6.14847430380544221484e-002, -5.26435017777810709827e-002, -1.96005519902844177471e-001, -9.62079814550991646582e-002, 1.24203675787716238954e-001, -1.90003160168536688879e-001, -2.30218303954143360679e-001, -1.55132929295522387081e-001, 1.27918609768987057151e-001, 2.38377864577704497162e-002, 3.76571192398996862361e-002, 8.76292216795545864105e-002, 1.03896819166142365121e-001, 1.73868888971362225981e-002, -9.53997302923028367427e-002, -2.57240168477077146836e-001, -1.44666687222849421612e-001, -2.88656235093159609095e-002, 1.38811261645112784396e-002, 1.00105510332515829086e-001, 1.88528436439186430906e-001, -1.17819299376400052348e-001, 5.82155730771005130997e-002, -1.77938912587846886915e-001, -1.62004793084180226392e-001, -1.28688683007921633727e-001, -1.14353252865535534588e-001, 9.90705853648392725797e-002, 7.87098444197714859627e-003, 2.75208005839490434108e-002, 2.79988036818959062924e-001, 4.70127208090084375280e-002, -1.95763778223607166906e-002, -1.39033227133743692017e-001, -1.24366051372958835719e-001, -1.91629889297479455434e-001, -1.35974374653566820736e-001, -1.29801810572546083566e-001, -2.05247979114282323720e-002, 1.26268655462013212887e-001, -1.20660175204034977869e-001, -2.35599728330820878952e-001, -3.56694757154261896104e-002, -5.34397842692766883443e-002, -1.87101878590273940084e-001, -3.00346767114068879945e-002, -1.49151837389467689654e-001, -1.72619580836431724125e-001, -3.62500169012264714108e-002, -2.01071632468557859319e-001, -2.46768121714700749969e-001, -2.35901688930234498809e-001, -8.03381698994796306090e-002, 6.82553124419772866416e-002, 1.96811863527537517227e-001, -1.38743209520562765791e-001, -4.47146416209728836400e-002, -3.06194260759162541208e-002, -1.01902238058024507961e-001, -1.29985716872452972126e-001, -2.96780160034028905880e-002, -6.10081965962772573842e-002, 2.00583237260411155478e-002, -1.79204553093759606786e-002, 2.22618173685457318434e-002, -1.88114552401862644704e-001, -2.69287428398309991451e-001, -1.23917375311329000520e-001, 8.19801150235945907951e-002, -2.13196300777688363404e-001, -1.89691024765198085200e-001, -1.72608395093034633350e-001, -1.31020610392357184093e-001, -1.27461489912843367600e-001, -4.97656709180446868435e-002, -2.48023459254399392115e-001, -2.82452187084922222426e-002, -1.84176325390339235000e-001, -6.56890066301048652919e-002, -2.25375191878929737044e-001, -5.55794939926965020360e-002, -2.37480974007007156201e-001, -2.41559591000457041243e-001, 2.30363818101977452235e-001, -1.07611113669531716086e-001, 2.21031864966843766274e-001, -1.16610265633116001738e-003, -5.31369963740632028637e-002, 6.12902460333145729376e-002, -2.90204602312090942373e-001, -1.44701384596703480634e-001, -8.81495065599436911086e-002, 2.01685735326966125713e-001, 2.45603402753440003270e-001, -5.40434771872281838334e-002, -1.07599308972117085892e-002, 4.97850156590315673366e-002, -1.85059311818145361128e-001, -8.46286816173226069671e-002, -2.06708172399319628498e-001, -2.37506215958758287732e-001, 8.79929939314159775821e-002, 3.12523253374609344402e-001, 1.91930108873705790318e-001, 1.47495295455690681591e-002, -1.48836598286975513306e-001, -1.28762822827715228691e-001, -7.97970078115343706138e-002, -1.39720693495353931457e-001, -1.66180432988324078281e-001, 2.45553668219936294115e-001, -2.19260080576315435907e-001, -1.55667683532396960988e-002, 3.29161498522311871118e-002, -9.32545604954115037177e-002, 1.43117432834261731900e-001, -1.02228451255336277859e-001, -1.54347289551005212305e-001, -7.70111809570128563740e-002, -1.48398575892814160726e-001, -2.76832577213376229697e-001, -1.65337454179693643663e-001, 4.82426692958305286529e-002, -3.74424725868057473033e-002, -2.05155715979246616731e-001, -2.18974531167338365423e-001, -1.49462694833051690235e-001, -1.85769663877409174635e-001, 5.38606229432507174759e-002, -4.85122731132430873302e-001, -3.79722822032996010222e-001, 1.21143706976428219835e-001, -5.20344896452364508166e-002, 1.77882685110562960284e-001, -1.40845068982414306502e-001, -1.07588985316202603859e-001, 2.58325157598985680196e-002, -1.61678926124482952309e-001, -3.96330085727175263077e-001, -1.41497682471965785522e-001, -3.31436329238140661713e-002, 1.73977512743982820620e-001, -2.01789724052249014319e-001, -1.85481900502136975994e-001, -3.17310554546983814017e-001, -1.24968373014878120220e-001, -3.72702333146021691501e-001, -1.64992800364872016505e-001, -3.64939824453725858433e-001, -9.28651581862416086732e-002, -5.47143074353003758259e-002, 1.88121981348211043950e-002, 1.19456374749355217352e-002, -3.06357782349660698329e-002, -5.91672682630620047628e-002, -1.89659807832861321275e-001, -4.20217611291557879838e-002, -7.90329441329330611987e-002, -5.53209468584148419956e-002, 6.76385062662726854743e-002, -2.59297400197748217909e-001, 2.69380924823740507124e-002, 6.39889078328022692377e-002, 8.07338473181873628182e-002, 6.66506166930427718098e-002, 8.23160872854845626634e-002, -2.13439362637466545358e-001, -1.75841682529474435670e-001, -3.81203881837166788649e-002, -7.94542143436964831693e-002, -2.66483207349370365691e-001, -1.66373204477132441426e-001, -2.73749968444347679952e-001, -5.76697220680034011719e-002, -1.38180694828150318898e-001, 1.72339116414041260139e-001, 2.27050420498060880059e-002, 4.34595939743649961606e-002, -9.61505510896388804198e-002, -1.80466614880789327779e-001, -1.90126943704221090803e-001, -6.39134030022389665326e-002, -1.27560286735306310790e-001, -1.32257432492698445703e-001, -1.26643182812845617180e-001, 1.20828762121756194681e-001, -1.47653699256647924498e-001, 2.46576135005887708829e-001, -1.96841643932464727129e-001, -1.10701171638012574316e-001, -1.31491758879498488177e-001, -3.94465204286909287834e-002, -2.10279121913077599038e-001, -2.11710396409388629246e-001, -2.26675561660056423818e-001, -3.49311796667295185181e-002, -7.09550696310019129998e-002, -2.77317662755581062495e-001, -1.02119261385563736555e-001, -2.38642022978832996083e-001, -2.17752371618164103362e-001, -2.49471157439665774946e-001, 1.65726455021570837078e-002, 3.25199296094507983579e-002, -1.25641442985575502167e-001, 1.45243949749210121691e-001, 8.54446258876492004131e-002, -1.30604415051847860818e-001, 1.29881125259569078084e-002, -3.06103546668372340778e-002, 2.40044960896165782138e-002, -3.01545895042285683196e-001, -2.40084705264796832713e-001, 1.73721718263416084749e-002, -9.07562162671321781549e-002, -4.87405803521499259023e-002, 1.53647166760216669079e-001, -1.02574715162752599928e-001, 1.77816217475801230385e-001, 2.09869472255466565924e-001, 2.27694346732958019519e-001, -6.15429542740230511866e-002, 2.30470225733219354070e-002, -2.45578505539939227764e-002, -6.50596448486720907445e-002, -1.74155280545325835684e-001, 7.21963384989681988824e-002, 1.20852915199918073408e-001, 1.32939036912898128628e-001, 2.45186249982512011192e-001, -3.37548646768286719766e-001, -2.33405096325438099480e-001, -1.03636091559543896956e-001, 1.67880700973912500018e-002, -2.92471098627823167249e-001, 1.34305375250978853430e-001, -4.70666389534896700830e-002, -1.70137926218898422048e-001, -5.62248318979374148152e-002, -9.56091730422327229499e-002, 3.45466964059893341665e-002, -1.95622267755522077914e-001, -1.05138188018799854512e-002, 6.31334664789572619359e-002, -1.13165598036252451619e-001, 3.28359242614760238332e-002, 5.34653362593623567023e-003, -2.07345771295696756908e-001, -1.04299530901322337617e-001, -1.95715002716262798099e-001, -3.94216257585782436923e-001, -1.94652377725273245668e-001, -4.26940850085203230102e-002, 7.01196832048700258166e-002, -3.29379762507002904481e-001, -3.31258558775564870835e-001, -3.59988438948352362790e-001, -1.42167396274735874373e-001, -3.51568908284580927681e-001, -7.91800923022644570493e-002, -1.08164287720332999432e-001, -3.89738627855478914075e-001, -1.87153636439161941141e-001, -5.23706096508391987648e-003, -1.59983097360755804894e-001, 1.75548130676501101810e-001, 9.15431705239004578356e-003, 7.08068268755734780973e-002, 2.52100642352364068266e-001, -1.38067549397722172388e-001, -2.90565995375291763470e-001, -3.42636784912619618559e-001, -6.28548259629268107895e-002, 3.19984008218682711155e-002, -2.52757582191745877598e-001, 1.74999570911128665696e-001, 1.24425207798467191145e-001, 5.81736444536850236253e-002, -9.25846368525237578551e-002, 8.03586722318138657606e-002, 1.32988549411075962503e-001, 9.23392107638761200361e-002, 6.23792105011595349184e-002, -4.42127420911462079567e-002, -6.98970362975154108076e-002, -1.23821052304983289516e-001, 9.32093329182815399925e-002, 1.23920631524621419062e-001, 1.25384390146078467110e-001, 1.95561237263059878311e-001, 7.98382129702478737787e-002, 1.77890646336676568062e-002, -5.85867323062325487393e-002, 3.63360542441923534129e-002, 1.35956195385959405231e-001, 1.09901449819978361266e-001, 1.49629507277480783278e-001, 6.99282879915668065252e-002, 9.20457184302959086075e-002, -1.82691951575058797452e-001, -1.53440035541046154721e-001, -1.90514914744839947147e-001, 1.58639625806899664529e-001, 1.92811823956248268308e-001, 1.77987197702415028688e-001, 7.80398625186802183396e-003, -5.07363603804326795954e-002, 7.84896441064534128307e-002, -4.72771141744617248714e-002, -1.75835656583787150464e-002, -1.12691844177136846206e-001, 1.51667495812027652846e-001, -2.92783104955336576092e-002, -1.96195017135745927717e-002, 1.15472481085047276594e-001, 2.89214791514923130755e-001, 1.61081014819026979712e-002, -1.48451978819580165947e-001, -2.86060618969127156141e-001, -3.64748438872621316698e-002, 1.30119338751050417358e-001, -1.16083474859045771010e-001, 9.12448006386194915285e-002, 3.98505890353129457737e-002, 2.72040079649644508941e-002, -8.11201287004124499402e-002, -1.37519309773644436007e-002, -1.16302764702283317755e-001, -1.12620467527025036603e-001, -1.05528312598709386738e-001, -1.26350601417089369871e-001, -1.04797497414392246085e-001, 3.87756573876721008509e-003, 1.25559090972178433177e-001, -1.35638064240381720632e-002, 1.54982381275298120027e-001, -1.54311519707944128088e-001, 4.07333187948229133446e-002, -2.81408526361832736495e-002, 4.05138762613683339753e-004, -2.02674869267033957998e-002, 3.76938083070895435522e-002, 1.98614458786267406021e-001, -7.71801531614251228736e-003, 2.80320293054993688320e-002, -2.02905792939344353787e-001, 5.01525971801306952313e-002, 1.16867591057771849639e-001, 9.39817889696129282751e-002, 9.46929690340382601565e-002, 2.73259373667036786770e-001, 1.22199997268478868784e-001, 2.76126593152253435592e-002, 3.75619547110023349612e-002, -1.29811575402200007900e-001, -3.07079211191673105696e-002, -5.41020556593897750108e-002, 5.31601334983228673847e-002, 1.16990375103964185100e-002, -1.15696542712666571029e-002, 9.54148965409293697837e-002, -2.65772463968829732173e-002, -1.18858314397226230708e-001, -2.19911449684724646936e-001, -1.46598699483121819309e-001, 6.19398000059510484006e-002, 3.02319821539741503957e-002, 1.21607857230998941955e-001, 9.37769786832618884587e-002, 6.96455174521199045501e-005, 6.79352668382034313721e-002, 8.04581661188204094737e-002, -7.26397141955436032035e-002, -1.64782077147749700385e-001, -1.38358096043089656701e-001, -1.62218198575033945019e-001, -4.51803648254403000806e-002, -4.69953624028650405325e-003, 8.48459405757157753003e-002, 1.50383319873814563783e-001, 3.22212568712230348900e-002, 1.02081984315276569353e-001, 3.97178991540816997419e-002, -5.93491933742651758821e-002, -3.37202960120094041852e-002, 7.96443889270475741116e-002, 9.51348392386583696645e-002, 8.43526635905424565509e-002, -4.04006809922241791333e-002, -7.85983679840927124127e-002, -1.36115571602688056885e-001, -3.09935514241188696249e-002, 1.43043292885892264765e-001, -4.50091540514986759858e-002, 2.93186094039809795608e-002, -3.44748543501603305073e-002, -1.15684541020008593848e-001, -2.65041941861322190299e-002, 7.10515839006652799581e-002, 1.18219619483541538152e-001, -2.32329287913426996148e-002, -4.83175511358415049612e-002, 1.92329167169170756058e-001, -7.61412782092222694547e-003, -7.73710249135234479079e-002, 2.33730816825880030260e-003, 3.50464838167259470914e-002, 3.84979099704195644460e-003, -7.57247333913180775689e-002, -4.73086958465974080634e-002, 8.72135624024679423361e-002, -9.88102225105858961163e-002, -7.40814956151842618493e-002, 1.24514722863647592233e-001, 7.39987581947481598554e-002, 2.10739213545107245684e-001, 1.51927044745014089289e-001, 9.59259544040631517703e-002, 7.00820875893371914023e-002, -1.46881277971396634330e-001, 1.76358437604087862904e-002, -1.42114291594816755104e-001, 1.12508612970776827877e-001, 4.94382775673296512298e-002, 1.29695399376898064248e-002, 1.89044936335656915682e-001, 4.58057539072877425990e-002, 2.00191208673083403946e-001, 1.32771515676285561947e-001, -2.76398953146976406048e-002, -1.22672346245858016056e-001, 1.37687674661220837979e-001, 7.66544964647963844584e-002, 2.50761481760489700343e-003, 1.45392859272034019602e-001, 1.25240971854495092286e-001, 9.58828744749504885414e-002, -7.84567784475729140814e-002, 1.04452959021776203841e-001, -1.02079759351909077347e-001, 9.36699266313238410042e-002, 9.93665936874513627819e-002, 1.36055952891635467683e-001, -1.91201905803751355528e-002, 1.65947373761859556796e-002, 2.21933036361700003480e-001, 1.44732499190695796526e-002, -1.30936151194822159027e-001, -3.03538379673013308802e-002, 1.19990714983787688519e-001, -2.75824349721961771531e-002, -4.44336410383393189821e-003, 1.19710102097754955697e-001, 1.22605528815542715038e-002, 8.05309792233016401297e-003, -1.55432587885328293842e-001, 9.57384224579398562804e-002, -6.56011038313429051261e-002, 6.96618189369358348229e-002, 1.34555009079020487794e-001, -3.00990444291533709720e-002, 1.11761132118512157563e-001, 1.35783519219686010793e-001, 1.10443698412826987743e-001, -1.29879529290494281912e-002, -8.85062484057019260852e-002, 9.40205374395383375319e-002, -1.93866399920357146414e-002, -3.28817004654227140747e-002, 1.23809769910198166909e-001, 8.31525421355483601582e-002, 5.15376812375055934345e-002, 1.31375858251721960857e-001, -1.02713293225417293120e-001, -9.78133018012563859589e-002, -3.33655220138254493545e-002, -7.44296639874113125090e-002, 1.79341315096260667250e-001, 2.28314527387716653672e-001, -1.89482772676686055113e-002, -4.43185220244945790591e-002, -3.02899105090626494241e-002, -9.98323156124133886946e-002, -1.85800426355683494239e-002, 1.08170378106584488820e-001, -1.51000251756551073790e-001, -4.95553639108342533492e-002, 8.22271250623915206379e-002, 5.67975667587608673559e-002, 1.33158035678288488857e-001, 4.41637133175609847280e-002, 3.09302440549421957250e-002, 9.72879682015501991155e-003, -1.03869353029771058217e-001, -8.92182113463628745365e-002, -1.39162352688500856601e-001, -2.04897165334655684266e-001, -9.86615010077908870505e-005, 6.22178120891853092544e-002, 1.34754472063821489902e-001, 7.22320739904423192446e-002, 1.13738784006312071417e-001, -1.17325041741033805204e-002, -1.72025581431190954795e-001, 1.23916767486155314504e-002, -3.78901031977073830814e-003, 1.00432803032142997646e-001, 7.12683214782339063964e-002, 5.48363574042166485034e-002, 1.14813747771809263054e-002, -1.07519231345134230055e-002, 2.29313487534821801306e-002, 3.93357790499258216932e-002, 6.37600993253335801558e-002, -6.28530005492873994344e-002, -1.30083126595397835512e-001, 4.11824816592532005899e-002, 5.51695512980974051009e-002, -8.35182693390275482370e-002, -5.52038866506978989634e-002, -2.02571689481395866839e-002, 1.43716609099770964431e-001, -2.27978000765118316018e-002, 3.62836776665528548680e-002, -6.31984495695936954185e-002, -2.70705725812341486958e-002, 4.20356792921430591492e-002, -1.40093450351652853980e-001, 6.72105365115987229974e-002, -1.06679773825961721201e-001, 1.20039086869499309063e-001, 4.50599101305878685375e-002, 5.50533595787167720492e-002, -1.41211518091604565361e-001, -1.24147403075177617526e-002, -8.29107912466424817888e-002, 2.19443609442164122569e-001, 9.76354597138714003224e-002, -1.18143023913664553526e-002, -1.27649848999020730511e-002, -8.94433466250789538377e-002, -1.10179706268007771008e-001, 2.76980605533371365690e-002, 1.24327780297510723240e-001, 1.31085408066294012430e-001, 1.22662151581762593477e-001, 7.56166328956166117203e-002, -8.78025218528038012278e-003, -3.41725115291952874497e-002, 1.42742697743118845954e-001, 1.18662145438797189678e-001, -1.35691994080797156963e-001, 4.58347115510163993779e-002, -8.88085639148562533407e-002, 7.54701537985979359346e-002, 3.70655807306541004720e-002, 1.82870531619488269071e-002, 1.17731197233696578686e-002, 1.97838293958775418568e-002, -9.80701132548771753461e-002, 1.04958584092922926900e-001, -3.41949321970120220793e-002, 1.22671500857133589091e-001, 1.74329770630701597067e-001, 9.55899670558496006301e-002, 3.99861513824487091462e-002, 9.07290708275762941559e-002, -4.93790711645340357761e-002, 8.26526213912911478232e-002, -7.51113898885652775395e-002, -2.03997070318154088975e-001, -2.24105045162203198039e-001, -6.28919048468725844225e-002, -6.51449390368008945940e-002, 1.02750319319572666621e-001, 3.30945209356100708553e-002, 1.02040422626959031982e-001, 1.37367460312513955945e-001, -1.08669833743878143512e-002, -5.19799219222572689292e-002, 4.64044065520978210593e-002, -1.47125562214854704868e-002, -5.27772787893835484963e-002, -1.10436236757608038928e-001, 1.07258776536875363727e-001, -8.03114013740445081835e-002, 5.66223433901938280957e-004, -2.69324072994762339639e-002, 1.97353822965732200734e-001, 1.58587239932836160383e-001, -1.38997243113430507533e-001, -3.69185150486516372448e-002, -9.83666434045389892482e-002, 1.24048763884251178613e-001, -1.29489686794945157988e-001, 1.32194420124200018307e-001, -6.05644992408183382993e-002, -4.39015127639312344177e-002, -4.35218606190106993559e-002, -1.41825832055070891191e-002, 8.87068305995524913898e-002, 1.08861062079380496725e-001, -1.47350981646845180517e-002, 4.55870948200863546074e-002, 1.24271206199010497695e-001, -5.70939169897984530322e-002, 9.53402293319992183429e-002, 3.02381653833966868028e-002, 3.61657661055898166369e-002, -1.43963667279714352398e-001, -1.64451613253400269477e-001, -7.38142452198804754904e-002, 1.41770907604457790940e-001, 1.98409755908836443750e-002, -1.21121610503268806180e-001, -2.48418460062662105337e-002, 6.37540966054669366869e-002, 2.27258738132383626696e-002, -1.55659540998749013063e-001, -9.48970334768296924777e-002, 1.06907324982160878424e-001, 1.43210549292130340238e-001, -1.45812379455369983683e-001, 2.38596473801908903756e-001, 9.00426263755572386938e-002, 1.44248596395632922018e-001, 7.98420002986433563485e-002, -1.15621141175114239275e-001, 4.26627444534856820058e-002, -2.57077500700970580649e-002, -4.79175561299196445253e-002, -8.08137456893565364613e-002, -3.19901036559992399400e-002, -5.81983011096136662599e-002, 1.48842126249551315320e-001, -3.94527677921402003536e-002, -1.25151577646566397606e-001, -5.90329817649694263415e-002, 2.96924374002432878150e-001, 3.56449219431903274735e-001, 1.00847734833214963679e-001, -2.13138612388664300257e-001, 2.26990244914178282420e-002, 1.85316310836404540829e-001, 1.87145076207572945426e-002, -8.26664986469876073016e-002, -1.38851968429952787876e-001, 1.00223083748055219466e-001, 9.32551982850019361981e-002, 2.88473517404054420610e-002, -2.78792195077222304533e-001, -3.90279992871018568956e-002, -4.54516653207842971640e-002, -1.59850709338533819581e-001, -2.26679894557123423615e-002, 1.23678811109864811302e-001, 4.99322148610228527810e-002, -6.47430088693008859435e-002, -1.01367158087333819605e-001, 2.27380022350571697753e-001, 6.25411611565772490584e-002, 1.06344721748620099633e-001, -3.03836765902048777654e-001, -1.57433779285208186316e-001, -1.06245872959199072483e-001, -1.59816483491784677717e-001, 8.47017226243824555842e-002, 5.97148310906954124522e-002, 3.53583235079802798984e-002, -1.45807080326970345263e-001, -2.02974026645405293545e-002, -1.77767437357707003276e-001, 1.64709040936874606675e-001, 1.59316650845961943483e-001, -2.27101234569071303016e-001, -7.98024484486466317845e-002, -9.85627390868643593613e-002, -8.14971082530761836704e-002, 2.02658147175456326838e-001, -8.91783656555188500303e-003, -1.58559472581069005326e-001, 3.78357322399397941193e-002, -1.56890567744708386844e-001, 4.07712443951495015493e-002, -1.57160613216966921213e-001, 4.11411054074171389505e-002, 2.83141500109841126598e-001, 2.98587362403405554012e-001, 4.07471566511766278978e-004, 2.44979949462686003026e-001, 4.66970205998806398018e-001, 3.42860686362784050640e-001, 2.01181644316810487316e-001, 3.53265131782767027868e-001, 3.31009789574160162573e-001, 3.04577984406914581417e-001, 3.60421342281791623474e-001, 1.54058703567228838516e-001, 5.37028009422273688855e-001, 3.41088225925443355724e-001, 1.89276378630974490003e-001, 3.43258885529258706004e-002, 1.71023843997547858597e-001, 2.13169008617151052587e-002, 1.30548113279802084630e-002, 3.02916938743922781185e-001, -1.21024545800459473743e-001, 3.05789156509202464385e-001, -8.85081951020693855070e-003, 1.62255576136419304989e-001, 1.80309240170040852025e-001, 2.90825528872921623691e-001, 3.25394021514373077419e-001, -3.90634311464024761018e-002, 1.71509822259300392933e-001, 4.47498778671234082038e-002, 1.42336359551069352447e-001, 7.90933296497770554900e-002, 1.78785336370982733678e-001, 3.22844275446475204028e-001, 3.24630653295499893574e-001, 1.49065596314024689795e-001, -8.60829625002405701695e-002, -2.36173516478458772605e-001, 5.51777627087161534614e-002, 7.46636724140767732427e-002, 1.12235702608970824845e-001, 1.91298537182950617597e-001, 4.44410524241449556015e-001, 2.97818672695753128288e-001, 4.76191188466756731845e-001, -1.29675807724904140761e-001, -1.47084023597043034304e-001, 4.88968055205223489645e-002, 4.53712716474743427142e-001, 2.97340792982181245652e-001, 4.06966551985753155485e-001, 3.51027639647939870837e-001, 3.35256460511986098538e-001, 2.91947292032771421599e-001, -3.23211545192373453372e-002, -3.06172437522288731770e-001, -2.81131719478618126440e-002, 1.43459322194896737868e-001, 1.48405799137272587096e-001, 1.65170154379922107246e-001, 4.59750078446365811891e-003, 1.15571286103495984854e-001, 2.69343160549926075031e-001, 3.87454458321734654391e-002, 8.99059925316755131908e-002, 1.45332984731495001851e-001, -1.06503945809439684589e-001, -1.47748371149943112483e-003, -1.18947685267551173105e-001, 2.19974931169568677092e-001, 3.34993239594001290804e-001, 2.94012561441864661571e-001, -5.90017570231271826220e-002, -9.07029053002006147022e-002, -1.23653081553922586378e-001, 1.24317916986894563131e-002, -6.73056747480865885658e-002, -1.26507984783494516201e-002, 5.30983939656956893671e-001, 3.53534016989649091389e-001, 3.85275949240131365681e-001, 2.86972242125888427067e-002, 6.36848361491081788044e-002, -5.85760981961742505097e-002, 2.47603357108631988437e-001, 2.98821408997216264591e-001, 4.20952929434040112877e-001, 4.79160482753748617757e-001, 5.43984118702492080999e-001, 4.22074694278096240740e-001, 1.06488005133571865535e-002, -4.70793073859629707112e-002, -2.27270124641254928077e-001, 4.75615906986752601249e-001, 2.21020025009890763723e-001, 4.66231852671003754729e-001, 3.90399749392799810810e-001, 2.13393280347076857995e-001, 5.05489032543083860460e-001, -2.19405466914306429560e-001, -2.33871901803390708219e-001, -1.61608782356314262252e-001, 2.96711466441717364173e-001, 1.74540074855440152657e-001, 3.50126358955688443686e-001, 3.90247831328386474148e-001, 4.07693485085017293112e-001, 4.26675593491848414995e-001, -4.65495068914666854099e-001, -2.38465930585065155611e-001, -1.54292008941985248072e-001, 3.20244776554194310325e-001, 2.70605611349808650168e-001, 1.11166647327303302895e-001, 1.60970060376102008792e-001, 1.50229760430939024429e-001, 1.97490931160897470464e-001, 1.17284519793675739985e-001, -5.98991072954164274766e-002, -1.07164469573031037597e-001, 1.85000878939041518700e-001, 2.89263254176871986711e-001, 1.36425587796933339702e-001, 2.31701652399816299122e-001, 1.88588991346054501985e-001, 1.15454367816268499425e-001, 6.25019993135939033735e-002, 1.84842628863039308562e-002, -5.19026862842678904375e-002, 2.37460780214635125418e-001, 3.42579497391234888415e-001, 2.61814863134039177428e-001, 1.06073072292814249429e-001, 1.38718978801491754638e-001, 2.02630005789749295664e-001, -1.49047903228910760820e-001, -5.29755044711853820272e-002, 1.27882134938132191460e-002, 2.10813412967319702140e-001, 3.63448718062939213347e-001, 1.84261247070988620766e-001, 3.93454383130017515402e-001, 2.91965543339726518735e-001, 1.01990758626750513405e-001, -2.32983071818461340285e-001, -4.64884830609555765868e-001, -3.25517444946776646209e-001, 2.42727182606539609866e-001, 2.18627803877292609114e-001, 4.01493574392660090844e-001, 1.00451334389256990987e-001, 2.23432901696597574492e-001, 1.25990389231656285673e-001, -2.42413478198448356649e-001, -2.27937507509171799480e-001, -2.16637413564159608814e-001, 4.74674148054167632793e-001, 3.24281291088280021473e-001, 4.74159207006883132163e-001, 4.23065337499672566857e-001, 2.27843136422954312126e-001, 1.48906574085933052221e-001, -1.59132700399850973705e-001, -3.70355771645361153688e-001, -8.81530325553045168707e-002, 4.29484979806573019534e-001, 1.26645904207017684362e-001, 3.16354472695687505279e-001, 5.02411536147085335813e-001, 3.19330100658598625696e-001, 5.93600123851181327161e-001, -2.74591890202255717313e-001, -3.21800630922441932569e-001, -3.42529767022688835798e-001, 2.14319998070705342030e-001, 4.42078907244316587910e-001, 2.63263448155771961900e-001, 6.87776099395827067440e-001, 3.63266551698635087320e-001, 3.05339327874123656059e-001, -2.69083766918573163984e-001, -2.77706021591195229004e-001, -2.96131099525639873704e-001, 3.56492312672167133147e-001, 3.83051473826685529023e-001, 3.38337926383846798739e-001, 4.25552116846234673719e-001, 2.90645446168070142878e-001, 2.50919846844931626606e-001, -6.46286811959698032082e-002, -2.04302139894304186918e-002, 1.52531706835470209915e-001, 2.24231449834625451434e-001, 1.87384258684383686600e-001, 7.82838359858693266791e-002, 3.36550112244551447027e-001, 4.46821800041604488829e-001, 2.59223110537617873472e-001, 6.92321019811495963481e-002, -7.59109146084926411646e-002, -1.06508588149852742588e-001, 2.38939669611856253528e-001, 3.91268981156393025334e-001, 1.70676800014527951799e-001, 3.81352523606710847037e-001, 3.98801300846795769850e-001, 2.23689961773837486803e-001, -5.25101301586397006815e-002, -9.33177468675665255926e-002, 6.56147733316840842122e-002, 1.81772224696173101410e-001, 3.43892979237582330221e-001, 2.48438395916561222121e-001, 4.92260302762738910509e-001, 3.49494793255712199453e-001, 5.45744347411638131007e-001, -1.05158017201814252273e-001, -9.23190701063877489085e-002, 4.26675093555904036413e-002, 3.88406948165459176003e-001, 1.33025597409483387068e-001, 2.79404549608335384114e-001, 4.94185801302693350490e-001, 2.79505273159003031491e-001, 3.45927761759112772921e-001, -1.26086407763181918007e-001, -2.60511401577843748623e-001, -4.15010376527111812806e-001, 3.72571344916197630392e-002, 2.70880519699778332665e-001, 1.40967287676675462338e-001, 3.45911922472996069544e-001, 1.62566733652513978337e-001, 1.79992620930093411014e-001, -1.24613623058661443510e-001, -2.29441607983499301637e-001, -2.45668097304129029457e-001, 1.47135438606886131963e-001, -4.78504943039565339147e-002, 1.94981875958710054730e-001, 4.17520486309367888644e-001, 4.88028513551357401301e-001, 3.66933153959987379267e-001, 1.55762801765501723850e-001, 3.04523697662033077105e-001, 7.83572836191784166671e-002, 8.41427952883498364578e-002, 1.84326662525157780603e-001, 1.53331056386084879639e-001, 4.86768313168516597589e-001, 4.49769761052123073775e-001, 4.51574888109556760174e-001, -1.30091054299156128060e-001, 1.16959924043633409219e-001, -5.13934328194048384297e-002, 1.54097617207173492870e-001, 9.98030237080727022914e-003, 2.80365388018681271909e-001, 2.70137499017022164605e-001, 4.41491098797629710759e-001, 3.51858983646937351075e-001, 1.13208820953586905556e-002, 1.27160410946529911502e-001, -1.96468678520131945220e-002, 2.60406167931536813853e-001, 2.23508976428741443221e-002, 2.51811552442682051733e-001, 3.23611855311898510834e-001, 1.44687995161326216076e-001, 7.73213105240673909124e-002, -1.56477347695060192700e-001, -1.94388498611025639651e-001, -2.05146413099856261830e-001, 9.02125190683471939179e-002, 3.06150587835103571432e-001, -1.07993354231679966615e-001, 3.77544674552032666348e-001, 1.48962896434095048992e-001, 2.41106023490155946254e-001, -2.30730600056157753031e-001, -2.24053002655125621523e-001, -2.25358541575321369432e-001, -1.29977571077926744997e-002, -1.08024712960695518094e-001, -5.96611921430812361389e-002, 4.04858521117087477581e-001, 1.23254936740888304536e-001, 2.87498485871941211744e-001, 3.21098272589467464977e-002, -9.90154504491773043706e-004, -1.41295173867845569315e-002, 9.65269941135511455599e-002, 8.12535611127670892584e-002, 3.43133378275098932519e-002, 2.03424771771109236251e-001, -8.41217818455671367817e-002, 8.41141271810401103259e-002, -2.21193135389973649652e-001, -2.62774661312317636686e-001, -2.42698150269213985819e-001, 4.16974573603798748245e-001, 3.73286258782842772508e-001, 3.47134836150770065277e-001, 2.66815696277039271500e-001, 5.94227392519120836689e-002, -2.47194318419861579217e-002, -8.03791820980395525786e-003, 1.19414836906013829831e-001, -1.94373453748409474873e-001, 3.64231361825918587005e-001, 5.55644608301893994096e-001, 3.83347630296285990514e-001, -6.48265843534424957006e-001, -7.39769555163660053054e-001, -6.49900397040923838432e-001, 6.27465028885432068995e-002, -5.35949171439366184311e-002, -7.41475446529709508736e-002, -1.68818013348068403368e-002, 8.79624820732975154502e-002, 2.39886438980745408944e-001, -6.30943273651289771031e-001, -6.99672152233801303289e-001, -4.29296104164112957147e-001, 8.58974447681799396781e-002, 2.27370611880829631701e-001, 1.92441621104080362592e-001, 2.90209188337498757981e-001, 2.34117419270351678762e-001, 2.67170130154703255876e-001, -3.78303230189656003457e-001, -3.97322594722140043366e-001, -3.03662740689782439940e-001, -2.15534204717060806633e-001, -1.65005672984537415937e-001, -1.11875210686473700039e-001, 1.32625118686520132583e-001, 1.56590437312794400482e-001, 1.47319837689550009463e-001, -1.71045687950673264144e-001, -3.57513356998061304637e-001, -4.58345092846041080037e-001, 4.34532384546922820223e-002, 1.11074460035437763694e-001, 6.49112229567502113659e-002, 1.02524830625475960044e-001, -6.84966620617209753785e-002, 3.68171698016234033579e-002, -2.21996937830758883647e-001, -2.13497994583171535332e-001, -2.08575384660733442743e-001, 1.22419637421610077999e-001, -3.66592747820018438620e-002, 9.75170295933888535422e-003, 2.38076842779769315417e-001, -1.38716253224465922711e-002, 1.76695557579143597282e-001, -3.44894667663200371610e-001, -3.99089926776538705955e-001, -4.93343372730799090142e-001, -2.03126955804257491867e-001, -2.46045137751915499180e-001, -2.23269552684483785221e-001, -9.31608240135981813257e-002, -1.18698837352638572606e-001, -1.92894893422031671326e-001, -5.77823988772865115848e-001, -4.70036360866900482236e-001, -4.61627489241906718842e-001, -2.77803972578841540386e-001, -2.40124913980324844465e-001, -2.88111423713293846038e-001, -3.28608447815585458240e-001, -1.06009580171396389225e-001, -3.04949635031089259785e-002, -3.68190678604243537553e-001, -4.43429471014547826879e-001, -4.71366928396662665524e-001, -5.12001856068501973174e-002, -3.51256565459819092290e-001, 1.77398521084065237396e-002, 7.83081128941626458673e-002, 1.14372490275550364042e-002, 9.35369049825447995694e-002, -6.10327714612759919532e-001, -3.75383202257079606756e-001, -4.61631115671259140143e-001, 1.29198147650294775657e-001, -4.98686856063537062300e-002, 3.29079025466664926158e-002, 9.09253991603785061137e-002, 4.86910131926346009812e-002, -1.19558705672257195585e-001, -4.58946068342654500682e-001, -3.82819759986776420035e-001, -5.37925979299463064010e-001, 2.81838486225858997347e-001, 1.68220091297242552164e-001, -1.11127528506986469892e-001, -8.30369015808707366944e-002, 5.33107885723986402171e-002, 1.40877055985080389816e-002, -5.77702881821106184468e-001, -5.16937934107249974502e-001, -6.39749547721788269783e-001, -2.26779306776899204634e-002, 8.37828508825493589729e-002, 2.92498810169952959404e-002, -1.93371752157608350897e-001, -2.33519693062482186496e-001, -2.13078700515047181341e-001, -4.19063596924259984533e-001, -6.29818598924528183503e-001, -3.95480708782952938840e-001, 8.52528294106780076822e-002, 1.09070121615948756322e-001, 4.38941242955218913213e-002, 1.20646049416334739252e-002, -7.89653779298336855330e-002, -1.82712885370012907693e-002, -5.55473210291229313462e-001, -4.28834456104302763624e-001, -4.16884460985019633661e-001, 6.64543001715961617615e-002, 8.60945000584815989253e-002, -1.72596859289825377282e-001, 1.62349191078274168731e-001, 1.07799617110250225971e-001, 1.06742604100552682111e-001, -6.58160848199746184584e-001, -6.89904146400252549221e-001, -5.71921668364223756420e-001, 9.12889106858075366491e-002, 9.98774906564977721368e-002, -1.06497546976519908563e-002, 8.12396733899653639144e-002, 1.78754519832626523890e-001, 6.71516153670478899151e-002, -6.85651420902827157811e-001, -6.87675246948407536962e-001, -6.87456572367290408287e-001, -7.06171054136431330939e-002, 4.50622869185281563209e-002, 1.84403396659915591593e-001, 1.37266434470612510438e-002, -1.78779655428470823919e-001, -2.00027554055373021913e-002, -7.97649363629617469407e-001, -6.59292850522750439879e-001, -7.03607832090063944896e-001, 1.65534413548888842405e-002, 1.38919386545703432700e-001, 1.86131299312889714193e-001, -1.94729594750898293842e-001, -3.32725378970798388312e-002, -2.24135531152985678638e-001, -6.05405253426304912345e-001, -3.85841302991158319191e-001, -5.91101054965912586781e-001, 1.78967402032552569402e-001, 1.62417438450600221111e-001, 7.74368704409337388350e-002, -4.31894673829164715828e-002, -4.56483855743677682804e-002, -9.06733957956768060749e-002, -5.00468403465458400170e-001, -5.86060858396784234436e-001, -6.81758936378057400773e-001, 1.76374767690395117814e-001, 1.30145578911332993055e-001, 1.20286593730206406438e-001, 3.55984705497167860933e-002, -1.24532890715015776006e-001, 7.54314643690856961866e-002, -3.72978703366784791751e-001, -6.63163293028032341248e-001, -4.72440533988754407524e-001, 6.32364088772042424319e-003, 1.36094452156762885098e-001, 5.18297272695435601308e-002, 2.36430176939902494948e-002, 3.22575793571262259274e-002, -3.60875452545592664139e-003, -5.91607197426744169100e-001, -6.93549108118338808460e-001, -3.69606745132053604586e-001, -2.85664955633645328836e-002, -1.73941076594401167199e-001, 1.05085758278934168763e-001, -6.43574258431105078460e-002, 4.54493882374478810893e-002, 3.81744509442769053287e-002, -3.87819094871542202618e-001, -4.81142962756635372834e-001, -3.77096592395190721714e-001, -6.80356587897461007053e-002, 1.17230835643763152409e-002, -7.34568553250529443499e-002, 1.41063136711547625068e-002, -9.97151636795821083581e-002, -1.42453959233111143029e-002, -5.36019543384532504149e-001, -5.84708220074540041544e-001, -4.58989712075196953922e-001, 1.13457623094667711672e-001, 3.49767856868299364947e-001, 6.51216559794777754416e-003, -5.71763779360169102639e-002, 9.78740756284743051996e-002, 7.82230861653040870918e-002, -4.77737260248124739892e-001, -3.86196753660962954768e-001, -3.42851190628672752858e-001, 3.21771377367851441065e-001, 1.85534344086743296920e-001, 5.98304491881518213381e-002, -1.91046018001561956901e-001, -5.87196045494707968837e-002, -1.41038797141733091012e-001, -6.92306725058777439052e-001, -5.50991978846041008389e-001, -5.56161202104990759487e-001, 2.26960720183617570278e-001, 2.42791331405183080649e-001, -6.26899785528743092033e-002, -1.58429414210160379728e-001, 3.92221303638607132758e-002, -1.08067171673662865139e-001, -8.68513405386922343610e-001, -6.46061737646157263626e-001, -8.08076208372103477195e-001, 2.71316476933865902144e-001, 2.68112788809866720019e-001, 1.79543919360397485896e-001, -5.14885152935509737837e-002, -1.07988877758980097998e-001, 7.85501426905212823959e-002, -8.14258800034846852434e-001, -6.68259699307191201711e-001, -7.41533190143685905227e-001, 5.75012296118881729989e-002, 1.20205787990365617346e-001, 9.02582612262851774476e-002, -1.40378613638602961489e-001, -1.96797645590336939270e-001, -1.44183130166060130550e-001, -5.74011359287797562345e-001, -5.80649559231719125663e-001, -4.61739847685880944184e-001, 1.07611943934815837420e-001, 1.17275234658663518594e-001, -2.14781632526290872098e-001, -4.91275521835561959638e-002, 4.28183850704013865829e-002, 1.36594145846411774148e-001, -5.92281875033423999000e-001, -5.52569678814348597129e-001, -6.46819006645316219029e-001, -2.54318515840876113732e-001, 5.55520844970918761807e-002, -3.88447601196280217772e-002, -6.28727141314896348367e-002, 2.60817946351175472541e-002, 4.31181651017383121838e-002, -6.39743577117459882864e-001, -6.65964843407507278705e-001, -4.49520921389135463819e-001, -6.21793097303191127923e-002, 1.54822449040778686857e-001, -9.35033238486845386106e-002, -6.18244259104329813015e-002, -2.33133537549769315200e-001, -1.92831972629438658240e-001, -6.71228581394544998595e-001, -7.90853102930743290244e-001, -7.43200241101611092098e-001, -1.06173402482488493659e-001, -7.98198095176747834945e-002, -1.11960179752765690009e-001, -1.11899550200921502063e-001, -4.54744082179329919824e-002, -2.57633555831769944788e-001, -6.25284391781375403774e-001, -6.78064492055277523441e-001, -5.09662116907920181852e-001, -9.85077047342825251608e-002, 1.39482639549236897558e-001, 1.26346977913899122248e-001, 5.83992768428283261922e-003, -3.99951004371263824089e-002, 5.11036339949947349126e-002, -6.98879476029711899088e-001, -4.04998483484343085870e-001, -5.52660001929311972546e-001, -3.64113138918841037356e-003, -1.81679022518947026754e-002, 6.61806593061410874945e-002, 8.08506437580868569936e-002, 3.72029382025932872646e-002, 1.87521946740273857956e-002, -6.53811376147948597470e-001, -7.05346088295893514086e-001, -6.18166231096333729234e-001, -2.38599193831912415042e-001, -1.37113901434283813607e-001, -2.43378329119167957639e-001, -3.59876575578955137935e-002, -8.87802847308637177459e-003, 3.62928157306799462067e-002, -8.17398064229507559375e-001, -7.83397555367158271444e-001, -5.92433700836446197613e-001, 1.46551611491781641483e-001, -4.45436973510113382035e-002, 2.10756414977729067406e-001, 1.49547015830919893808e-001, 7.41893509487540070424e-002, 9.66552072725105071438e-002, -5.47743333983633950979e-001, -7.00866229300668219793e-001, -4.97897982043932318952e-001, -1.10938124222500877902e-001, -2.25024665036663684692e-001, 4.82905430736952773207e-002, -9.48645365233432152907e-002, 5.30692425690372712732e-002, 6.90130060972035802580e-002, -4.30439772165635892165e-001, -5.08539854963946047484e-001, -2.56028729405360144789e-001, -5.10949379767844658051e-002, 1.34437986291669170358e-001, 5.60058857590473024857e-003, 4.00797907317875581890e-002, 1.33908127597611698034e-001, 2.96274886138185380990e-002, -5.96943855400346334861e-001, -4.52717956021324419158e-001, -4.07548257267618230237e-001, 1.96480201061271023133e-002, 1.11417811239636121989e-001, -2.60029002320479978028e-002, 1.52055028337734793320e-001, 9.15190310121877757810e-003, 2.61829341501947088222e-002, -5.60665763579291875907e-001, -3.26172592051957033199e-001, -4.71702258745781755067e-001, -8.08101088725605848362e-002, -1.40273975195741640309e-001, -4.00323436390194395407e-002, 1.57379634471699336729e-001, 9.14463936719668857300e-002, 1.39415682959708187028e-001, -4.43450697453679099080e-001, -3.69084643499783038312e-001, -5.48971704481095112982e-001, 5.98511428410225046481e-002, -4.16435031961638196796e-002, 7.05944311321147210947e-002, -1.20675241622255388640e-001, 1.44159651473045298878e-003, -1.04077962363380738253e-001, -5.14110900303276996404e-001, -3.86056130751795678613e-001, -3.51904491770489824543e-001, -1.28321579203589164475e-001, 3.61862582856120398866e-002, 2.31561071960448922047e-001, -1.30123910839458262201e-001, -6.68155999764225849713e-002, 3.33769548183629194416e-002, 1.38992418333699657707e-001, 2.78484422888546967467e-001, -2.00188724437293186220e-001, -3.44035877866678135861e-002, 5.43195786706696437385e-001, 9.67185105750378165679e-002, 1.41288748803930427900e-002, -3.35840494878615405949e-002, -1.27934831149056071897e-001, 1.33246823757721150061e-001, 1.37852415011802703626e-001, 1.16123753937076287790e-001, -2.51453631904291374788e-001, -8.18491574091535500912e-002, -1.55358102329286457133e-001, 1.75218145950499920582e-002, -2.70637301480632197492e-001, 4.42304188351556396008e-002, -1.01126928547410427361e-001, -1.51784970890119306347e-002, -1.50214637101425491084e-001, -1.96074868989369877070e-001, -2.79845948605322913938e-001, 1.93851258581758147115e-002, -1.75033620762618913336e-001, -3.21911870331455574057e-001, 4.74504079629489150527e-002, -1.47670774331879334218e-001, -1.91214943993061659011e-001, 1.89337274716174092104e-001, -2.17715260225462559074e-001, -4.06852975253600368521e-001, -2.77669076530274006043e-001, 1.72168342444370958688e-002, -6.50509919295254729343e-002, 3.47759938675136701103e-002, -2.62545636132028137322e-001, -3.31331526858976765926e-001, -1.56833447066430570205e-001, -1.95424517556343102509e-001, 1.56981392382269213659e-001, 2.04446040560804787045e-002, -2.50825361671394297947e-001, 1.87374278165247654115e-001, -2.13656362856106368797e-001, -2.44005341230087713367e-001, -2.57327080439720023985e-001, -9.80424505516307442932e-002, -1.52125808796813616341e-001, 3.40773424514910147631e-002, 1.39371856737560806394e-001, 2.61139488782893003371e-001, 1.08311846398022035287e-001, 1.68149749698492639860e-001, -1.46492412553214740312e-001, -6.29040079247086686420e-002, 1.25815350696314831591e-001, -7.06226373299731063904e-002, 2.99384255651022779254e-001, 3.11353247860564230631e-001, 8.54124669141367864889e-002, 5.47804052332631144506e-002, 9.75183377204260209981e-002, -3.04887166168763615315e-002, -9.27555395591887488216e-002, -3.73538254475184530734e-002, 1.68608737184776681650e-002, 2.95527674530676853770e-001, 1.49093530228827542139e-001, 9.10753824525642879939e-002, 4.65707034796673385868e-002, 9.11426978264068127222e-002, -1.05835015681737774906e-002, -1.33922390851603845263e-001, 1.95356884194910450370e-002, -1.10554300693250506793e-001, -7.19201947326713608710e-002, -9.30305526773852614619e-002, 9.37366535927799948702e-002, 5.40941858840854397639e-002, 2.16367903244026382747e-001, -9.50493822476089766926e-002, -7.93993316594111958606e-002, -3.42829761166212471091e-002, -2.35809773234274516751e-001, -4.62587577937808747119e-001, -1.11898145268770014132e-002, -9.70353891088478748284e-002, -1.17078941481512273370e-002, -8.77620936193955307469e-003, 3.05032009559542294230e-001, 1.19407078503190031138e-001, 2.50916929055724213793e-001, -8.81792886265814201963e-002, 9.35861196587407934144e-002, 2.16001096487279803382e-001, 5.08531269321884304979e-001, 3.05029309303289863919e-001, 2.76042364520474037271e-001, -3.56929751745170206756e-002, 1.75388359984629316202e-001, -3.84516292200074299990e-002, 4.29688523324429499928e-002, -3.33326751817764818653e-002, 1.68742301032147878903e-002, -7.12133779548474732390e-002, -3.20107231356205002015e-001, -5.69097025922307847567e-002, 1.29157703131964507470e-001, 1.84283314611895579493e-002, 1.44149999843708159775e-001, 1.33455388193825991161e-001, 2.73229879039176615230e-001, 3.41037234286603763156e-001, -4.46043253475703199706e-002, 5.56931316411320223581e-002, -6.52725399831184660560e-002, 1.38164887807072173098e-001, 1.17802402869336599739e-002, 1.69707647794027860488e-001, -1.74041870521695785090e-001, -3.41871067649855808757e-001, -1.14786328315517813237e-001, 1.24244560777518359140e-001, 8.75298205708268661773e-002, 1.77068813350726689260e-001, 1.68997809014872685252e-001, 1.51566100401417075405e-001, 2.91177587830620754339e-001, -1.53220334860987184022e-001, 8.17700161876297043628e-002, -2.99883564376681288621e-001, 1.69582669542120874351e-002, 3.06283871236364635404e-001, 2.41144459215653417239e-001, 1.39873809529244108596e-001, 3.25783565311085543392e-001, 1.81877765382662204274e-001, 1.38864682367058928092e-001, 3.55959718888110288049e-002, 9.91915188743585501951e-002, 4.67784210641017716981e-001, 1.78120425714938496187e-001, 5.14126099596507568634e-001, 2.11686691463566056814e-001, 9.85002604852084628906e-002, 3.54312887975989143641e-001, -3.08460699588784914571e-001, -3.02990216118884103658e-001, -3.50397183545958224027e-001, 4.68169430400134506387e-002, 1.36851641651228345120e-001, 3.54229574475372399611e-001, 1.11304321830484734268e-001, 1.01336932179875938154e-001, 1.04627991846292053846e-001, -6.72601116011331962019e-002, -2.98504754041306497037e-001, -9.15137412529245658499e-002, 2.08675402632688855586e-001, 2.30013906112871494014e-002, 1.61232826201603673955e-001, -3.80578638687775125393e-002, 1.54322191352962573285e-001, 1.06779006238288357022e-001, -4.97837364467543175284e-001, -5.11216293967467483306e-001, -1.70928133731355347269e-001, -3.54357541122938962674e-002, 1.06170004501621118020e-001, 1.65952510310192036247e-001, -1.36569086018883456557e-001, -1.57430471884019790307e-001, -2.72050960441577727167e-001, 7.84878922695679132060e-002, 1.30371196698112257195e-001, 4.45236792317850252343e-002, 2.00990112178857122105e-001, -5.13730484764235370565e-002, 2.07040182696848595878e-001, 2.60328646573189603775e-001, 1.96920572501518009734e-001, -2.40456812526159205423e-002, 1.36710617990310652481e-002, -2.64635313030313415461e-002, 3.67949943630177134235e-001, -4.04607080447075186797e-003, 5.90532133878317018819e-004, -1.29788690583008681223e-001, 3.71218078694181663479e-001, 2.01657683067460291593e-001, -1.50301397430768843982e-002, -2.90120634859659776161e-001, -2.44539264308116982560e-001, -5.37274764032167409522e-002, 7.89016540556894963032e-002, 8.12544423359375100890e-002, 2.54952652305888878559e-002, 8.22084726732803805493e-002, 2.08629433484772919272e-001, 1.53225116897885427214e-001, -2.49325655516419192326e-001, -3.24490083081297953083e-001, -2.72401555377933257684e-001, 2.50045377937280433045e-001, 1.15784074542888845705e-001, 1.21134870625446824932e-001, 3.13703226789511624428e-001, 2.16088549020841125259e-001, -7.72265832412007482977e-003, -4.69018191897037972637e-001, -3.33804762500793772428e-001, -3.93090665419895568533e-001, 2.53247172784919150068e-001, 4.86120038056684702910e-002, 1.26134825474502387799e-001, 4.42140156838835896025e-001, -1.00193277485133777627e-001, 2.44564378968379320112e-001, 3.20493092099647033932e-002, -2.93716722311143152435e-001, 2.04894779069013030504e-003, 4.63086715507757124000e-002, 1.41485185991337747424e-001, 2.47932088650858334367e-002, 3.74109383748821799909e-001, 1.57592060812145690063e-001, 7.00834271337947845026e-002, 4.72494307934096940960e-002, -5.53687124556255447216e-002, -2.95474411318765894929e-001, 1.85886176986351903118e-001, 1.92176180887861564051e-001, 3.16445474275605265202e-001, 5.58550715065563169182e-002, -1.47283073500674988043e-001, 8.28228885446155235761e-003, 4.18571841495647863074e-003, -2.34406927218343101582e-002, 5.20997201107038232504e-002, 5.72929496122802223157e-002, 2.82914446419732068527e-001, 2.07585473786193568102e-002, -1.78130557670266809200e-001, -9.53790303399893943381e-003, 3.89077684614926450068e-002, 2.49778046468363323918e-001, 3.79895140757409655041e-001, 2.30735337989636829503e-001, 1.11957884956721737124e-001, 8.82961533110974000627e-002, -3.20010333577433747632e-002, -2.70606535030006312148e-001, -4.71315657802869672488e-002, 2.44978942540457871047e-002, -1.05240093901897521778e-001, 1.05604910663356393874e-001, 2.84931651936820740101e-001, 5.46551874023479093700e-003, 2.16781142299395657158e-001, 1.03176289481746327747e-001, 2.90988732153682982950e-001, 3.27929004558820069715e-001, 4.32784800586753948259e-001, -1.46487307131106490876e-003, -9.19841865042183778889e-003, -5.27148163068320713132e-002, -1.19955444064168267534e-003, -1.21520492983906547302e-001, 3.24317532916314543723e-001, 6.87049735652885684711e-002, -1.67387299940600448034e-001, -1.68345602441531294602e-001, 1.03440275875776088732e-001, 2.74270573563600190969e-002, -1.59812851892811469412e-001, -3.04035739153615536257e-002, 1.46096027698630476221e-001, -2.20211313749317627586e-001, 7.56528573060197793987e-003, -1.03789524075446309981e-001, 3.92455551698957794127e-002, -8.52234357093376443393e-002, -4.94283962872971507907e-002, -1.16389178581497984566e-001, -7.50031434916637596011e-002, -1.89579541877553658935e-001, -2.19024984005221384775e-001, 5.34929783731815169934e-002, 7.92842513164386669677e-002, 2.01725981973788881518e-001, 2.00879171224031677356e-001, 4.82218323143725813296e-001, 6.32760845612134054106e-002, -6.77109284450685827705e-002, 9.46867590882284337894e-002, -4.56952777904959597799e-002, 1.06590154878974760488e-001, 3.05970455309939382005e-001, 1.66214355738122765427e-001, 2.21189402575717897204e-001, 4.87383930172469614917e-001, 1.40698359524427496492e-001, 8.99487980029003153515e-002, 1.64379045536659912363e-001, 2.49942874728105862703e-001, -2.13986015395567330533e-001, 1.98576378324064023451e-001, 4.89387384871112079976e-002, 5.40525045927954597702e-002, 8.39951025250234156738e-002, -2.68426611744042586949e-001, 5.96344826968989508154e-002, -1.88002089864516941375e-001, -2.00760067320101820432e-001, -8.00094762503743284210e-002, -2.96289168670667499295e-002, -3.57021853093083429975e-001, -2.40610197903436934252e-001, 4.28319101170103258558e-002, 9.77339000847900034319e-003, -2.83565692008050040940e-001, -3.69799800858080729427e-001, -2.23329593496390504948e-001, -3.06683884364433029246e-002, -1.16950099721023589860e-001, -1.15164657173101037113e-001, -6.95491826840761301343e-002, -2.67743246666261758282e-001, -5.48344966565149707916e-003, -1.76891089988733207772e-001, -2.27513702412020901722e-001, -3.64469321995661288405e-001, -7.96935417785936406343e-002, -2.31628306310804638057e-001, -4.56546336140544323223e-002, 2.29277825858102801693e-001, 6.72956110880369301475e-002, 1.01230094406723522549e-001, -1.39417704439937950589e-001, -1.69077590791119530822e-001, -5.28128760080815405631e-003, -9.87229190277740149828e-003, -2.44979234266917700324e-001, -3.72596007056948536063e-002, -1.42696067954884171086e-002, -1.55487747528083811860e-002, -1.72267905401176951719e-001, -1.32866054701806929339e-001, -7.90756360857802070852e-002, -3.51491444307604899988e-002, -1.56410587038410597849e-001, -2.14455171609145206491e-001, -1.09402662879290193954e-001, 2.32170653922200986852e-001, 3.73540102106879157162e-001, -7.78958070257469020747e-002, -2.32594056405605910387e-002, 1.77733008349068410947e-001, 1.66002654467011095951e-001, -5.45135419018504596700e-001, -8.21153576591485689917e-001, -7.52279986645855602845e-001, 1.67964002544623403068e-001, -2.72492436936558248689e-003, 2.95615886960654605797e-001, 1.18342525732373263225e-001, 9.53015153029650313732e-002, -1.81900075616186679417e-001, -7.66846958559740388139e-001, -5.87821055833865235840e-001, -4.79336044747942835453e-001, -1.88050492956268570921e-002, 1.15109902674286931901e-001, 2.21126968138690621624e-001, 2.42191736998549067561e-002, -8.18423651802410723199e-002, -2.89281406689856079861e-001, -1.84942251483950326207e-001, -1.34990157175308211901e-001, -9.24360706014508010098e-002, 1.21583482643833853953e-001, 9.56963974519531024310e-002, 2.12783214278281312959e-001, -2.49268835336566824123e-001, -3.21869389410699646703e-001, -4.39777687482916457284e-001, 1.98195166729696753416e-001, -6.80427222573268242721e-004, 4.91704496240191121781e-002, 3.09050723174702668405e-001, 2.20367726408445291364e-001, 3.65593180695320985052e-001, -3.09796966083347669052e-001, -3.21966974167033626042e-001, -2.49193041106028218001e-001, -5.35611910881001393459e-002, -1.09115497217620122106e-001, 6.56465731291390602875e-002, 4.48761412007759430409e-001, 3.96500490433655927713e-001, 1.98226578037185990899e-001, -2.71900633602260133337e-001, -1.21152554809139834102e-001, -2.67642050683153276402e-001, -5.09896834409905644336e-002, -7.72234163213341706644e-002, -6.15932496145976948743e-002, -2.22320912083149246907e-001, -3.84600595904758757460e-001, -1.71803700042909429646e-002, -2.30487108454565825522e-001, -2.83690838808892731304e-001, -3.44444514405029933446e-001, -4.50423356034535926629e-001, -3.28844053940179847917e-001, -1.08356679212766704445e-001, -3.88384244562213376550e-001, -2.71240317785701290365e-001, -9.63207714492708699794e-002, -3.60709207981001755972e-001, -3.04512948277620043580e-001, -4.00381399640679647156e-001, -1.40977172705626790927e-001, -4.08956149475568075946e-001, -1.38718956623126860039e-001, 1.67841631998085355493e-001, -2.53865184409692801193e-001, -1.84592581618201023730e-001, -1.80766768344931300083e-001, -1.80077105820336480502e-001, -2.85148192303363245959e-001, -4.16182525552235560440e-001, -3.00460930110177548702e-001, -3.82895289832784035955e-001, 5.72077824418411942653e-002, 2.50165572172386441174e-001, 6.08121591939897176982e-002, -1.61487669357668506276e-001, -1.30866142504812432712e-001, -7.58374624784114159670e-002, -5.58600909220321392712e-002, -2.18928045960293110594e-001, -3.11410859155000913079e-002, 4.66693518790620764936e-001, 3.95746551863596029985e-001, 3.71749438402218246313e-001, -1.54350655587057461471e-001, -2.87305046769241012594e-001, -2.75921463534576250076e-001, -3.47958223854842152445e-001, -3.94603901223008202148e-001, -4.97228572285056291680e-001, -1.32605419198645411299e-002, 1.79416139539126870406e-002, 2.43721447607417429637e-001, -2.38138788325154199255e-001, -1.27343245297682400308e-001, -3.06977960337273092506e-001, -2.61131365393820591425e-001, -3.12061016455646378365e-001, -4.74520326173988926666e-001, 3.29108021392862867827e-002, 1.75674381454561795435e-001, 2.85821452477125981240e-001, -3.10390989005529416289e-001, -2.45084888456305910465e-001, -4.49845320125038472536e-001, -3.93774194182055226054e-001, -4.34545895875105558925e-001, -1.75662351351362711060e-001, 2.25840717308499777660e-001, 3.20114470661136296670e-001, 4.00682323275460619549e-002, -3.62858731625785468911e-001, -2.07950843817016783888e-001, -4.36338384788686473037e-001, -3.39559434373246926686e-001, -2.98873980511116021930e-001, -3.52321973012849232187e-001, -6.25142893338582888996e-002, 1.33740405228217118516e-001, 1.78143313576166306689e-001, -3.22396014124325946959e-001, -2.26827288975081975408e-001, -1.57696297184642980627e-001, -4.06146567824332282992e-001, -3.30040686940869132382e-001, -4.69110251380407572430e-001, 1.67051883759846725441e-001, 9.74326831708203500160e-002, 3.03275996008635861934e-001, -3.97148853968020021377e-001, -4.16893829555689043875e-001, -3.57315311759518139390e-001, -6.12075126156194859739e-001, -7.37162579785398341947e-001, -5.95130656962100879070e-001, -3.10905200284358612661e-002, 5.42649966785700155203e-002, 2.97513018642871662767e-001, -3.60601070078352903270e-001, -3.43522012600088133549e-001, -2.82775672280990764129e-001, -2.84232266144740230995e-001, -2.89037642117399851127e-001, -4.24608969216247134071e-001, -5.59190968820711536980e-002, 2.09326903993686863625e-001, -1.95935741875131880230e-001, -3.25408279805131872564e-001, -3.31526445274755721115e-001, -1.42663421607554546933e-001, -5.81804306585314456868e-001, -5.73698093612607151748e-001, -3.65969864853392168325e-001, 1.00359922934980250186e-001, 2.66660117595166890059e-001, 2.02931030015026880875e-001, -4.11900652267246702998e-001, -3.97372204254278715840e-001, -1.19204383974061439710e-001, -5.36838028743316320046e-001, -4.66163483500464714826e-001, -3.50607707502591237070e-001, 2.79972230508459783704e-002, 7.63517171003180034061e-002, -1.89284084266805902041e-001, -1.91133082566239426159e-001, -2.60758134516499318067e-001, -2.09181112545657077462e-001, -3.85610644392377632794e-001, -3.44421838465577334620e-001, -2.95132286294994883313e-001, -1.07771670194122773379e-001, -1.38659064002360832291e-001, -2.12719901819280743371e-002, -1.47930715338059792785e-001, -1.96505971305108856351e-001, -8.11211068243400529321e-002, -1.17674241712255892023e-001, -2.97259874939462209742e-001, -2.56288299158547616674e-001, -4.24669365906057416638e-002, -2.23334813417047972628e-001, -1.32759266279676824141e-001, -3.20443265989991288301e-001, -4.22401977899081626511e-001, -2.21603075183584685703e-001, -5.02843895616467806420e-001, -2.61632921683054242568e-001, -4.50108936959810412848e-001, 2.84106913609047939673e-002, 3.95406891019404113652e-002, -7.97433740445335215163e-002, -2.63405211746843004317e-001, -2.29162685918151448616e-001, -4.61758120729558352302e-001, -1.43512020639085913221e-001, -4.05062398372989074247e-001, -2.87445448694632454956e-001, 1.32623079061852298076e-003, 7.85615883769065492803e-002, 1.65797185893376886057e-001, -4.01384442675223163111e-001, -2.77021590200186018649e-001, -5.22087540986962417300e-001, -4.58554867173730951180e-001, -4.10441540243535241128e-001, -4.47166190383195105706e-001, -6.68409072504021900540e-002, 1.51748479015767793673e-003, 7.97146280757548009177e-002, -1.93832204908260502529e-001, -3.70160939837948441133e-002, -1.92332902235476416175e-001, -2.79612656341240994884e-001, -2.76313965515630977077e-001, -3.92432555066333177418e-001, 8.28877457536227463253e-002, 3.44293278461276386349e-001, 1.32551951902783710091e-001, -5.79342981624174302446e-001, -6.01310920809611904048e-001, -4.37205570621365668948e-001, -5.50407031407247337995e-001, -4.42961074662616083319e-001, -2.93047174075789451653e-001, 1.25758396563026064729e-001, 4.94687815314111545284e-002, 8.66279668701765703798e-002, -3.09077695264400931219e-001, -3.49613965966468986935e-001, -2.93077969274367411412e-001, -3.28692017279298254184e-001, -1.81677362955823484825e-001, -2.70607342644549164756e-001, -5.17398766284796821080e-002, -3.71666686595924222747e-002, -2.59778575759191054928e-001, -2.48535182331272475054e-001, -3.74921138719266355821e-001, -1.49049592964481558699e-001, -3.29252168166360104085e-001, -3.19523221765499576552e-001, -4.21637756019301424004e-001, -1.48435454284757961663e-001, 6.88251511118591202676e-002, -7.04435822198801880889e-002, -3.57464701863538347748e-001, -1.61358518888037760775e-001, -1.62068451563927767856e-001, -5.50465333138392187706e-001, -3.95822685243803151778e-001, -3.57416490201080072620e-001, -7.09349977227543837532e-002, 1.42743446439367371870e-001, -1.55653506082176734671e-001, -4.79876614072077878337e-001, -3.38921340587840125291e-001, -4.24379480157940580654e-001, -2.91136066561726358781e-001, -2.19079740400428102376e-001, -1.46456239046759140177e-001, -2.87882306144186861374e-001, -1.87242111500782543176e-001, -2.02243007708999888994e-001, -2.85811205603654472363e-001, -3.20382682135728069639e-001, -6.41193290247303426810e-001, -3.91067338862530089472e-001, -4.34802703570875803685e-001, -2.60860910596413475560e-001, 8.86615158981994971876e-002, 2.11975860421331652184e-001, 2.05722817447948652658e-001, -2.65217115522753843493e-001, -3.94415291693434977294e-001, -2.44586193328938439340e-001, -2.61463348706530152032e-001, -2.36118637539679515625e-001, -2.36934818536046198911e-001, -6.16823766101559506358e-002, 4.05910094692903053448e-002, 1.42554289665565964151e-001, -2.47715749263177104078e-001, -3.01121120204275394272e-001, -4.72885962377710467042e-001, -5.86302813471967998460e-001, -4.23093793467615164605e-001, -4.41337607641282325677e-001, -4.56410756720774593576e-002, -3.40272825397671604963e-002, 4.05161893645863829816e-002, -2.37946182977496145661e-001, -1.89941332797315592940e-001, -2.38865335463275318961e-001, -4.98019859527274622035e-001, -4.84580720430116462794e-001, -4.31035904842475781074e-001, 9.04263029673011559106e-002, 1.44805052319185705717e-002, 7.81970694874126737162e-002, -2.83486171683078103101e-001, -2.01277545831671400567e-001, -1.76261281761151883396e-001, -5.30193153435310593480e-001, -4.11234774762279708948e-001, -2.54529810487989227585e-001, -1.42508363537159538081e-001, -2.98979501021873150801e-001, -1.96765908290880447984e-001, -2.40986872063868012850e-001, -3.27336709469782327631e-001, -2.38972278989581232711e-001, -3.91465940293068248579e-001, -1.74718423188641058807e-001, -1.50522996653086854613e-001, -1.19983480747411955236e-001, 8.73652183477029165015e-002, 5.07121617146515969721e-003, -3.07036783896684706274e-001, -5.31441808384798333731e-002, -1.12643844964192940683e-001, -1.45072538938750772441e-001, -2.53360204431660018809e-001, -7.31764646066819235415e-002, 8.93621730968581218235e-002, -1.91617565645798126894e-001, -1.76690047046438980516e-001, -3.31749047801798702118e-002, 2.15033992663864713391e-002, 7.16615231459143547932e-002, -2.10542466945529360700e-001, -3.05430918466844947279e-001, -9.41061658094995423518e-002, -1.03167681771561520199e-001, -7.99331724856504749477e-002, -1.49947768622931104643e-001, -1.87973240915362410641e-001, -1.19486391540800013233e-001, -3.33597302201811607425e-001, -2.02827508021351021750e-001, -2.72586061012603242393e-001, -2.66829606352482658072e-002, -1.76654187300562426355e-001, -1.94692151423946968603e-001, -1.52768879174110770724e-002, -2.32815677861402364757e-001, -3.15228827299268987705e-001, -3.22219578595857647496e-001, -1.84466340021506913782e-001, -1.19719520092540429590e-001, -5.49784810642719168339e-002, -2.28402252274019806899e-001, -2.80128907579474062395e-001, 6.73777471385628573541e-002, -3.00940588946001785775e-001, -2.75423368617664976465e-001, -2.28399118880585560998e-001, -1.07422408266519497921e-001, -3.04803923208666671663e-001, -2.45324710854419036909e-001, 7.60445688638865247011e-002, -1.55111749103672813543e-001, 6.29746047765666200347e-002, -3.04273230708692679625e-002, -8.62548823243274587202e-002, -1.76538029056309386799e-001, -2.73437366355591349176e-001, -2.89738364344588938959e-001, -2.37579291310215712230e-001, 7.30523185949483455648e-002, 1.22083703653744032880e-001, 2.22321429028123560001e-002, -1.92137839612214811336e-001, -6.24955397393075762213e-002, -2.29606552530851132365e-001, -7.41434518605289805127e-002, -4.06400936392942516151e-002, -6.10679911427904481558e-002, 1.58181867704294321086e-001, 1.16247071118597319894e-001, 1.80857273433327081502e-001, -2.78985218057552442072e-001, -2.77338675252481292599e-001, -2.41035099682821968292e-001, 2.39043216587144058405e-001, -4.96347296899113735180e-003, 3.50743876991545175392e-002, 3.56400487961864992359e-002, 9.15545704354325806662e-002, 2.23835309322343717353e-001, -2.02360913709141609917e-001, -2.95198533826252718093e-001, -2.05142222300753879205e-001, 1.26806921499826391608e-001, -3.20634970471704305872e-002, 1.66021741162941549597e-001, 2.62573646950505668052e-001, 1.84572064921647599478e-001, 9.73119289816254812164e-002, -3.21203097685907268399e-001, -6.32101301601866033542e-002, -1.44565107141101073518e-001, -1.68435813126038731735e-002, -1.56714948339190598969e-002, 3.21734726212106400545e-002, -5.97448274323671979502e-002, -1.19303784788131278516e-001, 1.91267306854373292380e-001, -2.36745664670893696258e-001, -2.92032299806352146909e-001, -3.01493982294931406329e-001, -1.27790773844762395317e-001, -2.57526054560409146943e-002, 3.87594654098662476024e-003, -9.35545852376527126149e-002, -1.25978824515312753940e-001, -1.55401691740147368526e-001, -2.35033183890961699936e-001, -3.26923568351582261027e-001, -1.91838401597781482710e-001, -8.35170426505658231031e-002, -1.85494054864425605977e-001, -3.57611165213370524318e-002, -5.54845611260512336371e-002, -4.49613279169347457298e-002, -9.09204064539019113367e-002, -1.94650733052207397522e-001, -2.59025614033150004822e-002, -1.48002043533421723254e-001, -2.74452318588996269089e-001, -1.79990829338374347390e-001, -3.97604040074144449851e-003, 1.00200165622736578341e-001, 1.74636307449403033187e-001, 1.28434725893228681576e-002, -2.02355775728707693029e-001, -1.03715012026398767375e-001, -1.37911376453409645348e-001, -1.35020077061963339471e-001, -1.58672555365903911184e-001, -3.00597324370819769801e-002, 2.39798743128348035292e-001, 3.54964455674939616259e-001, 1.49609216569611541692e-001, -1.57508159138022185708e-001, -3.28569829153695369683e-001, -3.39789701945402367045e-001, -4.15773868356132669799e-002, -1.96953913816794473624e-001, -1.63597085467113989576e-001, -9.79441352645208512806e-002, 4.42321391918709116986e-002, 8.21142373067712399992e-002, -8.74885107461009919882e-002, -1.69965831762988406339e-001, -1.52226126209084849927e-001, -1.21076852470152374064e-001, -1.46841093755749968475e-001, -1.57690111886900657945e-001, -7.26430195115836674358e-002, 1.68362728653360382847e-001, 6.19395258753508287652e-002, -1.55276595528803629254e-001, -1.77911080650911851420e-001, -1.35879271512362231888e-001, -8.18385023926454860388e-003, -7.63803905571568408917e-002, -1.73190946886261992743e-001, 1.73599349747795506094e-001, 1.60387504610088243995e-001, 9.13850475706759063366e-002, -1.38293900110069034604e-001, -3.09056525508591195539e-001, -3.35778939031900203194e-001, 3.60995047304667401877e-002, -1.27415012561891249909e-001, -1.78256137011061563391e-002, -1.26028257563523343743e-001, -1.57138645176231987743e-002, 6.31705837308545788827e-003, -2.70879748971498024446e-001, -1.80174052408239832035e-001, -7.35544110900760300664e-002, -1.42025800774143728944e-001, -7.77750614870412609880e-002, -2.24887945349464962730e-001, -1.67945211853012636716e-002, -1.80086892585041603854e-002, 1.15188076731016914023e-001, -2.60248130292293433641e-001, -2.44151116137141105389e-001, -2.01236744422179147929e-001, -1.63991582592842993771e-001, -2.59753512345309578446e-001, -1.48309102229279676788e-001, -1.12468077472024780006e-001, 9.49979664591441702592e-002, 9.94532739066840004716e-002, -2.94453850529138583259e-001, -2.44091633359119236646e-001, -7.89499624793542492673e-002, -8.83809512898893201438e-002, -7.61052743910740486788e-002, -2.67503164203322540970e-001, -2.86944415846600159314e-002, 9.28086457912977169649e-002, -1.32607144283104771976e-001, -1.67409707689135489606e-001, -1.89909462724646788123e-001, -1.81995506362254311217e-001, -1.37898158578974944222e-001, -3.62022794139348569331e-001, -2.42297514724671647635e-001, -5.55993157391594661210e-002, 1.47597783001138349590e-001, 1.48687966832593970734e-001, -3.03235516875146271509e-001, -3.27894131836933555579e-001, -8.83506228240050761613e-002, -1.46138026871511367277e-001, -1.36487299933439137911e-001, -4.91192318171120578807e-002, 3.05103972207959421581e-002, 1.60317821692289141922e-001, 1.36685528927699521951e-002, -2.42722186332885780935e-001, -2.62038286565404010542e-001, -3.01371704391080963426e-001, -3.57900845531717096137e-002, -2.37238125120171811089e-001, -7.98818611604516781721e-002, -1.70791907155086436498e-001, 4.40165767225420209718e-002, -3.83688419187988780101e-002, -7.20282385273128406000e-002, -2.30016798525102483808e-001, 2.67220322129112126952e-002, -7.40060111421712019109e-002, -2.06323914777147232602e-001, -1.34369634982715840943e-001, 6.56260879641234161352e-003, -7.05599435790448953343e-002, -3.82774684142574705970e-002, -8.07163811111135803822e-002, -6.67529105579308945639e-002, -1.69071558289094925343e-001, -9.54373916420757639756e-002, -2.28161465001679275577e-001, -6.44104574969321524991e-002, -1.60248405678333066815e-001, 6.50916010735624328554e-002, -1.43968613949512630468e-001, -9.43063383486921619214e-002, -7.14618692602459609775e-002, -3.06607287352558988136e-001, -2.00744645464633802989e-001, -2.58834464119788609793e-001, -7.14735633679454973599e-002, 1.40897803823006179114e-001, 2.72139918627540937368e-002, 3.02177019817187232642e-002, -3.44015872601196648350e-001, -1.76577562433291423982e-001, -2.88374182911610044133e-001, -4.26195999795535643284e-002, -3.43258722628093232432e-002, -3.09048142970492767390e-001, 3.92054732645547854286e-002, 6.16258905037488525364e-003, -2.94487315977235708520e-002, -1.54993199341777049272e-001, -7.97310518567994896966e-002, -9.41794571582429684842e-002, -1.51125721135382751203e-001, -4.28207960889904273860e-002, -5.12473404426421058622e-002, -4.76756595565544574744e-002, 2.39147750079823862013e-001, 4.69216302717189379101e-002, -3.23359975087386397608e-001, -3.43233639181042604616e-001, -2.65375391775085456292e-001, -1.73473247896337834373e-001, -1.79024047990958778964e-001, -1.64162801853090900561e-001, 7.38349666884716843152e-002, -7.62507440552243759280e-002, -9.52203962938949072248e-002, -1.03095493883425565196e-001, -1.25336456817952218712e-001, -1.34585632992850784406e-001, 1.84482173721396761068e-002, -2.30385924840732780883e-002, -1.09329985655573710956e-001, -9.22047621028937586241e-002, -1.66784758548453142246e-002, -7.34154828723859731454e-002, -2.37567025065625686553e-001, -3.58950753207310513382e-001, -1.22661739343241024680e-001, -1.65611984013602719923e-001, -4.09516493369097428490e-002, -1.39519802683885973948e-001, -1.32387458786192901972e-001, -9.33068661169590349291e-003, 6.02821528913325133114e-002, -2.45850793588127808365e-001, -1.28219336999250671516e-001, -1.99673305144306617587e-001, -1.83312848437101633126e-001, -1.21903415048314631153e-001, -2.30370918434043225886e-001, -3.89177881224808952521e-002, 3.83862794006005203507e-002, -7.81068498352605472546e-002, -3.60994415094923470910e-001, -2.62755665559671558462e-001, -3.93287635164086157857e-001, -1.60101205568223436959e-001, 4.13373221209053856584e-002, -1.23840584994948557651e-001, -1.93730024759712293747e-001, -5.62468318560277388829e-002, 2.79254467825553014115e-002, -3.22714651900556204200e-001, -2.84728831282069660968e-001, -4.08417999050606050915e-001, -8.26555240509323913001e-003, -1.90939929860967277930e-001, -1.86357475397010058371e-001, -5.24472514555082078291e-002, 1.62654888364760080721e-002, 1.56053474823298593543e-001, -1.62715949215617522450e-001, -1.30195845503114582264e-001, -2.13553127850626606188e-001, 5.08089317783722224653e-002, -2.33086107834143546613e-002, -1.22019454482021838526e-001, 6.56676167186613229942e-002, 4.15535748576993588244e-002, 9.11845971017775647205e-002, -2.88381043231983547059e-001, -2.65280380913910596163e-001, -2.34325874143416240658e-001, -1.94876935141358037518e-001, -7.94250493804564000611e-002, -1.32879087529785055999e-001, 7.23137808424553218956e-002, -2.64922790985923795742e-003, 5.18994058592191775947e-002, -1.56967200271990375837e-001, -2.49244633777804147634e-001, -5.75210597335777812367e-002, -3.41062230294644150308e-002, -7.04780299215078537278e-002, -2.32745220349214049227e-001, -6.91891402929743354333e-002, 3.46518882140308672954e-003, -6.46147017253921457369e-002, -1.21562907603211423080e-001, -8.54157090082189873748e-002, -1.24120279799895080752e-001, -2.52437344725900736364e-001, -1.95201005274046296423e-001, -3.29219801618865215431e-002, -2.99574189011837799246e-002, -2.23783983968958849475e-001, -2.33939225692094854292e-001, -8.60809835933387945683e-002, -2.55668848813225713101e-001, -1.29962092401839812705e-001, -3.73955327874400389465e-002, -1.59738079383149322865e-002, -7.09530644101301760651e-002, -1.86857898226930468910e-001, -9.80188120451980053616e-003, 1.17849644116392732185e-002, -2.26627398163888549298e-001, -1.21425657367478886939e-001, -9.58850850045240149511e-002, 7.40888542870475272362e-003, -2.33078363843478506001e-002, -7.58861679113164572241e-002, -7.90276539981789732936e-002, -7.31963721302825165438e-002, -9.61164263370295063327e-002, -1.22359615814321101568e-001, -1.85730801781339820156e-002, -8.23384777956369801055e-002, -6.36975475882864128341e-002, -1.17718024513336294579e-001, 8.74660914081714507828e-002, -1.30151478453707808436e-001, -1.20211717116078725676e-001, -1.34036991197852783930e-001, -1.86808228286296479359e-001, -1.40485467646216888316e-001, -2.41257074935034149243e-001, -1.40075064313446712161e-001, -2.32522740940203226367e-002, 9.67500191127371872435e-002, -2.37998301556775870846e-001, -6.50541006473037836111e-002, -8.82010162647510198575e-002, -1.99614549440490840482e-001, -6.37167957897562808878e-002, -1.22501508627798863516e-001, 1.05263109778851879361e-001, 1.49289841243440413177e-001, 8.22899499045492699434e-002, -1.52055449242422674461e-001, -1.93784525502333437874e-001, -1.29017592290958139911e-002, -1.66560485325291662839e-001, -9.51710616169812589904e-002, -7.11662458530777225496e-002, 1.59797280636047395186e-001, -9.06877204848277052029e-002, -5.89560317194257166307e-001, 5.25882576432089299256e-002, 7.79398391587943911718e-003, 1.95018235261152222959e-001, 6.68127785543474850272e-001, 2.15014738515144132602e-001, -1.25577476907828305963e-001, -5.83742474585057014025e-001, -3.84237720428783846582e-001, -6.55496391169943182220e-001, -2.49071780878227733158e-001, 1.28000567529225582619e-002, 2.40381806020788874045e-001, 2.63929653337174996430e-001, -5.56670600739974236193e-002, 9.05695483117826549702e-002, -1.52749495139228474994e-001, -4.40220103536133611222e-002, -1.01315925585462263125e-001, 5.51354664811492423127e-001, 3.84662990822562056437e-001, 3.50969495879918214065e-001, -3.33638127526008465562e-001, -2.42699326337985021862e-001, -1.13601884688923210343e-001, 7.75448669779964672860e-003, -1.68408091674937143711e-001, 6.46268637225449332773e-003, 1.41002315525786431349e-001, -4.23788204480409838593e-002, 1.17697135242805089872e-001, -1.54537780857119805278e-001, 1.04590668389043378594e-001, 5.25766666464953374982e-002, -3.36223659269492658463e-001, -6.54599127226108579158e-001, -1.62273818778968764720e-001, 3.22356278262830753256e-001, 4.92683163368901555490e-001, 1.66284408318774362678e-001, -3.05833221980848390942e-001, 4.15486744870711743882e-001, 3.78408473078306398230e-002, -1.24219583598124280743e-001, -3.80662020520847119154e-002, 1.03293534652237992133e-001, -1.31132882811321321848e-001, 1.30175394829967816523e-001, 5.56090523267513403560e-001, 5.09780951346574640048e-001, 3.57443661977340565450e-001, 4.34989543658355959366e-001, -5.23053616009141394971e-002, -3.07940407498426237110e-002, 1.35714024686246992335e-001, -1.81168364563582207083e-001, 3.65674556516943527473e-001, 2.88225849811298950875e-001, 6.04728244314790885916e-001, 2.98310799702808937539e-001, 2.86553630567265682494e-001, 7.32802206264557415283e-002, -2.58573829188147086278e-001, -8.99172376151820273993e-002, 4.45885227096119052259e-001, 6.32122455145976092084e-001, 6.87850108702418444606e-002, 1.92724014172897611941e-001, 4.12209956481691841557e-001, 1.84183029122767127905e-001, -2.42004619839066098530e-001, -2.37455621158128515891e-001, -1.79560374683961715414e-001, -1.82519517809172776568e-001, 7.65006886157070797871e-002, 1.71993037775960561087e-001, 4.11341442409902724453e-001, 1.04639616435230953240e-001, 5.31010881234439291454e-001, -4.61012686377407707172e-002, -3.36323426345340598109e-002, 2.55153933451837067192e-001, 1.26176684947590267427e-001, 1.00081570253791760083e-001, 3.75960868787027668869e-001, 2.72203896988789328937e-001, 1.09491931159662783668e-001, 1.98515763901603942143e-001, 7.79651525243020837586e-002, -9.36995347926492527790e-002, -6.32375818472011158589e-002, -3.02733038915967804516e-002, -3.01911507757356770143e-002, 4.13213414032263359754e-001, 8.26151092375951634494e-001, 6.83702052303909346698e-001, 7.36453305330411422958e-001, -5.18333203087942145926e-002, 1.34716013672130818790e-001, -2.62925002357846715473e-001, -1.69054858041467137575e-001, 9.87792149456363267890e-003, 3.26574602021715953981e-001, 3.59780269078083358991e-001, 3.08482634118761755992e-001, 2.09868031808163990615e-001, -1.83282967769480525932e-001, -2.23453774234959740008e-001, 9.14483508065986883118e-002, 4.66861843452938268806e-002, 2.41089166797694542943e-001, 1.30356218099524662213e-001, 5.75314960130816621664e-002, 1.66646781091522089291e-001, 6.49604576814410104857e-003, 2.77836651207468920965e-001, 1.66397143200662067652e-001, 2.44716465319617770824e-001, -1.05359580877195033177e-001, -2.16090584111231359676e-002, 1.15628945853207196204e-001, 2.99127295293542927457e-001, -1.85700589535420026999e-002, 2.77119770888653582652e-001, 3.12671340878958259335e-001, 1.92527526492378309175e-001, 2.60238982222379677811e-001, 2.66883023342291358926e-001, 4.34411993048540723272e-002, 1.41706451984373649200e-001, 5.86902476633033298725e-001, 5.98932762890179493098e-001, 5.51828791736729162842e-001, -1.16001182887890158524e-001, -1.00543901519121944843e-001, 2.35736106278786354193e-003, 7.43050128257168179813e-002, 5.79988757540777014055e-002, 2.29372618175156556264e-001, 7.30380028689443294709e-001, 3.75896766461723208508e-001, 6.82078887737711414552e-001, -1.75585427110153437236e-002, -2.21552673903559732560e-001, 2.60704650054008890692e-001, -3.05911725248388721710e-001, -1.16376290680820462797e-001, -4.80591998579485035759e-001, 4.52936657967749178866e-001, 6.51938850671120118108e-001, 8.25535600046955031495e-001, -1.18653770584694687185e-001, -2.06197152218745127783e-001, -3.76009612222975644902e-002, -2.91889601793481501257e-001, -9.97645809614072648364e-002, -9.07560525639115461827e-002, 3.63600498832466423327e-001, 1.96235082208789574088e-001, 5.42947523247246710554e-001, -3.14020767839868319982e-001, -2.80259129113882149431e-002, -5.35564653697613926586e-002, -2.75301699881544958970e-001, -1.64893225492616563033e-001, -2.48947956972971534695e-001, 1.40021618159376470825e-001, 4.56115530751115383357e-001, 1.93260490675332075039e-001, -1.70950811131306938673e-002, 4.53292848679679033497e-002, -2.01188072632501296910e-001, -1.12693539467215247951e-001, 1.61379876604765964965e-001, -2.59235959828042872299e-001, 5.87063694464798224715e-001, 4.31363671652131630552e-001, 4.43625187663619857670e-001, -1.43965829418979285315e-001, -2.91411617553990698326e-001, -8.06355805523682467317e-002, -1.44504518554187555424e-001, -1.87648584314399735629e-001, -1.74855321324868043242e-002, 6.42812827690420474092e-001, 5.19390491718935698451e-001, 3.97683193459249906265e-001, 2.29073099638163024672e-001, 1.34598153082898241983e-001, -2.31588262759541696489e-001, -6.20481338893312361904e-001, -4.08623689422694391649e-001, -5.26545559738624935342e-001, 4.69889673640572436142e-001, 5.89656658464429050959e-001, 1.94293024768391164869e-001, -1.30477054950793452948e-001, -3.62989075305793773563e-001, -1.23661766345825097080e-001, -2.89638675661162914299e-001, -2.52836328157842009368e-002, -2.58475114974431208203e-001, 5.93351251144477953581e-001, 4.42972150109532891715e-001, 3.96275265552001321190e-001, 3.03342848959952782195e-001, 1.53029799086604856306e-001, -2.34665714427769511730e-001, -4.36728716539169226074e-001, -2.23031509056507593058e-001, -8.78073535392840942571e-002, 6.22320407983894541282e-001, 5.29504365239552576838e-001, 5.13986877408611708695e-001, 5.67373834630712670091e-001, -3.46718591448180318837e-002, 3.01664516593164233615e-001, -2.87691422515399974902e-001, -3.02915112321778881577e-002, -1.34349491974919355020e-001, 1.64886268168632776909e-001, 2.51867537761646165251e-001, 1.96855869160420721142e-001, 6.73345922624017600988e-001, 3.88722563904624507369e-001, 2.68297969921504120272e-001, -1.96541393565408756272e-001, -2.73694647240211197392e-001, -1.19827114999679504304e-001, 5.66459797536042253263e-001, 6.42932373436512882847e-001, 6.21551337529191338938e-001, 1.94757123224067185685e-001, -1.75575246656378552990e-002, 1.85184999387506821211e-001, 6.79640798797372103213e-002, -5.18689299141314591468e-002, -9.08951631011553212725e-002, 5.64083093307323424348e-001, 3.12869573557724600654e-001, 4.77667212935839302634e-001, -5.03274010804397944896e-002, 5.47283414085441011210e-002, -1.93053095923773010423e-001, -2.91523498299623429197e-002, 2.14209239848043991872e-001, -6.20177391029557087410e-002, 5.37701541979084263190e-001, 3.60688391149419473880e-001, 6.19096961239488652318e-001, 8.76738935976257571792e-002, -5.41726431416094597604e-002, 1.13808793619293302513e-001, 3.41348812023428149764e-002, 2.01297022447943924073e-001, -3.92531071244726081915e-002, 4.17345019455451216039e-002, 5.88209011411282456372e-001, 2.33683290095753531945e-001, 5.25913061324692843179e-001, 5.10814213377110526437e-001, 5.03648124279202580311e-001, -5.61272552848865041719e-002, -2.99744400947931477486e-001, 9.64901018906950125320e-002, 2.94155886967386870356e-001, 1.81507789790119999918e-001, 2.80473102891271586223e-001, 4.38817535236246114572e-001, 1.69243686029543413674e-002, 7.69555905089465506347e-003, 1.87852733188980991486e-001, 1.50977113014237274147e-001, 6.89556815589010552170e-002, 3.62859467641544641836e-001, 3.06348908892501603507e-001, 2.29794390623773769899e-001, 3.35923229051986460547e-001, 1.76194811086632568964e-001, 2.71577104978839078964e-001, -1.59104906078917557322e-001, -6.06967180513189041857e-003, -8.02919167276225365093e-002, 1.91775575287827071413e-001, -5.81924073009294842707e-002, -7.23688612884988147211e-002, -1.33913900118926371130e-001, 2.28439266511218624922e-001, -1.04765886590778428689e-002, 2.77289038205497717637e-001, 4.32728159253711386345e-001, 4.31749836149722621137e-001, 3.51323369953185360437e-001, 1.57175636176037358815e-001, 2.99221918316282697869e-001, 1.14724501415422064365e-001, 1.10046004432190258626e-001, 1.19057997551783242840e-002, -8.26974541511747707201e-002, 1.15015830397837526267e-001, -3.35007434792140790236e-001, 3.87617125477445312320e-001, 1.12074685744430746492e-001, 5.18202577081911863743e-001, -1.86116332866550882041e-001, 2.60286412070511452566e-001, 5.72651637425155152217e-002, 1.49458229529627006915e-001, -2.23303452859158257926e-001, -2.77200680400600307784e-001, 5.63259714534264599450e-001, 3.40522872345469573840e-001, 3.38015287499908501090e-001, 6.92511223862142116792e-002, 4.22744099496375619340e-002, -2.18851322984120078008e-001, -7.25556765296255512521e-002, -2.85349744745246707012e-002, -2.77589356209895277150e-001, 1.37127421311663000303e-001, 3.08191416590426148225e-001, 2.84358196587832345870e-001, 1.87882885252690118305e-001, 2.34682493498513397925e-003, -2.64531216268034004291e-003, -2.15456167276719984249e-001, -2.70508248008156149123e-001, -3.57221240802884199006e-001, 4.83991151764357641074e-001, 3.88796735749891653189e-001, 5.62635430433809258233e-001, 2.49001875545981410376e-001, -2.95254649837201899043e-001, 1.72356682801952348916e-001, 1.81869578388016428505e-001, 1.69228384217458033278e-001, 1.35515050739804909785e-001, 3.34824300816551512217e-001, 4.14266086190696602998e-001, 3.22239071977100111077e-001, 1.42066639992165177908e-001, -1.63476539159613049046e-001, 1.38366599017393426818e-001, -5.86802447934079651759e-001, -3.73766423386352797387e-001, -4.81656741502809682132e-001, 4.40429662869403382164e-001, 4.21631772163182427793e-001, 4.19018724297883837782e-001, -7.52533913210781668646e-002, 2.65541197791022753893e-001, 2.57161055201350075006e-001, -1.12859710012153641179e-001, -1.44784504256961366747e-002, -1.54060188774819556423e-001, 3.55858863023471694298e-001, 6.15749373547950895613e-001, 5.27229180739282154988e-001, -2.49418045050595421630e-001, -2.31952319107786075758e-001, -1.68685118290188007517e-001, 2.94132776863688071012e-002, 1.46586415712666423561e-001, 1.03157961595330763260e-001, -6.42730981439874199390e-002, 3.04882019736738563154e-002, 1.44348940106293725794e-002, -7.51964044984086144030e-002, -8.63162777267804104397e-002, 1.38550160877287081851e-001, 9.64632415940296222834e-002, -3.72823961166504347364e-002, 1.82608183870510670799e-001, 6.59723872809730299549e-002, 2.14613114043641972639e-001, 1.33703933717719214425e-001, -7.09716950790044778796e-004, -1.43827033748315707973e-001, -1.77511617424630951945e-001, -2.68762202125220062143e-001, -1.06146857027513322191e-001, -7.37007468536515497615e-002, 1.64808710611445724536e-001, 3.06487548985280133795e-001, 7.54422754590095175076e-003, -1.81729263251397349377e-001, -8.74240751636576052253e-002, -2.34648675722566535384e-001, -5.52707210094807929734e-002, -3.27796759650912719608e-002, -1.57923223754320371515e-002, 1.78823027385342947504e-001, -2.16005660028186531607e-002, 1.12008018451433544183e-001, -3.57290803370085702229e-002, 6.79592642359110044037e-002, 5.37871139017175904640e-003, -3.43004371755001660760e-002, -1.32066538543787748150e-001, -3.51411197263531288604e-002, 9.17286635961132579276e-002, 6.30498373297757735978e-002, 1.59363094831295432074e-001, -1.55967943286684368465e-001, -2.15250895988160273475e-001, -1.29764001968016379207e-001, -4.30562047099863551280e-003, -1.41749582279621644254e-001, -1.27184197761508521740e-001, -1.22486375559569177218e-001, -1.19474597993182760081e-001, -7.56921755537647983347e-002, -1.67734931627574967994e-001, -1.79095330589764317741e-001, -2.50225648415538459712e-001, -4.81819096554713319214e-002, -1.40186377108701104577e-001, -5.43353014317782406772e-002, -6.21405331704827229578e-002, -3.95280322247130375124e-002, -8.21640924578976167281e-002, -2.66489763898526188513e-001, -1.11627025235096044575e-001, -1.23218385504454783219e-001, -2.32078040645113087281e-001, -1.32139743878766424690e-001, -2.34826226803647869490e-002, 4.41932284497184094119e-002, -7.56733311473079678366e-002, 6.35395216743663178438e-003, -9.73796572760034784277e-002, -1.41401581900163192396e-001, -1.24776425567039064846e-001, -3.94664037257494368371e-002, -5.77526831968290105257e-002, -5.59993295645370078861e-002, -9.57058048978094884351e-003, 7.44312558638490218144e-002, -2.20903863669348721199e-001, -6.27230503523766858009e-002, -2.01272726711286431556e-001, -3.26540570229178872541e-001, 1.37859864305754399594e-002, 1.15710541080908477923e-002, -1.64386564639092402906e-001, 7.05236440635416492878e-003, 1.17761689698136065574e-001, -7.31458349578639754895e-002, -2.69946345220250238928e-001, -2.22330817131459468339e-001, -5.25362869321469166950e-002, 1.32722165436682970618e-001, 1.58150449034255818903e-001, -1.57180563058835015555e-001, -1.76214672360641949611e-001, -1.72286024675542742690e-001, -2.12023550255696191513e-001, -2.07890437862761678911e-001, -1.72435995763669247527e-001, -1.73458195511238560949e-001, 1.23583254208457588019e-001, 3.39120306517491781895e-002, -1.30374632896663622539e-001, -1.51438045031759005443e-001, 6.20173161222398947046e-002, -7.06038864505030838714e-002, -2.64284725980328927264e-001, -4.40183367428106861463e-002, -7.43806520721351643877e-002, 8.82478844867398692919e-002, 1.18274136540155214159e-001, -3.71614218152367878356e-002, 2.46173814928348604070e-002, 5.82207644736721027789e-002, 8.70864640188576677460e-002, -2.31650381091817625379e-001, -3.32981794402659514454e-001, -3.01848906411689543727e-001, -1.56721378430904646761e-002, 5.22144579234013889169e-002, -9.48418355586652800371e-002, 5.35736835405242056707e-003, 2.10818924228545312438e-001, 3.16781906637886717659e-002, -3.29990468873851139353e-001, -2.50781519878828795811e-001, -2.46528063216248344292e-001, -1.15092512233702801150e-001, -1.19384495094825376915e-001, -1.03907678999512392837e-001, -2.25079907402793120974e-002, -2.25262003861270904137e-001, -2.50221102208295853586e-001, -2.43804646817693981831e-001, -9.66577113827278427971e-002, -2.35187138107327164960e-001, 1.49268032478037770971e-001, 4.43969508963190997997e-002, 2.92260161336409737820e-002, -1.19590571594361691488e-001, -1.09011552178945050895e-001, -2.12019457548365902744e-001, -2.65786898131810056523e-001, -1.43606665153495655085e-001, -2.53828071170454416805e-001, 7.13164072446850344500e-002, -1.43605482670409699553e-002, 2.21873025328153450353e-001, -6.08032447063229508633e-002, -5.90762236023464198942e-002, -2.00335698171229342757e-001, -2.53069096839997287329e-001, -6.54619739470480854759e-002, -1.34266478259117610916e-001, 2.76036236844155902226e-001, 1.19190183690034992581e-001, 8.63505874648690940898e-002, -8.86523061043364285494e-002, 1.21629475839204692633e-001, -5.70974209663591344976e-002, -6.21857621162276580362e-002, -8.88866963109655183750e-002, -6.34869669781217838000e-002, 1.19659401523460301453e-001, 2.19021950978553398004e-001, 3.35228124168890806445e-001, -2.08498230347628557557e-002, -1.47277634975155474750e-001, 9.01055375473099190442e-002, -2.81016520075085318719e-001, -2.38422636030661050377e-001, -2.50063306740979485188e-001, 6.55110263245663182463e-002, 8.94465760429437040102e-002, 1.71066165392578378723e-001, -1.79255723594335475424e-001, 7.63952727528114435701e-003, -1.78322239013893296677e-001, -2.28079237200620343895e-001, -1.08792687263851634016e-001, -2.40456304148534250054e-001, 2.45894481945496401476e-001, 1.00011414215069760481e-001, 2.71736193923697855190e-001, -1.65522028874120680220e-001, -1.22901813267251192041e-001, -1.38029102573199308202e-001, -1.44197090037414460406e-001, -2.71195092236780177508e-001, -9.14537370471236038538e-002, 2.02890617931263089746e-001, 1.47052925839596559943e-001, 2.40795944376371279239e-001, 6.56782033420026944981e-002, 3.15332796428786296672e-002, -4.93892002386304568295e-002, -9.64141721329965090126e-002, 5.91323310382088143666e-002, -6.27498104613565671483e-002, 1.82468253695856563734e-001, 1.33709138010741190872e-001, 4.81844277800491938013e-002, 1.63202519360657015424e-002, 3.26934816764891458818e-002, 1.60720353951749952981e-002, -3.85901555327427037145e-001, -2.32249139556871486700e-001, -2.16749329917815137386e-003, 2.72802560400763449699e-001, 2.02509667850051033877e-001, 3.10717254915696509954e-002, -2.17551321282649035016e-001, -7.11116083253655797275e-003, -1.94320401541535431322e-001, -3.02123287846556731751e-001, -2.50144239707636273362e-001, -3.98233935799084060037e-001, 1.55106839296464210642e-001, 1.12210882012601292912e-001, 1.48384863999077493135e-001, 8.74485619221076204699e-002, -6.91177948590029761489e-002, -1.38870019319980563671e-003, -3.81308363161412422482e-001, -4.27550266287445912550e-001, -3.70375207090403002486e-001, 5.55767822471482653146e-002, 6.07127586702506591432e-002, 1.03083087281701374360e-001, -4.57690541393489386257e-002, -1.19797330166985502298e-001, -4.99725476101305146615e-002, -3.29996970327458838401e-001, -5.01278164282802571328e-002, -2.32683064832352903828e-001, -3.57185343059609611283e-002, 1.39390402872796387301e-001, -7.35853120962555312667e-002, -9.27758285835475066117e-002, 2.17631335100813977368e-002, -1.54367091135902079202e-001, -7.48735399656410699487e-002, -2.65285570682454341362e-001, -1.66121567034507700011e-001, -4.37980549437519753320e-002, 9.83868997459358129998e-002, 1.44942938831626538798e-001, -1.47940330547565529473e-001, -1.70194608351977236249e-002, 1.81903528172279241315e-002, -1.78888051660198554860e-001, -2.03160067046863623830e-001, -2.32886297157445132378e-001, 1.19331037401643150209e-001, 4.00623498790767182398e-002, 2.24974605709300418122e-001, 3.02319484452550947540e-002, -3.10102880603658620506e-002, -5.92300835202117861855e-002, -4.62795817108114071470e-001, -4.91219574228636823854e-001, -4.52248559961660578921e-001, -6.12792301007927028150e-003, 2.54139585886376473400e-001, 1.16099833630419646546e-001, 9.89563588034472058075e-003, -9.73134652795617192955e-003, -1.02043189438819306702e-001, -3.31087952860957712709e-001, -2.21699519798042976593e-001, -3.08179649868326799300e-001, -1.18434364312843223854e-001, 1.41176011797131323311e-001, 3.24756304465235179357e-002, 1.97872863291103026628e-002, 1.13516895129182393553e-001, -4.82118845779781965422e-002, -3.64648340188614528135e-001, -2.63449433817447120632e-001, -3.15260022024186903344e-001, 1.25740450274403947617e-001, -5.74241458653092506914e-002, 2.15038512925969260703e-001, 8.21615081403783420466e-002, 3.84959999914885817041e-002, 7.81219365971092122303e-002, -2.63828175665964281826e-001, -1.52583420836922195596e-001, -2.04920412520331191031e-001, 3.47644770151435203442e-002, -1.50737250846924852876e-001, -1.86759664481615739184e-001, -5.36919028144011573067e-002, -3.81138494565518015644e-002, 8.75692894126103571484e-002, -2.67126811760984572697e-001, -2.11038576795206211933e-001, -2.31282702899156589194e-001, 6.22842424555842266720e-002, -7.41124054615789062961e-002, 2.31552457858886784337e-001, 7.24975178999361785648e-002, 6.05356614980215451682e-002, -4.60605990985474278432e-002, -2.08003296074249416359e-001, -3.23311849241395776744e-001, -3.33206321228630197862e-001, -2.01628171596391139730e-002, -2.18838816216842431406e-002, 2.52775424903223799866e-002, -1.06485536287551529888e-001, 2.38608511497559808157e-002, -8.36425045212585843712e-002, -1.36227394996852380071e-001, -1.78804162731493437866e-001, -1.84971395464324436797e-002, 7.26848727695056928688e-002, -1.38859660490604028965e-002, 8.80496525525250595123e-002, -5.23499517477956644029e-002, -8.56930650611013172702e-002, -9.06800945408382905351e-004, -3.12058449199282439412e-001, -9.18104438621179796964e-002, -1.32080020730239111604e-001, 3.23963921308525540366e-002, 2.87071466319954761437e-002, 1.10136673772001772442e-001, 2.32868344123116459421e-002, -7.39553457261360042141e-002, 4.67038062005609919125e-002, -2.16727982630268545261e-001, -1.04103270215084812295e-002, -2.75299322281383040956e-001, 1.16712740207248794229e-003, -4.25943061965742275632e-002, -3.38725553937357162781e-002, -7.64295536045569989803e-002, -1.43594624078566795999e-001, -9.66588502903219654039e-002, -1.87284909577288050109e-001, -5.32315955859184730681e-002, -2.93274230214550346574e-001, 2.06446376838913731033e-001, 2.21831240313893202076e-001, 2.31764414006806335200e-001, 2.27492233506197058523e-002, 1.54274156534257040480e-002, -1.77165877574988021859e-002, -2.19858772325143808635e-001, -1.60945920000407666217e-001, -1.84587043833030733930e-001, 2.11597426041160358023e-001, 1.64056043394164352556e-001, 1.88602440898102963196e-001, -1.27799961398936068324e-001, -7.32753726960265749923e-002, -1.33859799126000655889e-001, 2.49519121782064590143e-001, 2.95163137344674142426e-001, 1.77165089377953915983e-001, -1.08055549808298012593e-001, -5.09838146146746259979e-002, -1.37323298672728643516e-002, 7.74889974779771339986e-002, -1.22491478225439376359e-001, -2.73392920769368996670e-001, 1.32364359459879073200e-002, 1.30522071345341994508e-001, -3.39771232738941345031e-002, -2.03658218227385834354e-001, 4.00513029016361307710e-002, -1.40314356631962733335e-001, -1.06776120481437697407e-001, -1.60743987345634387065e-001, -1.87596290355144079687e-001, 8.03995485077778487826e-002, 1.70842208174542820043e-002, 1.71825021421990881132e-001, 1.35847155227997229421e-001, -1.72585663720882832861e-002, -5.01132602715421357487e-002, -2.74524835787820775668e-001, -2.95581666460946190789e-001, -1.27180383606972507993e-001, 1.69488965226142276888e-002, 7.73420980445981565143e-002, -5.21833115826491646116e-003, 4.29568199507304460116e-002, -2.61803548958850634820e-002, 5.49641593415469767447e-002, -3.11260375665966815273e-001, -1.40809572124627052636e-001, -1.54695229720981319854e-001, -1.08710239668278974001e-001, -1.96162256702229698124e-001, -7.39448649216367381865e-002, 2.53201127068715496626e-002, 9.24730334525805525159e-002, 3.79197992599904845634e-002, -1.86345283836854280768e-001, -1.82445839239960716505e-001, -1.15625802476893399517e-001, 8.71475042091729712457e-002, -4.32268226401282817939e-002, 1.60578479389047623638e-001, 3.43968006917779664522e-002, 1.95328708845649429149e-001, 2.54981839530322579312e-002, 7.71430071497712123441e-003, -4.87259713045251688368e-002, 2.02446046109609097130e-002, 2.88943870786947165641e-001, 1.60161833582801588216e-001, 2.12475294060231911786e-001, 4.44842004550213901415e-002, 6.79943834694350657255e-002, 1.13489747066388702024e-001, 5.42267610717981143886e-002, 8.69689129427121121463e-002, -6.56607214462752025730e-002, 1.17069051072965168991e-001, 1.17625146901400981503e-001, 1.73365374766424135133e-001, 4.37756564450194410321e-002, 2.61370180977811228384e-001, 3.97583461819645163360e-003, 5.13080715399132566978e-002, -5.59079861513192138966e-002, -1.07475984671806745752e-001, 1.46770060770235744041e-001, 2.70718483398626363901e-001, 2.13136847136429885552e-001, -1.01631589008749689818e-001, -1.18277465917740021162e-001, 2.71355506926239664622e-002, -1.82099320846726836498e-001, -1.51000735043524597634e-001, -2.92994121542075906459e-003, 2.51941329583433903938e-001, 1.80442982454374262202e-001, 2.66936582407932776473e-001, -1.62402967933496400477e-001, -1.48137274243689050918e-002, 6.18228461600000139819e-002, -1.36975107217002841503e-002, -2.38478257498693224647e-001, -2.31933345424908732291e-001, 4.00296007617562343839e-001, 2.90891361303190043586e-001, 2.04921456172390548112e-001, 4.37594913243165122008e-003, -6.53445378540696703018e-002, -7.62929529997192264895e-004, 7.49626870340007744886e-002, 1.23857601809219203259e-001, 1.27268165236280789143e-001, 2.48198007826550604005e-001, 3.17125462741355390595e-001, 2.53513064636483764769e-001, -2.95118935680048002923e-002, -1.13755120683027538542e-001, -1.24767233970712251856e-001, -1.75310071937651856810e-002, -1.59596323717613147730e-001, -8.39651855256435541985e-002, 7.30696370392335120547e-002, 2.04900024674023101268e-001, 2.80111935456646810039e-001, -9.07754893815519575684e-002, -4.15993915151974674727e-002, 1.36292636811567113853e-001, -8.32758246918151451288e-002, -9.39039967637437210379e-003, -2.19547817170635262141e-001, 1.87964548459337382758e-001, 3.49136055324888394669e-001, 1.97245711981557603210e-001, -2.71478803384262931675e-002, -2.12743155011981210922e-001, -1.38074712301390456481e-001, -9.13371329135426457402e-002, -1.52477679349307504442e-001, -9.65158068046670092333e-002, 2.46145652877057197205e-001, 4.02572235288430668732e-001, 3.80831052805004344197e-001, -9.24666365180192989515e-002, -3.94342761024152471672e-002, -1.38008652796358072257e-001, 1.08242736170073391988e-001, 1.60086284162887670934e-001, 9.73272546062541460410e-002, 2.65327189327411450126e-001, 3.75911381607474504030e-001, 3.59861659113367149398e-001, -5.89469229261824559374e-002, -1.81588669909092226273e-001, -2.43606070679665692724e-001, 1.43959772134608116056e-001, -8.41402570659678522569e-002, -1.24873959345384224345e-002, 2.75635500690975032700e-001, 1.79471504559428368664e-001, 4.22140766724820870603e-001, -2.35933252767269785455e-001, -2.62608311600522559282e-001, -3.28287053988235599800e-001, -8.84578897885635317966e-002, 9.91947181695295582271e-002, 1.96677480111301761223e-001, 2.52961931280127616528e-001, 2.15361877338004187310e-001, 1.78210575584457631138e-001, -1.69162221815674584935e-001, -1.40255535233328176847e-001, -1.17796765748283294162e-001, -8.40149572675893407947e-002, -4.26609805619871454430e-002, 8.96212829915522396496e-002, 4.33816797277211049777e-002, 1.96789577001902998843e-001, 4.46649444606737958119e-002, 5.08801677365206053705e-002, -2.34179577649293001185e-002, -8.11036510276567784716e-002, -1.03936563605199705496e-001, -1.10287963743072148226e-001, -1.71581782047009412384e-001, 2.56806169956149965561e-001, 1.32108115910898632483e-001, 1.58122893786889040513e-001, 7.04332800694348892812e-002, -7.98426748144172165889e-002, -8.63372595979480794703e-002, 2.12991280689728487707e-002, 5.13117631828319091525e-003, 1.06848401959427317942e-002, 1.83804509759855350115e-001, 1.01749652723031935864e-001, 5.10185230974774042711e-002, -1.57846927486902377513e-001, -2.08807249030038138971e-001, -3.29302225494067651868e-002, -9.96007504558784617643e-002, -2.76208498685915140869e-002, -6.09072469258810089698e-002, 3.13643349660098380571e-001, 1.19151394712706429346e-001, 1.05693581855644865714e-002, -2.07629226860966409340e-001, -2.31647940068908403388e-001, -2.90522366570515611084e-001, 7.03266360110065824607e-002, 1.31989966364477018246e-001, 7.72122323978756963658e-002, 1.94376880872397739264e-001, 1.82938238688106019625e-001, 6.22887458474902580563e-002, -1.95369095466516873305e-001, -4.01299536050944496979e-002, -1.24948703976070496502e-001, 1.18550274485132011576e-002, 9.54913763356661365878e-002, 9.15720178376880356019e-002, 2.77820966063146823632e-001, 3.26841266582450051814e-001, 1.27607834733879016431e-001, -2.76067780751061697675e-001, -1.25970967935819994077e-001, -2.32661328446133533476e-002, 4.79378452803722668318e-002, 2.00287268848432647994e-002, 8.46604129358073387301e-002, 4.65020112457460610411e-001, 3.39784102990202674377e-001, 2.78884512361988967655e-001, -2.39656712055429793606e-001, -2.12811051869578188311e-001, -1.92569578497186560950e-001, 6.16723843031013463367e-002, 4.41117700198045206705e-002, 2.68543324775576131014e-002, 4.24909048861790261675e-001, 2.41846765635518490267e-001, 3.17155181219001713888e-001, -1.77223983681219394992e-002, -3.22506757802471788477e-002, -2.25477038791119993588e-001, -5.66412817061008322383e-002, 1.19654085185838976457e-001, 8.12189730359905298629e-002, 2.97465631864312074484e-001, 3.11599729944294800976e-001, 2.87241671243117557832e-001, -2.46045247446766771060e-002, -7.71384249332816990252e-002, 8.59677899747775253747e-003, 2.48026990567124551446e-002, -8.68645411720937454803e-002, -1.00651850954180763220e-001, 2.74548748962180511057e-001, 1.49257540624074730440e-001, 2.22105803365077569822e-001, 8.91489704358237600168e-002, -1.36611241656947379752e-001, -4.64864304087171040236e-002, 6.25496342081927475531e-002, 9.90375072639224363069e-002, -7.15079442849700288448e-003, 1.37402232701292176253e-001, 2.71160473839074711577e-001, 2.48978378345172363106e-001, -7.05815180587732963341e-003, -2.01502985106713321251e-002, -8.75836472717893138595e-002, 2.10713313722375866766e-002, 5.47974432233737512865e-002, -7.46668581134851960801e-002, 4.16496918419953121582e-001, 3.20854969276327284256e-001, 3.75845843911078392185e-001, -5.26968022397782329125e-002, -2.14059534294818130939e-002, -9.98609126865832169573e-002, -1.25213035609635634816e-003, -2.58217349600852352776e-001, 5.98280240933544218973e-002, 3.90126871148089138241e-001, 1.90459905095420378718e-001, 2.98607138781767589286e-001, -9.98837011333700980353e-002, -2.17844375343843182913e-001, -1.55444140875559522197e-001, -1.91427041687800253422e-001, -7.69060049799809991589e-002, -2.23936799379258894005e-001, 3.75182744431447223743e-001, 1.24003501636248361639e-001, 2.18353936645559326690e-001, -6.36115309423271740874e-002, -1.52073678638029341492e-001, -1.91938380307039246908e-001, -5.50106600876347356932e-002, -2.91824526464034228468e-001, -1.44053791557461424722e-001, 3.63484958383709533258e-001, 3.30573060220405445797e-001, 3.55962890605127868504e-001, 1.37960600928063309434e-001, 1.77671496007706458675e-001, 8.81123572965894774622e-002, -1.28600967995268905542e-001, -1.67709241041589490750e-001, -3.86995308705474494460e-002, 2.69119350836824422490e-001, 2.48432587386748532365e-001, 2.17578538956364392343e-001, -1.68348164154860036046e-001, -2.57881472784913939877e-002, -1.46302412288120770034e-001, 1.66174582957261882110e-002, -1.91660863192342240113e-001, -1.16616859183932067290e-001, 6.62665520153031123440e-002, 3.95297505118311465200e-001, 2.35803182268629146767e-001, -4.69898409631627697602e-002, -9.34249239401669095972e-002, -1.85718297131943627098e-001, 7.47258628636535138234e-002, -3.15780236737376665546e-002, -1.07149734832778273375e-001, 2.57768918170317051786e-001, 2.90169454220233991038e-001, 4.47837977736168443843e-002, -6.15887549230045155957e-003, -2.47528551904987154098e-001, -1.75090433179778875994e-001, -1.12837178965975531986e-001, -1.77782496955762786550e-001, -1.13816656052492637397e-001, 3.29809101597844156473e-001, 8.45166319291095896604e-002, 1.08834633740057848406e-001, -2.53012943403246259866e-001, -1.47098130935788690143e-001, -2.37591749713285144141e-001, 2.71893021047706177906e-002, -2.04522891415602064979e-001, -1.72581839275024156999e-001, 3.54034084029443529840e-001, 8.47270541938944556082e-003, 2.04849946959807793778e-001, 7.32018741360593583334e-002, 6.78585625268337683247e-002, -1.98830159282227594830e-002, -1.26098502311033783263e-001, -2.02515882900382915288e-001, -1.08880739869798098818e-001, 1.24879297670647468332e-001, -6.92891237457928139964e-003, 1.31124020028910437397e-001, -2.82997811865965620548e-001, -2.35388108635517234735e-001, -2.58434390145114045723e-001, -5.92579335654982910370e-003, 1.71246952417423645154e-002, 7.18314545071354754180e-002, 8.24151849445424883323e-002, 2.85660321260070237948e-001, 1.54048587085376914585e-001, -7.88288623983708636178e-002, 9.47957806998965396561e-002, -1.71223024235702486751e-001, -1.17019041268057261140e-001, 4.82255866896287091472e-002, 9.68284846121201803193e-002, 2.75670433271575920919e-001, 1.89680378153285672527e-001, -3.70012272266604450022e-002, 4.51682916985578913893e-002, -4.74989970750658851983e-002, 8.66420792576995911494e-003, -2.48224630463683738901e-002, -6.40212758446743503138e-003, -1.87876754365634945909e-001, -1.82305051590504446635e-001, -1.88215253480016088405e-002, -1.86363816883274968639e-001, -1.91055118822401226453e-001, 8.75800518102669983689e-002, -7.07779809638332813027e-003, -9.80298733567323693494e-002, -2.09308500054593199513e-001, -1.71297529329272640863e-001, 1.79518594167245651438e-002, 1.12579020618302313994e-001, 4.68105814054690927417e-002, 3.95959967404600599039e-001, 2.62133918313084413043e-001, 2.13669739894924159973e-001, -3.61738415781938493776e-001, -4.01129783401908690532e-001, -1.87327566716121274304e-001, 3.47689880695310274406e-002, 2.33456339159696362601e-003, 1.46902698414855426012e-001, -8.23383234320625712055e-002, -7.50691377508378027139e-002, 6.56989379190964836036e-004, -2.21198641654732575113e-001, -1.39091388321374659354e-001, -1.38339884129377921340e-001, -1.82076883314682164139e-001, -1.28249537724994422394e-001, 2.29516097796122822694e-002, 8.39230141713839389306e-002, 1.48105671487241991047e-001, 1.30643864146448268615e-001, -3.93202796628105033516e-001, -7.03538017026211215388e-002, -2.10137868470505806417e-001, 5.12213406963687792328e-002, 4.71384793084716341438e-002, 1.00000747554720686994e-001, 3.04972235747526139449e-002, 5.94652476431302076665e-003, 1.85472766013927786721e-001, 7.46953446704623907904e-002, 1.31149627864170614799e-001, -1.17420929587248826231e-001, 1.34869175402788310514e-001, 2.17318918221237333821e-001, 2.13665503171781623326e-001, -2.89355255490413743047e-001, 1.13417480905741940855e-001, 2.54068553635266591861e-002, 1.79576654821754048974e-002, -7.04540533809846075686e-002, -7.44058072277449609327e-003, 1.95096842200586477467e-002, -9.95484179033699206895e-002, 5.29891490584833077526e-002, 1.69204077562457783079e-001, 2.55012038092756965213e-001, 1.09617950535310440530e-001, 7.67100384695691694947e-004, -5.60262912295978465771e-002, -5.71713318224342792462e-002, -1.16268742476250075413e-001, 1.02345464655581600000e-001, 8.65622022399850231562e-004, -1.48751184783878880047e-002, 4.73345515649177123185e-002, -4.95769791738921022928e-002, 9.63544345610290592363e-002, -1.05182634180867304319e-001, 6.27560161316186304603e-002, 1.31143200424804456938e-001, -5.42162371120379280032e-002, 8.83515611299452024996e-002, 1.06624804019575927794e-001, 7.65891215212859688410e-002, 9.05501030082751651173e-002, -5.79729428771637092521e-002, -9.05823477532854831606e-002, -1.65193287858275028590e-001, 4.71498678286113998004e-002, -2.55562565478503235517e-002, -3.16006193495333015386e-002, -2.80771682105486822256e-002, -2.11609756964492967679e-001, 1.37576323893508323248e-001, 2.02156163098695523805e-001, 1.09990895986541464824e-001, 1.20575597930095645971e-001, 7.15984327459808223004e-002, 2.50246390403494334276e-001, 5.31803118424276355380e-002, -1.19957280264886639864e-001, -2.11910291515988363775e-001, 7.05927518403318826623e-002, 9.31635339575283688562e-002, -1.36248473483626064695e-001, 3.43968254898755904092e-002, 1.89957787320236659578e-001, 1.00007687188472818574e-001, 2.34561892817412215306e-001, -1.59566850189044706632e-001, 7.72074762683647858319e-002, 3.80309190187844703424e-002, -2.17066664711893730910e-001, -1.21298159978326935970e-001, -2.71914782882571870459e-001, 3.03944970661009394863e-001, 1.61189865168121226890e-001, 3.55313058082316168829e-001, 2.47006384859296867010e-003, -3.36685017103063935484e-002, 1.72717533763882095943e-002, -1.70443602037647329306e-001, -1.62744703399354179174e-001, -7.22096621983673182116e-003, 3.69324953568333780307e-001, 1.36829438861708813091e-001, 1.69092168500392520114e-001, 9.57564896830908618419e-002, 9.09718852170730563067e-002, 1.65177134340883685626e-001, 6.27119534028824504590e-002, 7.68608222659016848688e-002, -7.65357169191217406867e-002, 1.32555139758243401005e-001, 1.08009562297191608060e-001, 5.10301567053100049720e-002, -2.20002684021046196472e-001, -2.54310799166975187724e-002, -5.41767806365012899450e-002, 1.54552713028276111906e-001, -2.90003648050153051141e-002, 2.57938707695444469081e-001, 2.19688039771401943945e-001, 2.09976608610098298621e-003, 2.58190891501878905245e-001, -2.07046010052293144588e-001, -2.01880208124018079019e-001, -3.37609415847616223250e-001, -8.98308241640777410675e-002, 1.29603267225105706073e-001, 9.46939810437346513039e-002, 2.05878200377216435957e-001, -7.53202269874236468583e-002, 1.27358405531811796907e-001, -3.31459578339527105584e-001, -1.64422151665523860742e-002, -9.18173270397535101761e-002, -7.43035725806706209839e-002, -1.71011502343376114998e-001, 7.53865394117114468592e-003, -6.14556946894615138688e-002, 8.65999395667857302383e-002, 8.86883258512908834170e-002, -5.81222343277534650441e-002, -9.93684503729495675894e-003, -2.36496136993789990433e-001, -1.12838294045391182574e-001, 1.33653563802156566398e-001, -1.30618883712911276751e-001, 1.78806591940589426626e-002, 2.04006786900866349255e-001, 9.79840573886859439456e-003, -6.04124285877360306385e-002, -2.92054754471981125805e-004, -3.03482204217888906772e-001, 1.20278182237634881369e-001, -3.91307473698473406998e-002, -1.84878153784080768995e-002, -2.21403519151265396059e-002, -1.18262571264395405235e-001, 8.05605188984963443977e-002, -1.79298744733902476467e-001, -1.99535067984846825606e-001, -2.39267115395777940634e-001, -4.63151020060474302720e-002, -1.15784108349457570686e-001, -7.97217466406691249725e-002, 1.48042350665699984358e-001, 2.37964464876004394567e-001, -1.08074826098138662700e-001, -3.83211687277704493582e-001, -4.64575579081517808788e-001, -3.95041522589907934115e-001, -4.66037096673823422049e-003, 5.85814607312662980788e-004, -4.82312650429209122116e-003, 1.09342710503510631703e-001, -2.23983209920721709763e-001, -1.10429492905740792019e-001, -1.72998207346530125106e-001, 3.56042447139523210442e-002, -1.81036232709049782486e-001, -3.13185917572332758740e-002, -1.01795257938411848331e-001, -3.71331926157939806732e-002, 3.30953137696468224771e-001, 1.65185383315850364827e-001, -1.52325993346893923119e-001, -1.76790901376917414245e-001, -1.36720663986792084765e-001, -4.00260368254611031968e-002, 8.55621950424605287600e-002, -1.27280421027633483533e-001, 1.24352795673660365683e-001, 3.23345828926848988250e-001, 2.72880068411697797315e-002, 3.27461613170816512319e-001, -1.76788964299659984158e-001, -1.57326988888530749922e-001, -5.18108276960552796564e-002, -9.96678587236263791027e-002, -3.24473885601443343130e-002, -1.73442533666381931701e-001, 4.27695289227864094972e-001, 2.19094665474388300419e-001, 2.01790341368604742023e-001, -1.83335723884596374367e-001, -2.66647555440995664977e-001, -1.18423968196458284652e-001, 1.63013787254986108888e-001, 6.62233960777285496357e-002, 1.41198107407043450812e-002, 1.46447902258375284301e-001, 3.84975446719306932386e-002, 1.23589899402908168224e-001, -3.96542300397210237262e-002, -2.45836219467213484835e-001, -2.30390795190389213731e-001, -4.71158698268437439727e-002, -8.55262068597825858562e-002, -1.86982152153104125292e-003, 1.72967716229850965171e-001, 2.14932540024395768441e-001, 9.55552431668063029235e-002, -2.03895128025372799480e-003, -3.19795967084154156290e-002, -9.93858033793536266298e-002, 5.01282537398251293315e-002, -3.92305593354824802543e-002, 1.01956991981603642405e-001, 4.25317170149698275949e-002, 1.33622264835669385397e-001, 1.45831589895003194135e-001, -1.07013899335834633542e-001, 1.17418880423568725013e-001, -2.35427064668573715611e-001, -1.47596719318173308366e-001, -2.13188503990978141245e-002, -3.07517131506521296247e-002, 3.19050582461127885114e-001, 3.94051114768267041200e-001, 2.64211208336430580790e-001, 3.26187752014323248395e-002, -7.83907394845566596331e-002, 1.17714398582577351414e-003, -1.11967312222698109347e-001, -2.23556979414583051335e-001, -2.31414248644865733207e-001, 3.61170072284324794598e-001, 2.19721763802675246202e-001, 1.76787975342042130711e-001, 1.26616636908610913359e-001, 1.05918757262349685910e-001, 4.63327720810990592581e-002, -6.75578887168310771028e-002, -7.29913053660282834523e-002, -1.65011855007574453902e-001, 1.74466009789865261759e-001, 1.68024925823001491931e-001, 2.81576651500627772595e-001, -1.97342741159746509760e-001, -7.65711549877871877623e-002, -1.70067774270199534303e-001, -2.28519799353661678953e-001, -1.41297172593405406804e-001, -1.89580602079642307478e-001, 7.29583986704778891808e-002, 1.08772660474629870309e-001, -1.37663093754756202247e-002, 5.16309566961807991925e-002, 1.14373173486212911798e-001, 3.29249313958411837788e-001, -1.38022970150932705602e-001, -2.33673438464685745419e-001, -8.00838330449783059040e-002, 2.54932726743532123148e-001, 1.44378496308207954213e-001, 2.10363436966424205421e-001, -8.32503651567948477208e-002, 5.88017244941240885270e-002, -3.36427299812024016568e-001, -5.71126137294461003191e-002, -1.05191929740464512610e-001, -1.88043999293304175957e-002, 1.23519589150974926084e-001, 2.81461353714746620458e-001, 2.31294814523916175686e-001, -4.14743102853575296152e-002, -3.01705034553814477327e-001, -2.84790663135748745027e-001, -3.24466257698068707982e-002, -1.25650858845426344201e-001, -1.22473377806842462223e-001, 1.16695112006135720550e-001, 1.90190718791274249178e-001, 1.47918369785334485877e-001, -2.57394639381067387440e-002, -1.23906962390188682410e-001, -2.53244369628903079339e-002, -1.04168007198695372617e-001, -1.36747686540589524773e-001, -9.29208090698445260402e-002, 2.78035557345596928691e-001, 6.82315843079442652108e-002, 1.36999143883015216810e-002, -2.53566262062441982739e-001, -1.53533425289328506747e-001, -2.30717270247073696909e-001, 9.72249570633215570714e-002, 5.50338039677782664416e-002, 1.07109409561026262814e-002, 3.34623250802748073429e-001, -7.59211949685949794020e-002, 2.05460750182188012225e-001, -1.48817221646049911016e-003, 2.26733634432786136659e-002, -8.36186441991058071466e-002, -3.90725077396647801908e-002, -6.31178389931535688273e-002, -1.14158409508256536435e-001, 1.42193330825801239614e-001, -9.97915537854801928952e-003, 2.10519479201439291272e-001, -4.24613971616020824396e-001, -2.37992462171671692595e-001, -3.80782705203876248312e-001, -1.04318154103740151628e-001, 4.62962165905588182713e-002, -2.45031022269050352547e-001, 2.42288695130489228902e-001, 1.67995842852826704483e-001, 3.63234463399937423933e-001, -5.03632394233055682986e-002, -4.15333670192038761915e-002, -3.71400394629483113218e-002, -2.83410586293969327110e-002, 7.57058152610603357635e-002, -1.10342259448419285905e-002, 3.89739670090012313430e-001, 6.60741709650165764955e-001, 6.23465542452407706087e-001, -1.05296572048030431801e-001, 4.06223047962454286708e-002, 2.02971125216854231255e-002, -8.53327828446220626457e-002, -8.91274572719292917933e-002, -2.82907440589875644466e-003, 4.35877173463590839031e-001, 4.42897186646372176266e-001, 5.49566066573654588012e-001, -1.66719926975053339344e-003, -4.32175950513441278766e-002, -2.57794030492581260905e-001, -1.26480479051897659604e-001, 3.62972596039426512182e-002, 3.89363596337848061335e-002, 2.96083553575491376098e-001, 1.66442252422632969155e-001, 2.05721158377117407934e-001, -8.45743627996751179410e-002, -1.05513526651738728801e-001, -2.25446837018938694985e-001, 2.01459119349571169622e-001, 7.39004798842737009590e-002, 2.32826014787185175958e-001, -1.02010886960109292687e-001, 6.71083369584814515285e-002, 1.28901862581687742110e-002, -1.97616782575746635642e-001, -5.25885067090528235401e-002, -1.69885536162472539079e-001, 1.19750804118662658448e-002, 9.70847950724264552314e-002, 1.45015256450778895481e-001, 1.67870854434924547671e-002, 1.36701308499592721901e-001, 2.13492695284760065910e-002, -3.45808361051772428230e-001, -2.64025115971936175097e-001, -1.43799239146283706209e-002, 1.16600910670062049568e-001, -3.41865347941487651706e-002, 2.39191070904220710880e-002, 1.13054397501206310012e-002, -6.26941081000092215181e-002, 2.13518461524583480493e-001, 2.97428626017370800749e-001, 2.91261766059276283602e-001, -6.21328981438686311911e-002, 2.22872350109831786347e-002, 2.18178604619928516450e-002, 2.07844887856316024033e-001, 3.00299041984779135905e-001, 2.70113018199029275568e-001, 5.72560722967287161200e-002, 2.12504711463209983169e-001, 1.81214216661152560661e-001, 1.20890702277302336531e-001, 2.54222414544251873458e-001, 1.92264898678164708468e-001, 2.02106484501060640335e-001, 2.26366020980314580635e-001, 2.03791142932805563470e-001, 2.21578474292176863525e-001, -1.15758800265986672162e-001, 1.58341256142717906608e-001, 1.21132869848706484217e-001, 5.19538354739840571583e-002, -3.10331558997129115796e-002, 7.84505847176839438140e-002, 3.96237570705461672471e-001, 3.74734841562895826250e-001, 2.41034017018369850494e-001, 7.90074994452000106682e-002, 4.93709723539253395042e-002, -9.29436584308066665594e-002, -7.23169074872972439394e-002, 1.53308399503707920575e-001, 8.92614493123415099485e-003, 2.62716070969240433897e-001, 1.77651653188879876666e-001, 2.07597486674459597022e-001, -1.93886906452041152260e-001, -1.97181257269438553470e-001, -2.55797514639644618661e-001, 1.10106176918038700663e-001, 9.55776102030332502801e-002, 1.40565614873984279232e-001, 2.63436569538723519557e-001, 2.80033246312262285027e-001, 3.47639601825719790629e-001, 3.74912047960393179924e-002, -1.20048689928633298823e-002, -8.02460220961172775167e-003, 1.29232164643916153102e-001, 7.43007992203837119849e-002, 8.77429138142864217809e-002, 2.41224336707140801783e-001, 3.48360720852113225909e-001, 4.23828375277210789296e-001, -3.62160174707167534236e-002, -9.16230174325654081469e-003, -2.32435135145152904634e-001, 9.59142729448216740940e-002, 4.53704790556658174583e-002, -1.93288537743325355978e-002, 3.16826691987908692916e-001, 2.53581711371176465875e-001, 1.64667150015313817901e-001, -5.25638010528153842849e-002, -1.49463568738424062987e-001, 5.48725509317466927928e-002, 2.05229820007884949939e-001, 1.20211134114890594304e-001, 2.41675005885907900893e-001, 2.03603639794570523414e-001, 2.89412951127989537259e-001, 1.33080403833563953864e-001, 1.73921412148115329954e-002, -1.80147541725125481804e-001, -6.86751282041562771674e-002, 2.90828455208088816619e-002, 3.04791958082053261736e-002, -1.70518769183087073871e-002, 2.52107961756560750022e-001, 2.69060357371316616337e-001, 4.72739390643031165418e-001, -6.19683543766240962913e-002, -1.62169315945913904142e-002, -1.74953000383593237910e-001, 4.23920105187813728298e-002, 1.59389326956777238609e-001, 2.80394351997871561430e-003, 5.86609652053242891512e-001, 5.92062301051459627388e-001, 5.28308836830019168396e-001, 7.10275258322536073852e-002, 1.64207184776735126697e-002, 3.30305994422872770122e-002, 1.30516198951114211629e-002, 5.13720686927134420618e-002, 1.50379594016344153573e-001, 3.07191022371238631195e-001, 2.69394427687592752374e-001, 4.69429264286244540827e-001, 1.93813706628064102988e-001, -1.76348758672332406316e-001, 1.98926443006879671849e-001, 5.79013059668801732816e-002, 1.12122177331338543360e-001, 2.02404837883277399779e-002, 3.76438302431291338390e-001, 5.17132444201751195756e-001, 3.59424315633158519834e-001, -3.12588267875854031175e-002, -8.69304499502110972209e-002, -1.01994668261988063324e-002, 1.59643383327549903683e-001, 3.03242639701747029868e-001, -4.71531435358398323676e-002, 5.13784827968048363189e-001, 1.98480419469699354007e-001, 3.51256221974389049034e-001, 9.03814630886594916337e-002, -1.91109737533261304920e-002, 2.04537229809530124447e-001, -6.79298108518338683917e-004, 1.15103182369926712592e-001, 7.39372352482110389849e-002, 3.21517182854518357438e-001, 3.47554488819186102599e-001, 3.78744049222674350474e-001, 1.23053119779065703310e-001, -3.07588227153163806804e-002, 1.50310835021354761987e-002, -3.86199058969338496206e-002, 7.16686459525827518346e-002, -8.34597891983931833293e-002, 1.88916239848487821362e-001, 4.46204816193869258090e-001, 1.49203586301031254635e-001, 2.20535157491238802130e-002, 3.08650179890350095935e-001, 1.52734954485951562875e-001, 8.79533174526224946488e-003, 2.03469778317319799354e-001, 1.79605891606490125634e-001, 4.09017270024524925986e-001, 1.97592321104816032173e-001, 3.65996473561368718119e-001, 2.49884877607817607048e-001, 1.47108567994986769167e-002, 1.14780872540104786350e-001, 1.76556169283040631512e-001, 1.21180763161602353395e-001, 5.45719633324933950380e-002, 1.69290129013111356748e-001, 3.06057603392645427576e-001, 1.72030066155338418055e-001, -4.05062843327287924744e-002, -3.32810264183894186085e-002, -1.56857874200015401378e-002, 4.24184077373283285883e-002, 2.46773906240340373808e-001, 1.62685961518049371222e-001, 2.18143140701683724281e-001, 3.98728689484948495281e-001, 4.62145175888480308490e-001, 9.73558710890740086619e-002, 4.60664272874434926885e-002, -6.18749942497684585208e-002, -3.58679073791237160163e-002, 4.88187897325382466618e-002, 3.51987178027308722505e-002, 2.79259610104280242560e-001, 1.94451316778173260991e-001, 3.35854798261067177823e-001, -4.68437135882280031307e-002, -7.58225320466951596687e-002, 1.13097477943821647650e-001, 1.43358265785670652148e-001, 3.42446847469110915441e-001, 2.21473601720378471258e-001, 2.65535734234964460043e-001, 2.64333335416738091084e-001, 2.72683031750728666065e-001, -5.53712137848781441041e-002, 9.45000506448430421802e-002, -8.09171069087725181035e-002, 9.97586949492660218786e-002, 7.70638816564360590311e-002, 1.97927736246380964191e-001, 2.71068363120386346399e-001, 3.22147303749974911469e-001, 1.42347913947594439943e-001, -1.29909794506345488418e-001, 7.68334829655965556583e-002, 1.39665117711988445715e-001, -6.33179138806754387980e-002, 5.98200204663239670788e-002, 1.13172883601883773885e-002, 2.41697476432896823928e-001, 2.95461809634984473583e-001, 2.78820701888088551268e-001, 2.32638300403854886289e-001, 1.57715566479747409945e-001, 5.22428625074939784190e-002, -1.15502591229706599169e-002, 1.29924070677531172668e-001, 4.69081398785377509664e-002, 2.68297016161257173561e-001, 3.24087920353905767357e-001, 3.94227294497211055990e-001, -5.90252008809736689043e-002, -9.69839978507638228455e-002, 2.03878932539189511308e-001, 1.99270437534621064346e-001, 1.24780976483107847175e-001, 9.94369544446602332544e-002, 2.12642721995491806863e-001, 2.77198337609339151566e-001, 2.50211786942425296054e-001, 2.04353405165151241762e-001, 2.85382367225822330958e-001, 2.06562748582312855072e-001, 4.96379159987725207537e-002, 6.22652907570984352065e-003, 1.36464652584907697452e-001, 2.67576580836234700911e-001, 1.67078748182204472883e-001, 2.70642223321804431535e-001, 5.78284121820829902227e-002, -5.35869508851078354961e-002, -5.95992071962812841601e-002, -3.91438642485360741019e-002, 6.90324318108521822746e-002, 1.32509488068932840266e-001, 2.98861288518041057216e-001, 2.98147463357177955334e-001, 2.07791553319222277452e-001, 1.01417526910810504304e-001, 9.65399421440297084152e-002, -7.60398659846845126342e-002, 1.95055816015846816835e-001, 8.76626571837664791964e-002, 1.28357983358144162045e-001, 4.37226425174851551780e-001, 2.54255100765852781741e-001, 3.02534355390385867324e-001, -2.94250925345186965798e-002, 1.71851306230171946288e-001, -2.70467250066878453496e-002, 3.45878385400543927886e-002, 1.14271961533132543343e-001, 1.13471238244708699794e-001, 4.50592930861619056504e-001, 3.53877381875569385628e-001, 3.13097191679905018091e-001, 4.16688519218670356398e-003, 1.17579853681888633898e-002, 1.51432016110850359292e-001, 1.13203551372884042570e-001, 1.44752692053799536520e-001, -3.61255461503877384200e-002, 3.09130773049218432469e-001, 3.15385619932713467950e-001, 2.64387791789472026416e-001, 1.33407974170584198159e-001, 3.97133785487522095181e-001, 2.91047476483548506199e-001, 9.75711110011318050184e-002, 6.64439971851915750500e-002, 9.84317030321303770846e-002, 2.89837047052727392327e-001, 2.02401751857933298595e-001, 6.52866872732677655522e-002, -4.11323880473421985005e-002, -1.72294995932769201552e-001, 9.03828295462462266707e-002, -3.66837587387497734981e-002, -9.27374349348165233353e-002, -3.04980941284673234826e-002, 3.13550743605296333705e-001, 1.28380309294041955459e-001, 1.19073478390007286842e-001, 2.20503819432242322007e-002, 1.43200227127536772187e-001, 1.12156943692016855540e-001, -1.41894976052017812718e-001, 1.87659862469038360433e-002, -2.18028944195625684621e-001, 1.22538700740792289023e-001, 2.58017384378094016828e-001, 3.75706119117103429228e-002, 3.93753672821375161339e-002, 1.07058229644066693620e-001, 8.63099875134567678936e-002, -9.37381145100662782621e-002, -1.62891902904198138113e-001, -5.21777835450619315028e-002, 2.07279944061604576300e-001, 2.08812470376763759106e-001, -1.07556361389539254653e-002, 3.65747266392520697931e-001, 2.18379603022040791327e-001, 2.77072064880502566542e-001, 8.59321547265041868480e-002, -6.63990148935605234426e-002, 1.72002399497248548155e-001, 9.00020360699168020524e-002, 1.52167062842749972740e-001, -5.10933483579647518269e-002, 1.89679208133115173585e-001, 2.55858444877519852767e-001, -8.20903194227127763760e-002, 1.00106043673127698135e-001, 1.56327585694367582336e-001, -9.65778134779567420942e-002, 1.65658953969123529104e-001, 7.95200740317344445529e-002, 4.13031689465486462343e-002, -6.69498102504866854368e-002, 2.18852513128981983337e-002, 1.02091418367796657463e-001, 2.09692569416128044013e-001, 1.89607508194217316833e-001, -2.85422764571074891182e-002, -2.39387115434885250354e-001, -4.53636524366719806611e-002, -3.11509129669388651340e-001, -2.23179914935652756736e-001, -1.97474552095731371859e-002, -1.18711926438848064391e-001, 6.33389649687261246935e-002, -1.31630256682257612555e-002, 1.58960346231384747062e-001, -1.41853961181131832392e-001, -3.35891532638620069623e-003, -1.20040201381556715932e-001, 9.30031375985360675429e-002, 7.36487021760321575181e-002, -6.70123617611340649525e-002, 2.39818154980349293459e-002, -1.39982146712128080468e-001, 8.96095256897068981328e-002, -1.46491690273308411419e-001, 6.54012386588612021354e-002, 7.79252138523174042728e-002, -2.77249049568689918954e-002, -1.75565062783237246791e-001, 2.66080835085732991807e-003, -9.81671996647887415421e-003, 1.37369593799914813115e-001, 6.76979529619016334729e-002, -2.78656957501771718189e-001, -1.66040923177655314058e-001, -1.47750276962862608920e-001, 6.65958930559717721120e-002, -3.70895996638479427676e-002, 1.15397874436977576629e-001, 4.69219083720818774808e-002, 1.07832001642007707654e-001, 1.80174950441621600783e-001, -7.21966788778628798529e-002, -9.71444442337472680027e-003, 4.36039438517117905469e-002, -5.65403993691984754766e-002, 1.92098325094951422054e-001, 6.16880286263443780581e-002, 2.13742635904341088393e-001, 3.06689999180349059937e-001, 3.07066265319089870545e-001, 1.18020788378515959632e-002, 4.40209981901566217710e-003, 8.33254671697529480934e-002, -1.24929295385751790853e-002, 2.19723507674221607555e-001, 1.48871995291627007285e-001, 2.68777618762167769262e-001, 3.21090806008442419817e-001, 2.96262577263479098821e-001, -1.72216707472961444436e-001, -6.54647947801028917691e-002, -1.10426791395837956000e-001, 9.77338389344464542052e-002, 3.35387116786925398859e-001, 1.23364913318665891939e-001, 1.68747096953668462849e-001, 1.35678505184650272097e-001, 4.34574285840685220483e-002, -1.07931673071615455428e-001, -7.39028847908876629358e-002, 7.32171152976163752690e-002, -8.15339972140125407440e-002, 6.46851422690208639060e-003, -1.01376139112884094962e-001, 1.27974329881041321011e-001, -9.28832109953183285289e-003, 3.08159577721727084842e-001, -5.68047967170052722774e-004, -7.33201220131334818753e-002, 5.68668773542885946926e-002, -1.34798347174968431890e-003, -1.16357355277383472947e-002, 4.53672777182449957212e-002, 2.18957797938877735122e-001, 2.10967630398472910658e-001, 2.28138470927688935541e-001, 4.84513166309550047384e-002, 8.35068945597141204518e-002, 3.97975039367828159476e-002, -1.30835165602723457745e-001, -1.05012695018148402570e-001, -1.15297781373396735632e-002, 3.61050655802211295509e-001, 3.59063413900609806895e-001, 3.93759588606988342185e-001, -1.13143606698773352415e-001, 1.32816416860882524631e-001, -1.45769383658430784489e-001, -6.28806942335732033111e-002, -1.87674889057864668906e-001, -9.91337849135807136491e-002, 1.05448194171379239226e-001, 2.12023598059411955141e-001, 1.22596078226735336059e-001, -5.94282498657722826896e-002, -3.69384808142240034234e-002, 2.46827269042441954650e-002, -2.02273847945436055507e-002, -4.09257912534153264761e-002, -2.27855453794161798287e-002, -5.51630422336236714287e-002, 7.46836452732708849789e-002, -8.22962471018898363007e-003, 1.98617149890044281113e-001, 9.47141170904312462708e-002, 8.64939293820623233966e-002, -2.95966973177463066325e-002, 2.38058376117433086183e-002, -2.34118899356084951557e-002, 1.20978485640747479568e-001, 2.27805406969016042973e-002, 1.75719916351311095104e-001, 1.82420788413695411645e-001, 1.96646513328517763552e-001, 1.56528807269537828528e-001, -2.07689419676044435825e-002, -1.37225319174129195554e-002, -5.35271053084983780557e-002, 2.89513111739680084611e-001, 1.76795129205884749002e-001, 1.84325421485185880766e-001, 4.86919569864903492573e-002, -9.49778485537703699715e-003, -1.83977027972446818826e-002, -1.64309799778344090004e-001, -1.75842905488903411548e-001, -2.04411568190279752111e-001, 4.22444407983430747500e-001, 9.94080438954925288408e-002, 4.10798953012998235845e-001, 1.58631853657590055073e-001, -4.68553356200517440167e-002, 1.10636435218643289224e-001, -1.74530595424488704781e-001, -8.00929755135696280766e-002, -3.19657643403698399354e-001, 1.49799291292827096989e-001, 2.74274167159385184878e-001, 3.82594285251176891016e-001, -2.06786008404588467213e-002, 9.92557364706359440687e-002, 1.06954842126831040083e-001, -2.30861917273052968946e-001, -1.98116169590153129443e-001, -1.07780494502673851454e-001, 2.07391779957753791264e-001, 4.39253829412131480137e-002, 2.82969335932978349746e-001, -9.30329861621776305070e-002, 6.76973170329003143264e-002, -9.66437684249205619658e-002, -1.93283030035854841433e-002, -6.75116691879939362364e-002, -2.00863810133704329131e-001, -1.90448490485931286320e-002, 1.53399014374896003332e-001, 1.39518885330414454948e-001, -9.36730356844732436894e-002, 2.34643462606241894053e-002, 9.13588522050357565440e-002, -9.52105539217323743051e-002, -8.01713417923866911163e-002, -1.27556051357604449681e-001, 3.73108687858180965158e-001, 1.70954227529138719222e-001, 2.20819293743585415291e-001, 8.27020778036690745738e-002, -9.35395328256505842468e-002, -3.84339191851057193627e-002, -2.43589555911794986010e-001, -1.72416368359622707018e-001, -5.99211961562692435601e-002, 1.68713413709252108008e-001, 2.48055593028311038850e-001, 9.45631198240153431067e-002, 6.73168624926006597953e-002, -9.20311585207251800500e-003, -8.24917131098161643399e-002, -2.25360930507142481760e-001, -2.25033869735452668470e-001, -1.53621578250422163858e-001, 1.02633230246866880009e-001, 1.81720852956013867452e-001, 9.80134579059618316066e-002, 7.14250636355404089350e-002, -8.67128941605244951685e-002, -7.37205668677966188124e-003, -2.33261850522042235578e-001, -7.70275351334187147190e-002, -2.53287247725668240861e-001, 2.15620122576036077344e-001, 2.58392028874327495114e-001, 2.46404958450451655461e-001, 8.41889435668971980453e-002, 8.39901159520749368559e-002, -9.32009484594265996682e-002, -1.91892122444225987632e-001, -2.10980523128038915948e-001, -1.57524251521075575599e-001, 2.21418605380339111877e-001, 7.76234285105531773841e-002, 2.61515229687813322013e-001, 2.95829046210339619005e-001, 5.89263690432637737837e-003, 2.22172969464718067512e-001, -1.72106435744675378974e-001, -2.09100955089910167661e-001, -1.66099743273527056253e-001, 2.90724080991015987330e-001, 2.94141308742348062122e-001, 3.10938083651006613728e-001, 2.94809781726955544290e-001, 2.53196838535885204724e-001, 1.17898050143047064542e-001, -2.27802574646725319862e-001, -1.14584914113956534698e-001, -2.14253316911877877970e-001, 3.32585949136781744429e-001, 2.53682025839831848391e-001, 2.45546089017535940080e-001, 9.09355984726137461793e-002, 6.59901153502594900457e-002, 8.55789516702991498454e-002, 4.25503951722522588685e-002, -2.06757967814971438392e-001, -3.51742132808361904206e-002, 2.50500312752404252770e-001, 2.32179346003434289303e-001, 2.73988736198582272241e-001, -2.66648379286251631382e-002, -4.46392194561819055654e-002, -1.09156113377419122790e-001, -7.67311866024950189891e-002, -1.21189547113513360066e-001, -7.24597642091267674092e-002, 2.30953069594226761962e-001, 1.94990863771237976643e-001, 1.82387405925321322009e-001, -4.75522456938550289185e-002, 1.72528151326771430479e-003, 7.96496827588996508807e-002, 3.57805208599735399821e-002, -8.39255914052772916678e-002, -1.44804631868355820901e-001, 1.88561187638834865110e-001, 2.56805586944170993746e-001, 1.28678221001675446855e-001, 2.17068004386589463728e-001, 1.21543143475086268257e-001, 1.19886328108195980291e-001, -4.13685792666448684529e-002, -1.88547027678302392406e-001, -2.76197469431423078823e-002, 2.74854041441160323878e-001, 3.23380455694484703066e-002, 1.76303228253450128271e-001, 1.75499353265445023897e-001, -4.85957904576915927786e-002, 1.29047389432672132692e-001, -8.99124535788460577113e-002, -1.21592002775289198535e-001, -1.38927250645571542798e-001, 1.88718561930030170881e-001, 1.22161714294741458042e-001, 1.57771898191725545857e-001, 2.67594986873011364548e-001, -8.58064136977549490881e-002, 1.08703513470016221998e-002, -7.38404010952146538233e-003, -8.47071015260933007918e-002, -1.99603957542740823028e-001, 8.89186958059340337712e-002, 1.18956418010100206661e-001, 1.04920623335031729106e-001, 8.91092251632740091349e-003, 9.70525431016924094996e-002, 1.01303803325121385970e-001, 2.96513506775567432794e-002, 5.40370280293883259448e-002, 9.46578861114798775223e-002, 7.79268382180221680366e-002, 2.31642712959670149520e-001, 1.36695183309937629001e-001, 4.91686271789901346851e-002, 4.66174967265183884391e-002, 1.32426819059597050687e-001, -1.36562355708229939827e-002, -1.16717432052529344888e-002, -2.11112481560815579140e-001, 2.67720313834949541487e-001, 1.33689042884157893720e-001, 2.39917917251640355758e-001, -3.75576288031461702488e-002, 1.12176800828178324654e-001, 3.22798208175204964787e-002, -1.20794736562882518149e-001, 3.44457091651559355050e-002, -1.00723736067514405002e-001, 1.92156197884659180053e-001, -1.44231667484871813739e-002, 6.19328766456260157436e-002, 3.10035959073434279343e-002, 5.47353679692950262359e-002, -1.01902320398984377881e-001, -1.39695564115304593500e-001, -5.56688970574317071316e-002, -1.40482486065887451909e-001, 5.76616359419670869435e-003, 1.58501670342076877995e-001, 1.52310220973096932529e-001, 1.92225691515643143381e-001, -3.50554129569132441602e-002, -1.06224088690221041276e-001, -1.60140154950678237356e-001, -7.65193582987133136264e-002, -1.91954676540353363912e-001, 1.62816959650967929552e-001, 1.55176758732040870337e-001, 1.19372186407432162580e-001, 1.23675818723234798302e-001, -6.85214027347010867786e-002, -5.61581322229081497666e-002, 9.86212227746324637812e-002, 1.23447953705072291375e-001, 2.76878976580065098989e-002, 7.41366676977699562423e-002, 2.39237274639308578061e-001, 1.61397327258856526644e-001, 1.31058210688652837517e-001, -3.10741395101006984136e-002, 1.45135278380428639489e-001, -2.72266437737176514311e-001, -2.13751267110047382669e-001, -3.70752728510636175852e-001, 1.01516968333175125472e-001, 2.42670369435551230852e-001, 2.14919386069278767204e-001, -3.71955897617719452586e-002, 6.62916573074350673478e-002, 1.28149341427268914639e-001, -1.69899906622895530139e-001, -2.09431050760186587834e-001, -1.59887508865179717166e-001, 1.83174919315114231866e-001, 2.83480728202488818646e-001, 3.01924042415066262723e-001, 1.47065381066578709790e-001, 2.40472392491843517393e-001, 8.97237401368224524179e-002, -1.86687225002861931222e-002, 2.04575900440920749324e-001, 2.67758788291730769060e-002, 5.10758857524625520252e-002, -3.31895602314735832516e-002, -2.11877973187938412059e-001, -6.60246100509510325249e-002, 1.57594286156225477091e-001, 6.86294552661968933205e-003, -1.18284597259973575656e-001, -1.15460814350222665259e-001, 5.21532958744867838896e-002, 1.05826622589324653712e-001, -4.78946857560424016365e-002, 1.30923573466681875122e-001, -9.38342920287072168595e-002, -1.29314198286341580646e-001, -4.09904955721113670175e-002, -3.00691656076323768354e-002, -1.00211377301744411494e-001, -8.74160003328680740298e-002, -1.37449659539271545894e-001, -1.86440948516434362725e-001, 2.23868393796206946456e-002, -2.62438560884227289893e-001, -1.45485815281175212554e-001, -6.12491962831116648625e-002, -1.89957705827192263603e-001, -2.79234528360177480799e-001, -2.20034568075538616849e-001, -1.70893457144179972129e-001, 5.32799240452903888343e-003, 1.48480587836463312490e-001, -3.85634460808335133297e-001, -1.95728395754747791502e-001, -1.27962719038022088025e-001, -9.45136238299902481375e-002, 1.47915382424287034091e-001, -7.11773970801015259946e-002, -1.26212832835906590967e-001, 4.38015908045323795750e-002, 1.29376436270247103383e-002, -1.40990962229793764804e-001, -1.52658120556643656096e-001, 8.74544776299311793499e-002, 2.38666484252627209006e-001, 3.89907965060733774365e-001, 2.26244859519339008846e-001, 2.30221723456480564796e-001, 3.14156495940093150043e-001, 3.38236838859886368436e-001, 2.04735221320522853272e-001, 4.29129136753354165079e-002, -1.42492289339223310307e-002, 9.74330904377556233920e-002, 4.43620895669946058160e-001, 2.88661158073031165472e-001, 3.20235966101696745145e-001, 1.39715458574888540255e-001, 1.33746984285198322606e-001, -3.67003592814806435876e-003, 1.00753471944148471906e-002, 9.47565623207043128406e-002, -1.41393222784954808446e-001, 3.13851907305733424103e-001, -2.04595038047540589421e-001, 1.94945346102163713509e-001, 2.18017829438490497174e-002, 1.64954174355275151598e-002, -1.23656698589965953483e-002, 5.88747370111477180687e-002, 1.12654495353212674713e-001, -2.17413417379680701247e-001, 1.51374284591883956352e-001, -5.46804174280094076877e-002, 7.24731682414161137995e-002, 9.99131751868363171543e-002, 1.70995704526900965670e-001, 9.50441819866966741692e-002, 9.75926529758781718948e-002, 1.19091650437775059546e-001, -1.22099130237887168460e-001, -2.99058324036908629306e-001, -9.28397099321488089574e-002, -5.09721889746057085085e-003, -1.73014289372153892699e-002, -6.86509749241714650747e-002, 2.20012249208910160014e-001, 8.16581002510277098594e-002, 1.23228922130934809287e-001, -3.84089040116050856044e-002, -1.06594089145004185248e-002, 1.59470239006778868873e-001, 4.34329163253032835001e-001, 2.06420192835327975800e-001, 2.74960142684844199845e-001, 1.22135310638516653148e-001, 1.39279967967519513472e-001, -8.33073171924035710267e-002, -6.06320376501114088885e-002, -6.14852629664516259211e-002, 6.94265347323459597328e-002, 1.34338605088077878147e-001, 1.71639914190226006152e-001, 6.24480900740572858476e-002, -9.44503052990691704949e-002, -8.42125554602716486219e-002, 4.65010468303211702001e-002, 1.70752095043498836047e-001, 2.04907893889310466218e-001, -6.79122732879073112700e-003, 9.98415508045051025565e-002, 9.13881454611692456425e-002, 4.78051412893012051680e-003, 1.80593326651600466493e-001, 3.05871226749502345132e-001, 2.43312917416590029918e-001, -1.54191191148637690711e-001, -1.81340486533993788809e-001, -1.30762677645138186699e-001, -4.10699529917478087238e-002, 4.39685415124178441415e-002, 1.42561817740098711882e-001, 2.16663857026555856100e-001, 1.84381220793704225791e-001, 3.43097760061261913833e-001, -5.78873448284584826706e-002, -2.43227587006808243508e-001, -1.68299742147161035533e-001, 9.25007771196294931171e-002, 3.54971132211343798346e-001, 3.91807914713613980595e-001, 2.99858599432259786965e-001, 4.19402186250406372459e-001, 1.48054976959960671312e-001, 1.39080387330601129570e-001, 7.67253764826567319357e-002, 1.92151745196666758064e-002, 3.02312782186239970006e-001, 2.16674498402684490017e-001, 3.21763951260417346845e-001, 2.76697816985713163085e-001, 1.73331623725749756071e-001, 2.22419720724492064878e-001, -1.09951208854411258686e-001, -3.16432402204208540475e-001, -2.38010507256358888606e-001, 1.27126646223683109627e-001, 3.11156719883111054781e-001, 3.47693974291055196701e-001, 1.28278438111610076922e-001, 1.18799021879341534791e-001, 1.25482098288118182339e-001, -2.85840419344371210464e-001, -3.36763754036564610939e-001, -1.49254115469066445110e-001, 2.72280150676275756183e-001, 1.11457191412862866020e-001, 2.56843672331101613437e-001, -2.43448084851422760777e-002, 5.64658425136689151591e-002, 8.24866907470647170442e-002, -1.75869025525915378960e-001, -8.03120028810213604231e-002, -1.80816811092387036419e-002, 3.52227895954376965526e-002, 1.21512687404055089169e-001, 1.92223186292780567896e-001, 1.46323973874362689429e-001, 1.58437700019069815927e-001, 7.96343809789092776930e-003, 8.16052578073777623580e-002, 8.09187448969057310233e-002, -7.28895288420344095170e-002, 2.89257129347043895340e-001, 1.48122972128886559728e-001, 2.33487037606897401831e-001, 1.15128870088025983542e-001, 1.06245820912293870153e-001, 8.13268806484719053440e-002, -2.70582091586361143942e-002, 1.05614379135233860119e-001, 1.39654943239402695720e-001, 1.55065593394549061657e-001, 3.38250973656898545894e-001, 8.56432245404965958313e-002, 2.21794690180626030696e-001, 2.52897119600957343000e-001, 8.18332855694927085999e-002, -1.96709588756631109652e-001, -2.20657381332055646528e-001, -2.55877032148851324411e-001, 1.45979770412000581237e-001, 2.96734894910954061231e-001, 1.03854113051884786034e-001, 7.24623011908515218815e-002, 6.92286490517362296249e-002, 7.91602364912389888651e-002, -1.79265286196002959773e-001, -3.26934813373620028476e-002, -1.59329670063958428461e-001, 3.39955490267379700775e-001, 1.24181789993423968843e-001, 3.43156956476916075172e-001, 3.64322283688889470010e-001, 9.74020821621914140165e-002, -1.27528311302689077028e-002, -9.91463226707641059887e-002, -2.12464114395757908138e-001, -1.07773447194632596147e-001, 2.84373103153552131417e-001, 5.47834177276022779579e-002, 2.31576225882732994465e-001, 5.08384958555060939567e-001, 2.40977643998629559308e-001, 3.40942566046119999168e-001, -1.66000572354466136016e-001, -5.39439387030975422976e-002, -4.10677752098737580688e-002, 1.94397119198887802227e-001, 1.57517842850497080676e-001, 1.96432669576572987991e-001, 3.41408295973700981474e-001, 3.72631329725900184435e-001, 2.66214986107824180817e-001, -1.44566454954165479752e-001, -1.13260588072951695615e-001, -1.40168576801924849029e-001, 1.40048839491457161044e-001, 2.12938529937843262774e-001, 2.96674211501989693041e-001, 1.84605236809552875066e-001, -6.25235586740243050319e-003, 8.60155300869094308069e-002, -1.29307878560085826036e-001, 4.35031056815445432706e-002, 1.16538496196722934917e-001, 1.40125770831219575996e-001, 2.23123653095216839537e-001, 8.63826482972310932817e-002, -2.09563166483339585744e-002, 3.20245340842100212342e-002, 2.20923357112372265032e-002, 2.04942878219535398743e-002, 1.55781848651059900979e-001, 5.88908119225141704622e-002, 2.78319609006273727125e-001, 2.70836829459729921954e-001, 2.11564380070037194592e-001, 2.76197700439820503782e-001, 2.97065318848091564075e-001, 2.53161256763721476126e-001, -3.48923277353898955710e-002, 6.22115157187810852157e-002, 7.79594877732013302740e-002, 1.77350145110390960967e-001, 2.86301655787175146628e-001, 1.64654072773159243503e-001, 2.83165692839116134305e-001, 1.95926938172684000916e-001, 3.98764860205722548869e-001, -1.06750718528262941720e-001, -1.40103383960189425972e-001, 8.53402219460307892573e-002, 1.03932667811881360165e-001, -3.31769157646558208313e-003, 2.25959129442345529881e-001, 2.36455446207614827792e-001, 1.27241066699137039819e-001, 1.67806970029426322233e-001, -1.23161322753458896129e-001, -7.75709307371752615490e-002, -1.77282402255886623044e-001, 7.42213785896597144642e-002, 2.18003077837610026446e-001, 8.40280063629741252873e-003, 2.89189053061454093285e-001, 1.75463193634064679172e-001, 1.66485645045331837055e-002, -5.70142600190361309442e-002, -1.79921214588492188458e-002, 4.53911444415049866730e-002, 1.07046264280407754654e-001, -3.90889393997112255530e-002, -1.10655428340121521347e-002, 2.87103502264192400606e-001, 3.29113135176704485474e-001, 1.14088436433097351053e-001, 1.55404396159154772894e-001, 1.71507504486355988327e-001, 9.15009414498247491965e-002, -2.71052456990623774624e-002, 1.74493827600166045988e-001, 2.35945837568509036997e-001, 3.60254589851777551335e-001, 3.51193207306489285635e-001, 2.30767599044494731153e-001, -5.14396024807697947040e-003, 5.36260591353578258689e-002, -2.04051473848092496111e-001, 1.27748419665025481073e-001, 2.59047448754255102421e-002, 8.13545941273374900726e-002, 3.62459030348251803888e-002, 2.70939755338656662609e-001, 2.40791496228190265994e-001, 1.00982543990587505384e-002, 4.16726206563669820948e-002, 4.40353038574030491992e-002, 8.59144083902457084134e-002, -5.10212583772640670965e-002, -1.91075342992979126458e-003, -6.43521128230906402923e-002, 1.18430365566441445080e-001, 3.65967295118986846170e-002, -9.36278722991530087949e-002, -1.42114650299071609840e-001, -3.35183160870360617734e-003, -1.22415945023908429024e-001, -7.39446721072654564177e-003, -1.39901816668442702252e-001, 2.37671293988673121289e-001, -7.58915302373756959359e-003, 7.04762766853306854564e-002, 1.54434049094837426430e-002, -9.22685803135660925767e-002, -2.07626880353874027074e-002, -5.07258416335683026688e-002, -7.79055596094802016438e-002, 1.32368606337303490461e-002, 1.81330013485393459760e-001, -3.68263371740006964505e-002, 1.06804411615753297449e-001, 1.02673069570286143448e-001, 7.07849256968910711674e-002, 1.10532151909155801350e-001, -1.08588616493795239726e-001, -5.84505458587897611111e-003, 1.81477148783095343365e-001, 5.45043609984634941368e-002, -1.19262894108024833373e-001, 8.20310445605177407380e-002, -1.89253835527294744789e-001, -8.13744592530150495646e-002, -2.47637081454785024093e-001, 1.96358289431891486210e-001, 1.80495127615806549848e-001, 2.40418860037797915696e-001, 2.78488697856867674363e-002, 8.68724017768247730453e-002, -7.10134915336097655159e-002, 6.77728947864322389671e-002, 4.35870302040398949206e-002, -9.40741661000049911312e-002, 2.98298588170422818155e-001, 2.26680830512955483469e-001, 1.49535412817767721094e-001, 1.96752637162652371794e-001, 1.68269745087646388493e-001, 8.30795370480284095516e-003, -1.58594268033627611159e-002, -2.33946420033116818729e-003, -9.89915201552231671656e-002, -6.70186463842327440066e-002, -2.02212091948334365954e-001, -3.10463953207428977610e-001, 6.20342433092445702525e-002, -7.98652841424693504813e-002, -8.63537378992528525945e-002, -1.66932988405396415255e-001, 6.97257373041474254327e-002, 5.50486503250789856179e-003, -1.55116723925478844359e-001, -1.62593118731060554127e-001, -6.85274308963632616809e-002, 5.48004179931382701119e-002, -9.80500922947168812582e-002, -4.62270181872348542851e-002, 1.44242514158453072337e-001, 1.85958340319558546039e-001, -3.14425112913878646026e-002, -2.46289452254441376677e-001, -2.16403631051586053946e-001, -1.37468248166980194780e-001, -1.56131197916895864131e-001, -5.56729651426696517391e-002, 6.66196535685825846906e-002, -1.34857961546065330261e-001, -1.28802157096299330075e-001, 8.53219311168561533876e-002, -2.90953777546037295476e-001, -1.65761940691583037344e-001, -6.25836525159234463578e-002, -5.14742713072066718216e-002, -1.63885043543688324608e-001, -7.04030702750518266875e-002, 9.10918961017782718992e-002, 4.61213792450323178951e-002, 1.64717441448135271109e-001, -1.95767065854751537435e-001, -7.14922690822541173628e-002, -1.45586873715970399612e-001, -1.29290286697940799698e-002, -7.83939152654880566651e-002, 1.24660939676529400333e-001, -5.59048919528907575782e-002, 1.10939347837693214061e-001, 1.88098154295584629736e-001, -9.39591662765457691364e-002, 8.90148675087017171581e-003, 1.50139385103328470983e-001, 4.76495580568692955747e-002, 2.29750201839708956264e-001, 1.96625084681736478354e-001, -1.63462320617890954910e-001, 9.79588492042962263873e-003, -1.22647893013884731056e-002, 1.37017606795131141606e-001, -3.27530849990686767637e-002, 5.97936443615690108033e-002, 2.56992913095435010495e-002, -2.06524615265684802212e-002, 7.65639596934220428848e-002, 8.93410752715674688629e-002, 1.70563610789475184060e-001, 5.15688543463470403655e-003, -6.68345187117869721227e-002, -1.27029737146276106019e-001, -1.25840758951468678628e-001, 1.37505708372334445322e-001, 1.75402959111181949714e-001, 1.40675195188578988637e-001, -1.04874337320482093755e-002, -4.50231566648605363579e-002, -1.49997055830051934100e-001, 1.10115741732356841459e-002, -2.15008718006017562896e-002, -3.22576237516662743879e-003, 1.24574189841994920069e-001, 5.54938653672638407266e-002, 2.00814671456954141338e-001, -1.40553573854796443054e-001, -1.23138091046903444536e-001, -3.49312440623798237116e-002, -1.00522091885218767260e-001, 2.10928747677457673060e-002, -1.80572946599325719064e-002, 2.14395960960391762651e-001, 2.72998748309758523800e-002, 1.27483234336986911428e-001, -3.36841914561265970418e-002, -1.96807225435449179018e-001, -9.05473368063910294401e-002, 2.15948386775936002069e-001, 9.46831377878394192527e-002, 1.80422114833135804890e-001, 1.59677835238209928082e-002, 2.62095645468831017766e-001, 2.21360018509359941785e-002, -1.72434153538992690491e-001, -1.39407190158181010231e-001, -3.82934600276961800702e-002, -5.84199118725774596550e-002, 5.04625840994826976860e-002, 5.67930803573704102993e-003, 3.59868496849710881036e-002, -5.43684152668324552349e-002, -1.88060920006509445235e-002, -6.17572548092556392052e-002, -7.52596479357795500320e-002, 4.77725772352857805392e-002, -9.45260844643870806747e-002, -1.62452129908681103254e-001, -1.82228714285748327750e-001, 5.94016182561485431290e-002, 5.88276991656271133757e-002, 1.29784436256497992535e-001, -7.75477951038425483699e-002, -1.00433117762479776069e-001, -1.74630950764314091250e-001, -6.85474115836391811873e-002, -8.78506088713486010811e-002, -6.21547918863841267201e-002, 1.99188563167141341470e-001, 2.00510499676535336455e-001, 3.10082213062381206736e-001, -6.54690369001565963814e-002, -1.67887158752644594095e-001, -7.73590980176801779056e-002, 1.12499459561936025059e-002, 1.95140449762089884800e-001, 8.84586299193655528628e-002, 1.21280865002055038282e-001, 2.29643530886481928022e-001, 4.29877963019736700212e-002, 2.42097479558603979888e-002, -9.49378765861770695933e-002, -1.02216753704938032032e-001, 2.13741956965614626762e-001, 9.07979750867397503167e-003, 4.67032642638928602308e-002, 1.03298530243621344837e-001, -5.83075512929453407263e-002, 2.07301058345559618967e-001, -2.47659563134609572721e-001, -1.95115380194522070045e-001, -2.17999958430057622083e-001, 1.47287483715192457634e-001, 2.06675519364195071914e-002, 1.27519134771402448125e-001, 5.36946617030783709956e-002, 5.41662118684521076695e-002, 6.80287142887556206539e-002, -1.94480675003675745893e-001, -5.71913942124136209788e-002, -1.77187550295643231335e-001, 8.36028611486940437247e-002, 1.11950405840882505348e-001, 1.17845416028561893879e-002, -1.03415128392300090243e-001, 5.07500851508416658819e-002, 1.49485167931300177990e-001, -1.38437087429311739273e-001, -1.35479946294270847673e-001, -1.62337366277354427924e-001, -2.74318957374819274997e-002, 1.56457635235129566276e-001, -7.96537260981740186105e-002, 7.96699703161944799978e-002, 1.05918581019286889289e-001, 1.18390303279668235303e-001, 2.17263737178621657575e-002, -4.88321463487969009698e-002, -9.86992988881665173073e-002, 1.62134324835117804575e-001, 1.18671177647943215661e-001, 1.89575528609632580623e-002, -1.65801013998921678572e-002, -8.43813252845911215827e-002, 8.02474335239022201760e-002, -2.19215539651537560939e-001, -1.18164112109865354627e-001, -8.94894193452320241278e-002, 1.80188609210666178528e-001, 1.76517170177509147289e-001, -3.93970276513185557743e-002, 1.44807385849910402742e-001, 1.44954970133923999320e-001, 2.83858355684186319280e-004, -2.49294369063094573002e-001, -3.44383362674268278525e-001, -3.06761110391605973380e-001, 9.61964104031090144753e-002, 7.15029473251030806003e-002, 2.11452837190127217182e-002, 4.64679168738347178613e-002, 1.83531585611037516281e-002, 4.39229763077021925777e-002, -1.33685580192844460923e-001, 3.75333518667223878240e-002, -3.69019084181195222705e-002, 2.65549779432942244239e-002, 1.09115851955243509108e-001, 1.28928901109118310142e-001, 1.44569716190483837925e-001, 1.18916239796894696035e-001, 9.42333485716046088954e-003, -5.01978198001208769652e-002, -2.00884214398235810828e-001, -1.77746472835371593924e-001, 8.22020523544077091893e-002, -8.07315888311491564044e-002, 1.28668386822839708739e-001, 4.11637994176411725622e-001, 2.15968089872581398003e-001, 1.37981019108324470812e-001, -2.55682890130559170583e-001, -1.82911151609041283672e-001, -4.65906373028982939699e-002, 9.82601028590459751877e-002, 3.33654471168348069204e-003, -8.11027014306249793840e-002, 2.33303215144653242064e-001, 2.08017261706334471993e-001, 2.10611813767016459176e-001, -3.75234977543130177047e-002, -1.19198223549508028341e-001, -2.21994823875772628874e-001, 8.24784827825692373748e-002, 1.16403709585982714780e-001, 2.12534352669414942916e-002, 2.06474738644144589772e-001, -1.96987802903081307693e-002, 6.50625938354790489537e-002, 9.68431288162684561494e-002, -4.12679648861449671626e-002, 1.05979818044480450512e-001, 1.16215987681227927997e-001, 1.11680422322562172832e-001, 2.21458504118438800901e-002, 2.54305098980935784247e-001, 8.61188755540081979367e-002, 1.95677486861431576548e-001, 1.11897862097669248405e-001, -7.09380317102646373861e-002, -1.03974725003550969027e-001, -1.40549412550227716123e-002, -2.74210787168242299539e-002, 7.41791600552268587387e-002, 2.06518852685820708537e-001, 1.79147846980965919084e-001, 1.69007270340626764016e-001, -3.34455035397072039660e-002, -1.46554914622305715310e-001, 1.44532180535862173759e-002, 4.37550542986160223569e-002, 4.42427257457358238946e-002, 1.13103060451950607201e-001, 3.17709171212027963183e-001, 3.90951274235537660218e-001, 1.98678234769348316391e-001, -8.58058256046249218096e-002, -9.69843164729024265203e-002, 6.37535799394288171804e-002, 2.40256822314184291522e-002, -4.63111561028176216270e-002, 1.32015111891810615896e-001, 1.59796365468272444366e-001, 2.02854896099178803881e-002, 1.18024291214306326081e-001, 2.88695785034805661728e-002, -9.67784099619431875672e-002, 7.51557347362344363439e-002, 7.68803388100813660244e-003, -1.30373449407379438103e-001, -2.90913790712085708334e-002, 2.94186148216636744746e-001, 1.39776080187728912740e-001, 6.90085634324045654742e-002, -2.11680822507754801132e-001, -3.58877947842013989010e-002, -1.52431257338052850159e-001, -1.38715621702644759106e-001, -3.36944031388732023746e-002, -1.53377682588396346830e-001, 1.91343303536730263703e-001, 1.56312531857291298065e-001, 1.97008283088286301199e-001, 1.27600319402393025392e-001, 1.16632593403091303075e-001, 7.93552062920470507867e-002, -1.36833578422629914551e-001, 3.93739979951576099526e-002, 8.56118616353647790551e-003, 2.36235416957741889421e-001, 2.37329873707839172914e-001, 2.25921010111608089321e-001, -5.34262643240335094452e-002, 3.05808518953692258513e-002, -2.30158777071210018939e-001, 8.85135179840595420764e-002, -9.25044026790124568338e-002, -6.13274985271675381754e-003, 1.25426186766715547227e-001, 1.31923154853225699235e-001, 2.51484366723808104582e-002, 3.08244737907183916081e-002, -1.29925020774882798991e-001, 2.66886276275238552846e-002, 1.19742147367741344488e-001, 2.17594076750474742232e-002, -1.55194889556054798491e-002, 1.58374586016533203114e-001, 6.75638263144724693365e-002, 1.45864567822645591066e-001, -1.73680792097750585912e-001, -9.96241867750675413884e-002, -1.73127679067515166667e-001, -1.03526653344236194837e-002, 7.94949387990058903286e-002, -3.91456302992246873984e-002, 1.30490681805810193605e-001, 1.00296581330606301985e-001, 1.27952878138056586055e-001, -4.29934324689011590492e-002, -1.85078188797489856521e-001, -1.65540086795933211183e-001, -9.34837852491354343032e-002, 4.85096740922407870800e-002, -8.61357135663392975422e-002, 2.92959151740835255229e-001, 7.25215318569088912559e-002, 4.31118041076593086491e-002, -3.28851551726904445250e-002, -4.32166594175954852514e-003, 2.82326116848459554576e-002, -7.50099581247610364132e-002, -1.46904003352869710897e-001, 5.30366143966087208450e-002, 7.62856119755589250075e-003, -9.28428275106266409633e-002, 1.53540457363407878422e-001, -1.91949515900537603930e-001, -8.64226537075873241234e-002, -2.10811945256087096556e-001, 8.92003128161064084978e-002, -6.84666794058383515464e-002, 7.55846412762972291732e-002, 5.10140442435268702537e-003, 1.48505639084455159926e-001, 1.84550610426634703609e-001, -7.69904450011065499826e-002, -5.36214535911552908631e-002, -1.24092920377071397331e-001, 1.00930031251756591182e-001, 1.55395631637629788591e-001, 1.26581369309032187864e-001, 5.34710789428168853377e-001, 5.59713818406330942956e-001, 2.37575085692373844104e-001, -2.96501699150386599513e-001, -1.08589519815694063309e-001, -5.73727772612005124109e-002, 5.29947720219845208600e-002, -1.70877504823637310638e-001, -3.21230518637056206011e-001, 1.55594276478238091599e-001, 1.55294932936176438565e-001, 6.49808521296981467241e-002, -3.02727810409464059838e-001, -1.92527789554680112127e-001, -4.62914736135283458318e-002, -8.86041115809088897226e-002, -1.19602940742030566801e-001, -6.72302323151719033456e-002, 1.26519412436313427595e-001, 7.83158865185461933178e-002, 7.03343401904070074024e-004, 1.78112794927498208075e-001, 9.55343841860533254939e-002, -2.83454881513503769569e-003, -2.56455533301379157152e-001, -2.27240306482170556501e-001, -1.83345535486346356002e-001, 9.74076790089647009951e-002, 1.69176131554123448941e-001, 6.00556897472765277568e-002, -7.19856959013335934161e-002, -1.14005547820433955630e-001, -9.49700858792036917144e-002, -5.13133385261864555238e-002, 8.95050918016344343453e-002, -8.56049377561633913214e-003, -3.13790208579500101704e-002, -2.17619840706752082360e-001, 9.91833728743635317793e-002, -8.70409224726045038789e-002, -4.14103062285254008845e-002, 4.12383098170422748852e-002, -3.01899690597074055187e-001, 2.58426587112049084560e-002, -9.85966890386832661708e-002, 7.45994572969160552045e-002, -5.65926814639795220524e-003, 1.22657372309999665450e-001, 2.04699458146863771946e-001, 2.03162752983077038449e-001, 1.13834029890059529322e-001, -2.49492019409971281518e-002, 1.49729781864509498002e-001, 2.02958211481526207276e-001, 2.21517731457917754767e-001, 3.61017650598706940634e-001, 3.54644210410945737166e-001, 6.99879775462131092922e-002, 2.42659015293197083407e-001, 7.39375813674048726343e-003, 2.87985640091351025038e-001, 9.01187524357363600735e-002, 2.37648978999691090630e-001, 1.86813714121654116107e-002, 2.63216943853782992316e-003, 1.19228138407950198796e-001, -1.75920890458401091294e-001, 2.82550200155668507218e-001, -1.36569621175724770223e-001, -2.50125252621853579223e-004, -4.25731600437832327644e-002, -4.88264912999986991360e-002, 1.61282212921618151036e-001, 3.32475238734291633769e-001, 2.46159798572139459916e-001, -2.12557893621874577361e-001, -2.62215838655564748017e-001, -1.09461079910166542151e-001, 5.50300553027545380491e-003, -7.14923219681544430681e-002, 6.03567036345669799546e-002, 2.66519207432997451424e-001, 1.26691957336943383794e-001, 3.75771660327488654652e-001, -2.80711733418941900009e-001, -1.49826398363594792684e-001, -1.60854903102498631579e-003, 2.43890141668488165394e-002, -2.59702659409799148371e-002, 5.68086311320443668182e-003, 4.29969141679413136004e-001, 2.18773638365327927069e-001, 3.90541120930699092728e-001, -3.16249578932761898908e-001, -3.27099799497040863439e-002, -8.42490995360713201823e-003, 3.05779802848621995448e-001, 1.57572647675797844480e-001, 1.94304440426384672502e-001, 3.04473572015701854365e-001, 1.62808700661102756513e-001, 1.94370712864251643515e-001, -1.62929781178797583596e-001, -2.33059536122633165212e-001, -8.63825392728745228288e-002, 1.67266998485287553267e-002, 1.58301746174762461572e-002, 3.42702646402047728103e-002, 1.76220694396460181297e-001, 1.36185399860436762154e-001, 2.83380711407349827891e-001, -1.51745504801521158278e-001, -1.87801870593613459692e-002, 3.06503408277389484404e-002, -5.97022356828603856238e-002, -7.51549002022954548696e-002, -1.21250828749638897563e-001, 3.20564492592590455367e-001, 4.01619906430338735603e-001, 3.11925842515068607597e-001, -1.32294510761824496425e-001, -7.40140868970568105434e-002, -7.17622601402787413383e-002, -1.00042707069697506261e-001, -1.66917799479329609369e-001, 6.33096071314416114495e-002, 3.69240632558805403907e-001, 3.88477035825555150339e-001, 3.98605893612000661275e-001, -4.42676183288625707535e-002, -1.40301096851027012891e-001, -2.30779621818580860104e-001, 1.91723828818436692334e-001, 6.93312322637723160712e-002, 1.34379118526265523004e-001, 2.58420872776616739053e-001, 4.86460078572863607871e-001, 3.77649460095894340395e-001, -2.04920190516340305908e-001, -2.45788172757871070662e-001, -2.16010583353532459316e-001, 3.33262755419261980094e-001, 4.72831793198543043344e-002, 2.52655595005292443744e-001, 3.10359378806013275209e-001, 1.60679395734811075735e-001, 3.56920294952182748371e-001, -3.43790445727401638987e-001, -2.67352046012346189485e-001, -3.73578973675775360963e-001, 1.00010895601677043953e-001, 1.53400500958847552102e-001, 1.51558904641154457149e-001, 3.05426924260835508385e-001, 2.24686648274864758656e-001, 4.10715853940487207741e-001, -4.00938468821778304374e-001, -3.78658245606785182069e-001, -2.90488023375089221556e-001, 1.12315470917761797698e-001, 1.22462801673676194292e-001, -2.36261181209818822702e-002, 1.37716564628272891690e-001, 1.53750983087782594483e-001, 1.02271246232957330191e-001, 8.52043598095493515121e-002, -1.75744702114163486861e-001, -2.46080032857273867108e-001, 2.19146595468371410687e-002, 1.24583881280687772120e-001, -3.52112292874199039883e-002, 2.56580754991337256499e-001, 2.04515351050336108285e-001, 3.72950733281388752127e-002, -1.40513044201284742485e-001, -1.63350695322304331411e-003, -3.27574466880189318907e-001, 3.15410801601993029397e-001, 8.51411331880157847170e-004, 1.45918616029390522254e-002, 4.91831336227739820965e-002, 1.46091080842590481659e-001, 7.18114475651293604486e-002, -1.08946169449131116669e-001, -9.03314899137143273444e-002, -2.93236498895879271753e-001, 1.94726940093052941494e-001, 1.60465106988048777925e-001, 1.27412592344938513378e-001, 2.41403956778061645760e-001, 1.54525560138539741484e-001, 1.99385553797851305946e-001, -3.75387832794549403115e-001, -3.74998273387507186083e-001, -5.25700420503918852688e-001, -6.38814467439340477606e-002, 5.02459886921833437379e-002, 1.07343487515409952149e-001, 1.93355119978115108648e-001, 1.81272647225390021175e-001, 7.23541958411848679100e-002, -3.86987975387165283880e-001, -1.59809968376604494278e-001, -3.56662633509017834577e-001, 2.68648568777196783408e-001, 2.55034234477088173065e-001, 1.03996790413556264299e-001, 3.72175885918484994352e-001, 4.20483094586438177487e-001, 3.70071629537191458884e-003, -3.10719287270528776723e-001, -2.71058211143957950018e-001, -1.74911744234867369552e-002, 2.62417300241170936559e-001, -3.93185306189803608634e-003, 2.58931487993469489073e-001, 6.16875139319833509788e-001, 2.65914517439211628425e-001, 4.45052981350686105433e-001, -3.16976187252332675115e-001, -4.72219817860361157358e-001, -3.39178593100848191355e-001, 1.32955591323412447569e-001, 2.20167761468687772641e-001, 1.06223237041157297922e-001, 6.26689666366838205036e-001, 3.74114594718156001640e-001, 5.42743988338774463465e-001, -1.55068373545187904172e-001, -3.57458014189129036353e-001, -2.50141500174721143068e-001, 2.55247613532502082290e-001, 9.98096886288479534510e-002, 1.66998058608184452023e-001, 2.99026282411852362131e-001, 1.98980598949918902063e-001, 2.98761168485249140048e-001, -1.36491343741638876397e-001, -2.96178090004514005251e-001, 2.01499115280689700125e-002, 1.94944511745010311266e-002, 1.13432736296762745609e-001, 3.79904819267926630033e-002, 3.13828959550913000331e-001, 4.16786506728726635629e-001, 2.63202791471026098513e-001, 2.35818102372380121456e-002, -1.37457192716625015150e-001, -3.73922853613870065370e-001, 2.80069415366761720332e-001, 4.41127395048037523884e-002, 1.69167955440501227571e-001, 5.12385277148556750326e-001, 2.90694211186720619100e-001, 2.20552324729567733597e-001, -1.65610829844269918931e-001, -2.45318414728370043365e-001, -1.69900245083914602784e-001, 1.55953573130451328410e-001, 1.65506063690750993000e-001, 9.86899527769668494237e-002, 4.63774068728591948307e-001, 5.99603080464537585570e-001, 4.99444831385197407503e-001, -1.63729468738512462522e-001, -1.96672293979975210121e-001, -1.32271611333169836211e-001, 1.39617406857666936926e-001, -2.09594241248872298344e-002, 1.28170546191167800121e-001, 5.06910740302628615161e-001, 2.82880650637387820456e-001, 3.98844804728875512723e-001, -2.19028369549168849817e-001, -1.96682230099186228234e-001, -1.99046684930634099064e-001, -3.66918814584151209424e-002, 1.35264729795727511874e-001, -3.40691051968065351796e-003, 4.54013300040502609800e-001, 2.51770960109407304639e-001, 1.44463461930423059387e-001, -1.76564514255223264927e-001, -2.19738648723842411314e-001, -2.06874627972364916184e-001, -1.08261674413096198322e-001, -1.28054433681045430615e-002, 1.11844362533897359602e-001, 5.02573729384962919475e-001, 2.90929763778947414465e-001, 2.83957718153211191581e-001, 1.59022649705330282321e-002, -2.02417908377261479558e-003, 2.14162287595029629528e-002, -2.21857713315914929428e-003, 1.07528740751528281705e-001, 1.86715890157703942598e-003, 3.59111666537528351206e-001, 2.35070835306729453151e-001, 3.55391418353915855555e-001, -3.58313484923430958240e-001, -1.19877083025804145877e-001, -4.15705956712545954268e-001, -4.18130521123239728976e-002, 3.83916281643060380846e-002, -1.11209734146184690412e-003, 2.42909560705622917798e-001, 3.99731446924095401574e-001, 2.15153027716929207136e-001, -6.09894499697577682773e-002, -1.30937407431525293378e-001, -2.89439373579877035070e-001, 1.14749292692512272485e-001, 3.24785163007585489514e-002, 1.65855808847031716002e-001, 3.28860688742188878031e-001, 2.15694683290681865628e-001, 2.19855068284993016015e-001, -1.30398058844526792965e-001, -2.11941419503327538321e-001, -1.20017421586539607681e-001, -1.11239721458661788844e-001, 1.85641602593918028652e-002, 4.44904385271083502307e-002, 5.51190893156970562750e-001, 3.20036852593982845683e-001, 2.32015584502028221481e-001, -1.91974422229211072466e-001, -1.65073383684295721396e-001, -2.75350670272204778311e-001, 2.95409592739559918873e-002, 1.29821708339969421608e-002, -9.49452665548022323172e-002, 4.64418607778184666657e-001, 3.77234430038788787209e-002, 2.09786298640898760670e-001, -1.56610921177404466276e-001, -2.37594858688999682750e-001, -2.10027354734021426408e-001, 8.42839586760678050048e-002, -1.36731047275837434146e-002, 1.02141623482287613456e-001, 2.93624180258963696222e-001, 1.18327231748737868311e-001, 1.59768330798528146452e-001, -3.62832252990299419793e-001, -3.67615445884512836994e-001, -3.27130801406941673637e-001, 2.44984649626851042070e-001, 8.36836427721378423028e-002, 1.89636886492899170431e-001, 3.97761632654543728638e-001, 2.43521420788644638034e-001, 3.50431331874196727583e-001, -1.36915894392765552512e-001, -1.79792879197889970966e-001, -3.08123230420445870514e-001, 1.26573318270638029981e-001, 1.33211989502040550892e-001, 1.81049020042281072485e-001, -5.42165445518892674670e-001, -1.00288620567088671010e+000, -9.72909994871005157080e-001, 8.90959646079492045834e-002, -1.69306377753281833698e-001, 2.59225716766328828644e-001, 2.01976329511639129954e-001, 8.08254799439168669650e-002, 4.05800052185877058175e-002, -8.62334343836107741765e-001, -7.84794926481624854908e-001, -7.75151376417404724961e-001, -3.02435945999761646164e-002, 1.17977850665088798698e-001, 1.91349263469273944693e-001, 1.61221216977637749057e-001, 5.87805309167884482147e-002, -1.92164128203985540289e-001, -3.63839107880133516559e-001, -9.11913798404900000083e-002, -4.35231924252321877855e-001, 2.00427122813455982353e-001, 2.59844057234394132383e-001, 2.32962264818280945233e-001, -3.84315492462583729871e-001, -3.27468248231818803706e-001, -3.57172412096793123748e-001, 1.74010185938922118387e-001, -1.75446736064202468697e-001, -1.32012659299081069886e-001, 3.98854474160046046372e-001, 3.03356301103474002012e-001, 4.37116334056226629734e-001, -2.53506072264072457312e-001, -3.14815555820125991815e-001, -4.88843815328864395031e-001, -1.95118363011138162832e-001, -2.95572089833472106957e-001, -2.56286699093883144074e-002, 5.67265613632503606922e-001, 4.83507525810666083377e-001, 1.53084086001259778165e-001, -4.45123801770888949392e-001, -1.40781850482851828010e-001, -1.65644273111936579657e-001, -1.70809587753224689788e-001, -7.41868517416270217835e-002, -2.31822583870318482679e-001, -3.58334602730709772533e-001, -3.32362395565452994894e-001, 2.81702285838061561307e-001, -3.20901230194907849391e-001, -1.44967286868715544701e-001, -4.36014202908541981252e-001, -4.64170135317439502831e-001, -3.09761844932076479964e-001, -3.77068914293424983786e-001, -4.69986804296820714910e-001, -3.76367032717055238766e-001, -2.93979820542061509592e-001, -3.34148907755822621723e-001, -2.58795138151770243162e-001, -2.69047324214304661716e-001, -2.42797406000633403389e-001, -5.25323403542434230751e-001, -3.08898706939196299182e-001, 2.02335941092288418286e-001, -6.84481132317967255752e-002, 4.30862326164144964023e-004, -8.94532437686740983240e-002, -1.39066151480050553824e-001, -1.83426734471619029554e-001, -7.63462292140634546378e-001, -4.74474427817152655251e-001, -4.02897718344603361640e-001, -6.30280871358704225527e-002, 1.32786367433128354998e-001, -2.55995892085837048469e-002, -1.40795791099600331453e-001, -2.22899295850742473757e-001, -1.47903041806633616523e-002, -2.91315064028158321463e-001, -4.51160413985133512682e-001, -2.30289462191315602579e-001, 5.64338471689645571061e-001, 5.64738948981852950659e-001, 3.24680703046370089382e-001, -1.89525634107331530931e-001, -2.31835988119539315733e-001, -2.12534552606205462411e-001, -5.23597428409147913619e-001, -5.49576284545638116263e-001, -7.47110549646391342016e-001, -9.77140078079457019555e-002, -4.78481454969360078811e-002, 1.90703683034597809565e-001, -8.05338813139763048943e-002, -3.25045522575267004095e-002, -2.95367884885577580700e-001, -1.83614496574544927565e-001, -4.87721972909120171646e-001, -5.10611215327206990899e-001, -5.67016074024146304877e-002, 2.25161672491950209940e-001, 3.84755934059461457419e-001, -4.09142397758832376820e-002, -1.71719216317386041970e-001, -1.22361654803076369546e-001, -5.16776390431033405548e-001, -5.95627045357194462305e-001, -3.12190456449731479349e-001, 1.71564953714217760528e-002, 1.13850994503989486062e-001, -1.32152505295669353558e-001, -3.34748905116736272802e-001, -2.06119516995772106283e-001, -3.35148280847212487465e-001, -5.08286158523632125572e-001, -4.95063438152538837222e-001, -4.32921502547671921413e-001, -6.30366214304003691371e-002, 1.21277613291132485562e-001, 1.68861482959501513212e-001, -1.62571855314051161301e-001, -1.93293335887927797412e-001, -1.75100448512418571667e-001, -5.57509388460970534140e-001, -4.66312722870437623701e-001, -6.32351685631181714697e-001, 2.14548359132082144818e-001, 2.74642328054114204239e-001, 4.20560815433363877069e-001, -2.74287892149280010390e-001, -3.03026905574051874659e-001, -3.70352822263438241635e-001, -7.88902642211822713314e-001, -8.90546833213444632982e-001, -9.13563392950225261480e-001, -2.40023209356821198845e-001, 6.30749380610763771271e-002, 2.98189682089872898363e-001, -2.83189917092659559916e-001, -2.35729074191716847508e-001, -1.16648999377462300742e-001, -4.90445976019616425301e-001, -4.88865466982488561243e-001, -7.09064126079504308819e-001, -1.28175652274340634573e-001, 1.38380091832723067791e-001, -3.05713145652419082676e-001, -2.85655364530921385136e-001, -1.24185222054094851485e-001, 5.15886432169090566879e-002, -5.44194175945967528740e-001, -8.45160606920463575165e-001, -5.51658393369966915110e-001, 4.85952029032087826077e-002, 2.31847697703140342984e-001, 2.62369327024229159750e-001, -4.17973613238597496711e-001, -3.82043438735243490179e-001, -9.92587712960328744094e-002, -7.97814645592261895146e-001, -6.58391224669222396848e-001, -5.53024895189111909133e-001, 8.70685318532845725636e-002, 1.22231118255674828244e-001, -2.54406171026876126717e-001, -1.78663859691937848551e-001, -1.98923634537044799475e-002, -2.80164591115915184716e-001, -3.67537630749192434365e-001, -6.61719573091431811918e-001, -4.53800609586938297202e-001, -3.20695377550634874719e-001, -1.26432883621495351090e-001, -2.58178143047265828969e-001, 2.88115433542268720157e-002, -1.07531161130729649433e-001, 1.51603049184392629778e-001, -2.86007035206863713395e-001, -5.81863364939931626552e-001, -3.94676427069057644825e-001, -2.65378212190189310959e-001, -1.89081918748269989239e-001, -3.41471748021148824304e-001, -1.15158421891744494614e-001, -2.99143500198072287422e-001, -1.65771551263400845899e-001, -6.06601189004312812969e-001, -5.56642347039948082177e-001, -6.69576466400971348492e-001, -2.19124242725600021364e-001, -9.09663620948734652494e-002, -2.71807042308912061301e-001, -1.77116263591734990346e-001, -9.16122452325721370325e-002, -2.98609446759032726160e-001, -5.13906488967473928930e-001, -7.35888181521138884378e-001, -2.94909434690737659590e-001, -4.64090306770574972939e-002, 1.05339082409131909457e-001, 3.22702285396345087132e-002, -3.27724821014783007644e-001, -3.25927006964836285530e-001, -3.87625581486116754792e-001, -5.86069394588737857532e-001, -4.78594650251420727916e-001, -6.07627341276213428500e-001, -6.87678013015922406925e-002, 4.06680823732914892288e-002, -1.15086224828989822089e-001, -1.74800659896045235131e-001, -7.34785032522465714200e-002, 8.98395755045548055628e-002, -5.62818750380933430222e-001, -5.24776282658699355643e-001, -3.12083283615228967989e-001, 1.37576393578574818211e-001, 2.94089261880317254239e-001, -4.01007829636646703775e-002, -5.38726831103639169918e-001, -3.82886577951964679478e-001, -2.48806293106897752354e-001, -5.27137431392553423848e-001, -5.24521049787178395007e-001, -4.02150664032322024966e-001, -5.78409472734957158524e-002, -2.21213359439281026519e-001, 1.36343701536494277260e-001, 3.03267266712048261246e-002, -6.76406167738920066634e-002, -2.24413358465062190428e-001, -3.43734759985312110508e-001, -3.35879988157907094504e-001, -3.49977985950800041248e-001, 2.95333461427548689404e-002, -1.32639301646549523372e-001, -2.48561911850050581974e-001, -6.74695959737141165435e-002, -4.57316128594107251804e-001, 1.44976324822670213366e-002, -3.96788221329997026210e-001, -3.97505756504159590836e-001, -6.92481067464857491522e-001, -4.06824406152575812623e-001, -5.70219585136674880776e-002, -5.51091268543016862824e-002, -9.79544392071212965956e-002, -2.25486392319827116948e-001, 9.38050826777350604813e-002, -6.11428682938033873917e-001, -5.65126111551921050946e-001, -4.69413027953642258971e-001, -1.03553785707957812789e-001, 1.63690077535072947557e-001, -2.28738098125276734240e-001, -4.84677146484830456696e-001, -2.74877544288279318518e-001, -4.85748170587816052723e-001, -4.35634512653034378094e-001, -3.97807283893175489542e-001, -2.63234335484736514665e-001, -2.64318333858943044223e-001, -3.57244196164306748731e-001, -1.04464304632674392925e-001, -3.02774991074884092246e-001, -2.73394594240422894593e-001, -5.68901045767074786674e-001, -3.38969119838594235006e-001, -3.83576862090587666909e-001, -3.12654274952759714257e-001, 1.51794490984288960034e-001, 4.17139415874021729502e-002, 1.52179268958600066863e-001, -2.83619361936597591534e-001, -3.59610550250799632099e-001, -1.55381828775377539564e-001, -1.92999297668444674825e-001, -2.28227615836118696846e-001, -3.06253956920557679489e-001, 9.78616271907366136462e-002, -1.23339418524228527918e-001, -3.99709829919587186775e-002, -2.23720193896581320825e-001, -2.70665636240859597272e-001, -5.44135052749134540129e-001, -7.75065517767004386052e-001, -4.85712271964178543548e-001, -7.49738431497275481519e-001, 1.23004099987219672752e-001, -2.98362596175800520726e-001, 1.06716291683796510315e-001, -1.57494304381879446364e-001, -2.49092815334726686016e-001, -4.68198132075968442845e-002, -5.62080877920779320434e-001, -7.71689655946347641269e-001, -6.49513790187530637432e-001, -8.18555651902474756820e-002, -2.22118416767659934696e-003, 7.43481503538287874511e-002, -1.15535032465666015478e-001, -8.34888544780717500871e-002, -2.54509854585123762583e-001, -5.96628305803213354608e-001, -4.59166573813525269454e-001, -4.20664591701698287185e-001, -3.47755578094860073879e-001, -5.49174911686842404102e-001, -4.61452458436523604846e-001, -5.41184372642374011964e-002, -1.05013927868325848691e-001, -6.59489457187793642889e-002, -2.89413491161466474022e-001, -7.64639978205205184114e-002, -2.89016652022525466492e-001, 4.12606132915329867905e-003, 1.40697070606511848156e-001, -8.20244656168333113877e-002, -1.19346414862315494676e-001, -7.09676775249261093670e-002, -3.97361751686716654919e-002, -3.49381458960889734744e-001, -2.49761321095352373245e-001, -2.93302012898807917818e-001, -2.95269203413658143376e-001, -2.18839140997567960234e-001, -2.74988729050343660987e-001, -3.21168924942335856643e-002, 1.27681577468531898267e-001, 1.20610848464119527201e-001, -6.78567194366913040149e-002, -2.59635490790082135160e-001, -1.41461661180293185591e-001, -2.62363823011036778610e-001, -5.36489827646077985235e-002, -1.85755626036723686667e-001, 2.60877461161121773636e-002, 1.39133938032754700398e-001, -2.11315422722392259880e-001, -2.26896714378795993916e-001, -2.64047923159534903004e-001, -2.20061366765599147888e-002, -5.09345543243898579711e-001, -3.06206715814072438775e-001, -2.51729760173863947870e-001, -1.77706514788389724480e-001, -5.02361064194855808096e-002, -1.19623630497496608038e-001, -2.17349407651437342981e-001, 5.93832261718071560685e-003, -7.98727564627473435310e-002, -5.22983630696496781809e-001, -4.64364239633415554209e-001, 7.60707169279852858657e-003, -1.78858694711518967368e-001, -1.37830672143171489852e-001, -5.87751184090256999226e-003, 9.87665111012519802980e-002, 5.12398282118151304765e-001, 7.47938033978941541058e-001, -1.08851023878679939449e-001, 1.16612872853328261580e-001, -1.28871607974054225298e-001, -9.89561913378448065881e-002, 2.21849915016059329176e-001, 2.29142995961217538214e-001, 6.14648697284703504629e-001, 5.63843748209402861882e-001, 4.15059675545834949606e-001, 6.54171350512523230858e-002, -1.95869229755704227225e-001, -3.13956355350778315572e-001, 7.11394378950208072787e-002, 1.95958104787827963600e-001, 3.78585627233121280177e-001, 1.65368210930501385869e-001, -1.07762691571060192919e-001, 1.41829804094620703925e-001, -2.78978225795710410573e-001, -3.88934699320971299930e-001, -3.41825776174471684943e-001, 6.69263887959458236843e-001, 6.30545856152776251768e-001, 5.81466848705725625202e-001, -4.29682555848049207992e-001, -1.04187199150615125709e-001, -1.41257628535498030997e-001, -1.73692459225574552528e-001, -3.75551391836825454451e-001, -2.46886049302537935457e-001, 4.72987185989961700372e-001, 3.18458049413529564742e-001, 6.07616940523479365233e-001, 4.60159973292133608891e-002, 1.86285557181781663560e-001, -1.24810375118448280141e-001, -5.47610345437048673389e-001, -4.11935796037447399254e-001, -1.80997630407739279468e-001, 5.37971770838255869407e-001, 1.46859490985125712426e-001, 2.93697964179452875033e-001, 4.64024178467882381094e-002, -2.89290861159620327214e-001, -1.08261319724996349367e-001, 2.36223785621396176193e-001, 2.16309587733495761741e-001, -4.47716097547050273509e-001, 1.92556555146140589985e-001, 2.82014019305707408503e-001, 3.61410023428465732032e-001, 4.06857544567826578952e-002, 8.47528656011357073297e-002, 4.96751729695289814814e-002, 3.23573003221754029735e-001, 1.83843991846970866710e-001, 1.92595711666075697366e-001, 1.97951967162474984363e-001, 3.59781063222284924752e-001, 3.64992331333370334523e-001, -1.06662080852593446623e-001, 2.69511016470084352470e-001, 5.11629579439020973353e-002, -4.31056629024982249088e-002, -1.05542865847198269469e-001, 6.04175357496339535124e-002, 2.62602717185640432973e-001, 2.67645374983366102217e-001, 4.33307319922989098160e-001, 4.29391444851636772118e-001, 2.55375532058391863099e-001, 1.32546295129596619633e-001, 9.35276146829180574094e-003, -1.09934888813622039239e-001, 5.90192049753742453699e-002, 4.35440313326228914392e-002, 1.48413173268107351221e-001, -5.22652290363472341039e-003, 2.62562456814938866012e-002, 1.53524388987971133202e-001, -7.58281674034397973339e-002, -5.13796117504475957638e-001, -4.09413089793360052138e-001, -4.40369235145922577335e-001, 2.19883976281433718425e-001, 2.50223798224311733129e-001, 3.26495290377319502539e-001, 5.70383305080581631819e-003, 2.78194139427744624449e-001, 3.18605116889023876059e-001, 3.92956755652009090407e-002, 1.95841416407252971732e-001, -2.70471065015500167217e-001, 9.99129769297700670583e-002, -9.57777151891622963165e-002, 2.80899244961672733822e-001, -9.82981222705069657142e-002, 1.76798353610596245544e-002, 1.96840923021784575120e-001, 1.20876040211620766618e-001, -1.84657722881115787805e-001, -4.67207312753743941869e-001, 1.66324328461999321194e-001, 1.84313895526724863538e-001, 2.77769646049397522791e-001, 2.17319005726103992027e-001, 2.44023177785577638499e-001, 1.07087841616342147044e-001, -1.14596418487024301336e-001, -1.00195577752147629846e-001, -2.21548127520035074978e-002, 4.87231783676191687604e-001, 5.02317696234818811263e-001, 4.36057227602771990682e-001, -2.44520022990104904381e-002, 6.76706388220749688323e-002, 1.10754186263103279741e-001, 4.67291063044843815732e-002, -2.46458741534707453935e-001, -3.64399292558163154232e-002, 3.75920525838433050581e-001, 3.36815311754476709449e-001, 1.99063096510182835353e-001, 2.51431855940811244121e-001, 2.32760173281332860551e-001, 3.68279165075638514892e-001, -3.04295404945265413055e-001, -9.21148844263429550372e-002, -4.46820784163584339144e-001, 2.04128849511529403271e-001, 2.77065950966371543629e-001, 3.11691629478721310420e-001, 4.70426036133691327645e-001, 5.33870539401079424735e-001, 5.32766936860974205104e-001, 6.25059930694654292127e-002, -9.88259324033257113840e-002, -2.22073461801515520397e-001, 2.60232731840594755379e-001, 1.71775980213630441451e-001, 2.05582332739143697209e-001, 1.44737551289375709906e-001, 2.17767260672681900457e-001, 1.67627194748799474011e-001, 3.42649259240270287474e-001, 3.32037875075895522192e-002, 2.20726443244424780366e-001, 8.31243429019613011555e-002, 1.16172691904880540092e-001, -3.20138923330907446130e-002, 2.72436719495016299586e-001, 4.59442694793766370776e-001, 2.72833020002317794273e-001, 1.01895808484174107966e-001, -1.03036015432218380772e-001, -1.82982053653234832957e-001, 3.72282918375090032814e-001, 5.04896262509446747124e-001, 1.55374028404025726902e-001, 2.57043483133780448213e-001, 1.90521978743311226623e-001, 1.00507497380257895814e-001, -1.32185696790941026313e-001, -7.41129567339088024536e-002, 2.42387586244755148801e-001, 1.46958023428361755913e-001, 2.61396028669488682261e-002, 2.47633396631338376093e-001, 3.61987065962355233917e-002, 2.22840469063673274341e-001, 2.62763173000395977574e-001, 2.52062572498120029962e-001, 1.10179669448273676036e-001, 1.47710953012752388425e-001, 5.42339459182857724917e-002, 2.51357864598570346359e-001, 7.61558706409361935163e-002, 4.18341548396177279057e-002, 3.71722736043443746645e-001, 1.05956998414372033368e-001, 1.77267110177636827428e-001, 2.58322446133630923004e-001, 1.39559067064656955326e-001, 2.59629902874660922762e-001, 1.83662725504185164738e-001, 2.72728171885243453332e-001, 3.20873458199858963003e-001, 2.14428616675220007348e-001, 3.19896874940502728979e-001, 3.90830371539654386481e-001, 1.49529510129903203675e-001, 3.43875415021748953581e-001, 3.27628412078740993696e-001, 8.52324838297527503927e-002, 2.90772143089325196819e-001, 7.37260735054179466852e-002, 3.74389683807125284165e-001, 2.68569709384316290812e-001, -8.03316505871681380002e-002, -3.46880176962428510290e-001, -7.12485013260533567303e-002, 2.34504947738755159525e-001, 2.49722318252732111699e-001, 2.54525950435457948284e-001, 1.83169723728980826660e-001, 1.55476897763569099631e-001, 4.56129488388889170469e-001, 1.23169427746379345212e-001, -8.88830926477771621208e-002, -5.98752167120846709447e-002, 3.00240876203504911124e-002, 2.10505408925387264840e-002, -3.57775113876641973065e-002, -2.93020379520968071718e-002, 9.55715956463849269920e-002, -9.48752149584351223144e-002, -2.77245891528347318533e-002, -3.63331163868134410233e-001, 7.74287699155590952715e-002, 5.60829020672909406287e-001, 3.29632479223561369874e-001, 2.66749991714480716443e-001, -1.41162707924298191919e-001, -8.49180194817827638243e-002, 3.91808190129737908547e-003, 2.55986066804774703431e-001, 2.14767254133709034614e-001, -3.58875850574887217403e-002, 1.49990623496609937204e-001, 1.89711485680056884950e-001, 1.87250689371594558619e-001, -6.28371250006844461744e-002, 2.63522469133396167879e-003, -8.66902688529761350500e-002, -8.73889092546459855804e-002, -5.34698357127684226892e-003, 1.25836795825463004794e-001, 1.84797808343373781703e-001, 4.46434704731970888325e-001, -3.86976027091907801014e-002, -3.28051352566804191313e-002, -1.32758223147352600463e-002, 3.29984860863435258693e-001, 3.82458098281622971282e-001, 1.78250393665368239704e-001, 1.90403910436183959609e-001, 2.48499084674537074058e-001, 1.79916377522449266735e-001, 6.94376753235293325828e-002, 1.83449148567504632945e-001, 5.76276693660179722967e-002, 1.80313452550341452030e-001, 5.01469256802412610696e-002, -2.14074854291944394191e-001, 4.10236494950916519286e-001, 6.89702282492620000198e-001, 3.75744324152208319934e-001, 5.31667867271124361395e-001, 6.09028147774262687553e-002, -1.17947069073367105663e-001, -1.38794445113069764286e-001, 2.22791424324273235058e-001, 3.94208012038682720224e-001, 5.39691294535935700560e-002, 4.52071923996984259553e-001, 4.05133477930573915327e-001, 4.72769524635683446867e-001, -8.16162346691297890811e-002, 8.09399947605697195341e-002, -7.78843171275129392273e-002, -1.55657676732464861358e-001, -4.20236118619964627019e-002, -1.37505862037113291141e-001, 2.37680720667119871337e-001, 3.24993688969380023490e-001, 2.56469006236291263701e-001, -2.23051812074448269074e-001, -9.97583983132187962495e-002, -1.84648909020874635312e-001, -1.02451478678497701069e-001, 1.46993548274563512468e-001, 9.52879711923507524696e-003, 3.18503843072408920900e-001, 4.42632317559022492315e-001, 5.39872152003711192059e-001, 3.45934160260558787314e-001, 6.03460421277862563150e-002, 2.52769850729813172485e-001, -1.63963908508841099687e-001, 5.62414047286274657034e-002, -1.58415569139937095766e-001, 2.26106444974453119068e-001, 2.57081075533661718158e-001, 2.38466166223025632931e-001, 8.71838424819942336974e-002, 2.76482898147537237143e-001, 1.42410737972685996766e-001, 2.08196773997269164724e-002, 2.07738995829645015090e-002, 2.32138488415800314790e-001, 1.12845131688843983153e-001, 4.48543073353370624901e-001, 2.30540874942995355212e-001, 7.63973034869337153108e-002, -4.12411063965400781495e-002, 3.03375854114140783985e-003, 1.34931775941262099838e-001, 5.98803750684208102584e-001, 4.55031056336655304051e-001, 1.85958081852812373569e-001, 2.77063291088596452827e-001, 2.47107311221414993607e-001, 7.34364446369220741362e-002, -1.55446486655204108018e-001, -4.29974339111515065082e-003, 9.49673457536299031601e-002, -2.02719922747242875527e-002, 1.32412760813677143901e-001, 2.88372091605246017032e-001, 4.91359050712097608637e-002, 1.34481787884821596402e-001, -1.87905713197935697600e-001, -5.04103588553584808230e-002, -9.76778772358913860430e-002, 4.95476337196959493170e-002, 2.86943205545473367657e-001, 2.61261854230320833548e-001, -1.43262390833194974693e-001, 4.88905419889733433569e-002, -2.40748830782417710950e-001, -2.25173977336026120977e-001, -2.03182099415073795989e-005, -1.25958337421028521153e-001, 1.66061432377769296886e-001, 7.08561873970141864465e-002, 1.22014038814909506203e-001, -9.76912502562649193161e-002, -7.05150980008042577163e-002, 2.09537077445409919418e-001, -1.41630620042893118349e-001, -2.69066226591122784756e-003, -2.07745872377593510105e-001, 5.93186254067398555101e-001, 2.38333967866645568545e-001, 3.92832014557180142500e-001, 1.31461359163692032004e-001, 1.50769082019132916184e-001, 1.33113229308880476331e-001, -2.99994223434409235107e-001, -3.73804525793264064149e-001, -3.96696397813198486926e-001, 4.54229406267024737875e-001, 3.92227040076439492644e-001, -1.26816268681215621461e-001, 1.66561106439840067583e-001, 2.74247277866631111731e-001, 1.20703781209819269171e-001, 2.27606374684747286841e-001, 1.50856535771391880862e-001, 4.23332109048535021323e-001, -1.07747988159125531599e-002, 1.51644699187046427813e-001, -1.04897655767137665261e-001, -1.69467974403284288298e-001, 8.42085008532093004519e-002, 1.57530013493881772269e-002, 3.54240632155200907416e-001, 1.58701225107310606166e-001, 2.12032005988812222164e-001, 1.03338238570971033270e-001, -1.67200799188319121358e-002, 3.31521719655515634262e-002, 3.18438677491450355950e-002, 2.05195142657655177354e-001, -1.56726006598532502379e-002, 1.06566311903029918573e-002, 9.26629482053027281330e-002, 6.12153747700668326992e-002, -6.17523586617835101853e-002, -7.94434072183686224022e-002, -4.86429882619746206673e-002, 2.05533431697984297903e-001, 1.65183716216357995288e-001, 3.74095279585488910135e-002, -1.19931298765050597943e-001, -1.70388165363390721441e-002, 4.96269992513020813396e-002, -1.91564948008662278012e-001, -1.33568218516063208501e-001, -1.48035089829877397616e-001, 2.20528251963891808174e-001, 1.44682106969938190089e-001, 1.24862135772301596770e-001, 3.84964970821493127073e-002, 8.31769824956038461572e-002, 1.01924645615550160671e-001, -2.47152904362030467755e-001, -1.75002692359709749459e-001, -1.51354521114067636089e-001, 2.30172662310951486875e-001, 4.86776716915309562439e-002, 1.76149840344847624651e-001, 6.40428210661170803364e-003, 1.03818818348837840770e-001, -3.51714957684415227557e-002, 1.68642840562211210331e-001, 1.20488549541392944708e-001, -8.12371932985334471722e-002, 1.31000515886881153255e-002, 8.97836791916001575320e-002, 1.14583556394986241234e-001, 1.88415245444351786563e-001, 1.00814243776872161651e-001, 1.93608180168186976011e-002, 2.09259093021820274938e-001, 1.74827835393600132530e-002, 1.75483262172809573176e-001, -5.09750957989995277797e-003, 4.73650739838064396836e-002, 9.13067527000032130857e-002, 2.82779618542220480271e-002, 1.04215429322356042952e-001, 1.12321613914051869620e-002, -1.91545984353187204174e-001, -4.37697967909381757678e-002, 1.97025241725511321422e-002, -2.65104574266300900554e-002, 2.64314278138723796063e-002, 7.15449202831077157860e-002, 3.56259152467889417260e-001, 2.27693037009118193215e-001, 2.72714243931746536109e-001, -6.44329256676273165461e-002, -1.58380732145117164578e-001, 5.43123135061695794246e-002, -1.69514821351644529024e-002, 2.85729205574860208039e-002, -1.10598735566601685809e-001, 3.77380884946308808869e-002, 1.51026592630853495614e-001, -3.52817169702636171391e-002, -3.29319740202180355482e-001, -2.40700425858480948627e-001, -1.65432753010762906287e-001, -8.46966925229892114713e-002, 1.01096128551229236248e-001, 1.12975494585333402497e-001, 1.56619006733965310252e-001, 6.52637936709799526547e-002, 8.94415122725264050141e-002, -1.54957179884303818118e-002, -3.42279746681259308683e-002, -1.42802387172461131559e-001, -1.32999705472922974403e-001, -1.90442802744078126809e-001, -1.50386999111607799762e-001, -1.88801508666584447194e-002, 1.06846069962152526167e-001, 1.37858717882171799562e-001, -7.10523343787581185965e-003, -9.55774244090730057399e-002, -1.41444978311863339693e-001, -6.83895716556914140538e-002, -2.34232628419934023334e-002, 1.11698921120137462104e-001, 1.96610453283440622663e-001, 2.61861045171529582820e-001, 1.02696620001259689148e-001, -5.18238302482143531336e-002, 6.50985860684953968058e-003, 6.97745719025721911066e-002, 1.52237706123716537432e-001, -1.18607287691666410390e-002, 1.88570983475412179420e-001, 1.44823601036863369718e-001, 5.51747078181030747857e-002, 9.61276382197747553127e-002, -1.05224009406384363952e-002, -1.26082941301462997385e-001, -1.25536984576642224321e-001, -4.75022001357027212620e-002, 1.88628395719074526404e-001, 1.08983895592302773569e-001, 1.15602568976192865424e-001, 4.86504149990252335312e-002, 2.98463244816760953082e-002, -8.43247225058081778526e-002, -8.44128071505228227966e-002, -1.44344138474254479743e-001, 8.00461763719337582312e-002, -1.10444204943226806370e-001, 7.40632672556566784561e-002, 1.27249014831017387417e-001, 3.51422791628331676606e-001, 2.16314566759978427202e-001, -1.17409349623643549654e-001, -1.82493123480190200247e-002, -7.51134420529257496035e-002, -8.73867527805532035012e-002, -5.34171398470127123392e-002, -1.34927925560594297316e-001, -1.10961788749874348814e-002, 1.40409230822040764775e-001, 1.83904376790813478548e-001, 1.27248141750081700252e-001, 4.08385918137893419444e-002, 1.83786105742758221204e-001, 8.99239304833694269581e-002, 8.44230943700938069041e-002, -1.93595630837754550946e-001, 7.50353178503280898726e-002, 1.51983885834137938398e-001, 1.43638945667005163420e-001, -7.52020682979873400509e-002, -1.25583965840039279982e-001, -1.16142513518192630473e-001, -1.01032460304046126098e-002, 3.08655149805171606647e-002, 5.01342305086427894589e-002, 1.29353342246969732487e-001, 4.90888761687900201935e-002, 9.12610072267369260013e-002, -4.26986739740153539713e-002, -1.06880438122540888379e-001, 4.02011017477505762374e-003, -2.75467973178743826684e-003, -1.05038848777402674117e-001, 1.66844524047261522082e-001, 9.03131085828020874207e-002, 1.45731770364103591087e-001, 3.95297778089766446707e-002, 5.07862716686920123710e-002, -1.15113287095826813400e-001, 1.15850121134718486715e-001, 4.88544646104314694846e-002, 1.54260196784163111650e-001, 2.35775447366864537857e-002, 2.91585912206612264674e-002, 2.80404730786048328461e-001, 8.03365838122479664074e-002, 2.90538893203948107857e-002, 1.04472147535257006701e-001, 1.98733158823706686225e-002, 1.08537500685624385688e-001, 1.09472886574433783680e-001, 1.42362293077598883045e-002, 7.04348368074300124064e-002, 1.50944896824063951035e-001, 3.10331774796194781452e-001, 1.61449239019169132892e-001, -1.98598260643838876727e-002, 5.96172760208040705687e-002, 6.16413235318029606447e-002, -1.44517683151397402508e-001, 1.03253539847642489269e-001, 3.98705136166804252618e-002, 2.09284737389740682634e-001, 1.11602206257421746050e-001, -9.97001398981016417888e-003, 6.98898760378884459366e-002, 1.13599164508307051702e-001, 5.39242900157904520020e-002, 1.92022181033897260116e-001, 1.76333329993000637037e-001, -5.17361304646152680986e-002, 9.40708584237196637767e-002, 2.91675031792203165448e-001, 1.16766125377308876976e-001, -4.85116693901883125339e-002, 1.11331598055694119820e-001, -4.75296838077676198075e-002, 2.02690527375972567858e-002, 7.62824154783462993201e-002, 6.68064655151547892586e-002, 3.51726548660258320211e-002, -6.65235097807098385569e-002, 8.38012253858302913478e-002, -1.47109773275359012601e-001, -9.88496095944472463746e-002, 8.02635367719389120067e-002, 1.34019938853305847770e-001, 6.38210325399129196899e-002, -4.03891994827124678480e-002, 1.14220280299439688743e-001, 6.49375625608317186277e-002, 1.25172524484285889457e-002, 1.58600096616001197403e-002, 6.92215385336423100204e-002, -7.21450517439151256527e-002, -1.10160529193291695238e-001, 8.41571015797808741343e-002, 1.11951446921891989428e-001, 1.73695954033412591766e-001, 6.02382307313318668407e-002, -6.90066730725237692523e-002, -2.05469756590598816304e-002, 1.88321124463937047966e-002, 6.95821280273381248538e-002, -4.50433875825769804158e-003, -1.55141880014464106363e-001, 2.06624017918629228341e-002, 1.42474975381485548243e-002, 1.35210019618161259025e-001, 1.90819018702603093729e-001, 1.00781846412129477697e-001, -9.28615160724496485622e-002, -1.38422054203909527387e-002, 6.76486674763234624441e-002, -7.09081954368068340111e-002, 9.49454840843955844010e-002, 8.68453077085958313752e-002, 5.41991876980715131529e-002, -1.29532127701508320561e-001, -1.28024831053416776605e-001, 1.37517370029999530523e-001, 1.27340363229819369950e-001, -1.23876819135246684506e-002, 7.21996407163198739010e-002, -1.04355305669639455632e-003, -9.71739107226084891655e-002, -1.62600820064269964427e-002, -1.14072765315579513490e-001, 2.17324003545414423666e-001, 4.95426606047903173025e-002, 1.39337615444686396815e-001, 1.44099362266452729608e-001, 1.40325764247741097135e-001, 1.16250456980416541630e-001, 1.83126072455883692758e-001, 4.89574055454758544359e-002, -5.47194923565321039716e-002, -5.32983918954534688361e-002, 3.32869534183983864506e-002, 1.03188852049785256826e-001, 1.78450176222559403483e-001, 1.15251924267218627818e-001, -8.75363749323676415548e-002, -7.69621657759438637658e-002, -5.90909531004474158911e-002, -5.32626979381512696832e-002, 9.60404947804571057501e-002, 7.09408068117268059138e-002, 1.69974590342926668018e-001, 1.19099517449499869848e-001, 9.77908749624580575510e-002, 3.25475338486124643467e-001, 9.00841164622231266312e-002, 1.48983340077355586040e-001, -1.79969590643837912269e-001, -5.59558061188764749305e-002, -5.37994160168090776453e-002, 1.12510700133082244823e-001, -1.01039332274033841555e-003, 7.73144822053380004201e-002, 1.10844697328571328843e-001, 4.44007781079271204860e-002, 2.26847891537245271998e-001, -1.26913015600988887677e-001, -3.57945717575274546807e-002, 6.57575896268335069461e-002, 5.31018578870528917824e-002, 6.37580947476930337547e-002, 1.38899096500224583650e-001, 7.03315065767650265949e-002, 7.88269846942707269610e-002, -1.61425735515862409965e-003, -6.01392154987022281576e-002, 9.78504439444803086889e-002, 3.09985168497447782787e-002, -2.99210152352998616510e-002, 1.34546138019628586102e-001, -8.75420409225400111830e-003, 4.43922626131897646307e-002, 7.74527703450182541944e-002, 2.20906937526719443499e-001, -1.37978524892289095005e-001, -1.47526624741290163234e-001, -1.37034751341891219978e-001, 1.02962614200927088381e-001, -3.81373073934707313218e-003, 1.57317096964982916507e-001, 3.86227894192513118710e-002, 1.69057161117120227645e-002, 1.70434877124429146056e-001, 8.38280240176468016688e-002, -4.86306620916864690285e-003, 1.37184379410513368480e-001, 4.03603836705021187803e-002, -5.30851455763815052724e-002, -1.59472654687956794106e-001, -1.55907281192861832397e-002, 8.97173132032424817950e-003, 1.49140989222301512118e-001, -4.50167393131654658411e-002, -1.80486515820926785025e-002, -3.68442625517404129254e-002, 1.83687901834442869620e-002, -5.20509786672105137506e-002, 9.35426924992254632540e-002, 1.73073805433009791921e-001, 9.66044122124297133247e-002, 2.95978136333527597213e-002, 5.76260313475138175043e-002, -2.78012559790788565950e-002, 2.59538167686468868034e-001, 8.74086826342184153305e-002, -1.37074462253251854599e-002, 9.12932925908131603920e-002, 8.68682654220722522131e-002, -1.39936221936798360632e-001, -5.93949444812508359215e-002, 1.06553222226551530527e-001, 1.45737834934352522565e-001, 7.48916101408074741386e-002, 2.01307930807795104622e-001, -7.90217992706889957311e-003, 7.33255611650843602822e-002, -1.11682425256525830193e-001, -2.21978813045107470359e-001, -1.11470827557189677837e-001, 4.41110958633383343219e-002, 1.10187790067428730001e-002, -3.63617923134006357233e-002, -3.77975770902221550052e-002, 1.02466288195154922591e-001, 1.10206114509876385021e-001, -5.81896906345573654978e-003, -1.91453016824010113783e-001, 6.22020946536882002320e-002, 1.53156389150323091197e-001, -1.26453379025970001626e-002, -3.98511245430180349736e-002, 1.47354536493723431434e-001, 1.20380217783305848434e-001, 6.26939397103523227139e-002, -1.23764392023470906623e-001, -1.63075988988047232420e-001, -1.44157487627745745096e-001, -6.53262012732031827067e-002, -9.49366277619662357612e-002, -1.64926087973740836956e-001, 2.57486245712560235521e-001, 7.23056955780875532103e-002, 4.78693482937827957668e-002, -3.71341354543591878334e-002, -5.18435893912110520865e-002, -9.95518960358124926913e-002, -8.93265383385330596910e-002, 1.15850642770151564254e-002, -1.08837822349824239754e-001, 1.51940460175372049623e-001, -5.31578917790281445938e-003, 1.25393444591348122118e-003, -1.65125761050545605269e-001, -3.85328346477090480371e-002, -2.37049626746202168892e-001, 2.12516470456518037635e-002, -1.93873298622153411586e-001, 3.41958203079765418742e-002, 1.77447391223769290747e-001, -4.44662303339843287264e-002, 8.76954067403922232771e-002, -1.80227862741298539007e-001, -1.35095316719849506404e-001, -2.74521008728558557621e-001, -1.74378056892823041224e-001, -3.65491871969314888191e-002, -1.21843201118224872537e-002, -7.42701620716600813266e-002, 8.63068711751030781532e-002, -8.45542449287663561153e-002, -2.26049917196801175567e-001, -2.83929268449472249625e-001, -1.57903658744298097671e-001, -1.55904536135372140393e-001, -2.12052786380857782866e-001, -2.86401807724668243382e-002, -7.40413965636119442149e-002, 5.86876681751398246445e-002, 4.41461098466130810736e-002, -3.92924250680655104406e-002, -2.19370118062121255420e-001, -1.91708436588306108117e-001, -1.56913231842295747276e-001, -1.99799035703932120756e-001, 6.55986963117899113396e-002, -2.53966581467392170379e-002, 6.48366475725121182982e-002, 1.81429875472607665676e-001, -1.87382277227745031034e-001, -4.58200100080377245582e-002, -2.72483664405546888165e-001, -2.10265580648167083044e-002, -3.15105018040962511772e-002, 2.37024219718418756309e-002, 1.03541880828086890060e-002, 2.24294342365048068877e-002, 5.57030467138269272387e-002, -2.48267135516793718830e-001, -2.62343055045217377064e-001, -9.38137754299665643787e-002, -1.10594425058771456127e-001, -1.10197209799238471373e-001, -2.03357446346112802349e-001, 7.13599742133860792670e-002, 8.62808262999616576439e-002, 1.54851690293711319324e-001, -2.92255605109504490446e-001, -7.75463563946565959117e-002, -2.25442246300335907838e-001, -5.98539907170572774153e-002, 5.74616337159167753224e-002, -1.70737465924665182682e-001, -5.89100436125736398596e-002, -1.78244157607685867195e-002, -1.76259270604792017689e-001, -1.50162700185742931103e-001, -2.30466413476837272967e-001, -2.00347275267219154804e-001, -9.29175823227674918536e-002, 1.21666688772465600432e-001, -2.01715449296196933093e-002, 6.04892350180835161599e-002, 8.03050174223065849066e-002, 1.05414621543734057796e-001, -1.80521189530510495214e-001, -1.52052019915901476255e-001, -1.04754917061971805636e-001, -7.61861604136190254805e-004, -7.36696427774292117441e-002, -4.94422489932006617441e-002, 1.37233217844873800484e-001, 1.86563074384260757510e-001, 1.45433077369866974732e-002, -1.23979457559798708632e-001, -2.52181343341584207618e-001, -2.68107846912583991372e-001, -1.11051096826946509716e-002, 2.33702766825312040211e-002, -1.12634345387233672509e-001, -2.54397421146086606669e-002, 9.85173536304808084019e-002, 1.60604212104255267279e-001, -1.88409369810646376564e-001, -1.19345703449908371874e-001, -1.74722073436631569754e-001, -1.02092056932401462066e-001, 6.53856781142200804702e-002, 5.58769782787264593371e-002, 1.27496334371119346418e-001, -1.16633220811687837726e-001, -1.23384645125604597293e-002, -1.43953403398652896028e-001, -2.52181993703409768059e-001, -5.51357990658431704190e-002, 1.13281694450103664895e-001, 6.48483622510138968398e-002, -3.87083094382750167450e-002, -3.70905634604372438923e-002, 7.40843215796291032493e-002, -2.10158882942459886156e-002, -1.25890065026415060023e-001, -3.63296134105151116711e-002, -2.30747419267910647278e-001, 1.60890628180089784172e-001, 3.34730793888252543128e-003, -2.70435554227768208679e-002, -8.46350292313679253287e-002, 5.57839032914218616033e-002, 4.76052629618158029690e-002, -2.79139564923563676668e-001, -1.75032355001292216912e-001, -1.85208130715727836701e-001, 7.77800640884752092497e-002, -6.22546666559426198351e-002, 1.82691708584629027012e-002, -4.69450363998854258707e-002, 1.26155293757215569705e-001, 9.59029163939536105632e-002, -1.58395683900192041360e-001, -1.48811194525220125140e-001, -2.37444206517492845121e-001, -1.03867226336569168366e-001, -1.84235535482546140817e-002, 9.16024062931993232617e-002, 4.48078873077676492764e-002, 5.32310485919507761499e-002, 5.19117186761128453221e-003, -1.28719429093160003807e-001, -1.27837425774048468741e-001, -1.38223843205229679487e-001, -3.98119585965998751265e-002, 5.65009502897464779836e-002, -1.89997430590465345157e-002, -9.60266505856152870202e-003, 1.22033136603498348904e-001, 2.30101654448258696739e-002, -2.25964215148895364305e-001, -1.08283436572497004935e-001, -8.32778419792244706255e-002, 8.09627438787804132314e-002, 1.30739492622346492601e-001, -2.13604963724025806449e-002, 3.63287067594739426085e-003, -8.75843386452207356418e-002, -1.24732691683466460214e-002, -2.79189212831759014932e-001, -2.05920112382911857374e-001, -5.64177618655063578545e-002, 1.53691553441387962486e-001, 4.30520994687645236487e-002, 6.05143367681145391557e-002, 8.51114423684468657250e-002, -1.10030567417190264234e-001, 1.42462923464174384680e-001, -2.55594965182133537773e-001, -9.09860309907791799111e-003, -2.17477896833813022504e-001, -2.24556416888593360359e-002, -1.09067987830950684919e-002, -4.33863234023074834100e-002, 7.08447383839305722120e-002, 9.76853682654585803169e-002, -1.45443367986245030571e-002, -1.60877286226534771396e-001, -1.33441559432047524014e-001, 1.96569960351587816327e-002, -1.98075104000018965833e-002, 1.31316770359618334441e-001, -9.80665468823315317204e-002, -1.38445603307693371198e-001, 1.18604847359911003135e-001, 6.93695250481660696806e-002, -2.00335709481592988412e-001, -3.05757923285856214601e-001, -2.71169185409388502350e-001, -5.81303976016579043717e-003, 3.85742435834035557463e-002, 7.61694928415147104461e-002, 3.18674030148576592492e-002, -7.60964372160638224951e-002, -5.11448449394008713975e-002, -3.34587451440993055574e-001, -3.23925640193464758898e-001, -2.94550009921228095333e-001, -7.02830773769951358543e-003, -5.33059129880160340043e-002, 9.04400121174170207317e-002, -9.98294230674205695930e-002, 6.27239890690103191195e-002, -5.74525353090590065741e-002, -2.17370772486702501514e-001, -2.20606867035522596909e-001, -2.29076546037980971482e-001, -1.50173710799182985598e-001, -8.34109103435025922568e-002, -6.77007109256207856296e-003, -1.10109475960306651965e-001, 1.26185706842966760544e-001, 1.04745280915771482588e-001, -1.10289274612036608536e-001, -1.85936224524602122798e-001, -1.09442713695370535953e-001, -8.66172563081133578544e-002, -5.15156891520207396717e-002, -9.59416793404756912400e-003, -5.73861562690330534453e-002, -2.28748720830651355862e-002, -6.75119709121899721355e-003, -1.22212413412225773257e-001, -2.30384810085740715513e-001, -7.98501688365941680869e-002, -1.13940494157057453650e-001, -5.39875963339045278344e-002, -1.08382937796645290041e-001, -2.69440461000741010578e-002, 4.70553598808548453891e-002, 5.47908160259934651909e-003, -1.81862427948756899543e-001, -2.26115108293577282694e-001, -3.50138785079533554345e-001, -6.19082451354103155405e-002, 4.16716427000527675495e-002, -4.62141585139201338528e-002, -9.13641778330282483545e-002, 4.96278430834690906237e-002, 9.90105419940598592554e-003, -2.41479627849775752013e-001, -2.02951415701846160644e-001, -2.99555606469690038907e-001, -3.35113996898359287058e-002, -7.82875216655404410071e-002, 2.23010597830824545962e-002, 1.03376505830187162549e-001, 2.80223728606207728165e-002, 6.65907905276713479870e-002, -2.77962640389609272340e-001, -1.23277585985459819939e-001, -1.09263786593252740231e-001, 5.71772402119207698301e-002, 5.19406332174021864723e-002, 1.89880180511344219541e-002, 1.01325005155653027900e-001, 8.70038547582016874582e-002, 1.01420052988440909103e-001, -2.78047715360549341224e-001, -2.13018435415902762653e-001, -2.04913549755275758990e-001, -4.90656985286492403064e-002, -1.52153252268827227089e-001, -1.10707866291128130543e-002, 2.08906914995997949891e-002, 6.68860824427886836718e-003, 1.07622684806151405756e-001, -2.84267958898986428107e-001, -2.22014235587214114886e-001, -1.48809392306811172357e-001, -3.40461319247367805163e-002, -2.54957033276967774682e-002, 9.34015606693067435007e-002, 1.60068857870002079213e-001, 8.53446977443849397194e-002, 3.08039982864380910976e-002, -5.54132731230590272475e-002, -1.94704786936399754094e-001, -1.64264330208321818194e-001, -3.19718613374103191593e-002, -6.28602392159791079074e-002, 3.71380335203241179753e-002, 7.06078062193369049293e-002, 7.74880951424044839282e-002, 1.04422780361617562050e-001, -1.91182672135100178989e-001, -3.31177520836820449279e-001, -1.69349426207534958788e-001, 8.85657931124874120421e-002, 4.11390391816437023254e-002, -7.15707920792691687506e-002, 1.64315080445969402545e-001, -8.04467016704681625594e-002, 9.78070532201928410920e-002, -3.66141587052672301539e-001, -9.11402442060865458640e-002, -1.98984668519702784240e-001, -5.05934972532577076354e-002, 3.49704884585196884572e-002, 1.50094439337109697430e-001, 9.23283226572263124310e-003, 1.25772594249133146116e-001, 7.01051218957881444593e-002, -2.78746623264237936013e-001, -1.36623497601355670117e-001, -1.54371862202072801518e-001, -7.62972061127715518725e-003, -1.09049022835562600675e-001, 6.14100550086164043151e-002, 1.16458800716758445470e-001, -5.95060814556762282534e-002, 1.14190894603510395555e-001, -1.34947791276323142418e-001, -1.51355445205689276289e-001, -9.48767091503604914626e-002, 1.23894563518267122881e-001, -5.67707127191866556259e-002, 5.18170393127533046584e-002, -3.48389673406712813142e-002, -5.34477505229327617964e-002, -2.98448942688884812091e-002, -1.46013194326015255387e-001, -3.09864054202909466884e-001, -1.31369992936830493058e-001, 3.06122848317910787458e-003, 1.08206495628981134299e-002, 2.59989436291265495205e-003, -1.02340330572005630549e-001, -6.88054033124156222412e-002, 7.52088967192107854531e-002, -2.18969404734606909457e-002, -1.44376806257201895090e-001, -2.98976046390783345430e-001, 7.19974799412189808701e-002, -4.32900608140420126158e-002, 1.39065792643869257095e-001, -2.38828554803383399929e-002, 1.31672870068409181982e-002, -5.62143373652167557819e-002, -3.28137390352055247078e-001, -1.56434925776546857046e-001, -3.51048322276791446850e-001, -1.32154396804734036719e-001, 1.31167085506348566476e-002, 1.82191033639021476853e-001, 6.50786285121104229878e-002, -8.84361930135734441993e-002, -7.15624377581640103152e-002, -2.11093372953399666114e-001, -8.93847714634166123915e-002, -2.71711154418674029343e-002, 2.06569162504936898461e-001, 9.05778824587857023243e-002, 1.30146293961179798648e-001, -2.40719642064719657748e-001, -2.99047075174582177581e-001, -1.63200917031762648968e-001, -1.23629688993705549871e-001, -9.99724475232982578987e-002, -4.98601887901718304752e-002, 3.79868781967768361085e-003, 1.17509993505560808580e-001, 7.95804598758232256683e-002, -9.69016717005315858513e-002, 4.10388672530790019066e-002, -6.63344249021563803215e-002, 1.13401044485080763208e-002, -1.00740756809769613223e-001, -6.90678780741264264353e-002, 2.15781684690014130545e-001, 1.68273187057357609397e-001, 2.21014249927192846235e-001, -8.67272357267393351199e-002, 9.57210516084585211205e-002, -1.15892948496806161285e-001, -2.05843809177445741243e-002, -5.67845978953724489502e-002, -7.98488818726459798070e-002, -1.54702077972208498075e-002, -5.80469310048988863804e-003, 1.16648512984597552133e-001, 2.75474087163862617345e-002, 1.07516307168275648820e-001, 5.70439073185503159324e-002, -8.76430272065324283970e-002, 1.14204247309332693194e-001, 1.14456680639363581053e-001, -2.03290751198057602009e-003, -5.93336271400893289218e-002, 5.53010522797815831653e-002, -2.34961975127682722031e-002, -4.44022950481500408570e-002, -3.89963175682023557855e-003, -1.05655360671056908206e-001, -2.21895748121265334873e-001, -1.28757534993678923740e-001, -1.59587739887933968697e-002, 5.85429953422307719491e-002, -2.06386924589846802724e-002, 6.39362786346159145401e-002, 2.49760778141704846769e-004, -3.43045301462678500076e-003, -5.21728642115674989821e-002, -8.99055974202026333963e-003, -2.42765944835549654646e-002, 2.71828874860689587156e-002, 7.73615937670712738861e-002, -1.30602529254820621391e-002, -6.51505493739002183862e-002, 3.85207681517008432293e-002, 9.69048155744341999096e-002, 5.34446221585462843962e-002, -1.05342942452727142411e-001, 1.47891190470951176122e-002, 8.25545490630819889244e-002, 2.08114206911840210479e-001, 1.45773224757049846279e-001, -6.30697128493256931048e-002, 5.34894730368169202261e-002, -1.69287538178882673856e-001, -1.31556112699702687507e-001, 6.02642414675134893698e-002, -1.36240835168972285185e-001, -2.18069391973840565058e-001, -1.31129694639348398644e-001, 4.81495587401064017996e-002, -4.49901062686426725379e-002, 1.17626720359080658151e-001, 1.30725488536346801105e-001, 1.17355693155040616271e-001, -1.07298624546577920508e-002, 5.77541202290540872655e-002, -1.41643583230010611240e-001, -1.65205796541929822441e-001, 9.60369079167233130612e-002, 1.05432502266823283077e-001, -5.84827637266180366815e-002, -3.03105637188428693463e-002, -1.70060311098445327005e-001, -1.06279562723213275022e-001, -2.01610660842054006947e-001, -8.31531183384500716116e-002, 1.54019567855486448626e-002, 4.00511895409012969038e-002, -9.39001497656128947256e-002, 1.04649443755747348361e-002, -1.76978373899156493643e-001, -2.42043643870397395812e-002, -8.47591330789890518016e-002, -1.93046484999635156732e-002, -8.26723686235737199868e-003, -4.07760790540460590914e-003, 1.30875602933522329485e-002, -8.16873800589167364805e-002, -2.74894864595751353686e-002, -6.46087474779233200683e-002, -3.47212222253448360432e-002, -1.16443158545412352167e-002, -1.00139783320689387813e-001, 4.18187861791978737064e-003, -3.26627931163520832114e-002, 5.25779652731067203425e-003, 8.78980319059700920814e-002, 6.75708318995083129233e-002, 7.26806133264492199020e-002, -3.71818939868456543874e-002, -1.47559982929825361797e-001, -2.41204240326762769930e-001, -9.52801871661018290327e-002, -1.12999721503248343191e-001, -4.68427845089437189241e-002, 9.51666113317751333200e-002, -1.06571375549880761890e-001, 1.45968368223870492706e-001, -1.58033465448631782468e-001, -4.08048691218790907098e-002, -1.09666660625472561774e-001, -1.68473155582932881957e-001, -4.16308607403795480351e-002, -1.27216248351575078601e-001, 4.68755002795977412933e-002, 1.74855591813250527133e-001, 2.02876167188328793145e-001, -1.36448141208548923142e-001, -1.24633240547220802696e-001, -1.67083691488176644402e-001, -1.09580534758138253837e-001, -1.02848795747835938807e-001, 6.68043609045055053475e-002, -9.23119389647228741347e-003, 4.70357616614655651976e-002, -1.29023767719041032587e-002, -1.90511484402650255188e-001, -4.45504412446065256592e-002, 1.80309177685480546624e-003, 3.80180491290141170380e-002, -6.17639147733251847594e-002, -2.27297752071385777972e-001, 9.03167615143613544682e-002, 1.08537730636191293021e-001, 4.81211408148903008186e-002, 5.11963053547983271141e-002, 5.11820815916750535002e-002, -1.63121053716069941419e-001, -9.29290028340773871518e-002, -9.61065371227818598943e-002, -3.79467970354878392225e-002, 6.56396154843776474808e-002, 2.41729595321750478920e-002, 1.93772233526094711520e-001, -5.27900334758042502625e-002, -2.91939216773489051970e-001, -1.60278139603220792786e-001, -1.89895142444543335580e-001, -6.64798212251834219622e-002, -2.39943572052372794401e-001, -1.77610802638783898955e-002, 3.51942863195528060638e-002, -8.82494635006657868193e-002, -2.60258743684998496148e-002, -3.73104290570518137837e-002, -2.66964844199617912235e-001, -2.37107295933124628817e-001, -2.58276611864870719870e-001, -3.60213919262798165644e-001, -7.91862665406364157894e-002, 4.89832652327936643455e-002, 1.27368306626015281857e-001, -1.08107076478979546863e-001, -1.55449490951803465100e-001, -2.74674987447316720779e-001, 4.55507055468796495656e-002, 1.14446376291825233085e-001, 8.19249280124165063510e-002, 8.45883282652350604325e-002, -6.25361153078838466479e-002, -3.14418393715915345243e-002, -4.00172702706846905585e-003, -1.09885554684803307679e-001, -1.08687193060749670570e-001, -2.11618463221288737042e-002, -1.56643858093230115003e-001, 1.64276521384369676715e-002, -4.38579013596230183475e-003, 1.26012355676186982648e-003, 4.41686656296747526262e-002, -1.15923177694509826896e-001, -7.78105919792525940748e-002, 4.12984080876554852935e-003, -2.48706170636586954004e-001, -8.67748010767020461209e-002, -1.54171974836520758734e-001, 1.14216071817621833695e-001, 6.72500308912539618289e-002, 1.28839358019516653231e-001, -5.96650562057110256386e-002, 9.02079943992243338258e-002, 2.57761457340744404299e-002, -5.27975861123934214758e-002, -1.74108704979080181063e-001, -2.08227216992388081129e-002, 8.54405433659641555533e-002, 1.26536540330721508640e-001, 3.57153067893797512844e-002, 5.40979534441950737911e-002, 4.14753160171195053851e-002, -3.56264695696761196642e-002, -1.04451032748738414230e-002, -2.12292357407766002497e-001, -2.30058841081170299681e-002, 1.32100642827079756136e-001, 5.01179199350486950792e-002, -1.21278543649122345222e-002, 8.28031959199932443560e-002, 1.01772045821942699884e-001, -1.30792320006952761391e-001, -9.27841086597257919122e-002, -6.71838208394003738588e-002, -2.39342527088164586102e-001, 1.10087851227944413801e-001, 6.65349585883497907091e-002, -1.59082147591300890332e-002, -1.23161254991191234515e-002, 1.69970468929817805637e-002, 5.65612003999982626556e-002, -1.51275022532751907134e-001, 9.11346561771870788959e-002, -1.52943745407743636466e-001, 2.72535810493072933047e-002, 1.06088185288009020923e-001, -1.03271766404485293434e-001, 1.75117847579167235095e-001, 6.03592822959617691936e-002, -2.39583166016093009054e-002, -1.52990147960272243610e-001, -1.71446476042791062788e-001, -6.89331775808613017587e-002, -3.20921893288634851871e-002, 6.79633090972245751393e-002, -8.54080041537946532682e-002, 1.40557452027480295209e-001, -2.39874640225142023164e-002, 1.86551910507529823333e-003, 1.87719949674129901740e-002, -2.10636328196788930045e-002, -1.39827766409341691656e-001, 7.50497998186923972325e-003, -1.06484568838541959757e-001, -2.84804926223757720605e-002, 1.10403236303664026297e-001, 7.04947158853285044122e-002, 5.51087715278731071766e-002, -1.79434777664037925504e-001, -1.30112563474852116485e-001, -1.26451897273354207929e-001, -9.65273601550802051730e-002, -2.56057957363776261817e-002, 6.11768366200606894881e-004, -1.18877597043285321288e-001, -1.92964263815931375001e-002, -1.75223207052564305952e-001, 5.28057089791912348531e-002, -8.11845617171371713994e-002, 1.01783778768167451623e-001, -1.14616183447828548503e-001, 1.91887648926821821616e-002, -3.54015734886253055635e-002, -6.26397491520968852097e-002, -1.31936511631523117893e-001, -6.85782267938292999787e-002, -9.44624607591050685640e-002, -2.07766763581504823599e-002, -1.30997893612934818153e-001, -1.09946354723361103267e-001, -1.82558005535417497422e-002, -1.27468396469784639446e-001, -1.46565950610988177116e-001, -6.85556977280530749352e-002, 6.77623793446457678424e-002, -3.41446049509329038751e-002, -1.41469307689448847709e-001, -1.83064756963016751767e-002, 8.31561790828868746539e-002, 1.04635423173471929503e-002, -1.23914434882053652726e-002, 1.17138568876721332890e-001, 1.58464784044776513250e-001, 9.48833486165044093230e-002, -4.42740541049324032308e-002, -1.72431030066833107517e-001, -1.99263703999733504668e-001, 1.17548954579674250209e-001, 9.14612608211607669428e-002, 3.52807674738564404013e-003, 9.11016754834766961935e-002, -2.36361176798870163684e-002, -7.91631828379042584709e-002, -2.13980786767107106217e-001, -8.71940978649549253143e-002, -1.02186823477804514249e-001, 1.68941502369524959581e-001, 6.52403022003870958212e-002, -3.92374151949370364445e-002, 2.08860377359745205683e-002, -6.86248401899360593870e-002, -3.48119919631864893628e-002, -2.05780164667026524081e-003, -1.80674044556737092848e-002, -7.20046914226211559606e-002, 6.86811882943971219184e-002, 8.78343780861117751080e-002, 2.21678668810328279026e-002, 1.61715766196209066730e-002, -1.24361696640011745729e-001, -6.02520269662835741831e-002, -3.53136286452003123060e-001, -2.44337023007073106395e-001, -2.05166602377744033969e-001, 9.82289303473776465037e-002, 1.62497840804602909637e-002, 5.34021099171892027480e-002, 5.24186020519039272414e-002, -5.36356379724408846577e-002, 7.66237404897370383283e-002, -1.03364447110812357478e-001, -1.99655925987334448291e-001, 9.49760704094194940783e-003, 5.73757865529502461555e-002, -9.05446809401086981361e-003, 6.16874775568109698365e-002, 8.34081786141758541042e-001, 9.39951728394294638846e-001, 6.47094990746879816790e-001, -4.78749328336335489009e-001, -1.14793194512481613878e-001, -1.00446182937451403139e-001, 3.93472573405146908154e-001, 4.61259879791648327862e-002, -1.57713755199809679830e-001, 2.73619774232515433621e-001, 3.87826524892877777528e-001, 1.38302739707042376960e-001, -6.24748938700783740252e-001, -3.48321796382295711947e-001, -5.48155387771810609365e-001, 1.32760891014856219350e-001, -1.99045280337405705584e-001, 9.90672369189973117676e-002, -7.14283159601996758825e-002, -6.31551608564658306655e-002, 7.46085491259599192793e-002, 2.27061622238047960964e-001, -4.13393668886863907552e-002, -1.45967861073327903609e-001, -5.74148103785178526293e-002, -1.82306803765533764761e-001, 6.45074194209350609830e-002, -3.34972822756132770916e-001, -1.86821266335106012102e-001, -5.55342020235706935322e-003, -4.66144856566052590008e-001, -5.14310612521028276412e-001, -4.01369175436838754312e-001, 9.81610251688106415224e-003, 3.62865113939503602936e-001, 4.22755871106435865414e-001, -4.59743937671175384452e-001, -3.48379358862401844465e-001, -1.84099549778198756655e-001, -3.71956556633461332684e-001, -7.70406309992824334110e-002, -6.83246624782495315387e-002, -8.18985227612954724830e-002, 2.80610193504734095615e-001, 1.44557431905319888621e-001, -1.41138760841388710698e-001, -1.54643146808630727040e-001, 4.50990249009399907232e-002, 3.10351016986294026001e-001, 6.51110198700145637041e-001, 1.73242172899956359267e-001, 6.78983724450861081401e-001, 8.43354288350932512763e-001, 6.60283304155053540896e-001, 5.18583140796120778404e-001, 3.55473347999661237751e-001, 4.94972433561518543321e-001, 3.61819860971527074156e-001, 7.38648218426100622302e-001, 4.60106689752628583712e-001, 8.40969690036071915173e-001, 6.81442085404261654880e-001, 5.75629712963938500181e-001, 8.52501310387661914714e-002, 1.90443074788113925200e-001, 2.19031687027136823254e-001, 1.30259415506545600527e-001, 7.39318382984089472743e-001, 2.43862876539712759849e-002, 5.48447836842981040206e-001, 3.05439524946029716812e-001, 4.05876463897760331179e-001, 4.42392731371724523548e-001, 1.54236863779360217075e-001, 3.40978694347050026447e-001, -2.30347300821023559525e-001, -1.43656521611477988598e-001, 1.26727455601079071201e-002, 4.09676935023767951893e-001, 1.97729254308768059856e-001, 4.90474037203828205911e-001, 1.88542474436892565359e-001, 1.42611282790971682921e-001, 3.94216056992462204889e-001, -4.13546136923994389623e-001, -5.94284919369514663678e-001, -1.25986371200132812875e-001, 3.87331510495095066027e-001, 3.30947819836439616203e-001, 3.85340467168343803195e-001, 7.01177721263486652958e-001, 4.17085687368973889733e-001, 4.51290884911245970823e-001, -3.50634271263665697749e-001, -2.41126893889503202129e-001, 1.30468384315964355119e-002, 9.09229312131356492976e-001, 8.46569820954433116533e-001, 1.15867818260622512661e+000, 2.14276634264221221837e-001, 5.09151693908684421785e-001, 3.10621373186644567088e-001, -2.33916449047057328769e-001, -5.69856340883423517774e-001, -1.89484314317979768427e-001, 3.69664663862388553905e-001, 4.18247539622458697206e-001, 4.31235184323897791092e-001, 1.73900911843322181216e-001, 1.98901847190350283823e-001, 3.19880570302709998920e-001, -3.92320896211118486097e-001, -2.18578817935838137787e-001, 2.16870235933159988262e-001, 2.26004109143341486154e-001, 1.89672761820543211986e-001, 2.68641017230661804938e-001, 6.15178887095419901776e-001, 7.46828728918999318331e-001, 6.65668230955803075233e-001, -1.97030510931782872064e-002, -3.91694303842422764106e-001, -9.86433084025207795875e-002, 3.57395301526031272665e-001, -5.62263740607279807748e-002, 2.50390113931651225876e-001, 8.60219155217480602182e-001, 8.12041384590236559049e-001, 1.04571740053750716903e+000, -1.53914127046237692031e-001, -1.86669383451976617083e-001, -5.19446327103030958128e-001, 6.06140700245337171737e-001, 8.55213172886869377187e-001, 8.41918373047126467057e-001, 7.38974686110954737117e-001, 1.09209922848647345006e+000, 7.99743484591900699598e-001, -1.98186845574441078410e-002, -2.91989576861121868934e-001, -3.78042397210113123585e-001, 9.95863611388619340836e-001, 5.68735003130772409641e-001, 9.68777993070765730543e-001, 5.77723954869536870937e-001, 5.44164361953398456606e-001, 9.90411962588947814012e-001, -6.20786077110508482946e-001, -5.33077534185253498755e-001, -7.03493294447235184563e-001, 6.14255006001536374427e-001, 6.74372286259066200387e-001, 9.55196040692046444143e-001, 7.09075121480956860331e-001, 7.91814624944083833569e-001, 5.99667002297885498585e-001, -8.26149741016452443532e-001, -6.51103357673818439189e-001, -4.51207972493522957436e-001, 4.72062018163574570462e-001, 6.08292850930468254056e-001, 6.18461817206641506495e-001, 3.13658889545481045502e-001, 3.85777759854396218309e-001, 2.25270388208678423725e-001, -3.40044455647057486392e-001, -4.17113479313769353052e-001, -5.44272431800841172134e-001, 2.25851953799674626255e-001, 5.11224898583357734161e-001, 4.10132530765884295576e-001, 4.10578425213932007853e-001, 4.38533365930642071717e-001, 3.42821866991479151654e-001, -1.25025328852966327586e-001, -3.51985084119532040670e-002, -2.18171757927353354711e-001, 7.50887585399902857120e-001, 2.97200469510580433941e-001, 5.31826729139697418347e-001, 2.33215227070964314926e-001, 2.40524739950527116639e-001, 3.86836829097886747419e-001, -3.32694678802980647880e-001, -2.05156738329691390454e-001, -1.05258269004069870967e-001, 5.92172684869448961997e-001, 6.61015694194475034173e-001, 5.27698246663319436855e-001, 7.59462928248720081648e-001, 5.94330512499833152340e-001, 1.54611212679083370736e-001, -6.17510763890404823506e-001, -9.24095144647123611925e-001, -6.22113443639545127262e-001, 3.18904500332993334766e-001, 5.21339592878754087835e-001, 4.00327155630203546099e-001, 3.85384220888158268714e-001, 2.72213994904182410295e-001, 2.46075114314768320090e-002, -5.08104884441262449890e-001, -3.91534074246011609688e-001, -4.71231851694856096469e-001, 6.88592017806709755234e-001, 6.84092415215235671866e-001, 8.02675737106203657234e-001, 1.01270556163435698771e+000, 7.27792056163798384283e-001, 2.79517811671285532071e-001, -6.21061959666007745717e-001, -7.94745599773567956703e-001, -3.47914680589186176007e-001, 7.44914442393662556974e-001, 3.00360015823185777517e-001, 7.04055386467662414063e-001, 1.13066241922947674503e+000, 5.09444522424179480069e-001, 1.02332935760632048883e+000, -6.14191223506524552889e-001, -7.74761137796998289318e-001, -5.84159081975742955350e-001, 7.77186374163713611374e-001, 7.43230082421494242517e-001, 4.66516420493871430963e-001, 1.19051892057325359175e+000, 8.06929346987690476745e-001, 7.82690844274921304624e-001, -4.60333180093973559632e-001, -2.80338832631843948295e-001, -3.41808508012869882720e-001, 7.04210033016065439782e-001, 7.86992126603168751231e-001, 1.00489852288700465266e+000, 5.82908126438707596684e-001, 4.81834603428056618135e-001, 4.12039560062383625194e-001, -2.41504065068495893387e-001, -3.03482012069223427986e-001, -1.31116660530338491331e-002, 7.60153814933510529883e-001, 5.91729095029701168684e-001, 3.99840491103247097637e-001, 4.84521018038200579348e-001, 5.55508062052712636714e-001, 4.41500777225835250306e-001, 1.69377757911070431218e-001, -4.14313124348992187218e-002, -2.23419311017427291155e-001, 7.83508558472469918144e-001, 4.77442899371809170717e-001, 4.21842729277725869697e-001, 6.91918348032345420506e-001, 5.96939534437370911135e-001, 4.15862548993890912552e-001, -7.31591332749613049158e-002, -2.48004723314808661616e-001, -1.44864547154852307820e-001, 5.50513645725390854402e-001, 8.10180821430642073011e-001, 5.88447027476309725280e-001, 1.00364962376236466213e+000, 1.01213927159465910677e+000, 9.95269911371733151384e-001, -5.58874133397616740249e-002, -8.92295117322814690386e-002, -5.38869852190480211340e-002, 5.18201368653534166775e-001, 2.01553417770470366666e-001, 8.12406425513085950207e-001, 7.43783172873065723252e-001, 5.86000736172069824903e-001, 5.83320611100758945611e-001, -1.05837377363890025594e-001, -3.09452120269839370259e-001, -3.89107566411610372725e-001, 5.20582726564078002163e-001, 5.19349362615674881027e-001, 1.45226993758720696048e-001, 7.05934617459278546114e-001, 3.64668879015680957867e-001, 3.17332124985759578273e-001, -3.19672212516717846320e-001, -2.20933216856581710053e-001, -3.51202117664744128955e-001, 2.05859855151896087300e-001, 2.80146607213073925435e-002, 3.97225637394152231163e-001, 9.75178695087717151146e-001, 8.25836321773215420450e-001, 6.69536526218632688234e-001, 3.24648773315950711638e-001, 5.79474662206640234174e-001, 2.07893428545426389720e-001, 1.44682291870152912594e-001, 3.90769003238436274383e-001, 4.73522223002461106756e-001, 8.40910516353749803997e-001, 8.98585563429739719865e-001, 7.87324665903006204459e-001, -2.74371510101025728456e-001, -7.17987474230466493630e-002, -8.08745079820846757279e-001, 3.41193120397374871633e-001, 3.81809854934060499687e-001, 4.82301863584188084122e-001, 5.45001347097617938608e-001, 1.03990668032012334443e+000, 4.34171566672008846233e-001, 1.08821840684488732598e-001, 4.80165609102576190770e-002, -1.95658193147157072334e-001, 6.89970704562865133624e-001, 2.14233284398902684709e-001, 3.07824654223808558129e-001, 3.82062516490580983408e-001, 3.10484682099489817109e-001, 5.99804684256220257965e-002, -1.16706868246994013849e-001, -3.65176253245756476939e-001, -2.64076044850591717950e-001, 2.52480438660696360209e-001, 1.73442871132616860397e-001, 8.14866505272187069409e-002, 7.15542334189863793448e-001, 2.30637304496667056020e-001, 2.60646212664481902177e-001, -3.44624956931118775483e-001, -2.24616110451436090667e-001, -1.98717690273704533643e-001, 2.84206308547845232226e-001, 1.31191392965236186541e-001, 5.97865744181107078292e-002, 5.91234279264702844436e-001, -9.80427006949226714783e-002, 3.56293731374497268938e-001, 7.99542377335708820407e-002, 1.12412473738040238902e-001, 2.37241823175357302578e-001, 3.31891483859536484680e-001, 2.11111536093450513629e-001, 4.29620637538352223572e-001, 3.29921352620684948942e-001, -4.47168563679006952905e-002, 2.26010376026642201275e-001, -3.72527283410588883061e-001, -2.53623796909913823416e-001, -6.01672158381580501896e-001, 3.78052311370056182138e-001, 6.68422372864221681077e-001, 4.37333690057101986959e-001, 2.15688229121308167047e-001, 2.89446943200943940244e-001, 1.85798858571068759016e-001, -2.77796516965165521569e-004, 7.94253368835793754910e-002, -4.43587944507292220031e-001, 4.69112678937039562221e-001, 7.54997749393557349151e-001, 5.94969407601082633796e-001, 2.59988068800069763165e-002, 9.43095770970148739032e-002, 3.25663013753891561475e-001, -9.94217663334072965231e-002, -2.58441304851667191800e-002, -5.38468165142992095940e-003, -1.14001332255939752391e-001, -1.04114671686306933807e-001, 7.10725630679560488323e-002, 2.02264098585561602484e-001, 2.42425339336006184787e-001, 2.43442887127470697362e-001, 6.96812030348358535381e-002, 2.37146740280451163996e-002, -1.37047447536702560189e-001, -1.02425050042656964888e-001, -8.21137665065806675313e-003, 1.54926108195386560973e-002, 9.22005213992320021843e-002, 3.90756269702124056642e-002, -3.43963036362306545657e-002, 3.29895886607914912148e-002, -6.90396282225295143675e-002, -1.06671176169821080304e-001, 5.20313593364298415667e-002, 8.78968980566416022149e-003, 1.38732485250620020401e-002, -6.18696200329593368195e-002, 5.65899857251994514717e-002, -1.98234647406945042707e-004, -1.08906020736635553853e-002, 1.76420622640372087853e-002, -1.31958278984227378450e-001, 3.12112831012992565649e-002, -4.87555282871304576653e-002, 9.83818733774478315635e-002, 7.59875900838730689024e-002, 1.73368972442765389985e-001, 1.15301699678307487118e-001, -2.26636001807901887872e-001, -8.41299057330976429725e-002, -1.38786123165863473083e-001, 2.10941144733372241971e-002, 6.10424005760139762322e-002, 5.63051929030680270438e-002, -1.23604922550255832969e-001, -3.61846803897885940793e-002, -8.59457518332293057828e-002, 1.54964404022705504183e-001, 1.97569522005302838918e-001, -5.13349734993627931923e-002, -4.03702786230792365352e-002, 3.98571626996492220374e-003, 5.41222432037486850254e-002, 1.98246115208235845762e-001, 1.08869900257425031298e-001, 4.16222836188658087964e-002, 2.06291547898842658748e-001, -1.65959448533383006896e-002, 1.15018139684419928859e-002, 2.86883982609985946355e-002, 1.94483095332727590199e-001, -4.07406427012739560944e-002, 4.61458351263440494372e-002, 9.68901811288336856087e-002, 2.38583208849740130431e-002, -2.10558628654221091647e-001, -1.23656297780430246558e-001, -9.48390857492462102663e-002, 8.51030273053881257395e-003, 8.80203719467355545636e-003, 1.57286321142459439848e-001, 2.11508378991288714666e-001, 1.00201047434250151147e-001, 2.08224356328670090477e-001, 7.93199169315761815069e-002, -6.85776331699679969622e-002, 1.26551603767603333683e-002, 2.79789202684681652389e-002, 5.16750491492989627584e-002, 6.27511534975058737906e-002, 5.93593898085390744845e-002, 5.57942225831614818654e-002, 5.22553426874958204529e-002, -2.09635420402778382964e-001, -1.44515181338972398262e-001, -1.46332629637566796754e-001, 4.24590378549091831961e-002, 6.21495393253877689843e-002, 7.80722717206727284678e-002, 2.78023296072750947250e-001, 1.94629123224912409240e-001, 1.34117754505762243333e-001, -4.43663867904056652414e-002, -8.10671357017232474540e-002, -4.59116740300350850701e-002, 2.97059608848308925877e-002, -5.29609991336640276854e-004, -3.61889715271655407203e-002, 1.48423341824345716988e-001, 1.42480106112587739942e-001, 2.83209517565601587297e-001, 1.19932538915763706178e-001, -8.00231294093535217016e-002, -8.12842358200489695230e-002, 1.41687033823391927978e-001, 6.22633257651903429530e-002, 1.54915646618687119496e-001, -3.05274014513689795347e-002, 1.12101418097385011063e-001, 4.25177555333512962460e-003, -4.19739751512396633282e-002, 2.04354391768629302384e-002, -1.76841697894684337852e-003, 1.19865965623802556150e-002, -8.62220652710727342161e-002, 1.00046045311672507361e-001, -4.64330165938866851888e-003, 5.83650016301209065284e-002, -2.67922510039260049208e-002, 6.54085543235938260409e-002, 5.91816379423075120125e-002, 1.76139818417323477939e-002, 5.65768435549530365747e-002, 7.84795976890665103465e-002, 9.39750412489981541697e-003, 1.43389200706693947796e-001, 1.20128680061636169962e-001, 1.65151136528790376534e-001, -5.75608240816136013107e-002, -9.57523612572264426479e-002, -9.57387024390037727484e-002, 6.64994548545877750545e-002, 1.04315881621312556149e-001, -5.13802046479454530004e-002, 1.58413994682476383380e-001, 1.41878471749651152711e-001, 2.19746193499963798912e-001, -9.95676572433499716339e-006, -9.53565073879783509092e-002, -6.40275613562817785818e-002, 1.61691862538483194234e-001, -2.31197723850300809745e-002, 4.68495739141856683968e-003, 5.81646805382996720524e-002, 4.14577181285587653692e-002, 1.42848625842760784677e-001, -8.47890122016110442393e-002, 8.55390900238052059867e-002, 1.88193540092195327196e-001, 2.37605510573828088150e-001, 1.24033486472608672768e-001, 4.82222314051897540943e-002, 1.22807347753536716395e-001, 2.52036079213889985251e-001, 2.22618684555155349480e-001, -6.46991716167396868631e-002, -8.86922019172476927551e-002, -5.56757417169322019190e-002, 1.38058527850554751959e-001, 2.08012215993541804693e-001, -3.98336738082160635166e-002, 2.43253207455568165596e-001, 9.11390916116632116006e-002, 1.92929438155419047396e-001, 6.20662341773956585667e-002, -3.70116865034960914119e-003, 1.61747057434111884966e-001, 1.08705875281604580351e-001, -6.89190071858373637381e-002, 1.63819304453204528382e-001, 2.37983383867116926602e-001, 5.85766819404740651800e-002, 8.77463303014535539459e-002, 2.04049139634913806463e-001, 8.67160439704058594312e-002, 9.84545517236498496372e-002, 1.14706096645756316053e-003, 5.25485223222550631994e-002, -8.78686893917959566114e-002, -2.26025661858710869012e-002, 1.30909221041060869206e-001, 1.31249882492115360622e-001, 1.45271930851954944597e-001, 6.14279724307074045941e-002, 1.16095692317524382120e-001, 1.23793129703129292651e-001, 1.20592477816146820269e-001, 6.90894404309464610359e-002, 1.97181389766584974632e-001, 1.33496161623685216657e-001, 1.02265946018004122431e-001, 1.56013632743390556756e-001, 7.88781068035149897019e-004, -6.72896850552484604435e-002, 1.38974881791306043022e-001, 1.53189071957206907060e-001, 1.19743917622238266185e-001, 1.49986937754380628141e-001, 1.26157914159485629035e-001, -4.85585790120903956768e-003, -1.46280374753940539678e-001, -9.67551714430953668789e-002, 5.49078676428226483686e-002, 2.18864059095979335279e-001, 1.98750426172651373236e-001, 8.63999997031660998958e-002, 3.87823706924334959956e-002, 3.00918837670568345422e-002, 2.19430801679026649120e-001, 1.23419662523038126123e-001, -9.55427965035158671681e-002, 4.05267780552434758734e-002, -4.73498718870965437655e-002, -4.59435663228877980147e-002, 5.94902752242120122506e-002, -4.29388835986156888747e-002, 9.73120613003351508929e-002, 1.05914766281379621460e-001, -7.66452429048524036537e-002, -1.47180790785444964852e-001, -1.14071074390543064636e-001, 1.31645470765892808052e-001, 2.23128275770655082333e-001, 2.31227654961656564625e-001, 2.21214508474708915209e-001, 2.90907319186883214779e-002, 1.22506059022326849184e-001, 8.08695010032276923040e-002, 1.22344296602059823820e-001, 9.85946713160572307810e-003, 2.90482078045427478952e-002, 1.27689177727533631490e-001, -2.96951620851802940149e-003, 6.44408726065001796757e-002, 1.42980746844001277429e-001, 1.15543934881147516980e-001, 6.11829905986774752469e-002, 7.99704195073866613841e-002, 1.34921075923738836844e-001, 1.79362953861427726343e-001, 8.68700004350887455828e-002, 6.88391959996245000886e-002, 1.88062067400342564083e-001, 1.21132599025012929750e-001, 1.11057694434531117889e-001, 1.76254096060603854257e-001, 5.20530007509154152290e-002, 4.29313651975645610426e-002, 2.23322526308905200398e-001, 1.42223426481956516376e-001, 2.80130425872988780833e-002, 2.79607143827421134041e-001, 1.75303943752903118591e-001, 6.46848979116634026365e-002, -2.13349217727090145758e-002, -1.62902282577530838070e-001, 5.59436344852743128175e-002, 1.29913659608427572989e-001, 1.73211512433076336714e-001, 2.48736192405490941226e-002, 8.25032106184682700878e-002, 1.49311630955001301002e-001, 1.16556896202048149158e-001, -9.30690583057581927173e-002, 1.75626312717217542003e-001, 1.12495391560403765197e-001, 1.93543251237322966318e-001, 4.49901798891705340111e-002, 2.30423697082774853184e-001, 2.18721804319468943190e-001, 3.16263106718072395385e-002, 8.13897806241567316199e-003, -2.03608481632508109271e-001, -6.42758953175898428700e-002, -2.36910617633284720229e-001, 3.00110720935923940000e-002, 2.11575538314895568448e-002, 9.20258622676631693471e-002, 5.32459000547360061795e-002, 1.20325382952725067065e-002, -1.99990702656421756589e-002, 6.23714957664476404853e-002, 7.77417905552456184326e-002, 1.04454018358782416143e-001, 1.25034933506951301263e-001, -1.05006106069719523655e-002, 1.02978067467547673708e-001, 3.64641869014590669362e-001, 1.98449158193884894752e-001, 1.57556159648601284973e-001, 1.08124966820146647950e-001, -1.50503421637563916669e-002, -6.97677223249822536788e-002, -2.72952659342273681875e-002, 1.43572863225338631654e-001, 1.02220760849760783362e-001, 1.47644243266263325287e-001, 1.30924938076943747634e-001, 2.35246852277861712155e-001, -1.04836153485570893890e-002, 1.04750245293420505416e-002, -4.64521432502128044616e-004, 1.13223919682796783648e-001, 7.68564262795102398629e-002, 1.13699203340765872539e-001, 2.28029573285701198104e-001, 5.69495588556972881511e-002, 1.05811306699025983735e-001, 4.09640128644062143093e-002, 4.42814721215479822902e-002, 1.53459448116762459113e-001, 3.93589204747693613418e-002, -2.79585684440528739469e-002, 9.04891045693971413089e-002, 1.78728165984353259965e-001, 9.14017252725603107644e-002, 1.62743343062003442689e-001, -1.16679432468662538924e-001, -1.84504215625008391455e-002, 3.05942747691601846238e-002, 1.30586877943360157861e-001, 2.33892997895818244292e-001, -2.28674242946341789440e-002, 5.45519200764493228384e-002, 7.86289856833828626481e-002, 1.36509473978476264522e-001, 3.84688661502139012116e-002, 1.34114683734891687594e-001, 8.58637961310179491370e-003, -4.42870621885340168267e-002, 5.38981047860544529304e-002, -3.42999139080060813645e-002, 8.90719220447089288228e-003, 1.17480647854735567592e-001, 1.68161535158917907484e-001, 8.98129708980102831051e-002, -1.64565471786032799240e-002, 2.20962927219900441556e-002, 6.26119828346003159947e-002, -1.13282673728998722895e-001, 3.09936437083076785429e-003, -3.82211862915620356751e-002, 1.13208140888908556643e-001, 3.00609658098101514834e-002, 1.29102197628523651662e-001, 1.41687860492745537622e-001, 9.21718595325454609357e-002, 1.65097322205838281661e-001, 1.11911321703437482977e-001, 1.32725706952920380344e-001, 3.34288915399759758995e-002, 1.21028688559675287606e-001, -1.56347525521504188140e-001, 2.18874030053849422117e-001, 1.73676835226835829529e-001, -5.28309000272732254277e-002, 9.19744386065161761978e-002, 1.84356706149212817847e-001, 6.77359852598143769020e-002, 3.47891870778090250838e-001, -3.64439340777567150065e-002, -5.91316540386946365437e-001, 3.32601547222963461053e-003, -1.97621265089141850968e-001, 5.91075264207058595489e-002, 4.32579305022797622193e-001, 8.33996733003169593568e-002, -2.67547259458661590426e-001, -3.82229740452611765900e-001, -1.67390291601940799371e-001, -4.77020649960658016386e-001, -4.22927012154510950648e-001, -8.36373960504409146022e-003, 1.00152264463623033586e-001, 1.00149588399904176939e-001, -3.02437693652674921552e-001, -2.26486913270574213852e-001, 5.18570256842448493173e-002, 4.16017633457674451680e-001, 1.57806381994581412798e-001, 4.96561069144072775305e-001, 6.56670908492913318888e-001, 4.19622108828940965086e-001, -6.42764530183987492507e-001, -7.08576592094751878115e-001, -3.22049149585073080093e-001, 5.74729341084112110849e-001, 2.03026429351453402417e-001, 3.58136939966550549297e-001, 7.26064217477989659599e-002, -3.10254364751517998366e-002, 1.42534294925441396007e-001, -3.74731419881235039426e-001, -1.40088289161208162659e-001, -3.09010932696195395053e-001, -1.61077127350682219875e-001, -5.37738497967307327308e-001, 1.82615026975127048292e-001, 2.95681623393842407665e-001, 6.05627971632481609809e-001, 1.86383015053160960850e-001, -5.61218333969555671636e-001, 1.54480744047687440501e-001, -2.01120265254704361224e-001, 5.66426149976241855022e-002, 2.96162729146272674097e-001, 2.85241244059231457975e-001, -3.15605635217700963846e-001, -3.73331835966571934371e-001, 6.88138092574611781593e-001, 1.70548403226309513991e-001, 1.65757771672745607416e-001, -2.75579223328876847521e-002, 1.78714753244366614249e-001, 5.14446334713364872293e-002, 3.15407900805119767451e-001, -4.80982925877971145834e-001, 2.98576318915370862717e-002, -6.14807603559482107602e-003, 2.61177767467624222242e-001, -3.16677013277488761389e-002, -5.13514056171965674324e-002, 2.35170865504415960157e-001, -2.63954390848838760242e-001, -7.13192272008408567618e-002, 6.39609777310425342556e-001, 6.84734840433326108489e-001, 3.45472499395553300783e-001, -1.23950905878310632668e-001, 7.69091819387552888543e-002, -3.29841764261148862047e-001, -4.61493436593561956460e-001, -1.20186559460097111551e-001, -1.76756217994028158591e-001, -2.66999384716037957421e-001, 1.71457972918617640445e-001, 1.18338984458545917744e-001, 3.06389421804989903197e-001, -4.38649060403503536498e-003, 4.53983070146102563047e-001, 1.49024516790779937292e-001, -6.83460975912796447895e-002, 4.45546132195209554361e-001, 2.79016500537169531704e-001, 3.49849981645035446043e-001, 6.14633136550735370562e-001, -1.10622098989800916879e-002, -2.39941090723845562582e-001, -2.31139268689463439621e-001, -2.05399498540849677342e-002, -2.75843591753023760493e-002, -1.87532514645727177438e-001, -9.80528236679280712496e-002, -2.43256201544900074740e-001, 3.96267862203178056202e-001, 7.09892141627978201512e-001, 6.49995430969811716082e-001, 5.59660315733926605475e-001, 1.31505478321257779362e-001, 4.79045162618177144953e-002, -3.14895029948923710350e-001, -1.83236626468683411195e-001, 1.48744718324182650937e-001, 3.01342081620963819777e-001, 1.80563189383978917046e-001, -1.07597688954762973901e-001, -7.23171656000914930829e-002, 7.19261193515856461778e-002, -2.16895488855390117244e-001, 1.85846973653272296012e-001, 7.53390976446189353233e-002, 1.01177266326155881893e-001, 6.23063760026373800183e-002, -3.10557109260687136398e-001, -1.07783763741397045632e-001, -3.31152783126664018720e-001, 3.81942344334546046714e-001, 2.67238222100612543564e-001, 4.74396587975197681075e-001, -2.16494597796427740155e-001, 6.30221038840070441056e-002, 2.42758382555662066693e-001, -9.52763323756574409540e-002, -2.65841634387471659196e-001, 2.12230402136409819491e-002, 2.95234450987322039062e-001, 2.06451533973613127193e-001, 5.57111176424181162026e-002, 1.42597230806306901618e-001, 8.22498998800439695689e-002, 3.25870445282792076114e-001, 1.84086929131660914649e-001, 2.71877379778726502302e-001, 1.57438666356094436605e-001, -1.76203285992687114225e-001, -1.70421488654484476477e-001, -1.43827089388366358147e-001, -1.22954804896497366801e-002, 1.49222344497104586480e-001, 5.38694840210207359643e-002, 4.32504167403219730303e-001, -6.90293915658292539517e-002, 6.73391076441717917334e-001, 2.05972881696995069323e-001, -8.78231480924223512075e-002, 3.95746907403247527579e-001, -2.56441156704366290953e-001, 8.47102464926762529877e-005, -6.21625669898433486082e-001, -1.50873715357015061866e-002, 2.97367478064889667611e-001, 5.96927404265982786136e-001, 2.37465450789250340224e-002, -2.18588642484991213522e-001, 4.53266887804300716569e-002, -2.46163909777685957492e-001, 2.28761996154532604164e-001, 9.89162793611231272450e-002, -2.63776288040383673217e-002, -4.18934450959975057671e-001, 2.31517332440090178869e-001, -1.92240457603990472224e-001, 4.02528486058010975812e-002, -1.20583614649675777142e-001, -3.10403438155231470308e-001, -3.35118098511525630556e-001, -6.09945565198767525317e-001, -1.14516863236557533967e-001, 2.45774064261294333811e-001, -4.41123916919154354654e-002, 1.63489909275846390102e-001, 2.01933688765810276378e-001, -5.86409162925711491265e-002, -2.92235564117784341054e-001, -1.81669300833491254021e-001, -3.59802421312739706405e-001, 3.36636998024941735963e-001, -1.74438325650831255187e-001, 4.14593002336120064477e-001, 1.39052276741634922574e-001, -2.02906552773978648974e-001, 2.59311394811770845603e-001, -4.34471361495639418759e-001, -4.25350589367921361195e-001, -2.95269353240272702799e-001, 1.03055044379336033233e-001, 1.87204230116894521085e-001, 1.53237574583007407636e-001, -2.16464054896456856159e-002, 1.71278327082060449760e-001, -2.23899183157156483892e-001, -7.77699096330960459866e-001, -3.88583385065204511832e-001, -5.00470177013588757298e-001, -5.66573420963810692186e-002, 3.15097833993978754252e-002, -3.27345200021748772290e-001, 2.09904450075720228064e-001, -3.75044474328977694988e-001, -6.37661462918762966812e-002, -1.90596147517592101606e-001, 2.92437499149444980751e-002, -2.76642050681719875449e-001, -1.26962321523350546437e-001, -8.77474108446856249088e-002, -1.39784275143942426922e-001, 4.59031607704944166759e-001, 4.16345483592599818756e-001, -3.65805727438418881725e-001, -8.35979174769706734338e-001, -1.35791376133540087068e-001, -2.36488102812333830793e-002, 2.53827161572657611366e-001, 1.03975893754305354078e-001, 3.09810320741120137633e-001, 6.98527828974229159087e-001, 2.06354985681290903354e-001, 6.38038601570841024113e-001, -4.86762795270852671736e-002, 3.15452968236885289421e-001, -7.70603657255179430585e-002, -3.94267616928632103068e-001, -3.82226443406797400382e-001, -2.23196378078063112360e-001, 7.20813726473840232778e-001, 5.64224901951328905447e-001, 3.66407585974014515795e-001, -8.98143092236119017224e-002, -1.14458635869404565244e-001, 1.11313534179239961852e-001, 2.80225252381272826874e-001, 1.88968500651622545172e-001, 1.83717222134615887352e-001, 8.26976658198931569022e-002, -1.20402199889641944863e-001, 7.41296338160680051699e-002, 5.63306906089187583997e-002, -1.67591702595814628918e-001, -2.07876783938633041826e-001, 3.70815344565182003489e-001, -1.79356255988531651524e-002, 3.22326552822193079795e-001, -7.00153590374973794352e-003, 1.15582514889037799022e-001, -3.22701557890679002760e-001, -1.31918259427637435399e-001, 2.09640795023412596088e-001, 8.88394148913509464072e-003, 8.80447868415374784723e-002, -5.09817278975499468124e-003, 2.63885852705788126471e-001, 4.89621433300902186847e-002, 1.90880876472143724831e-002, 1.66980845907421543428e-001, 2.34878882105176600703e-001, 2.71543817814579035996e-001, -8.99585853001088481262e-002, -4.18580315690915083504e-001, 5.45364273959999396046e-002, -3.10551849855424000335e-001, 7.05553847975894266042e-001, 8.01384900918696740924e-001, 7.04356895377384883972e-001, 1.82247792398378127832e-001, -4.16502319389244313186e-001, -2.33063749385623186772e-001, -3.42186170943633904962e-001, -2.52711071679685261859e-001, -3.13758273608768123442e-001, 4.11611493409831830093e-001, 1.73572511243274746340e-001, 2.97268257058100171530e-001, 4.14238797270339298429e-001, 1.36971871616347107281e-001, 2.38214709696144610884e-001, -3.43891226301459365655e-002, -3.10195268017226188917e-001, -1.92810104070535170973e-001, 7.41621835510321014695e-001, 2.30621866953564791380e-001, 3.96603396619467751805e-001, 2.46875280740562752513e-002, 7.11594009424902085303e-002, -3.05424838154082056718e-001, -1.94207370416804914193e-001, -3.83068050716176888848e-001, -5.73729876679940797857e-001, -2.57253463836514262297e-001, 2.15155233699841907935e-001, -9.44552994000586870760e-002, 2.17532830299470097968e-001, 4.08267067514142656393e-001, 6.35775915835369076490e-001, -7.71830412688024984635e-003, -2.80557325479675934154e-001, -4.73652113733725108058e-002, 1.77216137806221529782e-001, 3.55474789153458750265e-003, 7.37389160662996340223e-002, -4.20489235466194738455e-002, 2.34193490196122899860e-001, -3.96652722402104251920e-001, 3.25839443809864959256e-002, -2.05698735908421331819e-001, 3.88141940997951545578e-002, -1.35594148098703320970e-001, 3.30893755619921681177e-001, 2.92291182285736972357e-001, 1.25479706764106743039e-002, -5.14327061398615725807e-001, -6.17275695736990703821e-001, 1.31115926388842618522e-001, -1.85715214984368354179e-001, -1.57390392235702669677e-001, 2.42586661686933102722e-001, 5.06915354835082099250e-001, -2.07774467368509241361e-001, 9.07431886880334104273e-002, 2.39672665826112296639e-001, 1.17346364726891694286e-001, -1.65643219179680334374e-001, -1.83697786041605831686e-001, -1.60319312368087579790e-001, 2.54282335035297291093e-001, 7.73785213083046929938e-002, 6.57477976921280043987e-002, -1.89152065860502330286e-002, -2.20212043823268588394e-001, -3.49539147394043681061e-001, 1.47033011658813189682e-001, 1.53481611932850287028e-001, 2.91990824424159634010e-001, 3.32137534827753821975e-001, -3.52372150049790944237e-001, 1.04616374510506093820e-001, 1.27252268125127659948e-001, 1.87460884717732645388e-001, -5.57680039594864729313e-002, -4.21341277339631822829e-002, 4.62173702741526942761e-002, -6.13998179470586977202e-002, 3.54472793995132595679e-001, 6.78586101714376971339e-002, 5.94641423659612922137e-001, -9.73458978580301281802e-001, -4.07075822031129852530e-001, -6.88210237306743133345e-001, -2.50530799215405330926e-001, 6.15488354153657518664e-002, -2.53372405690817925628e-001, 2.76405117567817104618e-001, 4.79054991331791857334e-001, 6.62932529727313646362e-001, -3.61352249620720877843e-001, -3.99887423193427349322e-001, -1.28215980192120937442e-001, -2.46113839723014427019e-001, -9.40090620595379969360e-003, 1.46991877414258315104e-001, 5.47363713509649227329e-002, -8.29792118608977877225e-003, 5.67926675362910443612e-002, 1.60038774574863207345e-001, -1.19664731014757098199e-002, 1.44928524803847158520e-001, 5.27079364740255795763e-002, -3.24263927207355945326e-002, 2.12702812684110176278e-002, 1.01675202648416521112e-001, 1.10654213681767976674e-001, 4.32341592831219714843e-002, -4.90805705114940385436e-002, 1.30466446055885088029e-001, 1.34406789416388727787e-001, 2.09554174147044913745e-001, 1.96478102209700217218e-001, 1.76101922331986432413e-001, 8.26805447356865619302e-002, 1.29614452165008747775e-001, 1.38882171044417856987e-001, 8.76373454597456080784e-002, 6.43026672698063656020e-002, -8.91444933449535813208e-003, 1.30619132947628363572e-001, 7.77378737155214050158e-002, 3.49688327060507786470e-002, 1.93130342701118090654e-001, 4.19123140734138435737e-002, 1.05189726159776578140e-001, -7.72504308968327835228e-002, 6.56754507856315283831e-002, -8.74460500282609083655e-003, 9.16332058352653938682e-002, 1.55541947736701519078e-001, 4.02950685063203570269e-002, 1.66749118268383379748e-002, 4.07872515888433595510e-002, 1.88368007626709514646e-002, -1.42226122931716519870e-001, -1.20916436617277592291e-001, 4.09517722484549206996e-002, 1.75121564741797547393e-001, 6.65499018382213480827e-002, 1.65331076367415230610e-001, 8.02942834421675050161e-002, 5.71986613425357684481e-002, 6.55287784431888703507e-002, -5.23251812840273139438e-002, -5.68918357847828098928e-002, 1.59587108797564963814e-001, 1.99698371755733766753e-001, -1.70201021170629136769e-002, 1.17847566913939161282e-001, 1.53431151455870051770e-001, -1.28731969127798325653e-002, -7.68615149704078293169e-002, 1.83695251808985125785e-002, 1.83340756754169553755e-001, 2.58463835871500166586e-002, 2.09403631135906737049e-001, 4.44751627429337409447e-002, -2.15197903715287387760e-002, 1.31566120422451304783e-001, 1.05887044349959380529e-001, 7.64175639318932925503e-002, 9.67239146090535101274e-002, 8.68837406249872296060e-002, 6.67805050570254160602e-002, 3.55100852994621948855e-002, 1.53375830103374466429e-001, 1.11204004157971256261e-001, 2.97117131747255784624e-002, 1.72049524979583146056e-001, -2.94736168691435672373e-002, 5.05165459143152098531e-003, 4.22585020454097279319e-002, 1.56260481996214617428e-001, 1.93052388246363532120e-001, 2.14019797656330862390e-002, -2.71326597572600011765e-002, 1.12639980982943949117e-001, 4.04094729916293429750e-002, 1.02542367262289824126e-001, 9.69713318891560482893e-002, 1.35830995538122594607e-002, 4.28122912975889488574e-002, 5.55992914013325456590e-002, 7.66596659856457612880e-002, 1.38609004252798873047e-001, 6.42794108662539248611e-002, 5.15367503202323051781e-002, 1.33591459911901272450e-001, -4.21283282382068913208e-002, 6.73420477640223613669e-002, -8.90869804309492481498e-003, 1.14602022231785588557e-001, 1.16468200205677330228e-001, 4.06207611543502877804e-002, 8.10546491859276685421e-002, 9.40273656901378374062e-002, 1.52691473300263169666e-001, 3.98311221087585265455e-002, 1.68586004355841034830e-001, 6.85478021869748016526e-002, 1.54426440773628936842e-001, 1.79169600103214823883e-002, -1.82884824930177290747e-002, 8.74633456990566299227e-002, -3.90593155482450715699e-002, 4.98121531659256044922e-002, 8.21329690186202998614e-002, 5.51309210710954761270e-002, 1.47071528335806833709e-001, 9.70199399373818938130e-002, 6.53247337818453760461e-002, -2.18730583137637969726e-002, 1.77522562741519812635e-001, 5.56985389171048908552e-002, -2.95174284474131708167e-003, 6.53092659082715326635e-002, 4.36582989345485894539e-002, -2.88745026332852192108e-002, 1.77052709845223060769e-001, 1.46845433594531005195e-001, 3.78014241349646992751e-002, 6.92979905099923854106e-002, 1.36690669806215525650e-001, -1.90120699627184495950e-002, -1.29943427976197973389e-002, -3.06408077942828087348e-002, -2.86918084349773692965e-002, 7.70809591886753853185e-002, 1.05185603331679991546e-001, 1.94867438640550311169e-001, 4.74058059520434740830e-002, 6.56727025274887465933e-002, 1.99940476904652525425e-001, 3.34735337493160325928e-002, 9.68345129346209337884e-002, 4.21238548780721588916e-002, 1.52031962068069959049e-001, 1.12952166952913810039e-001, 5.63443154153531189365e-003, 8.72009469720332885956e-002, 1.08309626261224145605e-001, 4.06561672251812417089e-002, 2.78111154180686742654e-002, 6.57425951991442297784e-002, 1.76512033393191963837e-001, 6.22899786135041044766e-002, -1.56330551853788198013e-002, 4.59403120785467564136e-002, 1.46861651813584181969e-001, 7.44101736926584406140e-002, -1.52025309307799380565e-002, 1.67831484033412609014e-001, 8.38067769032275200480e-002, 1.15361835086226285907e-001, 1.61563564538579895746e-001, 1.73892456957340270363e-002, 1.52982024193938775936e-001, 1.07174123747348998270e-001, 5.60203013692124954237e-002, 3.32587498506868098347e-002, 9.23781504978164053066e-002, -1.91743625297100006057e-003, 9.79494127298564665196e-002, 1.62342899410067270649e-001, -5.63633793914053854435e-002, 8.04528270870947109783e-002, 2.13261293064202051006e-001, 1.34181870819726573041e-001, 5.68016167684521830483e-002, -3.37924645094107856114e-002, -3.04333463953066840971e-003, -2.53205991230641656864e-002, 6.14850019455503993271e-002, -7.78951903351468924463e-003, 5.75038007423723032674e-003, 9.53281468015505922819e-002, 9.00988110065330388698e-002, 1.25005530892000005228e-001, 4.54702156455743210228e-003, 4.56764108140760155541e-002, -2.83413991719249531986e-002, 1.61476678523211833460e-002, 8.13263844595305818164e-002, -7.92567258347123132500e-003, 3.69048579165383305867e-002, 2.08123858639923109415e-001, 1.61208283335672081238e-001, -7.09639846790797029774e-002, 9.07232370138122967695e-002, 6.29451983412582655175e-002, 1.88487595934113572049e-001, 4.35044465255838286311e-002, 2.51872252800161185171e-002, -2.69650851074821618081e-002, 1.96082326191514388913e-001, 1.43035753484803462854e-001, 2.06603255159664211948e-001, 1.99262940142313493830e-001, 1.08736746019942223662e-001, 1.47507623093058343189e-001, -5.54072955252947300930e-003, 1.27752353644286026357e-001, 8.18011672914917137289e-002, 5.97666197854146014068e-002, -1.63080718942274502728e-003, 1.78162741054562062670e-001, 5.24339531352031526512e-002, 2.13396088728269622825e-001, -2.34667462845553793926e-002, 1.07353219686854239011e-003, 2.26182278563847238492e-003, 2.04439069994113709061e-002, 1.53326831198432544934e-001, 1.25288091748892299604e-001, -4.66199771918829330986e-002, 7.90016237259614784172e-002, 1.70942788934839440262e-001, 4.41818951265710857523e-002, -7.64475196259234990315e-002, 3.11491617925805999723e-002, 6.01218921497455524583e-002, 4.76688798102921709732e-002, 1.22009326766953946075e-001, 2.27081480386110562408e-001, 1.88910053846111675169e-001, 3.71338566349980053749e-002, 1.54361837879230190396e-001, 1.28870817322958464146e-001, 2.75593996608091938716e-002, 1.46186305891552598135e-001, 5.83353950434472717790e-002, 1.90074191488049486221e-002, 1.64678725094550282293e-001, 1.47969976941719649766e-001, 1.88131279198227516214e-002, 6.20640170267208607369e-002, 2.75789294245998306294e-004, 1.19658304454478545131e-001, 7.82483728490579455439e-002, 2.42886439443098095525e-002, -3.27017523338937604604e-002, 6.32536211940685627608e-002, -6.76565618776962390823e-002, -4.93058687264975523123e-002, -9.44389950554481646949e-003, 1.94175516813938464633e-001, 1.73026812760534054458e-001, -1.85391140865968744034e-003, 1.60130090598931906776e-001, 4.79964231057706733341e-002, 1.00916025403255657511e-001, 1.42513623458223409601e-001, 8.32488890454702833155e-003, 1.53168403949711429135e-001, -3.69894281162369900628e-002, 1.39957046724884293099e-001, 1.67829725878006957851e-001, 2.04725154884464197527e-003, -8.34629550793357898042e-003, 1.47305247594703536684e-001, 1.79631372577234160737e-002, 1.40269312484848675260e-002, 1.92944497780391938102e-002, -1.13996427301319607286e-003, -3.47528784180006766746e-002, 2.68815377923226420109e-002, 1.76104925881416407574e-001, 1.42741993850566406543e-001, 3.40522700894208621425e-002, -5.71569626494376481496e-002, -7.70642729833602158074e-002, 1.77257530690872522339e-001, 1.17557738114421481135e-001, 1.29648015968999608116e-001, 1.52645764489376029038e-001, 1.73294781577088302660e-001, 3.82092987407594078531e-002, 1.72100510074174040120e-001, 7.58697215437943439653e-002, 9.58873519112376088147e-002, 7.47189855601692459741e-003, 1.26422859338543969177e-001, 2.03360507308751256583e-002, 9.60151217909519516525e-002, 1.71988909032346481975e-001, 1.25394524249358180201e-001, 5.76654966959056283771e-002, 3.45377984481964814267e-002, 1.66059127555626739881e-001, 1.20144875695063990673e-001, 3.27019984969563540234e-002, 2.27517847986641146008e-002, 9.86598727540086845034e-002, 6.74211930847417456603e-002, 8.58823771727256213282e-002, 1.56350781280233663839e-002, 3.64858520492204350602e-003, 1.96438237051964337265e-001, 1.33562760447033135325e-001, -5.44868029634373168824e-003, -9.87823521309221658226e-003, 1.82964379131695005498e-002, 1.54567855493605216255e-001, 1.60403447445655239489e-001, 2.77083159152655758573e-002, 9.44579505758967596929e-002, -7.44574500650665993540e-002, -3.32727196653299639451e-002, 1.64729306604151110038e-001, 1.80459229979698376756e-001, 6.93511564607368763413e-002, 1.08558309435254379816e-001, 1.00422313066278759419e-001, 1.85306688577846524757e-002, 1.88600417391667579681e-001, -4.86681790022571308940e-002, 3.23533681892450367124e-002, -9.25433558853210880280e-002, 1.62536620573789841737e-001, -1.20756597085136686137e-002, 8.37154745417097168048e-003, 1.91910075244207750655e-001, -3.39135801956496063525e-002, 9.53132191026535846579e-002, 1.42908486983398669290e-001, 7.30207690715357349287e-002, 1.20856847863393235265e-001, 1.86644215896714205094e-001, 1.52020250031657672141e-001, -2.36750632360981649871e-002, 4.31303659331939200777e-003, 6.67553799678536306794e-003, 1.88792125558637058358e-001, 2.68095053988377129972e-001, 1.63486913451104526329e-001, 1.19241624128283221773e-001, 3.80178442365153024252e-002, -4.03256856587065268260e-002, 6.32840341884511742299e-002, -4.10755314945948357686e-002, -3.24215723691275228835e-002, 1.67024892623751780585e-001, -7.07996249046673881145e-002, 1.51358301810695650147e-001, 1.22527807687331610764e-001, 6.75298512392405736460e-002, 6.32475263332110682057e-003, 6.05013838586130128783e-002, 7.83620729979825625389e-002, 1.74768710437264718216e-001, -1.92108931529121410020e-002, 6.09081382583260893746e-004, 1.81495776034094113971e-001, 1.35877140056748474395e-001, 6.63262962326982563610e-003, -1.26970341424770455374e-001, -4.10310577303437118424e-001, -4.53222758185993113145e-001, 6.08636449157619191519e-002, -2.76262221423344889182e-001, -1.54274023536885934726e-001, 2.95848653696196450813e-001, -1.65104313158811744078e-002, -8.71635214698099763941e-002, -4.52763818954934615935e-001, -2.14722167859530937983e-001, -3.01506196065759735081e-001, 5.86362846648753321954e-002, 1.79327002030830656709e-001, 6.32836484420622596980e-002, 1.32363394722272154080e-001, 2.53929193875595982099e-001, 8.12099745735699041216e-003, -3.32749551573094295293e-004, 1.00286666342261951423e-001, 1.77376074355235752167e-001, 1.25494800807812473264e-001, 1.57812912093182405870e-001, 2.69993382331562670196e-001, -2.75148350532469221363e-001, -1.41318868861897484202e-001, -2.64897055105981937828e-001, 2.33867492388846909268e-001, 2.51292883253633969609e-001, 1.46509043265030475256e-001, -1.69809794195723950949e-001, 1.54014046286751443704e-001, 1.33094167420097359011e-001, -2.12779162864926207899e-001, -9.10626161937409250857e-002, -1.19054612275241722408e-001, 6.96898056903677391716e-003, -5.37996659014513198271e-002, -1.40245301061299038059e-002, 9.07580562770527593530e-002, 4.00573547263711540745e-002, 7.53229354120725502764e-002, -2.29805751795301937968e-001, 3.89653933972880159309e-002, -5.43494089385839450335e-003, 1.52721965186323388464e-001, 2.17584936622405578088e-001, 1.19895264739635049045e-001, -2.39379712405223599170e-001, -3.64778733256226950221e-001, 2.77814800079466572846e-001, -1.15223982917795397807e-001, -8.50158691046168230043e-002, -2.56658046575854670301e-001, -9.06353285789927021199e-002, -5.99950752012414559311e-002, 5.46589408082385555532e-002, -3.19530816629330027823e-001, -1.62949164631117748847e-001, -9.86004675738479663405e-002, -1.50712183101227137350e-001, -9.46151508444252470342e-002, -1.76063120628490332731e-001, -5.31439351807227386426e-002, -3.39178284493981074821e-001, -4.61968313574287955947e-002, 1.64477658361340650650e-001, 3.56754419796412869381e-002, 4.73578268395941637259e-002, -1.29943603323810479705e-002, -3.39803422944872923761e-002, -1.81821881468946483507e-001, -4.05597812129754597965e-001, -2.12260810525556065098e-001, -7.14769841004221084813e-002, -1.23978281774434380413e-002, 9.50835489211697137968e-002, 1.03969296816666043060e-001, 5.10339966820011967097e-002, -4.24789693729045736426e-002, 4.25695774053203371268e-003, 1.16504324432047959292e-001, -2.18852683374832490681e-001, 1.96597944532510060522e-001, 2.34726539594346361728e-001, 2.21686773377779061667e-001, 9.79756793689435523387e-002, 9.11547393667159755459e-002, 1.26473963917354929876e-002, -1.88553717301934042894e-001, -2.55407848895882416684e-001, -2.83673023668541246511e-001, -2.48982819628537910273e-001, 5.75428844268405514928e-002, -4.03056853014307700511e-002, 1.48615336318873747512e-001, 2.68204491028745366926e-003, 4.53714727399516029593e-002, -8.57087879089972470847e-003, -7.73117355702836617920e-003, -1.80549354180631199673e-001, -1.51886480493556019766e-001, -2.06507196734402764804e-001, 6.89378803803280537643e-002, 2.67636995116059317468e-001, 7.98388639912192138448e-002, 5.66726639697145220809e-002, -8.15487694367485888014e-002, -7.74409866481841763219e-002, -3.73160530629397302338e-001, -1.31404632119632575060e-001, 1.72867981682681803868e-001, 6.99532657352430475850e-002, -9.53849151020983998528e-002, -1.64770593195199738235e-001, -8.34197348212832867631e-002, -2.17994559579245905656e-001, 7.13818092527655767565e-002, -1.17696465801948896290e-001, -7.42870262773579898008e-002, -1.46300717334262697644e-001, 1.97967959755436267999e-001, 2.89693817333152137117e-001, -1.61368120430476186256e-001, -2.21043005503356426722e-001, -1.96849562678010098216e-001, -1.72183552910186388196e-001, -1.33582300327152903030e-001, -1.45346047971640496277e-001, 1.95133696126759570433e-001, 5.01850982371353296352e-002, 1.87286077516301469048e-001, -5.12691169650236408528e-002, -1.86628576414608560174e-001, 1.12895242609319080250e-003, -3.29941629382899670464e-001, -4.77045937112316409401e-001, -2.81250442171611769737e-001, -3.42842595982010348021e-002, 6.88500928609829671023e-002, 1.13665391052552092188e-001, -1.59297731843380419026e-001, -1.86156635663803221581e-001, 1.43629782111284872922e-003, -1.20632875115258081378e-001, -1.76915852793094741102e-001, -1.17221659008917705735e-001, -1.21017177846217557913e-001, 2.32802570285195520317e-001, -5.71826987021374286146e-002, -1.29019761545451167040e-001, -1.02844220144190104382e-001, 4.41750811943191420972e-002, -1.27870843938580419641e-001, -3.66881755963823774636e-001, -2.51340111031304713762e-001, 4.78285374610666093320e-003, 3.00589199870080592270e-001, 5.99066400910792107304e-002, -1.85090475503166929094e-001, -1.67219805636165175233e-001, 2.84550094242443131487e-002, -1.88469135107212776292e-001, -1.23486380900308043151e-001, -1.08501864070354309133e-001, 3.49924774299595967020e-002, 2.55552590376052102261e-001, -1.31723127246948679137e-001, -7.79149622663014157498e-002, -1.30978508524048881112e-001, -1.23305791840919151681e-001, 2.41012058588085074928e-002, -1.49988789331075123012e-001, -2.20337352869203750849e-001, -3.71775611386126192404e-001, -1.20432683594394351889e-001, -1.90408989395837058289e-001, -4.53517818465282093743e-002, -1.25273584156524869782e-001, 4.58020637245784983937e-002, -4.11799952726627435662e-002, -2.96855523668287379913e-001, 6.98261339124928298583e-002, -1.51459755847884069979e-001, -1.95295939862107553742e-001, -2.60250322611526641037e-001, 6.07347430787377393080e-002, -5.48319867021978268884e-002, -9.15387876374932074608e-002, -2.73242531980909753031e-001, -4.98523000482512662623e-002, -3.22583894376025914763e-001, -3.83850647587747895173e-001, -9.24825443274123089321e-003, -3.17593402921719281107e-001, -1.12531660071391259592e-001, 9.91748902922461386678e-004, -1.66258336861690003694e-001, -1.16201039274722819905e-001, -2.78115998424313004556e-001, -1.74094197260996869092e-001, 5.62976509460269558538e-003, 1.94548183816401792923e-001, 1.89653206861322282117e-002, -2.52542425116299651400e-001, -1.60839659343148727588e-001, -1.07696848813711151815e-001, -1.43281288641968096442e-001, 2.16408895706023604588e-002, -3.41243135299838185048e-001, -7.54415162649743620271e-002, 2.15714285537772276768e-001, 2.20650175338413551129e-001, -2.44782689034469536082e-002, 4.95163117110240177943e-002, 2.18281295962462623672e-002, -1.38290370614691793261e-001, -1.57103921094322376839e-002, -2.18495182098078610800e-001, -1.46998022090733926337e-001, 3.24502453820303793375e-001, 2.67314577079488663314e-002, -2.24320895974646689064e-001, -2.29336838903468398509e-001, -9.29323224113001444824e-002, -9.87480678209891743480e-002, 8.30672227964072834583e-002, -4.72108935096063817016e-002, 1.56645727788936844904e-001, 4.64646668276279470322e-002, 1.32451420724607443757e-001, -1.00470150446094877439e-001, -1.04022456644609156973e-001, -1.42688762297547511171e-001, 1.49883201485274293596e-002, 3.79441897060537533526e-002, 9.08388211665225181468e-002, 1.54429056912588791306e-001, 1.93480815850169685088e-001, -3.36977720299351385380e-002, 3.29800559729890932492e-002, -1.13704800309383721735e-001, 9.90443880902366208252e-002, -1.61798137155511501106e-001, 1.60513201941167690974e-003, -3.04081137543456891947e-001, -2.68947703051459430235e-001, -3.52268257663141459712e-001, -2.10000533643083908686e-001, -8.24376142968506475661e-002, -1.53479836131306564273e-002, 1.51241331469085693584e-001, -1.82547176173639960281e-003, 7.43628147003628503509e-002, -7.24371516262142661757e-002, 3.53950072810659058242e-002, 2.17321607556826834617e-001, -2.83046418165840030223e-001, -2.22970377856105628211e-001, -1.64828293921819440948e-001, -1.03097244826833661646e-001, -8.97624259964020371205e-002, 9.80676172453772698745e-002, -1.29815567953460060668e-002, -1.19355774238247844612e-003, 6.44165568911693325882e-002, 8.07267523064341546712e-002, -2.54513301772108846421e-001, -1.21083017881239082825e-001, -2.57840388579153090287e-001, 1.04604364315059011892e-001, -4.66590119025872482328e-002, -4.49827078909352043312e-002, -4.61466171669623614893e-002, 1.27769861906559450970e-001, 2.15034618979595693045e-001, -1.35442385453556163322e-001, -1.39350364857699304810e-001, -1.80735885075357233243e-001, 2.57010562960905408758e-001, 5.91196518506789739367e-002, 5.07589109811253796911e-002, 9.75659044725545737675e-002, -1.05801620322054784618e-002, -7.87591230931703745188e-002, -1.56432083625688833628e-001, -1.82958649389916822026e-001, -3.76949649503166284159e-001, -3.85322900151538305646e-001, 1.22678072622676211795e-002, -2.29531166448163931326e-001, 1.52287872951806541044e-001, -4.90013672753601553511e-002, 4.03614037043071249844e-001, 6.27450439157023337478e-002, -1.92754710921240524080e-001, -5.72381376295825125555e-002, -1.69765812938369259344e-001, -2.22542097703543245713e-001, -2.06628612724231858211e-001, -5.39339580406177701577e-002, -9.06566434504089274649e-003, -1.38927487570919938609e-001, -4.40994656938955057433e-004, -1.89893219501790694315e-001, -1.13050678494945835983e-001, -1.00709808389357655112e-001, -4.87152695095979457185e-002, 5.57799618386765130862e-002, -6.96680859029037424790e-002, -4.80813955807590565072e-001, -2.64004081766381015761e-001, -6.91231548915572646674e-002, 9.07446043021029047360e-002, 2.03096989813668971081e-001, -1.19850473357709180755e-001, 7.43187232651539297912e-002, -1.01845420217674773045e-001, 1.75315416337952084680e-002, 2.31443131569473242726e-001, 5.72200017981958630742e-002, -8.79621335162053957779e-002, -9.31557777298199288230e-003, -3.70027628291781235381e-002, 1.04085022729983989187e-001, 8.84057784766332510618e-002, 7.19464640795596660494e-002, 3.16812288976778683169e-002, -8.67699958802752024933e-002, -4.23208257117087694593e-003, 1.04986930347767792870e-001, 1.09968436762029511677e-001, 4.44227973068110515431e-001, 2.04517951382930746052e-001, -1.24421597672675188218e-001, 3.21883721709254055909e-003, 1.33040974374187104257e-001, 1.93960046376967815140e-001, -5.83442039070083684482e-002, 2.01226712776445521014e-001, 2.01116783796049192201e-001, 7.54390264642768454406e-002, 7.01303731960316034666e-002, 1.37443775933601325390e-001, 1.43423595809112153221e-001, -3.56083071800921469041e-001, -5.23937008141969334796e-002, -3.72262074297350642471e-001, -1.47582633496276122154e-001, -6.35014123465478114161e-002, -2.32926044155015110615e-001, 9.93531823578419487353e-002, 3.56811845644353864415e-001, 3.63527375415265807668e-001, -1.83496235026388676559e-001, -4.59549404556774010455e-001, 1.48459437419481782294e-001, -6.22247426617068555288e-002, -2.00759860295833175714e-001, 8.87290335193187812424e-002, -1.44005578493186958688e-001, -2.95209003732186892055e-001, -2.40042160235091617260e-001, 1.81933068858130847500e-001, 1.57934114962478888700e-001, 9.38630684381182439635e-002, -1.69945577160314276188e-001, -9.08035232759185351181e-002, -1.88922396935489941838e-002, -1.39918316288472982523e-001, -1.02557860624899951918e-001, 2.13386795266240700264e-002, 1.15381857971558320769e-002, 1.00046038901885833705e-001, 2.12119841724065061328e-001, -1.00675347298710776700e-001, 4.75549994628026093113e-002, -8.79344240332666782223e-002, 2.73356426538074008536e-002, 9.45075351244712286158e-002, 1.25947012727572194013e-001, 5.30355670608406576383e-002, 7.58384540455142586168e-002, 5.88065163770300075585e-002, -1.27381142002611830177e-001, 3.00827275420641956916e-002, -2.55601294900269469801e-002, 1.42888753522536549045e-001, 1.07958940820487320211e-001, 1.41403920453373830451e-002, 9.80652490633083934179e-002, -9.57113053277322024803e-003, 1.39380698619391535376e-001, 4.13474973406199224416e-004, -1.99186349632400033771e-001, -3.06147290461087961955e-001, 1.32785871241042657820e-001, 1.14555666564526079099e-001, 1.26256299208127142908e-001, 2.26527712311958784319e-001, -2.58879106448172933985e-002, 1.46214118195979791981e-001, -1.96791385990151612706e-001, -1.56013804420826601715e-001, -9.54967312091542230856e-002, 8.05666959451741687692e-002, 1.72879804776115114651e-001, 1.78029982400361164174e-002, -9.09923402103371137262e-002, -7.38367682608699477109e-002, 1.66918456729581964060e-002, -2.31706569387380156844e-001, -2.32530421798655156929e-001, -1.74517294544152379299e-001, 4.04135772715326913040e-002, -4.23707434131096669083e-002, -1.97267411719503418799e-002, 6.14513028600067248708e-002, -1.52429795504973514264e-001, -1.36321416503698222833e-001, -3.36605513213729279354e-001, -1.26195310809650657058e-001, -1.89537328854296055480e-001, 9.15216079542414823189e-002, 1.14740696524625804265e-001, 1.16574704103058063298e-001, -1.31118842584618894298e-001, -9.17720015891435175748e-002, -1.48330334605880326260e-001, -1.84634877884724546426e-001, -1.68681067932502842810e-001, -6.79624125091204123184e-002, 2.41604922152801535051e-002, 9.36648206007363731684e-002, 1.57033252178493086537e-002, 1.77778485234742177068e-002, 1.55008191514752424744e-001, -5.44885911818537710394e-002, -1.57202629048088959873e-001, -1.47494549243028988394e-001, -1.46705599961083593685e-001, 5.59830106709373748197e-002, -1.00913300418788140500e-001, -2.12171792789757271414e-002, 8.27985783143857512201e-002, 1.69183983468869258981e-001, 6.18429097214258788329e-002, -2.29998650651512204224e-001, -1.82950786115420871436e-001, -1.36192672159729105674e-001, 2.74960192388027067911e-002, -1.45570092285176783120e-001, -8.24184533869416063867e-002, -2.18182367811126688706e-002, 1.43170639244359743092e-001, 5.16957333811608674146e-002, -1.40759725649797079461e-001, -1.86912821467395157127e-001, -3.51854676319396431072e-001, -4.86596781949683587776e-002, 5.22963187837598292296e-002, -4.21143820403380095274e-002, 6.63000376035730726310e-002, 2.55660516738290335970e-002, 9.92640439074974657852e-003, -1.45006222930093908730e-001, -1.93268386547982867762e-001, -1.07145614498532770753e-001, 2.85640863507936222654e-002, 4.21400159892184322796e-002, -1.41921117309084937608e-001, 1.05264156761369395698e-001, 1.10269850705937935698e-001, 5.26397827774894647157e-002, -6.30883397117089073092e-002, -7.03765483377683104260e-002, -2.15253589440233539243e-001, -1.45217919150460617050e-001, 8.50770296724081762085e-003, 2.76371928777141839806e-002, 4.50933836080141398073e-002, 8.30442879078878148924e-002, 5.97163851535722559061e-002, -2.00621110658970175367e-001, -8.25862765309889890197e-002, -2.10448913359732175943e-001, -1.51386528245674528703e-001, -7.46277338644762838760e-002, -4.37296916837052185301e-002, 3.46283393958469846996e-003, 1.26232830337027424061e-001, 1.66914418320935509232e-001, -1.04276747601746419547e-001, -2.40711507185235595863e-001, -2.07335432669237706982e-001, -1.70645066111252824426e-002, -2.60679480097249616222e-001, -1.51304953767473354675e-002, -1.46793838999492178531e-003, 1.62833160878539273675e-001, 1.02481831983614365966e-001, -2.01904158887230567032e-001, -1.85314821566924775587e-001, -1.97053247654566471292e-001, -1.45752113067087574194e-001, -1.27113706393002012796e-001, -2.35094242746284515233e-001, 8.15840784599714818892e-002, 6.74027303124970361692e-002, 1.53460150777841530800e-001, -1.59225291350558295633e-001, -2.22787842478945286029e-001, -2.30909975216800289477e-001, -1.05117698322916244824e-001, -1.60512118513622473182e-002, -9.05960651093835334091e-002, 8.04042042939593359918e-002, 2.40087379300726738718e-001, 4.94648892422317743023e-002, -5.00242439582295889133e-002, -1.56267822804235845258e-001, -4.29176804902945893683e-002, -7.27873176874549027149e-002, -9.83481516931545146631e-002, 9.61482612069183423253e-002, 9.90085047832579001614e-002, 7.82704568532407440884e-002, 8.29060197106744334317e-003, 1.36481949859350512599e-002, -2.44875808595766991660e-001, -2.47030463310248443731e-001, 2.70711078088934943564e-002, -3.02057508885834082035e-002, -8.81373684224302095247e-002, 3.30540340572412008613e-002, 3.17634241207113143801e-002, -5.54482596727189601393e-004, -6.00408641395769049343e-002, -3.83402268028280590606e-002, -1.03419284853170284633e-001, -3.48734715527086042153e-002, -7.55322779960328899440e-002, 7.46509259736741898061e-002, -2.07074742281296922397e-002, 1.48417138815240434724e-001, 1.27104805542956576792e-002, -2.45116561782953212845e-001, -2.37488052612716132872e-001, -1.38190268273394978316e-001, -1.11307216643208695128e-001, -9.64767039740796819580e-003, 1.18116491683549817981e-001, 6.50329953573890590102e-002, 9.33235654980131001945e-002, 3.80110714072087393922e-002, -1.88009459650108866346e-002, -1.68194821623289192392e-001, -8.98914912439633256858e-002, -1.32974085871190500496e-001, -2.07953424661508692872e-002, -1.08768748867734917941e-003, 1.13173458027245724122e-001, 6.09099660240175547199e-002, 1.89958195145372210622e-001, -2.86536839632029916025e-001, -1.45480867373301764323e-001, -1.88435200298103372463e-001, -4.86049412771072872341e-002, -1.43954023242665901661e-001, -9.58149864776242921049e-002, 6.25781331683294000934e-002, 3.93649861801595446487e-002, 9.80028181243003809753e-002, -1.55473409293632819361e-001, -2.03892670026793815241e-001, -2.33338000399304329457e-001, -1.38852070531714388846e-001, -6.51862141235376169046e-002, -9.52621291087134974829e-002, 1.18929131432649798361e-001, 6.08283392637572195571e-002, 1.24763889032074332119e-001, -2.38023726329837648219e-001, -1.73907853073420465284e-001, -1.31963599182019442058e-001, -1.07482163737083399879e-001, -1.37572793599845005774e-001, -1.34870735223742238551e-001, 1.44053522387893678802e-001, 9.10078351080270131490e-002, 7.41942114497339960666e-002, -2.10162857273339415132e-001, -2.13561873111532019021e-001, -2.21012092782152280712e-001, 4.58208379298744375441e-002, -7.50333638404325348192e-002, -8.38560606581310874486e-002, 1.20225919091538874239e-001, 8.23214580997641831583e-002, -3.61464696799067841670e-002, -2.81357762170022396297e-001, -2.78512817879524365861e-001, -8.62400250892742248343e-002, 5.92510834909147077187e-002, 8.11358535199012131933e-002, -6.70787655268225840866e-002, -6.93850904092172676707e-002, -9.87393600785074591897e-003, -2.14220545798274528138e-002, -2.57781345367666836488e-001, -1.81168432994341710440e-001, -9.45438625443084934563e-002, -1.68678985847746126803e-001, -6.55045633792835230169e-002, -2.74834691579595342958e-002, 1.12434178404674414709e-001, 1.19723709881905213126e-001, 1.44242023127860968801e-001, -7.19127258168044541931e-002, -1.66039528448390982796e-001, -2.73639162296710758415e-001, -1.00977424706755400385e-001, -1.28118463396467291426e-001, -6.49240717424238028554e-002, 6.40072699365707292740e-002, -4.47050698530806547848e-002, -6.57699141412247945127e-002, -6.82946365884922884648e-002, -1.79412948591132770382e-001, -1.93438298387169638204e-001, -1.09659991385913160866e-001, -1.07850902189075670279e-001, -9.79690964178999562639e-002, 3.65487946567806115672e-002, 9.80176699800388157024e-002, 3.23882807763271798190e-003, -2.62698907171048157139e-001, -6.36681483070460768614e-002, -1.41264835458835252835e-001, -3.69369173125176711303e-002, 2.17680702613208820750e-002, -1.44435456412628282497e-001, 9.75572024676696764045e-002, 1.30646341909112007063e-001, 1.05573403094700330601e-002, -1.71677699073701450772e-001, -1.98676314346396376553e-001, -1.46016885866862927701e-001, -2.12686182115276761762e-001, -1.20589130996231586046e-001, -5.44997686387433330490e-002, -3.47107892432888393008e-002, 1.00806057783017766205e-002, 8.64532643263456190841e-002, -1.85641320218264127551e-001, -2.08099295722681126852e-002, -1.59723022985772927784e-001, -5.61283896712862009903e-002, -1.53770452413623248678e-001, -6.37126844101056771796e-002, 9.23975384137026498066e-003, -2.04581559043825883526e-002, 9.09674907101177404600e-002, -1.38233486884444450871e-001, -8.57925350756098548111e-002, -6.44207544317229041653e-002, -9.84590038876362594333e-002, -2.41380387851461236659e-001, -5.79266203541218202555e-002, -9.27176042770342101473e-002, 3.54374528224405821453e-002, 5.60752939948360590305e-002, -2.45558122352371538399e-001, -1.92372408670240191420e-001, -7.81591364033706048620e-002, 6.57423877832703229540e-002, -1.15935223647013942866e-002, -4.58896401508683267172e-004, 4.41537805779876058043e-002, 9.40560227002498056015e-002, -5.04201710313036330358e-002, -1.40057168048066671417e-001, 1.72803823107856475982e-002, -9.66931754320876496456e-002, -1.31641585999948323993e-001, 9.98515325851472707042e-002, 7.30449404975313937305e-002, 6.08688424339375380723e-002, -4.95409557836337388625e-002, -1.03171488949755606190e-002, -2.62516374111530018109e-002, -7.09650507496070379054e-003, -5.49163264253029470563e-002, -1.39841708397880643694e-002, 1.72909263560747650246e-001, -5.50504539054758462724e-002, 7.27729776915241738378e-002, -8.71143241789794214869e-002, -8.88679620763680039319e-002, -8.45704059214341385964e-002, -1.71034566951952848868e-001, -4.72343161166627820147e-002, 1.21322018696978228824e-002, -6.09092166614384547541e-002, 1.19150094837487036115e-001, 1.68143417824083096779e-001, 1.14151709651884106234e-002, 1.42584061170939413454e-001, -1.54554593791543820602e-001, -1.65750144324157133724e-001, -1.67971630533547883202e-001, 9.20683449719162383396e-002, 1.14227195253426505595e-001, -1.02490288018014602534e-001, 1.55275135278944657197e-002, -2.52378227407244644376e-002, 1.93169720812004758193e-001, -1.54687090567132284891e-001, -1.39376658698431910022e-001, -2.04288862560526585099e-001, -1.71314720760469291899e-003, -2.21799760384919740497e-002, -1.57161020293121872493e-002, 1.09199850159890560208e-001, -2.71813085760283651426e-002, 6.48230755398502139775e-002, -5.69453523728884192234e-002, 9.29791747923266187481e-002, -7.61684533747646885793e-002, 1.05684931123989338947e-002, -1.45997852451433068888e-001, -1.52732532068527965263e-001, 4.18133881261370660143e-002, 1.28587175876165166200e-003, 6.35174558965233698737e-002, -3.47661326806593048988e-002, 1.02239312770408846687e-001, -4.26905457710557503792e-002, -6.50979898632987746820e-002, 3.91039151335126136666e-002, 1.69607394571335452771e-002, -2.82746570719371176361e-002, 5.92470210532283839133e-002, 6.28061177384434642101e-003, -1.91180849948098530167e-002, 9.44124634886323553518e-003, 3.47422756382467431968e-002, 1.68877813553844104144e-002, -8.25336919471802016313e-002, -8.68320897007552466862e-002, 8.15517893453761161249e-002, -3.78598567111953568376e-002, 1.05309242870025451810e-001, -8.61871164052026017544e-002, -1.23914600033338526130e-001, -9.42162013390994146356e-002, -5.52212014441530521514e-002, 4.90269754506428220853e-002, -2.55390864162366275358e-002, 1.23024154851095676722e-002, 6.83693927629627495879e-002, 4.60041992800436158606e-002, -1.60109076007609943404e-002, 6.59195717601553186210e-003, -1.29081234856714376080e-002, 6.40379446590997047917e-002, 9.02743601533999018294e-002, 5.70169664294450373454e-002, -9.64607817983243742699e-002, -6.56841313388981246080e-002, 1.33674811130481907551e-001, -1.23217806262444593002e-001, 2.77399654819698825159e-002, -1.05516085385327057500e-001, -1.00114493402849516479e-001, 6.51581205403231333850e-002, 5.07666722003222437021e-002, -6.75129008456282070361e-002, -9.29919815952671841019e-002, 7.49195279559539545344e-002, 8.11539424351622102650e-004, -6.54262926557379886905e-002, 4.75951389652766888166e-003, -8.62932462883474055149e-002, -8.12055159823038275047e-002, 3.86041703465790156380e-002, 6.28145317833120886419e-002, -1.09947688998685618594e-002, -6.20810852508711097375e-002, -1.19905397772976027304e-001, -6.52580052450724926866e-003, -7.13992541855575091336e-002, -1.64676322449572726248e-002, 1.51507367580675181978e-002, -9.11902393522460857911e-002, -6.26241058598022842796e-002, -1.07729670005166006108e-001, 1.17426540325283698674e-001, -8.92695358446179559886e-002, -5.99595745573128658529e-003, 2.82502114881895416421e-002, 4.43999195366384935557e-002, 3.89495784223516106071e-002, 1.68100486210901248207e-002, -4.71771258683432240244e-002, 5.35499818983461925437e-002, 1.08998178771269951803e-001, -7.39632506044578391657e-002, -5.23645978951079310582e-002, -1.07982032325063051492e-001, 7.23397988573952210878e-002, 6.12568878202411834510e-002, -2.68167421599360064621e-002, 9.94910809011144842140e-002, -1.27974075162699939961e-002, 6.53322204299779524250e-002, -2.19110147813641048531e-002, -1.44219547839028988667e-001, -2.32875154964617067654e-002, 9.45306971410455193494e-002, -6.02890425194647569529e-002, 2.08151621619700639976e-002, 9.47978114884994588207e-002, 1.12542953567243378399e-001, -3.93474003684491091537e-002, -8.04374837296828394846e-004, -7.37971726719363341207e-002, -6.15390356545819916523e-002, -1.26856263474552199977e-001, 1.78908292505812471784e-002, 3.95134247053571877051e-002, 4.81177844365557050299e-002, -5.35278703419920023898e-002, 2.88240310821807413366e-002, -8.41257714275959328498e-002, -4.47156691905854913882e-002, -9.34914857711972580034e-002, -1.33652923955931823147e-002, -8.75602056957520691327e-002, 5.53413032743716032380e-002, 6.58526568319624250325e-002, -6.06699320111142303968e-002, 4.10377149871652760482e-002, 3.13086893131799062773e-002, 2.37055362039983556766e-002, 4.40049298265598534674e-002, -4.67740428195685953305e-002, -1.66950482637025221511e-001, -1.96282011268384487535e-001, 9.13557097199867466572e-004, -5.29983230508205699349e-002, 1.48520859961360274237e-001, -1.38118755619970917659e-001, -7.45839623785134464562e-002, -3.37670068656646463201e-002, -1.00304519142369222284e-001, -1.33011200231343662548e-001, -8.43938816234214017609e-002, 2.04124104564630155789e-002, -2.61722806294886096989e-002, 1.46344936493947586076e-001, -9.26010245261576353526e-002, 2.66379830937592699397e-003, -8.61667647069384451397e-002, -8.66502548762111690639e-002, -2.12169393497391774867e-003, -1.68808189237963646168e-001, 2.08074292408012527511e-002, 1.14990253843284498392e-001, -2.68942081406293893864e-002, -4.44686485242812151730e-002, -1.08081110830451423976e-001, 1.02255496385737679188e-001, -1.55525274211373631950e-001, -5.22318097153387853049e-002, -1.10265801222484416400e-001, 7.54702445967618262834e-002, -1.94844400844053668165e-002, 1.11003863527850965554e-001, 2.70483959355036218675e-002, -2.84060598168063144220e-002, 7.94066727796684523888e-002, -7.28445797385276760938e-002, -2.81501955717013661873e-002, -2.66051095628209617605e-002, 1.04934356615326712658e-001, -8.77776413803152150833e-004, 6.62666240130759115479e-002, -5.27339114749756365796e-002, -5.31483254046395126036e-002, -6.57813917849344731437e-002, -4.67759100567453137143e-002, -1.60644048954463464218e-001, -1.27334876701826027467e-001, -7.29177882499756624401e-002, -1.05527630802116745290e-001, -2.09193190811215248837e-002, 8.40983504814532822902e-002, -1.72631157365341139642e-002, 9.27477221133527762742e-002, -1.05617758518302823356e-001, -1.11016088706491253268e-001, -4.97929936950734230994e-002, 1.78098576921302438614e-002, -8.28246200402521087769e-002, -2.05004535577646678640e-003, -7.48753299137934341667e-002, 5.13938516852420132497e-002, -4.77382849108756654455e-002, -1.13111293425217973585e-001, 2.99620611334313995122e-002, 4.44566980934337357967e-002, -8.13939639012576654498e-002, -1.14493663488698119157e-001, -8.75643483484143392293e-002, 6.41603684092640763614e-002, -4.58563786014784188771e-002, -1.30405725563085578278e-001, -1.08356537422412468885e-001, -8.90061236444434217274e-002, 1.67741088122574204256e-002, -1.36450460448329813357e-001, -8.85631374448466457405e-002, -7.32082710746620318742e-002, 1.14666213641917105748e-001, -5.73056378381575290404e-002, -2.96251964925015737196e-002, 8.03769040188423780635e-003, 2.66707845332538641403e-002, -8.38281429430204200193e-002, 3.33513096869707259540e-002, 7.25130638285040041158e-002, -1.81443749890910985267e-002, 3.22067665057492458214e-002, 1.08748812657416579763e-001, 1.75751832639637790845e-002, -1.21031481828572415327e-001, -1.33641420692276663429e-001, -1.03164121613571801994e-001, -8.29331475872151085982e-002, -2.26177576995746226762e-002, -1.00642512686949764378e-001, 7.33596504584638348101e-002, -2.02227630568016375490e-002, 2.94242736924789013986e-002, -9.47695962196991870119e-002, -7.66097008116347396450e-003, -9.71137799134160900616e-002, -2.65574812980763352854e-002, 1.04542199011087424965e-001, -3.17508866387616883742e-002, 8.39234756694354350204e-002, -4.57626503176492560598e-002, 8.79271002329901352201e-002, -8.36483478178707967610e-002, -1.05244163322326070298e-001, -1.15743956389810692675e-001, 1.86625787050496323716e-002, -7.66863323900878329775e-002, -8.43558489937190347785e-002, 7.66203598702576288426e-002, 3.51802490608000423267e-002, -3.71484223519252185208e-002, 5.56662018827875360039e-002, 1.61128890069560937182e-002, -5.63727185312609541112e-002, 7.82671455380229696974e-002, -1.50297776132943511351e-001, 6.67467411153883916075e-002, 5.68765911416651073762e-002, 5.77099189441588333871e-002, -3.68709202901467691937e-002, -1.16574049419184561094e-002, -9.88467491071546161541e-002, -1.10949765114186693626e-001, -1.22168959362152190762e-001, 3.86806030994657212840e-002, -1.51116776398084497190e-002, 3.43487930247193054556e-002, 5.89817131480747727790e-002, 8.59610256655444354701e-003, -4.31575363014790672200e-002, 3.97596965243652775146e-002, -1.64355801214550057560e-003, -1.31666748172989928056e-001, -3.66414255251132636726e-002, 1.27417631147175546003e-002, 1.89133964157558835673e-003, -7.33263079474519297030e-002, 3.72151244015970078527e-002, 6.82335066857229499693e-002, -7.09804450707760548056e-002, 2.39258963310712662043e-002, 2.81553521607542846933e-003, 9.20282841772187415463e-003, -1.16757876712415151199e-001, -1.05773128806262967094e-001, 8.90114360286389100230e-002, -4.25717936246281097867e-002, -5.08842091941040797209e-002, -7.86092566279965321296e-002, -8.80881001692930820646e-002, 9.46246291623809437921e-002, 1.63089071432729548761e-001, -1.18704665269149134410e-001, -9.23430940829327029373e-002, -1.80951488545076158432e-002, -1.59633388872654630175e-002, -5.83589092001686321476e-002, 2.60052512488688734871e-002, -1.42005415449693445096e-001, -7.58701964841560633213e-003, -1.69196651530074293479e-001, -9.03166620200817893416e-002, -9.86658305175123762076e-002, 4.66262420549156259009e-002, -6.44879512827726958379e-002, -1.91764281941057601610e-001, -1.50896731563721520075e-001, -3.47051098926981632653e-002, -4.60338815560986033826e-002, 1.22879581358127706187e-002, 7.43142804408796625593e-002, -4.31382968072250919112e-002, 6.79242234380232762225e-002, 6.71007735411800754211e-002, -1.21922200600677418936e-001, -1.21381500172263775972e-001, -6.42087147557431348055e-002, -4.68282432760022890306e-002, -1.40243957634774762955e-001, -1.27739546386245433895e-001, 7.51288376017275189023e-002, -8.73353993781172260880e-002, -2.96930119051401070207e-002, -1.03251983289679247907e-002, -5.60834419213582929808e-002, -1.09729140968895647057e-001, 5.54747613689372531809e-002, 9.08460343095043310058e-002, -1.11754326248874977234e-001, -5.85378893520552487373e-002, -3.37629611215563285587e-002, 7.02707099677598590048e-002, 2.72068102535770427186e-002, 4.15462945351435936070e-002, 6.39731473396151356647e-002, 7.54274954607884184909e-002, -1.03959041189819731410e-001, -8.48955545182739357291e-002, -1.32845723458163578884e-002, -7.10751422519168424285e-002, -4.68059487947054680967e-002, -9.06142767087983469487e-002, -1.24973986874968731597e-001, -9.83784841251744701651e-002, -4.67577322345339024823e-002, -2.23141527540176506927e-002, -7.96665947603640151042e-002, -2.31521354876801019329e-002, 1.37342683157784722914e-001, 1.12261973204503442969e-001, 7.56351411239890025762e-002, 3.86401452664976025053e-002, 9.97136500041398005090e-002, -1.57503290527758965656e-001, 6.00666422106224812127e-002, -3.14008529720105136751e-002, 2.71317681852730786807e-002, 2.61575786009029739865e-002, -1.33513430740077078396e-002, 8.83664305293752200265e-002, 4.58600682453267766148e-002, 1.19025145277290370083e-002, -6.81309693150219664037e-002, -1.92332954367357353287e-002, 9.60786016931426539722e-002, -2.91054120401430561904e-002, 2.20364112984697529257e-003, -6.92883197972817832522e-002, -7.52873424016877873521e-002, -1.08936375869820023521e-001, -9.37100496434779967059e-002, 1.24889560069544935939e-001, 8.40831906133666651115e-002, -2.21763630678054601830e-002, 1.13191096082675926593e-001, -1.89861523683600499912e-002, -1.50257807105952323479e-001, -8.85202582530092707547e-002, -1.18248185179084419616e-001, -1.37346914824496325880e-002, 7.17116331874963642418e-003, 1.86107312738120422857e-001, 1.58758131657990131380e-001, -9.64971230662827333946e-002, 9.46253156798789601956e-002, -1.25647491494184859739e-001, 8.29825114405220998215e-002, 1.08510968507275692985e-001, 1.50827649702171856516e-001, 1.03691233666465973395e-001, 2.02615256618725703142e-001, 1.21024463300329385151e-001, -1.57838462551395636302e-001, -1.00936001228227684168e-001, -1.72412696553498584473e-001, 1.77766804957567803314e-001, 8.89061297023621133206e-002, 9.31285984579046099974e-002, 1.88827745360784018946e-002, 1.31333541317948776506e-001, 2.11523947678073698242e-001, -1.14983181284205593364e-002, -1.68717202834686719193e-001, -2.32114554703514802680e-001, 1.99385450999134627992e-001, 9.84833902173266884095e-002, 1.37421590934787674065e-001, 2.39093148960050315421e-002, 5.71913192791374397350e-002, 1.59348875848926013754e-001, -1.38587386964397735190e-001, -1.23663990314779495550e-001, -7.96942405729705594108e-002, 1.30488161691747206472e-001, 7.41056342500253789618e-002, 8.29186825057308535269e-002, 1.24227318244664153291e-001, 8.60388847487246199996e-002, 2.47410382928363981048e-001, -1.74176526851434892995e-001, -6.89956678529289324509e-002, -1.88307624259427930369e-001, 1.13809601627103629262e-001, -2.24201831001353581174e-002, -4.17963025723674247436e-003, -8.32321727382487053237e-002, -1.24451889452871888864e-001, -4.96884595279583618499e-002, -1.06792390244239393526e-001, -1.14321288205614504663e-001, -2.00838516435824759876e-001, 1.10729115210633013988e-001, -2.89775061233857669785e-002, 7.71864850807864235488e-003, 1.81130814979346910221e-001, 1.16384754837281848006e-001, 1.16962068527603366141e-001, -1.41382136729724855462e-001, -1.73454105531201774326e-001, -5.32260253978834377286e-002, -1.43355600344191841389e-001, -1.85270385679197971407e-002, 9.07971877920352556449e-004, 7.87357797786988194977e-002, 8.36819846788669774451e-002, 1.64468389341333093290e-001, -6.39558511810264240793e-002, -3.93514269069231217846e-002, -8.90508657690281535402e-002, 5.70062350110092999622e-002, -2.93167907977994364466e-002, 1.18377238889474781236e-001, 2.64565649781830558585e-001, 1.20237295637518643021e-001, 5.09235926986201306588e-002, 2.41722982132507729913e-003, -9.67776488836051135278e-002, -7.65844207930236192672e-002, 5.93642003437359552787e-002, 8.21833863866699015910e-002, 4.17303581542715143482e-002, 6.87306865099270979796e-003, 1.49934461389525458541e-001, 1.78692913503042283274e-001, -9.69012947651006761873e-002, -1.47201383352750764244e-001, -1.89094574125081432703e-001, 8.61659524447653674128e-002, 2.80173767134846568583e-002, -3.08385592770416550046e-002, 1.28622133140330913159e-001, 5.85451072717739010032e-002, 1.50720389139872595896e-001, 3.32988012317703210852e-002, -8.65008574532351165454e-002, -1.68900090613123499139e-001, 2.81728347924686470249e-002, 1.22954705841998496174e-001, -3.38803890655502634721e-002, 7.25368677366173136845e-002, 4.55523921114075677763e-002, -5.71131810328004418942e-002, -1.50487250467451455505e-001, -9.51205660738231734141e-002, -1.39720709204981252682e-001, -5.08618231491713215786e-003, 9.28174285710139518324e-002, 1.30625816878358527034e-002, -3.21297676162784831555e-002, 8.76654111810942493488e-002, 1.53994638813246265130e-001, -2.06788040181368093506e-001, -9.68391910254185334095e-002, -9.80231341910373088488e-002, 4.02667780282149542770e-002, -1.00804882004152829289e-001, 5.74126462501809362027e-002, 1.62261848626693044872e-001, 9.68599860819817637392e-002, 7.65891050474340334686e-002, -1.12884149560766783305e-001, 9.49302086518693036266e-003, -3.46844457808412401367e-002, -3.76695854738404029005e-002, -6.15224838471577772925e-002, -1.08229216603574138200e-001, 3.53095556894506626411e-002, 5.32423310332874877293e-002, 6.36947212829757497543e-002, -3.09148345383258998931e-002, 2.78042935007577693418e-002, -2.04888303262735743671e-001, 5.93267847823133048779e-002, 8.66025269656818114106e-002, 5.00644267517007524049e-002, 1.29104049989267666287e-001, 8.68943913623090591347e-002, -6.60318578650626875071e-002, -8.61239505192552406987e-002, -1.27466585917044072929e-001, -1.51289284712778970832e-001, -9.46730293718792276225e-002, 1.05182985531800735068e-002, -1.07814820965516297568e-001, 1.14648436255223432068e-001, 7.02455729498178277348e-002, -1.49501442934253953726e-002, 7.60424424701787622649e-003, -2.59341686645780285236e-002, 2.39143383741770403084e-002, -8.48307098866043357566e-002, -5.57813247948515771035e-003, 1.26238610508786625042e-001, 1.25305785167322686346e-001, 3.27941841187041824290e-002, 5.72920437335394938660e-002, -7.05504760409647602160e-002, -1.53068395751315890901e-002, -1.12276712970223929711e-001, 1.28240402417141408087e-001, 9.86108966938934183855e-002, 6.20930008929542892604e-002, 4.27405507012346766449e-002, -2.39885843068949472512e-002, 6.71338100054980901898e-002, 4.53672773807494919551e-002, 3.02366144084191129648e-002, 1.78794012838214382011e-002, 2.00733648884585565153e-002, -1.31072271916093767430e-002, 1.28289296730740520758e-001, 8.62381355392523134273e-003, 4.78847115362260392080e-002, 1.42962838362634431233e-001, 2.10541230927866473976e-002, -1.30288943248955652043e-001, -4.17566856363709854039e-002, -7.25232678078858855608e-002, 8.87495437143914073230e-003, 6.65157932426289760786e-002, -8.06905242882140633087e-002, 6.64352243386720359153e-002, -8.42752922638774076836e-002, -8.04623076525968622397e-002, -1.32205411246737347675e-001, -1.81596475853540995082e-001, -3.09528570159066998557e-002, -8.94511799449274197515e-002, 7.72371608212128191173e-002, 1.35526642445324696507e-001, 1.10593295926150858577e-001, 1.86071665369265115686e-002, -3.71404105697952721665e-002, -2.00017113873954960335e-002, -2.95002226856177079961e-002, 1.90065936093836325427e-002, 6.40286480309949918022e-002, -9.86871097689627913008e-002, 1.90192439799384271915e-002, 2.46281604277832771865e-001, 1.01314094271675883552e-001, -1.53589821647015595252e-001, -1.35161851103900498838e-001, -1.41914912089151579178e-001, -5.23783616600453014178e-002, 1.09726732976615046211e-001, 6.72444291768316271263e-003, 8.91716750417136938545e-002, 1.65907261542581785374e-001, 1.49290889215559580139e-001, -2.39158148301542666792e-001, -1.41797853802582779492e-001, -1.04135707211685940576e-001, 3.00873841259388374869e-002, 1.25752081975089691213e-001, -1.55241975555365317035e-002, 3.76920314319499974443e-002, 6.96329533174033094012e-002, 6.27373164240046521378e-002, -7.98311037131645417908e-002, -1.51426629718857369555e-001, -1.74139240340438733456e-001, 6.92445087310747109388e-002, 5.74042876204074389856e-002, 1.37083485031927465592e-001, -6.73249201325979013122e-002, 1.19620992959224223262e-001, -2.40873308960297925763e-002, -3.80972121803480612279e-002, -2.04056888143341746966e-001, -9.47050244161768417506e-002, 8.55157276800342334988e-003, 9.54707410698582004116e-002, 2.52749642711337790812e-002, -5.24404611224736222352e-002, 9.16135316986852882293e-002, 1.45668018270158544647e-001, -6.19023369288830629942e-002, -1.04473148318461730999e-001, 6.92180806740795295795e-002, -7.96403142668218322342e-002, 1.35264888796943316684e-001, -6.60358687845659375615e-002, -1.70305774011691203607e-002, 1.71743474346489094495e-001, 1.33701993735150289483e-002, -9.34445075346247849835e-002, -7.85384449306746612596e-002, -1.18829840432325223309e-001, 1.34564684454278188364e-001, 1.69728341730282838995e-001, -2.82893481798316770784e-003, -1.88292048376014660438e-002, 2.80195442207841899362e-002, 1.16652703395477119752e-001, -3.12369503423527081210e-002, -1.78376204976746416397e-001, -1.14915378454852223911e-001, 1.88761758651269762055e-001, 1.72831665066223300053e-001, -1.70382253428884855584e-002, 2.14624481717271033132e-002, -4.91081842332058912670e-002, 8.52901171346932551742e-002, -1.34492170673329886066e-001, -2.06514794511349769612e-001, -2.44018132410561729151e-002, 1.40674331773620431285e-001, 1.38504375797032369677e-001, 5.72107989179074516439e-002, 1.56048317423200993970e-001, 9.75935105868006719243e-002, -7.17819708448493298825e-002, -2.18745814045568254258e-001, 7.14278211349638272876e-003, -2.14879474616056803660e-001, -6.26354835285805322531e-002, -4.40738090813317662242e-002, -9.42537697149392443563e-003, 7.65754796729510231468e-003, 6.16569995667930609295e-002, 1.16248335221749737878e-001, 4.73269390510754478507e-002, -9.93886345395410542025e-002, -6.24148403135455290269e-003, 1.26443978620017511566e-002, -3.18054134398682714080e-002, -8.70602876537627558273e-003, -3.59548112740553996169e-002, 2.15073965089754154389e-001, 7.52557657448713474002e-002, -8.64110417052281476469e-002, -1.86463301352304544611e-001, 3.86002609956199171926e-002, 1.34197030860650934336e-001, -1.46296903178638089404e-002, -5.70760812939726663862e-002, 4.58281665835956544819e-002, -1.65473958273394061713e-001, -1.30727572392257629375e-001, -4.47488250238697246597e-002, -3.52450262542815945244e-002, -1.33791242753220324113e-001, 1.82622993862856033975e-002, 1.42161482288491406584e-002, 1.89611845433508091618e-001, 1.30946522006312095904e-002, 1.33179379144064136131e-001, -6.79643092441994944863e-002, -2.03000480346203424076e-002, -1.81078087302685347693e-001, -1.20638760371996320298e-001, 1.96117849451571846231e-001, 1.83637090007493591903e-001, 1.80708913707600227205e-001, -2.58581573857100954772e-002, -7.95176235636568390364e-002, -2.22531382089673109015e-002, 8.20060534597627163733e-003, 4.01895749375155916794e-002, 5.10577692190971738073e-002, 8.01400519360830759785e-002, 4.47561459127478050712e-002, 2.97148166390142666471e-002, -1.56135052446821388783e-002, 9.14320376156504965870e-002, 7.17138480487688467768e-002, 4.45346392411134217593e-002, 1.13278616091401190813e-001, 6.46752205965539228583e-002, 3.30978747030002268259e-002, 3.54975756154672153486e-002, 6.59130810169345354721e-002, -4.10482294166581579420e-002, -5.63839464906650197906e-002, 5.52637371813619049377e-002, -1.31194954352474441039e-001, -1.24817325272246898438e-001, -7.49848258864645039745e-002, 3.25934823100782061767e-002, 2.69254347894270995578e-001, 1.57511888663890597950e-001, 6.99833120060397995132e-002, -9.45375627328774864599e-002, 3.09567268796655491181e-002, -1.29895778963995067734e-001, -6.45339984595847022952e-003, -1.19677274751016901599e-001, 2.47826905350573639675e-001, 1.92702131358738482092e-001, 3.04381740431890368548e-001, 3.49174670172775619692e-002, 4.04153628507940287928e-002, -4.05829991150849778148e-002, -4.43953197546526179273e-001, -2.96533144569210427299e-001, -2.02855866704193893435e-001, 3.99241901762662054765e-001, 4.64977689116745085407e-001, 4.45604825033409424062e-001, 1.78307111897920561594e-001, -8.13350502256647220345e-003, 7.89447150923690138535e-002, -3.94459485208318971772e-001, -2.67301935076262875413e-001, -1.80956421816157120297e-001, 4.89882121565350714398e-001, 3.84432076751863194275e-001, 2.87114499497263420125e-001, -2.11280765293757333279e-001, -1.60180529145910105493e-001, -1.42021585185426846287e-001, -1.77858627357614401676e-001, -1.89181033925019670416e-001, -8.65093452614606600592e-002, 3.50219215556857976779e-001, 3.26967321005532274292e-001, 3.41906340036581934960e-001, 8.37817590654894306379e-002, 2.76155018116271931683e-002, -1.42520668078184968575e-002, -1.16146959479014003080e-001, -3.35454243862619294614e-001, -3.12405142611961339494e-001, 4.11523479568214667346e-001, 4.70359003361396466047e-001, 3.17289211171101592779e-001, 6.67390970280004602877e-003, -3.99586669640015559879e-002, -6.39836282533621514279e-002, -1.77549746067094033064e-001, -3.11332342808691542313e-001, -2.13950717833065490181e-001, 2.65633218006713800463e-001, 2.46134548739420394581e-001, 2.25509740290422200371e-001, 5.19066650182398031665e-002, -1.46214393097357578388e-002, -7.54241685949922496812e-002, -4.05552900648649738979e-001, -4.34148489344680754698e-001, -4.78460440146071419587e-001, 1.89970662496627751281e-001, 2.58790061690831407759e-001, 1.72728684222436812412e-001, 1.84910150285271412951e-001, -1.65289689672111383967e-001, 1.31097294309520218114e-001, -3.07921903120311646340e-001, -2.27386137666079124475e-001, -3.88338865304998726025e-001, 2.38740602772629179062e-001, 4.12297987394436293851e-001, 2.05236084330084167515e-001, 2.22750184502357277683e-002, -1.89740434126670076687e-001, -5.86687644762549573296e-002, -2.71949643855121381275e-001, -2.13841726340478432977e-001, -3.37416818268544083104e-001, 4.00231685910763301806e-001, 3.58078286986458382835e-001, 2.84608045951416976926e-001, 1.70286159755539290295e-001, 4.59761107447581029994e-002, -4.08023686957487696780e-002, -3.06270876053460094912e-001, -3.27777887397805667291e-001, -3.81487732350176078633e-001, 3.73515203128066408667e-001, 3.23633815871223251559e-001, 3.54919248458569314142e-001, 5.17188387523191475670e-002, -7.91979375903550109062e-002, -2.46707604294390620003e-001, -2.09865727108124539013e-001, -1.46060575750905974335e-001, -1.20191322319996865553e-001, 2.85809340243801390802e-001, 2.45049148110617315277e-001, 2.95980388039650210708e-001, 1.77147236243832620350e-002, 2.07358604159628701069e-001, -1.25038292900674447017e-001, -5.62778971265799010659e-001, -4.55044242256773701083e-001, -4.02492632688282281350e-001, 2.68385699710417868769e-001, 2.63224525052666247227e-001, 2.60974487945977495773e-001, 4.75823626413437034133e-002, 1.01498304471574606750e-002, -5.00379153044116804089e-003, -2.82342509545544628757e-001, -3.27329544230246294312e-001, -3.95432272109158877704e-001, 4.15402306206691607215e-001, 4.49355089168058718929e-001, 2.72658356010629376875e-001, 6.94559466046357348867e-002, -5.09768604180292905781e-002, -1.14469555848304135881e-001, -1.93958892678050609515e-001, -3.20546496756810850304e-001, -6.15058034622768950994e-002, 2.49651504407177621259e-001, 2.72980330490557643319e-001, 9.27045570238396177132e-002, 5.46339802931584475609e-002, -8.97928680484465918665e-002, 9.70682748912095882954e-002, -3.27701392993822449018e-001, -2.71438396732749165352e-001, -2.10426501768212037558e-001, 9.78362288238815991370e-002, 2.89322084354253217242e-001, 2.79433477013177056225e-001, -3.12728830706975047260e-002, -4.00086135063318290572e-002, -1.20672738377136684607e-001, -2.64614175251199568173e-001, -4.73746378368348264321e-001, -3.05064888930388466992e-001, 2.08303564660495155181e-001, 2.45430063273357340625e-001, 2.81189409705336901268e-001, -1.22204011886466335640e-002, 1.31077184340356284187e-001, -8.94941629953678314917e-004, -3.73596022863003640602e-001, -2.72094424154527503301e-001, -4.02024616751456620456e-001, 2.73447070789139767832e-001, 3.64266633543112450244e-001, 2.95214573620708742308e-001, 1.76605687472313338526e-001, 1.88846660871334698362e-001, 2.52024176909136643498e-001, -3.79736656400049055193e-001, -4.94922688170746083447e-001, -4.97038156036996303655e-001, 2.73451680424135590286e-001, 3.05077751178450429226e-001, 2.69705738872094369363e-001, 1.40260144436736816642e-001, 9.64668127312062577416e-003, 2.80876912209665832720e-002, -3.49114380374781818617e-001, -4.19123348556571684309e-001, -3.16546847424102384405e-001, 4.32416664453912358290e-001, 2.14561028783123552977e-001, 2.95426672003417212231e-001, -4.30420549399908453081e-002, 9.60103928448654692085e-002, 1.23714335928373164730e-001, -3.66328718486057636206e-001, -4.03864626794606607074e-001, -1.82898123786404132041e-001, 2.96406331847940351931e-001, 3.33613921789481127078e-001, 2.18506160419789235982e-001, -3.89470129433663672658e-002, 7.75651017931382052994e-002, 1.57590112461720333048e-001, -5.10828789522653092803e-001, -2.87835113854160329350e-001, -5.04570380376378913034e-001, 2.85488881727204213412e-001, 5.05408634771518983086e-001, 2.46983555413389344046e-001, 2.43875695571875578116e-001, 8.75550471080359105081e-002, 1.92471809548600297779e-001, -3.34325636905440259916e-001, -3.10678063859924635803e-001, -4.57424935318708092424e-001, 1.76533823965013214607e-001, 1.87770155501607638460e-001, 2.32858057326724904312e-001, 3.07466092371529109428e-001, 2.54235572590176206464e-001, 3.52159913350274411670e-001, -4.20616174363459882635e-001, -5.10372014946765872878e-001, -3.21099140313656050694e-001, 3.20114116622213729091e-001, 3.35743570763179899341e-001, 2.90211639856886305378e-001, 8.89321398520414724276e-002, -8.59172058696497792374e-002, -8.51214649646923719739e-003, -3.64578641307426676299e-001, -2.76184935496163130875e-001, -4.95263082975386292883e-001, 1.99258090644534202607e-001, 2.72943913692585859998e-001, 4.83077386120781882006e-001, 2.09811441339868648415e-001, 1.09460166749234949490e-001, 2.14488919611803864618e-002, -4.96620114640726084687e-001, -3.87798064482901660988e-001, -4.21532418497817362724e-001, 1.63281682723510873645e-001, 2.77926647617276367797e-001, 1.06820564102527826300e-001, 4.34157393777908628962e-002, -1.56164318477054527706e-002, 4.03345508660161479464e-003, -2.20082226775804384866e-001, -4.69826280372917293171e-001, -3.66876444460490336308e-001, 1.49310001708805567544e-001, 2.45062818750554689551e-001, 7.74890587044483603041e-002, 3.49416155311414872164e-002, 1.89868757489510348035e-001, 1.44160103071474060554e-001, -4.59850447163760944758e-001, -5.00480683646944091159e-001, -4.26499296189280563407e-001, 1.20216128825890444798e-001, 2.85779801144802836355e-001, 1.15593656506946571016e-001, 2.60722400555088752727e-002, 1.04922353698651230069e-001, 1.53329442555539905563e-002, -4.79561011738626030709e-001, -3.85056461056131005272e-001, -3.91708211246967641372e-001, 2.41998869726779253231e-001, 2.10702997742670122827e-001, 2.53815289144555811252e-001, 4.07777692121053109142e-002, -1.41619304275029250784e-002, 6.83838860671877879494e-002, -4.37574180648214294820e-001, -2.80029768151110303176e-001, -3.74606178806630607525e-001, 2.74393095460141955844e-001, 2.44638367897741626500e-001, 2.40312281829062363014e-001, -4.17174324361611111728e-003, 7.12480002423876990214e-002, 1.84819720031932033244e-001, -3.81348159662142693893e-001, -4.32235608608465771141e-001, -3.80777878781346612591e-001, 1.08982797032922629210e-001, 5.38611581568270401943e-003, 1.10872085964605363029e-001, 7.42362764839425287589e-002, 1.82292778962380302987e-001, 7.09014021781534803379e-002, -4.20893697297240299005e-001, -1.65953904970169180411e-001, -4.02344313568845479701e-001, 1.50232066943018563454e-002, 2.99310467265570812057e-001, 1.33198725940941203882e-001, 8.47505622625757404354e-002, 1.87295889735735084092e-002, -5.24703070592506606862e-002, -3.19857161591984018312e-001, -2.91926947084206578342e-001, -2.68235786999702574551e-001, 1.01536451749028158731e-001, 3.26259948114554887422e-001, 2.01193008985795174226e-001, -1.50706311516562319747e-002, 8.38639610178647798566e-002, 1.54858805253365899857e-001, -2.03400117328655510862e-001, -3.49520810339703114078e-001, -2.66271736163715855294e-001, 1.49004080815784367697e-001, 2.32475817504039700134e-001, 1.83325595516403538898e-001, 2.26474988541110963669e-002, -1.27059322291013909734e-001, -1.35464487996544480364e-001, -3.54996414488840783541e-001, -2.05136671207984455645e-001, -4.38795924760754962879e-001, 3.64078677681196616334e-002, 2.55857326251521077776e-001, 1.06754335896045854382e-001, 1.00281465469326563911e-001, 6.73749700781175603348e-002, 2.22885506379191966619e-001, -2.60822726602017440634e-001, -3.16067119205929614179e-001, -2.44493187341576045934e-001, 1.55367811731984661883e-001, 5.89290183875106760025e-002, 3.18179571454145548870e-001, 1.00984057793421427851e-001, 9.19783828303639416912e-002, 4.22314864945398382723e-002, -3.54155552830662356811e-001, -3.79194406677741624456e-001, -3.94536532060418609902e-001, 8.74729327583693150316e-002, 2.57163098252809363409e-001, 2.69404178130687232962e-001, -4.07032847943415362901e-002, 1.50479801017365411031e-001, 1.87148405425611980002e-001, -2.80722303238545300985e-001, -3.06025223174033134121e-001, -1.92247501592419905991e-001, 1.08834709220016964681e-001, 2.53187345104885497271e-001, 2.50656598411725273223e-001, 2.65987284405100166129e-001, 2.02887433609860751149e-001, 5.05451444545362074678e-002, -4.31888645456876385520e-001, -3.30028876023007733398e-001, -4.17704800578690804702e-001, 6.75059687344835290812e-003, 3.81217004354363731000e-001, 2.93225449953640138201e-001, -6.05129498450791489250e-002, -5.79693922521685237048e-002, 9.80327435571130278991e-002, -4.48389653250816699881e-001, -3.78212355668536892583e-001, -3.05760243045005652984e-001, 2.51129435090493513538e-001, 3.30153295642123645326e-001, 1.09217511456404375858e-001, 2.07902499815114716331e-001, 7.15145053667116670226e-002, 1.36871486251882640284e-001, -3.21894277199691880575e-001, -4.74267426986157147883e-001, -3.38617974555574074991e-001, 1.33978936824907829406e-001, 2.67331158595638496145e-001, 2.55709599361822859098e-001, 4.57569754814325171943e-002, 1.78817969341184657139e-001, 1.34773069302958181659e-001, -2.62100087925119462628e-001, -4.49242644195647355954e-001, -3.80371515147417849079e-001, -1.30267865482548567124e-001, 1.66658924533825518466e-002, -6.14695187602561296525e-002, -4.37556897633769037448e-002, -1.16289225763405307257e-001, 7.97505991997559393614e-002, -1.14630210202894225469e-001, -2.52722163558602788691e-002, 1.95671314167862979427e-002, 9.64894175309333468338e-002, 1.74219781690592087631e-002, 9.38832468148270149477e-002, 1.62486267451594362798e-002, 1.24837715941065297010e-001, -5.06965028360138528218e-002, -2.36317925063919409556e-002, 5.52530058138761548392e-002, -4.57239326714217603209e-002, 1.12755700778247050509e-001, -5.09042911177387709387e-003, 2.25831967617942871995e-002, -7.34364893886482999336e-003, -3.47342369435074543871e-002, 9.95134871118674296797e-002, 1.03163552605973762866e-001, 6.75516663435048181352e-002, 2.89133102562679142333e-002, 5.63373570980601340308e-002, 1.39091108221714943038e-001, -1.25079808037220543276e-002, 5.74312319352326336452e-002, 1.17979631972062459777e-002, -1.11056090085728753625e-001, -6.49816178293302210145e-002, 7.26700816538306398895e-002, 4.79871727883415810645e-002, 2.83076597898298323863e-002, 1.87143512924707322576e-001, -4.84673896369017670471e-002, -4.37063277016780105111e-002, 5.11491993999171265517e-002, -1.76913457088124816130e-002, -4.63309433955044341902e-002, -8.77475773308089568303e-002, -6.19327164659616083431e-002, 9.80016218186015031222e-002, 5.95101150479543719585e-002, 1.09008914037137232683e-002, 4.70140536821036791881e-002, -7.16093232234270155034e-002, -3.38276891111991342975e-002, 3.91506683378816805474e-002, 1.70857134143046450470e-004, -1.14257489255384703242e-001, -8.62925799903294515891e-002, -1.05579828244840343010e-001, 7.94507331864619664730e-002, 1.44931289243832965574e-002, -5.28935711677986850066e-002, -2.31135843690858100441e-002, -8.97906831768495450330e-002, -6.11803880888944079386e-002, -6.75675281792614546017e-002, 7.72724063854313553135e-002, 1.00675100986635637779e-001, 4.49568160657706494820e-002, 1.10940276072852575528e-001, -1.79840609966695180733e-001, 3.62527040523492882773e-002, -1.49487808022731732960e-001, -1.06572812688381299284e-001, 9.45111631118471795521e-002, -8.33804624739063887651e-002, -2.64661385239091341212e-003, -1.22177827241428064303e-002, 1.13390341558411114620e-001, -1.34227961278796416311e-002, 6.33832971601168554399e-002, -1.43277489365058380288e-001, -6.88688018637426124791e-002, -5.59651473435549759450e-002, 1.98129795752286334831e-002, -2.16589967228186406831e-003, -5.95447780852250488359e-002, -2.37922099755429328205e-002, 8.35739694227150414774e-002, -1.26500631394060203405e-001, -4.14374574981788562633e-002, 8.87503883566243823022e-002, -4.83627807360666114866e-002, -8.88436644493373894882e-002, -2.42173178904033711833e-002, 5.08600228336430690290e-002, 5.17388243970205718991e-002, -1.70828897707070714862e-002, -3.76028026690677433241e-002, -1.17495851165553805151e-001, -1.00867180057268357452e-001, -2.04783142542875246095e-001, -1.00223196150617199773e-001, -4.77647609537288075909e-002, 1.79219389252777356117e-003, 2.85263818501791110993e-002, 9.56822343791811913416e-002, 1.33986996713277625032e-002, -3.24470942634644057834e-002, -1.34819562234377410270e-001, -6.69320716269383442221e-002, -4.83448392382839903236e-002, 1.13534472495795554781e-001, 8.73911819330893541169e-002, -7.18651776210425530245e-002, -8.85630850981809214506e-002, -5.16193988063087250140e-002, -5.33351032911094299904e-002, -1.13600743468105239153e-001, 4.66879600560621832450e-002, -3.33520362664128516839e-002, 2.74376503670548145541e-002, -1.32960188005629059704e-001, 2.87285032862450440128e-002, -4.56336334905785706573e-002, -9.08785266915902029128e-002, -5.43817528176798459238e-002, -1.05392616285174364754e-001, -8.42645343538770200120e-003, -1.00149524357970060029e-001, 7.11522749895373285423e-002, 1.53844162987339331400e-002, -3.58856985606111900111e-002, 7.50086854678891495896e-002, 8.92108399517412276047e-002, -4.77917151412856344717e-002, -1.20865136064106978159e-002, 1.90540032564994327169e-002, -1.15231813417283654455e-001, -1.22540475372284168171e-002, 5.48598819791349806563e-002, 8.92006339164264777652e-002, 6.72670205699144041489e-002, -2.30662300187172743249e-002, -2.16782898140381347085e-001, 3.43391655888344599773e-003, -1.32093247686726089629e-001, -1.71603810039977003332e-002, 9.24137774784064280897e-002, 6.21954974360265037264e-003, 1.42238343127241012587e-001, 3.34000703887823574556e-002, 8.92423979532381561608e-002, -1.27945681669370980860e-001, -2.15108733135701522821e-002, -1.72811988515533310196e-001, 8.22713257985017709650e-002, 9.23632635728584283630e-002, -6.96686370645089175779e-002, 1.48224630162867215821e-001, 1.10260046133546119052e-001, 9.78139583372639037639e-002, -3.47980964622236627060e-002, -8.08265180358365559199e-002, -1.20197043393902164299e-001, 4.73625070475714657348e-002, 5.56590772559996324609e-002, -4.00084285711213641368e-002, -1.02716086477809817601e-001, -1.94332532424177709118e-002, -4.14652177193162441160e-002, 2.17575705636809590623e-003, -1.37193014994234946391e-001, -1.52487188574216975256e-001, -8.15567332626270131979e-003, -8.11818590238993359476e-002, -1.28015373301091435650e-003, -2.35943060427207390584e-002, -5.85377177871687151556e-002, 9.44460623941280469351e-002, -1.79299998435311802591e-001, 4.91651986301319746109e-002, -8.30201905624656025240e-003, 3.04558848964137547644e-002, 1.34884178705092672157e-001, -2.63720815369067503042e-002, 8.09568647764308119141e-002, 4.23466421809333970483e-002, 1.10622813060482966252e-001, -1.15346333546944485038e-001, -6.92241681201948982904e-002, -1.03918665565210954771e-001, 4.22745850620100185879e-002, 6.06400619433237961231e-002, 2.99388235839850302966e-002, 1.41537304319264117813e-001, 1.19808641878550128923e-001, 3.42791180377971863025e-002, -5.17297656883553974572e-002, 1.26907351727227127314e-002, -3.13791316180579010764e-002, 5.33395805179734117107e-002, 2.08730894762432020451e-002, -2.75543947730083720049e-002, -3.99207098454388148445e-002, -7.58359707409103356301e-002, 3.97280141319926033416e-002, -1.64399236788991320868e-001, -5.46483808470927395762e-002, -1.27281532678472836251e-001, -1.14286313740425110597e-001, 2.25003310479845487768e-002, 7.47987621404605854125e-003, -9.81866810267336374840e-003, -1.30089238601582384003e-002, 4.18840988786559342838e-002, -1.18296280877745393911e-001, -4.24276301943378314485e-002, -5.56295350774272320815e-002, -6.93972481680677627525e-002, -5.51038175685436698581e-002, -6.45275857478295605807e-002, -6.68833995951878534925e-002, 6.51325629067108918813e-002, 7.28864568937410972627e-002, -1.03431477917383107812e-002, -3.92755190445019455869e-002, -3.77091903564290842343e-002, -1.68682596311993060478e-001, -1.25731429821699880467e-001, 3.87116568286151735423e-002, -1.11496332022004533691e-002, -5.95365861767530035742e-002, 2.36896691788408136903e-002, 3.99443164390675883868e-002, -1.45749199807258228434e-001, -5.52814804253928190891e-002, -1.07378556146167244978e-001, 4.34571910716970294386e-002, -4.18757436788570330810e-002, -4.70226022845134650208e-002, -6.37937480894469333137e-002, 5.84021692177510900329e-003, -7.93751758265659190794e-002, 4.27131965148083228567e-002, 3.12296355963193328353e-002, -7.73806968957978930090e-002, -7.95874185314319028753e-004, -1.31017783592885711519e-001, -8.26889217517191160711e-003, -6.52742472999409129031e-002, -4.41629814867412484602e-002, -1.10627499387593003499e-001, -1.21630712329942408667e-001, -7.16710950084507719682e-002, 8.00824547974227085589e-003, -3.19992490940760251905e-002, 1.29097028952234755411e-002, -7.92292642973512484250e-002, 7.90929048591881705965e-002, -5.04357331428688902830e-003, -2.34389013333280923912e-002, -1.39227014285637301638e-001, -1.38493407707731025491e-001, -1.22791035760988459513e-001, -2.00249853260668284061e-002, 3.58210036163439521362e-002, -6.74087252184061708205e-002, -4.66506546951703793269e-002, 9.37713234546275475889e-002, -8.07942705792629445316e-002, -1.25968830908499275327e-003, 9.92141756807398203510e-003, -1.21704517818146978891e-001, -1.21950255900190596137e-001, -1.60314347198266295147e-002, -4.29326348023459855585e-002, 5.73948934191441939578e-002, 5.62024514039473691018e-002, -9.52438149977327258577e-002, -1.50330068823181839388e-001, 7.50726380037475965468e-002, 5.18582465314944632273e-002, 7.57610480077649667274e-002, 3.64877495662394094045e-002, 3.18822570776845504170e-002, 1.28100398019320663862e-002, 8.51171750384576049353e-003, -8.93316818668450640661e-002, 1.33457261891244016727e-001, 1.00223685247676514570e-002, -1.94572294594400313494e-001, -5.04449182381922489604e-002, 5.18283532508939867589e-002, 4.05919804260338953905e-002, -4.31673376212242734806e-002, 1.67319481246858692280e-002, 5.95370099412232609004e-002, -3.23468868724677699467e-002, -4.68717173160778169394e-002, 5.37068648226317266192e-002, -1.18895358611246476643e-001, -7.01539944911759721924e-002, -9.71473241111228402733e-002, 1.73943650102161666282e-002, 6.42130413549202860857e-002, 2.76937770360719190399e-002, 4.91665808125914677307e-002, -1.32639149260861177737e-001, 4.51754550695646905911e-002, -1.01118281071800233256e-002, 3.88352943186524510177e-002, 1.62428255515237353335e-002, 1.04820341591278592963e-001, 1.04633453367103078369e-002, -1.20491509532410279171e-001, -9.92350108050580742569e-002, 5.56544522868227461987e-002, -1.98464401947188937014e-002, -1.04588074832493285737e-001, 4.89427568815372360245e-002, 6.72844920162918302964e-002, -7.89506076010390162034e-002, 9.59283088123098759414e-002, 3.57887318536969992189e-002, 5.63501931828212926368e-002, 4.19971136904652153632e-002, 9.19310074002032025231e-003, 7.70348219235862941012e-002, 8.77503168056879556680e-002, -6.10145508880372954702e-003, 1.05722053797005194342e-001, 5.81042975242506698486e-002, -8.28244220221213967026e-002, 1.05828350144346397532e-001, -6.57635043133511509872e-002, 1.80346318237698012565e-002, 4.19499775577136888721e-003, -1.16844164221566355899e-002, -1.17042518172445680902e-001, 6.06178140774410734171e-002, -9.24527063174538088486e-002, 8.70269522497768704961e-002, -9.79913728673770245692e-002, 6.98193015429130620086e-002, -8.42319566572672234761e-002, -1.47280071540618652526e-002, 5.88937049123515396487e-002, 1.48023942196447516606e-001, -9.74769914846176366297e-002, -1.91911173673658778938e-002, -1.06553231159544820050e-001, -1.30733412349263777852e-001, -3.76427157208126250687e-002, 2.58394388760454932555e-004, -4.30934163595886668419e-002, -4.00851045788614759879e-002, -8.49671972015542675827e-002, 8.44603145410799810433e-002, 1.39596048116285231799e-001, -1.12588548183670839054e-001, -9.15090419960869899674e-002, -1.22139825632282136847e-001, -1.45032600700173985864e-001, -3.82122588764235923686e-002, 1.92808664364485932152e-001, 2.34218607504039638689e-001, 6.22891090488300186445e-002, 3.88180005915857509469e-002, -2.90047717574728858292e-001, -1.66535703697116371780e-001, 1.51608510076211899786e-001, 1.77023611200804564803e-001, -1.52582185968494921796e-002, 1.46827368994450146999e-001, 2.45349988125844409304e-001, 4.02653559319196899247e-002, 2.85666947353044264890e-001, -1.69559310315650468848e-001, 1.21395939393163523889e-001, -9.33760406002172305140e-002, 5.86874833574401733038e-002, 1.16751236628683613405e-001, 5.23563778178461405877e-002, -1.93374663094461107793e-001, -2.16767371461374612485e-002, -8.21822668304068998379e-002, 1.54631132771344020904e-001, 2.42254309897458025569e-001, -4.49604658272908450090e-002, 1.51243003821623783756e-001, 1.90763830711586007682e-001, -9.72528304496621948116e-003, 1.10503741926478993296e-001, 1.04014236434219031757e-001, 1.89362443877573144446e-001, -6.83448243390016030308e-002, 2.27745087553714656292e-002, -1.13519505898656974940e-001, 2.72221502294829220681e-001, 4.42432784824500435761e-001, 1.76321773748969345963e-001, 2.47755101797580118417e-001, -3.07656377385081489240e-002, 3.66023685400775899978e-002, 1.36960060410030837197e-001, -2.70638431697532932940e-001, 3.37946511035600860584e-002, 2.01715808435319832181e-001, 6.25135779329289431594e-002, -2.97768151371733784394e-002, 4.13098880764037335034e-002, -4.73019109497275283549e-002, -1.37140663497167525353e-001, -1.48075969921973304988e-001, -3.62850324902965981622e-001, -3.56478058176210421681e-001, -1.08068126760746646697e-001, -1.01102909765020312211e-003, -6.72156866326642510323e-002, -1.30594958125147524858e-002, -9.22294066055543426685e-002, -1.03924472892930205847e-001, -4.28814249266800118221e-001, -3.98705277152443804400e-001, -2.92350890397714835434e-001, -6.81047354134772884443e-003, 1.65290217873859140996e-001, -1.85493642689378880617e-002, -1.18495065369952461143e-002, -3.49931399081370553272e-001, -9.36019009345288865998e-002, -3.04424024890192657100e-001, -1.13472279945260934308e-001, -2.22748102411658654987e-001, 4.03610698360956643427e-003, 1.81036143405273103335e-001, -6.31189303821373948189e-002, 2.02370465606863697561e-001, 1.26539292304461953309e-001, 1.27954990710900301520e-001, -8.03971752896920632825e-002, -1.34276591250233778840e-001, -3.82804525235627857160e-001, 2.01918515624035822820e-002, 7.20331306474116944694e-002, -1.50764529117596940422e-001, 6.18720078033287435026e-002, 8.83258307814370202671e-002, -9.86137126155088861168e-002, -2.83338151869613925904e-002, -1.57932793220743661333e-001, -6.82109165820752316733e-002, -1.18575350213850197467e-001, 1.07066554403774868987e-001, -6.02918187402733396496e-002, 2.44448471601842270973e-001, 1.58891838126449413959e-001, -1.42092961039341408869e-001, -4.18938079068396751481e-001, -4.62604208994855270465e-001, -4.90206419952266159168e-001, -7.39003120390789719485e-002, -1.93161740321016434097e-001, 1.67574402289500656860e-001, 1.58830894267409900023e-001, 1.66798550235225440108e-001, 8.27180085045873120242e-002, -1.58578895019562904345e-001, -7.14407935653789960551e-002, -1.99347405907961738869e-001, 7.62994654167142294376e-002, -7.88698894077867647401e-003, 6.86226817487507745330e-002, 1.70670746939223655358e-001, 1.81921418380303900886e-002, -8.15159962576822300084e-002, 6.36186129113777698585e-002, -2.12739810709360772922e-002, 8.13459906996420872849e-002, -1.28532975679377298173e-001, -1.42673296522853515489e-001, -2.37933950913715386299e-001, 1.79643689069585693607e-001, 1.98524023210272376749e-001, -1.81247287824472906592e-002, -1.35770989050265245002e-001, 2.58411305180729269221e-004, -2.43239039321833910856e-001, -2.52562430862831754919e-001, -1.97185739199997905891e-001, -1.87006425047045482524e-001, 7.12633070524797268552e-002, 1.18474836841412300981e-001, 1.43169455466140155275e-001, -2.46406982575438110450e-001, -3.89264464993359649014e-001, -2.63124945020519085404e-001, -5.15904535734935734692e-002, -2.39299796296483291425e-001, -7.22763398161593156876e-002, -7.58238271391799001364e-002, 1.08492436721362772722e-001, 2.33101204074172341230e-001, -4.68093795503588094853e-001, -1.21323233220701209856e-001, -4.68718143696112365948e-001, -1.86409761793746409086e-001, -4.85249564918817585801e-002, -1.88366192508723301335e-001, 3.36935036330167414498e-001, 3.36175723000207482549e-001, 4.14764309534392916490e-001, -2.30363855711699511142e-001, -2.25474788156820260543e-001, -5.07743328610114508237e-001, -3.92473968634472619721e-002, 1.39606558468422046332e-002, -1.76448139914224449987e-001, 3.96361932582381171208e-001, 3.39332019396801354283e-001, 2.54628031195694992661e-001, -1.63253072869389920241e-001, -2.10407723248868694377e-001, -3.17343857423953823460e-001, 7.14515979204393691937e-002, 7.10741080673229011500e-003, 2.61186369363371508057e-002, 1.21091176982520060124e-001, 3.06317987899657195872e-001, 3.75777092296890324885e-001, -1.24239361955673408011e-001, -1.49091313411075371276e-001, -1.58717991643977984761e-001, -1.11438064660847754861e-001, 3.27013406678779670889e-003, -7.96888001622970548743e-002, 5.93407570459917738104e-002, -5.03318406518181576947e-002, 2.76024601196769803213e-001, -2.81362421889193026203e-001, -2.57647455150044335515e-001, -1.63228457481312622113e-001, -1.23781002610917553741e-001, 1.71263195079749547256e-002, -3.85856682460647970601e-002, 2.17147169488009272875e-001, 1.12455941368912598621e-001, 1.05526645408528324532e-001, -1.54203095058286915320e-001, -1.86129563710274448241e-001, -2.16152076442932689071e-001, -1.73895413423751588056e-001, -2.88777368307909648726e-002, 1.49662590917536697521e-001, 3.36535000420117247355e-001, 4.41604520076727902200e-001, 4.61657525434042370627e-001, -1.46954159357379210427e-001, -1.91942281653467605729e-001, -2.53134671114918635704e-002, -1.05914043145321819933e-002, 7.35273652383842089841e-004, 1.33163732695138703477e-001, 2.10924320896612838006e-001, 2.12652303951965410134e-001, 2.98071144182198044525e-001, -3.06851841227468780104e-001, -2.92579168308976567126e-001, -1.88711858506321411566e-001, -3.76889773095677282910e-001, -1.27830864268159843933e-001, 1.19277836291173874872e-001, 4.61835527895678277233e-001, 4.08823645707516114545e-001, 1.64719039522139953924e-001, -3.57016968184257432739e-001, -2.69264369772908684908e-001, -3.02628381465193330158e-001, -3.63651376022188554948e-001, -3.43943220980443831181e-002, -2.15119436291535182093e-001, 2.09779313508906301022e-001, 1.20909246203064466019e-001, 3.45482416400294034542e-001, -1.70982734766289973249e-001, -1.47363080636320087358e-001, -2.57681465656177777213e-001, -2.94611974262884657172e-001, -2.19475614099350652131e-001, -2.87783535778458721133e-001, 2.52463108302069805244e-001, 1.80471016727279554015e-001, 1.68980349058630241466e-001, -3.94862191118541039359e-001, -2.61694403439884759610e-001, -2.88002746446487323251e-001, -3.00253555742688027497e-002, 9.83048906949601231098e-002, 2.68139530374894661385e-003, 6.73538734510764208752e-002, 7.87462173110924507080e-002, 5.27683126255281825800e-002, -3.71243887102762237795e-001, -2.28284088001058649287e-001, -2.03810331891663226722e-001, -2.93986553932308516263e-003, -8.00574549770600822629e-003, 8.81817480902189892999e-002, 1.47252456500333805955e-001, 1.38532679928087987253e-001, 7.74880491865656689798e-002, -3.99745138681734113462e-001, -2.87296945111253254623e-001, -1.97878872705790409547e-001, -5.63107036075551764531e-003, -1.38315995595530538687e-001, -6.14332176706295710056e-002, 4.46021341026126491580e-002, 1.86804869095238898491e-002, 7.43159288844211646241e-002, -1.76386672409702488507e-001, -3.21269890586492690154e-001, -2.17316444588367657653e-001, -3.14978069259743920227e-001, -4.43890189082400743459e-001, -3.51238824632849000462e-001, 6.17132263417857693244e-002, 2.94536086685555253961e-001, 1.86236149909586701234e-001, -1.31867613208561385019e-001, 2.91019958334195125160e-002, -2.61401334977282850947e-001, -1.91323980387725522956e-001, -4.23562473972074401973e-002, -6.01274917420713608807e-002, 1.57062457333155408579e-001, 5.93383297018505936893e-002, 3.48888104857144540349e-002, -2.36308790970815030263e-001, -7.36783997595746587006e-002, -1.31941079356542090295e-001, -1.59351866064984609705e-001, -7.75556196237051631570e-002, -3.26566527926290470218e-002, 1.60265581799429540633e-001, 2.31477408371312337598e-001, 2.11004945964852613782e-001, 3.72277568245358994950e-003, -3.86382779373671755851e-002, -4.69692904965126473149e-002, -1.34290039897781959821e-001, -1.56010108856284468448e-001, 1.16402733204373273063e-002, -2.98083965711646095564e-002, -2.19714621104105584104e-001, -1.04415015628560495231e-001, -2.83002734547593733094e-002, -1.29478548201859666733e-001, -1.88284466614880852120e-001, -1.38898409867001249030e-001, -2.91213285110737372940e-002, -1.30241665710423920599e-001, 1.05190301858272924895e-001, -2.77828228927964951400e-002, 3.84942505672787593785e-001, -1.91742828456667679937e-001, -1.08093839255226323304e-001, -1.23739054781811491646e-001, -6.02372703047941090992e-002, -2.30788543640454507644e-001, -1.65426838230521788820e-001, 7.24610258185377081874e-002, 1.98218075776415314504e-001, 1.17856142313174788727e-001, -1.72333020100090217319e-001, -7.80405145630411883895e-002, -1.65465768461406204093e-001, -1.50495978569927996160e-001, -3.63521365680001748433e-002, 8.78152572717477014619e-002, 1.10684548416732954357e-002, 1.96938648400567413443e-002, 1.78751239720177285131e-001, 3.86941600345191843990e-002, -1.00344535451696317829e-001, 5.18492942968984751873e-003, -7.46906422839522937673e-002, 2.55450775466573749839e-002, 3.86031433545173732758e-002, 1.81804198040588893548e-001, 1.25193619951217305353e-001, 2.58746529927193991139e-001, -9.59930749640748454121e-002, -1.65351286388997403831e-001, -2.38661756106982370085e-001, -1.18441914546963955601e-001, 5.14727367859160941932e-002, 3.35969433644743298295e-002, 6.04246400266402056145e-002, 4.24545333372259650617e-002, -9.61279281591302242616e-002, -1.07140075799890183150e-001, -1.58660276142707834524e-001, -1.71423544653646592328e-001, 2.84911038722830481373e-002, 2.43199483225779000684e-001, -1.48986601716793350125e-002, 3.06219826989134913386e-001, 1.58046086391746720690e-001, 2.28724963823112470429e-001, -1.90751783766765076189e-001, -3.27049851026045834690e-001, -9.86302586383926011004e-002, -4.75494063625683388574e-002, -1.30742983971561893553e-001, -2.23015792718938732353e-001, 3.41795813788125513177e-002, 5.80762079466888708756e-002, 1.61781236591746618858e-001, -2.06650413851491104866e-001, -3.21001743857795895920e-001, -2.25958198138555721446e-001, 2.33536401116611114226e-001, 1.91009386530452351938e-001, 1.18639252648125317902e-001, -4.80986709925364450124e-002, 1.69176292753167561989e-001, -5.84236993279932323442e-002, -8.80696312415233106830e-002, -6.79953568951845721546e-002, -1.68908673770454903496e-001, 1.50663475296589476765e-002, 7.91304266493603018773e-003, 4.20752817490274086398e-002, -2.39138470623354054689e-001, -2.37510291017941688185e-001, -1.44625224748308800482e-001, -7.88567543756574923508e-002, -3.18805041950339651535e-001, -7.48178216879709784282e-002, -1.36357825826503964439e-001, -1.20788919497478733356e-001, -5.30435969200193369044e-002, -1.31667835608667738168e-001, -6.14325393071421185787e-002, 1.50635107641742538309e-002, -2.26323199794477236679e-001, -2.42360568548522253840e-001, -1.10328926176800123926e-001, -6.11373206202316665792e-002, -1.04841289794448871975e-001, 1.38792734391984095427e-002, -2.01353788603290784209e-001, -3.04966282653272469094e-001, -1.38118213972687697844e-001, -4.87828156359335490810e-002, -1.12417715856356223436e-001, 1.03168828278901822393e-001, -2.60820400399670582203e-001, -1.71510975963700573743e-001, -1.24155962690993167119e-002, -8.16168093293495183760e-002, 1.27815094638919213299e-001, -1.36302562065569565775e-001, -1.80098836874173245937e-001, -6.55659010698782934723e-002, -2.03323858482311353724e-001, -1.58384712630616902862e-002, -6.96235307075342424454e-002, -1.52912204232634851842e-001, 1.41545098844926109383e-001, 4.91889132982930854521e-002, -3.92741550195725222516e-002, 1.31134652285383526693e-002, 9.72764395456775649018e-002, 8.57537521001684593935e-002, 1.32254105552885248276e-001, 1.66061383742101498218e-001, 1.63193572376357481923e-001, 1.82571120001818937295e-001, 2.64970149501159601968e-001, 2.54675216244974855773e-001, 2.35533182070232910421e-001, 6.57363485710737160961e-002, 7.82615889475333711967e-003, -1.42531634919236704917e-001, 2.84882323423095058790e-002, 1.16879864704974689715e-001, -1.08702992959758978908e-001, 2.00857276488068392517e-001, -1.25354501808362328585e-001, -1.06948304174176028747e-001, 1.95994970290762036969e-002, -3.75049909113863780274e-002, 1.83934762817847041738e-001, -4.56159383855659229107e-003, 4.22791608568442514593e-002, -1.76781808378324106767e-001, -5.49919805792090168883e-002, -5.96549217206512744083e-002, -4.94386529526131580925e-003, -5.45097636719068592837e-002, 1.04903750620472066557e-001, 2.05204466264824830768e-001, 1.04213564264468025455e-001, 2.56059449226387399884e-003, -2.10075206417704385409e-001, -1.10041076195307896413e-001, 4.07895111232845219984e-002, -3.98758574138141780319e-002, 2.21819363208137533550e-003, 3.08164578556480439619e-002, 1.83777418948826459788e-001, 6.03021975140694971307e-002, 2.48512288288509491929e-001, -8.19597401850331169770e-002, -2.41738525387868614935e-002, 1.16402656971996310009e-001, 2.65021798372811034916e-001, -4.12594253272572930591e-002, 1.22405958038612372452e-001, 1.16937225088109039706e-001, 1.91206513582812986929e-001, 6.23830260545922207771e-002, -9.56751623407536000432e-002, -1.83163023374720623782e-001, 9.39642625486569599280e-002, -2.93518046364064123799e-002, -7.08789746923015467894e-002, -7.77766591599852452621e-002, -8.20169790884739541292e-002, 8.15351369698167904865e-002, 2.74198092903350397129e-003, 3.12286699762868158459e-002, -7.82229846977758715501e-004, 7.78267216001234940492e-002, -8.43468006691568822353e-002, 8.06980378925364477682e-002, -1.63594017062238694660e-001, 1.14811737245535269714e-001, -8.02440995431422804396e-004, -1.85338016543155417737e-002, -5.10953956455375696288e-002, -2.01659798799242895306e-001, -1.46681227624432558576e-001, -3.83056810565536066948e-003, -1.06913361689530653220e-001, -1.15850157898103434118e-001, 1.96390336891498179517e-001, 2.46859653191860234367e-001, 8.06627480263373830560e-002, 2.44944645656297380065e-002, -5.22829730218805494024e-002, -3.04187027022778000429e-001, 9.35148262095349819267e-002, 1.61013288314684838154e-001, 2.12893041949251793366e-001, 9.00153883411768385159e-002, 2.38052884803049841222e-001, 1.37564219883157173863e-001, 1.36945820052198824479e-001, 4.38303216720733676559e-002, -1.07262033457895214483e-001, 3.28153342336789832778e-001, -3.04529047776428245242e-002, 1.11332330220126132780e-001, 2.35536887042899129030e-001, 2.01643619872484053390e-001, 2.36309528585600225892e-001, -1.27660967966552685304e-001, -1.73165233503477955512e-001, -1.54822522010721858043e-001, 6.05440662429468923200e-002, 3.80739541270939188533e-002, 9.45000198720580969480e-002, 2.09419341317083701481e-001, 1.43446352939755550349e-001, 1.97335579833071178557e-001, -2.42389719427660937923e-001, -2.30060976922027121683e-001, -3.75978071870612662320e-002, 1.25978261200445890156e-001, 8.61954690193356132255e-002, 2.38263375991414373678e-002, 5.85412307399201595204e-002, 1.16591448072245515433e-001, -2.66634909197174425899e-002, -1.86436178729312784785e-001, -3.15612848069447837762e-002, -5.34780190806054753216e-002, -2.04133807052626937983e-002, 2.11472761583049347067e-002, 1.03082815038457842327e-001, 1.13603232900724195054e-002, 1.42139961836793230626e-002, -9.56735289567601371319e-002, 4.21475760274653624138e-002, -4.38734725943034156725e-002, -1.07822344702259806382e-001, 1.26464240520804183099e-001, -5.78061164404026356367e-003, -1.23030224158150791602e-001, 1.49948843426867591683e-003, 2.64608281735346888286e-002, 7.11726038606259603370e-002, 1.78259903256196595989e-002, 4.15779876339255755058e-002, 1.20715407662712700954e-001, 5.35538516199712058552e-002, 9.76165253490872547593e-002, 2.66593823080586676821e-002, 1.90883612375086941793e-001, 3.91165074145691585294e-003, 3.24069056811519540240e-002, -2.28453556801651136432e-001, -2.07878333113639485186e-001, -4.77755896572108137987e-002, 1.07666241096429950164e-002, 7.43169850686664218431e-002, 1.20551168334153302464e-001, 1.00990717249512973464e-001, 1.06804722694243167669e-001, 2.62198230075944387074e-002, -1.92060998009461331160e-001, -2.54954900259314110045e-001, -1.14601403380521563169e-001, 2.06963355556675610014e-001, 1.36795715932365002931e-001, 1.51938177239752086889e-001, 2.71255965733663173545e-001, 7.20824051020608341789e-002, 3.11012750420758647685e-002, -2.06368775793351666437e-001, -2.76604386335698615440e-001, -2.17674681656992968781e-001, 8.88523198477902814707e-002, 1.13105665415560718845e-002, 1.66227253913846184652e-001, 2.87846777095490113929e-001, 1.03148444591678822846e-001, 1.53518732513494821079e-001, -7.68948521457068212559e-002, -2.55348729788051564960e-001, -1.49309716798399199494e-002, 2.45967956463291129166e-002, 1.58264327644735136591e-001, -2.05804988896912538499e-002, 3.24270714093060685723e-001, 2.21688144960773075853e-001, 1.88338422279972800277e-001, -5.21566848367498378525e-002, -9.30826918357676239002e-003, -2.81808950831637039514e-001, -2.05169811610188754236e-002, -1.04348179935817731573e-002, 7.54205908945032865720e-002, 2.27204724989691353443e-001, 1.00664357634304042766e-002, 8.80714037209817390828e-002, -1.83516067389587589354e-001, -4.72052543665374690907e-002, -1.21310615738776203520e-001, -2.10463989087896624630e-002, 5.22578533179953938492e-002, 4.05635413029897945458e-002, 7.04879644487692719190e-002, 9.69481050952711170821e-002, 1.53632216617227562727e-001, -1.95137246017107988949e-002, -4.08738326170920776570e-002, -3.06142338632382389474e-002, 1.50695806854738850733e-001, -5.44387940072789816570e-002, 2.38681750627890952587e-002, -6.85798823968084350633e-003, -1.27872368081252806710e-002, -1.96490210519607577666e-002, -7.18158911855036330429e-002, -1.97906362804910834763e-001, -4.57191734858127946106e-002, -7.25157075682523466487e-002, 2.24415460278472533862e-001, 1.05912905827599726494e-001, 3.68762656274572997450e-001, 2.10283192004519725593e-001, 2.59549670145904631813e-001, -1.03568509083477922061e-001, -1.61223930148216870739e-001, -2.43176134168822041803e-002, 4.06330021950411165998e-002, -2.43528673643477466815e-002, 1.93644641055576216537e-001, 1.99570807955978452020e-001, 3.40485889264201882498e-002, 1.82517507225973124596e-002, -1.08583111155154329874e-001, -1.49091403092056151714e-001, -6.42656576677193003277e-002, 8.28201299105633254038e-002, 1.48320277790196547452e-001, -2.63053829452939667843e-002, 9.86096409433220716378e-002, 5.05710945493880598134e-002, 1.72618590755970156836e-002, -1.58261062805676921972e-001, -3.90820673009135977072e-002, -4.61973721880286486430e-002, -1.24213462168449764733e-001, -1.98409086508777310343e-001, -9.64842949138898092754e-002, 1.78127840666110481838e-001, 9.64518199096861400532e-002, 8.33103671309982363180e-002, 2.02833504893262267510e-001, 2.26986608265504430371e-001, -9.56009267944647007573e-004, -4.21461224517800520095e-002, -7.84535441869116390023e-002, 5.29215751280320834127e-002, 1.44441509779701937610e-001, 2.00037570454764307426e-001, 1.41889065058196484070e-001, 8.24611332231790228331e-002, 8.78930596052064083690e-002, -1.03924943097385730217e-001, -4.24271172849945005234e-002, -3.28146513580383283881e-002, 9.61525872082192312185e-002, 1.07758058970616299455e-001, 2.38541158728981239623e-001, 1.92510306279496778981e-001, -4.37040778464016926863e-002, -6.60091352642532824824e-002, -8.30039667658967611485e-002, -4.38078401700321695689e-002, -4.00056878460547035714e-002, -4.17671223038509065173e-002, -1.02193842071991117942e-002, -5.46077221194559425665e-002, -7.47633014163966852506e-002, -1.47361415465776190992e-001, -9.70136426163101528442e-002, -6.07127654965563534617e-002, -1.45221750688451695099e-001, -1.15014261354744101729e-001, -2.33332627525124514101e-001, 1.20513640249355818979e-001, 2.52239865167819231340e-002, 1.07269190324333185682e-001, -9.65291116254290704202e-002, 4.62786924801391746920e-002, 1.25305023514696828313e-001, 5.88936779565745541221e-002, -3.49802435837638786564e-002, -2.06368134524919644157e-001, 2.29763364643866367654e-002, -1.42987110981377812946e-001, -6.44374363152457191317e-002, 2.90285234396976720220e-003, -3.90119667772390564531e-003, -1.09388424998961078516e-001, -4.70034444963968317532e-002, -1.03097563551565532536e-002, -1.95532030518300037336e-002, -9.35149890219701962479e-002, -2.89444336443740957154e-001, 6.05899757399515348499e-002, -5.49282262003803548045e-002, -1.52945141288317303790e-002, -3.68786503330148160429e-002, -1.49981803960500745254e-002, 1.15147755948675753479e-001, 6.99110557355157591353e-002, 5.24411716579254102988e-002, 6.85682262703842578672e-003, -1.34615219663679220458e-002, 6.51725782250549140473e-002, 1.89369993455392515713e-001, -6.88945700254293136311e-002, 6.47073534140240186341e-002, 1.43314059208171751258e-001, 1.54285420414055601812e-001, 1.02752608360950514754e-001, 1.19409693214327636279e-001, -5.16705190660784741130e-002, -5.98756521013596443304e-002, 6.72856792217817016588e-003, -8.82300658496091988470e-002, 7.57756420961708688361e-003, 5.54718344276380961877e-002, -1.25525946614700206760e-001, 4.21677727331414078926e-002, -2.65823654091972907954e-002, -7.91240615186633855505e-002, -1.51429497228003695497e-001, 5.34739764280630289206e-002, -1.30028310016636255986e-001, 4.81172723557527562410e-002, 4.45255164455572727267e-002, -9.50195125794510153661e-002, 6.52456799680763283034e-002, 2.37729974606432775674e-002, -2.10031409361250386014e-002, 2.04365185994135091507e-002, 5.47312848200110363406e-002, -6.42325478457384663189e-002, -2.86036436719988365618e-002, 2.95342566018645426296e-002, -5.11304542036728273957e-003, -3.86007301525475715609e-002, -2.39036572847244575823e-002, -4.45823850887066136517e-002, -1.18824913963252329352e-001, 1.50944880732938359336e-002, -1.90289831505548769075e-002, 8.62591400980080025285e-002, 6.94741625119138228595e-002, 7.78467893464638016621e-002, -1.09531764001464637648e-001, -1.03318385570429285836e-001, 5.23328514191441218628e-002, 3.39537263659263482962e-002, -1.03852913129243940027e-001, -5.86623045636994605578e-002, 4.80677898789124494194e-002, 9.97259634048852650068e-002, 2.20061745491804960917e-002, -2.79299907979170917993e-002, -3.48794597882861896060e-003, -1.01662105686839976393e-002, -1.30766882165553710582e-001, -3.40128626917501550309e-002, 1.50879549895645920232e-001, 1.09841479589578253084e-001, 8.93125414453663502012e-002, 2.16633550199248382795e-002, 6.75669960300389997598e-003, 3.50889314886987171982e-002, -5.97778639502750865770e-004, -2.77903542917684633073e-002, 1.23411764394401504696e-001, 1.10479496546346478425e-001, 6.06490301215156929482e-002, -1.06392551731040105323e-002, -1.62864636750528965492e-002, -9.09115011400501438210e-002, 5.31169768822607399339e-003, -8.65613333951637253794e-002, 1.25346693872337572317e-001, 3.18826014097494114807e-002, -1.07737800945502150418e-002, -9.41161076237866101035e-002, 3.30079249211412961706e-002, -3.17821207900069666041e-002, -9.75452389494101401723e-002, 8.38165567117596516100e-002, 1.99318068783534384225e-002, 5.70734779435665279257e-002, 8.98840211503861424847e-002, -5.56729116450850256004e-002, 6.16816210649549362399e-002, -9.49713759966820392222e-002, 1.27802851202639608519e-002, -8.69818304169707873230e-002, 3.51486272884586545273e-002, 9.84883957528728398723e-002, 1.68015541614756590272e-002, -9.36189187259947042108e-002, -6.00619706021984431366e-002, -8.88328717302486713103e-003, -5.15892961364865162976e-002, 1.51394010729899330947e-001, 9.64566733442736162774e-002, -1.02166974993253417692e-001, -1.53136205007807692929e-002, -1.28023434652340201145e-001, 3.59344861610175550504e-002, 9.67801645917074349068e-002, 1.58162987596341092500e-001, -8.27893878086827759988e-003, 1.74051589418298902068e-001, -6.24070523072079857974e-002, 2.47986736209046820800e-002, -6.37694562407747495003e-002, 5.73950749164200274555e-002, -1.65499649397759449054e-002, 2.84709849874899244282e-002, 5.86050307851913032664e-002, -4.78564894533240331453e-002, -1.09995311687080737917e-001, 4.69798146684150333408e-003, -7.61875243098938254027e-002, -3.43409117407863923033e-002, -7.72126300548738320195e-002, 9.46137810090863923262e-002, -3.95331563052003023828e-002, 9.57543946629051123676e-002, -3.81668917219788114692e-002, -6.52979688020123016923e-002, 1.59800393290681463920e-001, 1.01602186234507910201e-001, 1.56213736260657903854e-001, -3.40438884994577056764e-002, 9.59989818020255160358e-003, -4.59672094446677836910e-002, -2.42825543595617567016e-002, -1.98086750342155032412e-002, -7.10940846535209336476e-002, -6.80067394094768275237e-003, -7.27222997456696551577e-002, -1.94595498977002089036e-002, -5.48718422238100786426e-002, -7.88028317333364231034e-002, -5.03340752824111559161e-002, -9.67871089752630753278e-002, 9.71892618295609328483e-002, 1.09683416188345664311e-001, 8.47464392608183320066e-002, -6.41173623216989146956e-002, -3.90774261768103148285e-002, 3.72004491146479820962e-002, 4.57969621963399131648e-002, -2.11948338233709336620e-002, 1.42676358974228645327e-001, 8.00690106353207052547e-003, 3.98860888569515306679e-002, 3.30803001380605699033e-002, 5.93255595320356793332e-002, 1.21441349426401820621e-001, -2.26620891572779682710e-002, -1.65491819348852431393e-001, -1.35225237772486073240e-002, -5.15007088690787873109e-002, 1.13410959585401815986e-001, 5.15910850387468929157e-003, -1.25684157711668503116e-002, 1.22494518529580972976e-001, -6.10106118128850224980e-002, -1.37700933229160271676e-001, -3.77600975328174701118e-002, -1.42145960255570830144e-001, -1.15960592798227974526e-002, -7.39991990026597906693e-002, 5.35268600024455323827e-002, 5.75931507731468617095e-002, -2.99780945393682239641e-002, 8.86404036087622276829e-002, -1.85378638654796652763e-002, -1.24067472588884591955e-001, -1.50101426484774175263e-001, -3.88806006720003455301e-002, -1.78560715534668949800e-002, 1.12284961065330812779e-001, 8.50730045602762774415e-002, -2.28246450817674202682e-002, 3.48698195064215607508e-002, -2.41128327128037542315e-002, 2.36004270348169342686e-002, -5.30073052987947851422e-002, 1.10537480507536450824e-001, 8.32813220419029304198e-002, 5.64642832255595195079e-002, 1.36078637273340685709e-001, 2.68123855627179974101e-003, -1.15842301195915875489e-002, 1.59999295429651029743e-002, -6.74029343934592073406e-002, 1.43817751290079660562e-003, -6.20596217245110021166e-002, 6.54924995217805588910e-002, 9.71576261461565837685e-002, 1.29775168411475599894e-001, 4.16476394183535117421e-002, 1.69149349524617825802e-002, -1.60675077058642840067e-001, -7.73471901844897530287e-002, -2.85698258950257306943e-002, -7.82179672108360701799e-002, 6.13165931880193526560e-002, 5.95586534631178856486e-003, -4.86801312930299906467e-002, 8.78236862788971117677e-003, -4.62519925132518980315e-002, 7.31583039928698497523e-002, -1.14607697199462538196e-001, -1.01643895216213683841e-001, -1.26113027148715530282e-003, 8.00391271637036355591e-002, -4.48753117171050985856e-002, 5.87444835902565520858e-002, 6.41996383877013188091e-002, -5.07452279623225102623e-002, -6.60149095216647080475e-002, -1.15074731757966994272e-001, 7.89169968982991881790e-002, -2.52739999326247570532e-002, -8.79086730089369411401e-002, -3.82574074889949281020e-002, 1.55198188168678558041e-001, -6.77213679836559528935e-002, 4.60473067220470294592e-002, -4.35717566090908225984e-003, -8.39225582230333222444e-002, -8.96034755731749121832e-003, -3.92146630317117411701e-002, 9.03955120613911117244e-002, -9.12710682849354332236e-002, 1.28566913792501569258e-001, 7.90143682279123432677e-002, 9.03320513761319970891e-002, 5.89652906167030810280e-002, 8.21354073685831853613e-002, -4.81149325101219854650e-002, 8.38598226202129093387e-002, 3.33197839725998951055e-002, -3.37274000505960389051e-002, 9.76408279271842420577e-003, -9.09833604929154715624e-002, -7.06584957891671361363e-002, -7.13592533964148428849e-002, -1.22928580032236153818e-001, -5.61396255046630737739e-002, -7.64840962420907100050e-002, 1.36877527112361813133e-001, -7.85003487224150836576e-002, -1.73313892920405748788e-002, -2.03834491144065481361e-002, -4.59318674070018292954e-002, -3.45414593366878894254e-002, -3.25821005068893526646e-002, -1.45059323598446029274e-002, 2.38705647787401352422e-002, 4.40892061316272634852e-002, 3.02031927328943626196e-003, 2.78682376823333709248e-003, -1.15049011252191107912e-002, 7.46386540245215779343e-002, -1.09506226179135413012e-001, -1.33356619836072332053e-001, 5.79787053961067014307e-002, -7.17645891057661217127e-002, -3.16257303918194704329e-002, 8.28035399150422535622e-004, -2.39490789684990573738e-002, 1.23115720742127190968e-001, 1.21337331280976873371e-001, 8.51750326012747638327e-002, -1.62213302022420652326e-001, -1.35964199930095813729e-001, -5.61494876838426609789e-002, -3.42459393313795795732e-002, -8.10845590477579508670e-002, -7.98633845231225963923e-003, 9.20836704363768160375e-002, -7.17436224302408498410e-002, -5.86463820359452436826e-002, -2.01436643693283998213e-002, 1.24902207537172876828e-001, 1.10270593660508495204e-001, -4.33764384977173220181e-002, -1.05221153959476246276e-001, 1.91708083090237069168e-001, -1.67834253250572253136e-002, -1.79044192472898322510e-002, 6.64581340752781329906e-002, 5.45240187087619593287e-002, -7.92584778956155200369e-002, 3.98047271810354277854e-002, -1.32418278204566100542e-002, -1.11270457936499256313e-001, -7.40174754489549974190e-002, 1.50834409536844179373e-002, -6.52644750461023881449e-002, 4.08780999466362912620e-002, 8.59429526290780426701e-002, 3.38131061867023643974e-002, -3.78187676775386481115e-003, -1.03166184213003206405e-001, 9.68355221555924627896e-002, -9.80064780341470959124e-002, -8.42426293794141245463e-002, 7.72388167577011397480e-002, -3.27355226250126071785e-002, 3.35565864775138056331e-002, -8.04339284361174911009e-002, 1.09940920748691675635e-001, 1.47887357873818080928e-002, 9.03995651757507484581e-002, 1.51258661901122379821e-003, 2.59711698599781222463e-002, 4.52739632987244552953e-002, 1.36822744316523553509e-001, 1.72700820332350943320e-003, -3.75490199359225715336e-002, 6.45961026170743801700e-002, -4.21903627414938267592e-002, -5.53711339663179036297e-002, -1.88189546370130418584e-002, 1.02108604916398240658e-001, -1.31611148600247779283e-001, 4.32188216528326743515e-002, -1.04035851787909541799e-001, 1.57396676341842456370e-002, -1.59164873517874741471e-002, -7.75284644929452732010e-002, -7.54298170283352747978e-002, -2.97222705509832263449e-002, 7.26284200832264942305e-002, 2.77992882185370028536e-002, -4.37277340874076964061e-002, 7.00424878016760177335e-002, -9.18944550432723994415e-002, -3.09469717926852405654e-002, -1.10673531715386547214e-001, -5.08343097622756916187e-003, -2.22075322891334102360e-002, -5.87663474253465809016e-002, 4.74465786548694604119e-002, -8.22561760326035451563e-002, 9.03310503540325077099e-002, 7.09265321885327454376e-002, 2.08302335380026043543e-002, -1.82987958411915431489e-002, 2.89590391820233467035e-002, 3.47787573018873003017e-002, 8.85404845718564953438e-002, 9.40886126091650676351e-002, -2.80217881288499608139e-002, 2.40949128055223567302e-002, -3.95177001000307087653e-002, -1.51547952320111006808e-001, 7.47957290151367304443e-002, 3.35226997775907240018e-002, -5.41104749782145913461e-002, 2.90772705840680531497e-002, 6.13889667182099252329e-002, -6.32086883360206130966e-002, -2.70223463480354572641e-002, -4.69236795112839208399e-002, 1.61666873262022482705e-002, 6.42653038510485885570e-002, -4.45368411302796904372e-002, 2.93291753489872408789e-001, 6.00838314792031980005e-001, 3.51884274858639156669e-001, -3.14020581022032008178e-001, 6.68131501522703064033e-001, 1.90902511094224569543e-001, -1.83693717086584912268e-001, -4.86640996750548546212e-002, -1.95434126250628892318e-001, 1.83873579561908778723e-001, 1.10790854204549760187e-001, 1.53291087650257146224e-001, -2.95531252188002024894e-001, -5.70742003834196265366e-001, -2.73045049926430971610e-001, -1.74612298863920767378e-001, -3.65734104789708414085e-001, -1.79355595676103318770e-001, -3.25426817645063315432e-001, -5.37626510236947741106e-001, -4.16017958010097721466e-001, -1.50422351217557037639e-001, 1.23922435045889858807e-001, -1.13606153902520629062e-001, -8.82041508263056023287e-002, -9.25239050737869522800e-002, 1.11639247725446602577e-001, -6.33283066302511077339e-001, -2.99031831609782083881e-001, -6.71756017643773684078e-002, 3.49328710100799966209e-002, -3.40355322657600989356e-001, -6.94758708989571815984e-002, 1.28666942937044059825e-001, 1.64371294181429206116e-001, 1.82981235200740111058e-001, -5.02322340784086662779e-001, -1.69622167585695454717e-001, -1.33486109098859884181e-001, -1.61232657630196646315e-001, 8.33967938112850776244e-002, 1.02424557809727381774e-001, -1.77453794524068786398e-001, -4.53432565127329795240e-003, -2.28981700711381491731e-001, -4.65950938200286823854e-001, -3.24434032022038409959e-001, -1.16208621678308879344e-001, 4.45904830899595538973e-001, 7.76588326036468989955e-001, -2.71831063217895296802e-001, 2.40179975460907024765e-001, 3.52680529254202901335e-001, 4.31433692786754641180e-001, 9.27427492575419593068e-002, -2.88428927490581923920e-002, -1.14548640917822824870e-001, 3.73359775520654579850e-001, 6.30219182334910033028e-001, 5.60438894388486597009e-001, 3.91554992276255342531e-001, 3.61648542979572384937e-001, 2.30404804541660429562e-001, -2.57630859307527659841e-001, 7.72030528907742957800e-002, 1.60512953290752567737e-002, -2.69368314857658441852e-001, 7.25731321225994568946e-002, -3.34289062943529724503e-001, 1.05594000912749216847e-001, 1.10565601825379014600e-002, 3.06761861701230986732e-001, 2.88903376209104501005e-001, 9.55073284949808087863e-002, 1.66690303037731968328e-001, -7.32155843926523500903e-003, 1.70133676906496916770e-001, -3.17196508012471747873e-002, -2.40917239836786652163e-002, -1.10045174747866597587e-002, 1.40055792431399594999e-001, 5.51657913639705121955e-002, 8.51143337971587699009e-002, 8.13210252597525856677e-002, -4.68939492960669390698e-001, -5.15100351864677619140e-001, -8.48051790482856338027e-002, -4.21476774477642091021e-002, -5.91383459271910549848e-002, -5.96136689680216991238e-002, 3.91547333570603561803e-001, 2.92569954726558223435e-001, 3.81505627450525741651e-001, -2.27324508017038851015e-001, -1.11027778489100448223e-001, -5.17152086234345040316e-002, 3.83248633669696581183e-001, 1.84787812560534198125e-001, 3.44217121662738601007e-001, 2.32225147929912001388e-001, 3.29679011393653575990e-001, 2.86514920076616608213e-001, 8.86733807803676415960e-002, -2.57845630679222392878e-001, -1.71763926404078198784e-001, -3.11662999873861569500e-002, 9.14606862791602776008e-002, 9.62953530695333098643e-002, 9.40156419294528866715e-002, 1.59894730718182664919e-001, 2.04441041266625739281e-001, -9.11100353158641879103e-002, 2.53505322211740158345e-001, 9.11212449591082274125e-002, 1.44650452341651747368e-001, 4.14053303962714017161e-002, 1.51726882190189982236e-001, -3.18395783178603675179e-001, 2.25390251336259200832e-001, 2.14226219323625025059e-002, -8.49149399353385167522e-003, -1.43893580206002263955e-001, -2.23889208898838232287e-001, -3.91737474687992096034e-002, -1.78593115522770462533e-002, 4.15836496687458940374e-003, 3.72781656866791377691e-001, 2.33873223094751364615e-001, 3.03807161124997116008e-001, -2.87559542560332725980e-001, -2.21001844646104249337e-002, -4.53931170911581305383e-001, 2.04246800357654856306e-001, 2.69090191931733724306e-001, 2.77115699621042321787e-001, 4.76992523631194875744e-001, 8.98576344122268722003e-001, 2.94896873823629557254e-001, 5.73304441078083745764e-002, -2.87652426251537973734e-001, -2.45404214608572368572e-001, 4.97209081611643566312e-001, 2.95473393490900848590e-001, 3.73802047899493949945e-001, 4.50175635637144522239e-001, 2.57362714670139602902e-001, 5.08914260362438919394e-001, -3.56995591548333102150e-001, -6.74496731289181639113e-001, -2.48012267627389482172e-001, 3.53203236093834818665e-002, 1.80326347874761344636e-001, 2.69747019867244641755e-001, 3.82179427787775194414e-001, 4.37708017577756181016e-001, 2.55140901462709457359e-001, -5.23405481629975466440e-001, -9.14023340455634381030e-001, -2.90044429468168329933e-001, 1.02074926265524779101e-001, 2.90582227969585327187e-001, 1.46999698526954103439e-001, 1.61239602099904677512e-001, 3.35021712774537072654e-001, -4.82882015967934508094e-002, -1.03251754033180626058e-001, -5.11463642871166412895e-001, -8.28432308019578095282e-002, 2.42553178016259585181e-001, 1.84587692067741282465e-001, 1.42173799219548785411e-001, -5.69433141788970378916e-002, 7.81500477775917551382e-002, 4.81437723990581975531e-002, 4.25632962861562325063e-001, 4.86951726466571754859e-001, 2.41902745694104082119e-001, -1.62662660244465226422e-002, 1.76609740243374557789e-001, -1.22653555101733091615e-001, 1.54382480332918459176e-001, 1.21268218731027083157e-001, 9.44199137927545679994e-003, 2.94183428706182192869e-001, 4.17139564459959810705e-001, 5.00805035026837153112e-001, 8.24338762084282361542e-002, 1.62983784590425728744e-001, -3.53927323558399370418e-002, 4.48883078343159658274e-001, 8.04187159158315512109e-002, 6.67248490522548004522e-002, 2.50761326056302635834e-001, -4.36009360180717675526e-001, 1.57711580702398684872e-001, 1.35614750002800904527e-001, 1.89047116055943098534e-001, 3.14171049000696089859e-001, 2.40681785867985581495e-001, 2.96430102711433662854e-001, 1.78137453829873337874e-001, -1.50213366476707937958e-001, -7.99229164220008336805e-001, -3.93929201306541132421e-001, 4.68006800012012114109e-001, 2.36565598684566752441e-001, 4.27464844217592510045e-001, 3.08375417100307969154e-001, 2.59059135469934309626e-001, 1.19834471564565059332e-001, -3.86111837856484896303e-001, -1.00448659537238360606e+000, -8.69061416973022193844e-001, 2.51759490423306531159e-001, 1.29352292381433673502e-003, 2.73185215165497929934e-001, 4.43373126251474736215e-001, 2.05652291342554943698e-001, 6.29283893240083713749e-001, -2.29337596322564618578e-001, -5.07085856275995450204e-001, 1.71207004907416235340e-002, 2.89696853789920272249e-001, 6.26820694264429434384e-001, 9.99349693349541046139e-002, 3.34989000528877756135e-001, 2.47589279205585155452e-001, 1.46091811972983379869e-002, -4.13007961827864034099e-001, -2.25053625917121136180e-001, -5.28730553227132804572e-001, 2.56205841209760587507e-001, 2.92823150335722280635e-002, 3.96067398779566370859e-001, 1.13514019360153997629e-001, 2.11441454354791447123e-001, 7.70685195355584884425e-002, -2.71773052237956336263e-001, -1.40472113862840281007e-001, 2.41667197355473289955e-001, 9.18123897250543025139e-002, 3.85910628678925449186e-001, 3.88634590264000795434e-002, 1.58497556579695025869e-001, 3.04078089315863220321e-001, 3.52324576558522728487e-001, 3.89816321702298129726e-001, 4.07283334129518670430e-001, 9.45821779259567035902e-002, -2.13920390654336704805e-002, 1.80950224872125892128e-001, -1.09849594983754739186e-001, 1.53423735368868635609e-001, 7.52339443315506589682e-002, 1.48435042356805713126e-001, -1.00376134067211075784e-001, -3.42643446631194226182e-001, 5.79079456337694975510e-002, 8.51658839924220589790e-002, 4.41984745901588982342e-001, 3.73930438588515268172e-001, 5.93338567993068388695e-001, 8.74496574472193449745e-002, 3.29548206649481756347e-001, 3.78336079092317298378e-002, -1.38115318883102911052e-001, -1.28175334744418167876e-001, 3.14363720938835577989e-001, 8.22295429336007827059e-002, 4.84267547235438966524e-001, 1.79970337747801273354e-001, 1.06832779312413278516e-001, 1.12800672362399715537e-002, -1.05959680112152856979e-001, -2.41761970941489989784e-001, -3.45482432376703174626e-001, -7.25552203959385494381e-002, 3.57557677904483450781e-001, -6.08727905930491336450e-002, 6.61675372622418794810e-002, 5.98166910713633231955e-002, -1.45593233436165286898e-001, -2.18547474745630493365e-001, -2.93184800035968140541e-001, -1.37149366021564217410e-001, 1.17650965624606931859e-001, -2.89913400535435683558e-001, 1.47696322782415234709e-001, 6.20979444931205604163e-001, 1.68768979146720898843e-001, 4.40358648337808133988e-001, -1.13385919718109323684e-001, 4.13930826924700234759e-001, -6.21632504812891673041e-001, -1.53184102854142856209e-001, 2.68314518926513145836e-001, 6.12862475201114351164e-002, 4.62931677802815466638e-001, 3.55076910674893997388e-001, 2.71673999134741328554e-001, 1.46122402485697688856e-001, 5.66350009962323444612e-002, 7.86816267282112458137e-002, 4.07024146593981603348e-002, 1.38110771085009575998e-001, 2.79296217400828494792e-001, 2.05355644935031306231e-001, 3.48196676576121244562e-001, 9.73174968341646018377e-002, 2.81982836316335083726e-001, 6.14920410151556517953e-001, 4.51204275623340089751e-001, -1.08735220412958279168e-002, -5.56959908952891630252e-002, -2.20798557045461113502e-001, 4.76848675856762979630e-002, -1.69368048079380939530e-001, -4.89699825488799922457e-002, -2.63852805153982850062e-001, -1.81291794395640998294e-001, -1.56399615683940229616e-001, -4.49239771148443253757e-002, -3.15850290250374587941e-002, -1.76133257283885458211e-001, 2.45244431791607209181e-001, 8.75422475776481273657e-002, 1.18807229410660047941e-001, -2.40887795906116558564e-001, -3.99596109039153171705e-002, -1.00275117168326446948e-001, -2.10201580882594635247e-001, -3.56496780726620610125e-001, -7.86037139768364312431e-001, 2.86466330553167974893e-002, -1.61691479077833683009e-001, 4.94006281016837970471e-003, 8.95301350961544839535e-002, -2.62927757869130307444e-001, -1.83536658495932786250e-001, -3.32911702368342721226e-001, -4.86036961265489786399e-001, -2.22916656449064942702e-001, -1.76621085500215935227e-001, -7.06296982933603434418e-001, -2.68484306430246011388e-001, 1.70496712945029077479e-001, -7.50592184298078529681e-002, 1.90210612672952333879e-001, 2.20752193055072598593e-001, 2.63802008269256593742e-001, 2.34654022242439475043e-001, -2.39435389029336836986e-001, -4.21693812051275374042e-001, -4.85680481100951633167e-001, 1.09985397578314825218e-001, 4.93769797464048421087e-001, -4.54049458200597166879e-001, 2.88771605010390730595e-001, 5.33047995328540746840e-001, 6.69050950289108853353e-002, -3.59592483865186995917e-001, -5.40302584816852227156e-001, -2.86210294134435327962e-001, 2.20617827916019387802e-001, -1.09679272149953682680e-001, 1.28828930616676967658e-001, -8.89253209361896002072e-002, 2.11597100785473127282e-002, 9.46939321515422594011e-002, -3.16722492460166038519e-001, -3.44895710275777978016e-001, -2.92018028669615625770e-001, 1.57584808041785179311e-001, 2.62097708726976540150e-002, 1.31218894677380681912e-001, 3.01126498917427647128e-002, 6.18230036144259836872e-002, 1.91687805789600741735e-002, -1.78499518562166836766e-001, 1.61795895276516596417e-002, -1.37707138466848705294e-001, 4.17282340759566119925e-002, 1.47360859696782448003e-001, 2.01412412501829479750e-001, 2.04354044534989197357e-002, 1.18797431102462373864e-002, -1.31909756680116091454e-001, 3.07188517244134928763e-002, -8.97522781409316044998e-002, -3.93710187184577661834e-002, 1.58146948036276130400e-001, 1.23775560447130658637e-001, 9.28944514681151467528e-002, -6.02581998025516758603e-004, -6.44808534392727616957e-002, -2.26672467953725510770e-002, 1.26704164388826728826e-001, -7.38739032643265375322e-002, -5.03030626686882254006e-002, 1.46357439195743982419e-001, 1.64392587671477657940e-001, 8.93956012313970316274e-002, -5.66698952428591612440e-002, -3.92993679869030262952e-002, -1.40654372283895684470e-001, -6.52625344728316875154e-002, 5.74064854058267681758e-003, 6.47869872112801555714e-003, -8.42802429578561745904e-002, -1.57288987014049308488e-001, 4.30390466351728978589e-002, -1.42415003763856878871e-001, -6.20014653386858072270e-002, -1.89094472082041831218e-001, -3.06410138990140801241e-001, -1.08453219666461472825e-001, -2.26247491035670544868e-001, -2.67905284520367603651e-001, -2.05543019088809647554e-001, -1.67336334705886269347e-001, -1.61834534689386300155e-001, -8.86597156635481331577e-002, -2.03709193973198920968e-001, -3.42669475937924794540e-002, -2.91663634019885875670e-001, -4.16987986063575150064e-002, 2.08912413368662897017e-002, -2.12649093902473773632e-001, -3.95118348995200582841e-002, -1.13121283299668515254e-001, -1.77046277127405997376e-002, -1.66222288175178228853e-001, -2.56762402691830815549e-001, -2.73897142226167344958e-001, -2.20000859921280739195e-001, 8.86437349268675151004e-002, -1.27584229787684310525e-002, 3.54559965029615370424e-002, 3.02639113466435377697e-002, 3.60610479188681470886e-002, -1.59181477552981370804e-001, -2.13976711669408681260e-001, -2.24881716336718689986e-001, -1.45691744474765599859e-001, 8.89290695747599752030e-002, 1.76674646379092026294e-001, 4.19744410692373809413e-002, -8.35786030081573511064e-002, -9.82399032872252886417e-002, -9.76473102714552204651e-002, -1.87946269842116681081e-001, -3.31660421044593367590e-001, -3.88395112512109452751e-001, 1.18341367471832242808e-001, -2.94597756432744446731e-002, -1.60811793524875297490e-002, -2.01751359548219100226e-001, -2.34118132856245331208e-001, -1.24109997222742865497e-001, -1.56500795290368477364e-001, -2.04484190095417905919e-001, -2.79019101712698502915e-001, -4.24439930397206288681e-002, 2.16252460733124818315e-001, -2.56090452218587401323e-002, -1.08404224663104259418e-001, -2.08985664715322899676e-001, -4.59494699228370287458e-002, -1.50442821453005248777e-001, -1.06499594382863896347e-001, -1.69838898882610889185e-001, 1.81979170972372955584e-001, 1.15337392155972454089e-001, 1.75147853973345096409e-003, -6.39839673723023305563e-002, -1.01848401403269658849e-001, -2.07517356666248764530e-001, -1.67076229411520282842e-001, -2.08612526247652613209e-001, -2.90110223829046887101e-001, -6.34923086951593301785e-002, 1.08517123924722402872e-001, 9.24446706918904126393e-002, -5.67326278147216658820e-002, 2.51730687916366553669e-002, -9.93855149314290670093e-002, -3.46365309911030094803e-001, -2.33603840051209571405e-001, -4.46683945982988328538e-001, 6.58515376446708877722e-002, 1.37455500915310779853e-001, 7.55002577650945583265e-002, -1.99767798501195692484e-001, -2.71650605348980611620e-001, -1.45966934564387529338e-001, -2.45970031035108976925e-001, -3.81389944567889271898e-001, -3.97626745845584717021e-001, -1.45493969963911062848e-001, 7.09033517766373150987e-003, 1.44951605970377511712e-001, -2.05850104837624503507e-001, -2.38005009133591127757e-001, -8.68626206801027533899e-002, -2.25599822397280463937e-001, -3.03825066087728246078e-001, -2.64070068890147557905e-001, 1.80167655181448747859e-002, 1.76635445657271045183e-001, -1.16029881975547501799e-002, -2.20962085283191028706e-001, -2.16791370175171943524e-001, -5.70283200866971498599e-002, -2.91401906688818601587e-001, -1.87715174415769847638e-001, -2.48059558042700717406e-001, 1.18148689817965724114e-001, 1.74562634923253023889e-001, 4.83717645460863196472e-002, -2.38313987317943926092e-001, -1.33660290904540679513e-001, -1.58225695248538827942e-001, -2.87650757037915705272e-001, -1.00273173557794748056e-001, -1.44979253409085573345e-001, 1.08631244191873060911e-001, -3.36309070313163746557e-002, 1.17403473505256872311e-001, -1.38597063309975565559e-001, -8.08419311961279252188e-002, -2.81765392286195889837e-002, -1.74245024263975284429e-001, -3.00440009025996768166e-001, -1.96289216438964270184e-001, -6.53166223256016476029e-002, -5.90031964831707819719e-002, 2.10458905298496860847e-002, -2.11245825932694447635e-001, -1.59426322856813157403e-001, -1.67177030231854234499e-001, -6.20381678914959586169e-002, -1.67412335401066120211e-001, -1.44449060334381956805e-001, 5.26812067944127312979e-002, -1.66087965803066672787e-001, -6.79643482518689223681e-002, -2.43717883592282552607e-001, -1.92508413927011318156e-001, -7.70081983410095954889e-002, -1.80169178485838910042e-001, -2.31788568836358371827e-001, -1.09890416384865408084e-001, 2.05902095106710904260e-002, 1.20911041075112135612e-001, -1.16703370728083663521e-002, -1.90057729527417201831e-001, -2.07634430909313022484e-001, -1.22390673045900344462e-001, -2.25477825684609001211e-001, -1.69861176953887083041e-001, -3.35123094833661844261e-002, 5.85865599268849540637e-002, 2.10416516045776574861e-001, 8.58369289986967709538e-002, -1.11517482734981354664e-001, -2.60369065526734944083e-001, -2.81196399209304004341e-001, -2.70923295978051315025e-001, -1.97144042222541560072e-001, -2.88116781997817261729e-001, -2.59753760860080354367e-002, 1.08624044041108161474e-001, 3.63884985587475742741e-002, -1.64703760805071153239e-001, -1.20699391093166755184e-001, -1.12946034998567066548e-002, -3.47985922570641981189e-001, -2.45453029353753293673e-001, -3.98805444143657927825e-001, 3.17781718141925892396e-002, 2.01705531006907801128e-001, 4.79217700471978730326e-002, -1.00915295509179561706e-001, -1.02724942255315435102e-001, -8.61861960204056143375e-002, -4.31800641583227062803e-001, -3.08753042503226216020e-001, -2.31417137570150588388e-001, 5.70370427446668312732e-002, 7.36496413846493818561e-003, 2.51565284760987308010e-002, -1.80699446617544834393e-001, -6.77999204580137931897e-002, -1.82116225087872452004e-001, -2.40395346505539009296e-001, -1.27882462569426980092e-001, -1.66120838578008550579e-001, 5.85933885956302566433e-002, -1.90397525087762364837e-002, -1.22191795429936814199e-001, -1.03248715058520415533e-001, -3.40122547969611485619e-002, 2.52084040207024642766e-002, -1.16585925580566074355e-001, -7.97268121042978561430e-002, -1.29898434568239962150e-001, -1.17538923128141015173e-001, -4.32738797475649833446e-002, 6.86497048329998138527e-002, -5.65128686337553962082e-002, -2.12279603662283516963e-001, -1.82171229418262997646e-001, -1.88337555901614994713e-001, -2.97290236734944313124e-001, -3.30233976106207804957e-001, -1.20943618373768532748e-001, 1.55196388837784998715e-001, -1.08539980784272044323e-001, -2.09279347029613371767e-001, -1.92941132048914609776e-001, -2.55886731014286050723e-001, -2.39288605259422360039e-001, -2.29733772803865116119e-001, -3.57958597386162535869e-001, -8.20757201206115255543e-002, -1.37784252890034403238e-001, 5.98381134850699478167e-002, -8.56751718727882943805e-002, 1.21578227687799203527e-002, -1.43626471753123791109e-001, -1.90299322741269594239e-001, -2.83241910906626315203e-001, -3.02324536092168028034e-001, -7.99934169385518312190e-002, 5.62198830894167916883e-003, 3.87472491479212907683e-002, -3.81490250670014352519e-002, -3.17876348778240863657e-002, -1.42303265846896120905e-001, -1.71120330260541325673e-001, -1.10587256592485028150e-001, -8.96831185975245082087e-002, 2.04526845607318180642e-001, 6.36104767198146930918e-002, 7.79261491444646348103e-002, -7.25528036546440324717e-002, 7.75832470623027126155e-002, -1.51764428318897970360e-001, -3.93424653070275076594e-001, -2.30268250295032061992e-001, -2.60448527503781557257e-001, -1.15057942985812275416e-001, -2.45422266586293319479e-001, 1.13137420351592382639e-001, -1.27919253468735727441e-001, -4.06405081886255029056e-003, -6.90132397974947547903e-002, -2.62349430337442679484e-001, -4.00917672082967302405e-001, -2.33631940675369909055e-001, 5.45969469361887241310e-002, 2.42808617850109736969e-002, -4.35369956678354711604e-004, -6.87787835851595003023e-003, 1.86294569273067686654e-002, -1.20601293383627225508e-001, -2.79634200635207996744e-001, -2.49091183959100070933e-001, -1.25192700946672369477e-001, 9.84452914504706060039e-003, -1.60132328254676298274e-001, -1.80244989413917477972e-001, -5.53142911108530851982e-002, -3.57598607585060332403e-002, -7.26692821859755838654e-002, -2.50748073092383838567e-001, -8.02761408961101680104e-002, -1.69680042911239031822e-001, -5.44539380165931299893e-002, 1.47863266790339786816e-001, -6.23096319263873182903e-002, 1.40254213752465956705e-002, -3.90205049633448181057e-002, -1.12314385772465732960e-002, -2.87960735502307163536e-001, -1.30523355950952185678e-001, -5.05242013733775835460e-002, 1.26868630366169993229e-001, 7.65581322318479862155e-002, -9.07191135311399415864e-002, -2.21550053059749417483e-002, 3.10310693072657003966e-002, 4.87388735437324568944e-002, -2.09630242008881945148e-001, -6.53058586575592514567e-002, -9.81841555128610404823e-002, -9.77441464293285662557e-003, -7.41065579725926903976e-002, -3.44769071670715937517e-002, 4.31892282102228353136e-002, -7.14499128861335597307e-002, -4.92965604933857937109e-002, -1.61947560663658340907e-001, -1.37015587076266515121e-001, 1.97324353185040915828e-003, -7.81322811431060283704e-003, -4.15176372091728973501e-002, 7.66328811780829510791e-002, -7.41443014437128625899e-003, -4.28326565750948434763e-002, -7.38365126273763106024e-002, -9.47333571560218662411e-002, -1.79323488758064253368e-001, -5.29912646339540105433e-002, -8.47811653167546697141e-002, -8.60336932197339337991e-002, 1.83486263066894417229e-001, -6.82601382934759359777e-002, -1.47135824397979952938e-001, -5.46430418569538237095e-002, 2.24565889762834529353e-002, -1.12098340978567162507e-001, 7.32075977291613000375e-002, 9.85318997555851977532e-002, 1.48871169369181571840e-001, 4.39924645245274026362e-002, -1.79901615435006434485e-001, -1.64233176145711701199e-001, -1.98841895395752088493e-001, 7.04261953079467900585e-002, 2.16817671103612441552e-001, 2.29173531875580316353e-001, 1.64082630789720074205e-001, 2.12841340773189169333e-001, 7.55891408803700121100e-002, -2.20769933693348956172e-002, -3.32380969446123761268e-002, -2.16945202458042996074e-001, 3.21953243885775119981e-001, 1.56309977247664849687e-001, 2.36455386574807968625e-001, 1.12289878009876345488e-001, -5.49453183237860118271e-002, -1.26237316035682778370e-002, -7.99180775609498461609e-002, -1.01078562927045881303e-001, -1.68781074538573355737e-001, 3.67779103096231241299e-001, 1.86378622767575496955e-001, 2.56278387816104014085e-001, 7.77188143648626927895e-002, 1.66945129797527236359e-001, 1.61801467292714801216e-001, -9.93638848333388002843e-002, -1.84854428794664488178e-001, -1.71695376804981952867e-001, 2.84020471821152642455e-001, 2.92402593034699342933e-001, 2.81392803216194586913e-001, 3.04293554263768660506e-002, 4.44351312900779088499e-002, 8.60413534987121142450e-002, -8.91498870408955201849e-002, -1.16869685853206492498e-001, -7.10401610227592017477e-002, 2.42008642769456688848e-001, 3.57295817547035321482e-001, 2.10083355686832562448e-001, -3.23835583898015311188e-002, -8.09190380111677876052e-002, -7.58160836266324050792e-002, -2.77844377426934019404e-001, -2.16445599519467374305e-001, -3.44741401686352921807e-001, 4.36213786101207964818e-002, 9.77824406960857255011e-003, 1.00516319923979649542e-001, 7.68455069077693536661e-002, -1.94571687503644563666e-001, -1.02852586272119406186e-001, -2.85560085961813925337e-001, -2.73097917756742858408e-001, -1.82784769029464971846e-001, 1.68213584518370540266e-001, 8.76126452820016055067e-002, 1.47149093518134072012e-001, -1.50280917742229395972e-002, -6.32034181169539993617e-002, 1.92852118939652907026e-002, -1.89650197027876749045e-001, -1.73692545376075840879e-001, -1.13494045058762788036e-001, 3.83301208280142288731e-002, 1.54604925387092206196e-002, 5.08012582333857432015e-002, -2.76215320127046193299e-003, -2.08615886145951182074e-002, 6.50882634882975902313e-002, -1.40408797506209798156e-001, -9.35672313883630646369e-002, -2.00541405383914433935e-001, 1.08337984411469925861e-001, 1.09485308309689513551e-001, 1.20394868030871265985e-001, 2.54729861036524896090e-001, 8.71629375587745225396e-002, 5.97589032387113028300e-002, -2.22842656121120280543e-001, -2.13451295208147012739e-001, -1.90733186948706168184e-001, 5.20741212268050479572e-002, 4.84117030382473639838e-002, 1.38469863001578347150e-001, 6.64263884428566847573e-002, 1.22749913793344850310e-001, 2.84355969468248516441e-002, -3.73817859555706788477e-001, -1.83453654862422738114e-001, -3.40571981294227277282e-001, 5.79939100117156658420e-002, 4.95936604390090768346e-002, 1.81122393609298742989e-001, 2.38803537746796523678e-001, 9.01826544255356077340e-002, 1.16026585052514397134e-001, -2.99973311620420290957e-001, -2.56575791614010673136e-001, -2.37750915186447059346e-001, 1.99053522694254726721e-002, 5.72873745003653830898e-002, 8.20896937161848527786e-002, 1.77961367119051694363e-001, 5.39922247474344321749e-002, -3.19882082781469748167e-002, -2.23174126014982820987e-001, -1.55966049380338755981e-001, -6.24215261678947239132e-002, -6.40915618222996780196e-002, 1.89319779699925541672e-002, -7.75858854289652594138e-002, -4.44926585849546862850e-002, 1.35558758184173594463e-001, -4.87794524642467912379e-003, -3.02169673764302260111e-001, -1.43490781471707046224e-001, -1.65827205328524629468e-001, -8.10933159755914262368e-002, 1.17585649759457691599e-001, -9.43351978114702989162e-004, 1.21895075410433151308e-001, 6.73317005003489787995e-002, 2.31259652805796384056e-001, -3.63197851645348845917e-001, -4.22951975637675836595e-001, -3.70403681860600519915e-001, -2.83653812543729691442e-002, 3.54931873352139631850e-002, -8.16959121041699737331e-002, 1.42321733165992059256e-001, 2.18932219308797360036e-001, 2.25291379602335056775e-001, -2.60203298517746706153e-001, -2.25902405229280567323e-001, -3.04025749855365179375e-001, -3.37890669576066671187e-002, -3.12341654042984926201e-003, 8.13082941355617871970e-002, 1.53626776779529933270e-001, 1.46553401976901309656e-001, 9.06518103575105343994e-002, -2.06445369404241130251e-001, -3.40819651386785993363e-001, -3.10632663900149375014e-001, -7.05643601485295424158e-002, -5.68950759724940781370e-003, 1.82185584513417514474e-002, 1.44806340926039167627e-001, 7.91000966358481050200e-002, 1.43058885984566307170e-002, -2.89044141649185681864e-001, -3.16565489503468577848e-001, -2.21433215826901480527e-001, 5.86750122038041249661e-002, 2.02632266702206437214e-001, 1.06386938030022498713e-001, -6.22319219796987829763e-002, 6.37945189896755165959e-002, -5.56238122391948114354e-002, -5.14483854485363947817e-002, -3.13698412676690907563e-001, -1.44293043299572154581e-001, 2.57768679778713205586e-002, 1.70940141714318316613e-001, 6.73396063375061720846e-002, 9.89772181424974778485e-002, 2.05444805141976952201e-002, 1.44066050231646813895e-002, -2.59721251534237251857e-001, -1.51773516105673828003e-001, -1.71498719343001121418e-001, 1.33185312375857539680e-001, 2.33491455903337252753e-001, 2.50969876699855043434e-001, 1.20731797248036731851e-001, 1.16318794281117188216e-001, 1.89817047393987303749e-001, -3.12617476869355759295e-001, -3.61219332188043362741e-001, -3.26722095074224283540e-001, 1.70819917298949269790e-002, 1.18700106816300068879e-001, 1.79181216853049884996e-002, 7.74525157505892153376e-002, 3.13010202529608594357e-001, 2.54196598530577300146e-001, -1.61959165925941062092e-001, -1.86634838881859888016e-001, -2.50042270114606723919e-001, 2.61126036962355083382e-002, 2.35487672415712667728e-001, 2.57580553175710935676e-001, 1.28420260572761041340e-001, 1.24521633182589158695e-001, 2.15859014230212142849e-001, -2.85823726921690224323e-001, -3.67983206216186409243e-001, -2.43172386091597692026e-001, -4.82054980159999160727e-003, -7.70297420833929574746e-002, 1.16978380273027079972e-001, 1.28439906891393562649e-001, 2.26180592765114124587e-001, 5.02808026713267020025e-002, -2.94447050581425562310e-001, -2.54797751286063300924e-001, -1.78699908870761148272e-001, -1.17954593111382663451e-001, 4.66249390204405145255e-002, -3.53462683651957002007e-002, 1.56045940018835593843e-001, 2.00701767535281877519e-001, 9.56862940203684515794e-003, -3.23671057468830847270e-001, -3.90745418704186608938e-001, -2.95076481669855394951e-001, -1.22249841281337701115e-001, 6.19956741350149026504e-002, 4.17587186474906585376e-002, 1.48480247058324188458e-001, 1.76899694563179027407e-001, 9.29146269114001638334e-002, -3.97166100775391384126e-001, -2.59007877532432706502e-001, -3.12005181318665725243e-001, 1.10807966218635936539e-001, 4.55754995217749689362e-002, 1.42266380704853784289e-001, 8.66209234546422290890e-002, -2.10160986957054450597e-002, 5.22530765179079689786e-002, -2.69059317917540175014e-001, -2.80509139357831394079e-001, -1.07441566192373369470e-001, 4.24249614396383922799e-002, 1.53222273791685043021e-001, 8.29016680945874745445e-002, -1.14145457915999434806e-001, -2.79126302446668674018e-002, 5.98492867073835074776e-003, -3.60666553689491242718e-001, -2.35919642553020864062e-001, -1.80441719687787549553e-001, -6.93794704122764702842e-003, 1.44459295573815482694e-001, 6.91538646800574224871e-002, 1.61815756352535256024e-001, 1.61761045439359402165e-001, 1.72026875655878763727e-001, -1.99113464785934807244e-001, -2.90039017717583502698e-001, -4.12287504136766125296e-001, -4.18400832025592472885e-002, 4.36636671700256703832e-002, -4.65971142400701185404e-002, -8.40168542430244913444e-002, 8.56747200995827129510e-002, 6.86518437321287922082e-002, -2.76855090241522383554e-001, -2.55331857495489700227e-001, -3.20588013566841578683e-001, 2.81724190779082429847e-002, 3.35300414483824180123e-003, -7.85124659384399924134e-003, 1.53779975994548817608e-001, 8.21113655620317045569e-002, 1.97795901883811270361e-001, -2.30075639555748029386e-001, -3.29147346746497815317e-001, -1.43107360133407857106e-001, 1.09551120708554508565e-001, 1.75519529789742528836e-001, 8.07933291357921523623e-002, 6.23428250529322394713e-002, 1.20438420701775503185e-001, 1.67671350334857340025e-002, -2.40468232402991144436e-001, -1.01099618571420274415e-001, -1.96039820977537859736e-001, -2.16798418989615319930e-002, -7.39185461772204621678e-002, 2.74040693096267405637e-002, 9.22308966243110851801e-003, 1.47748915872135833799e-002, -1.22123766712170955806e-001, -2.01972858730076837430e-001, -2.56286436151778873604e-001, -1.88978347311668654074e-001, 2.92444990050393476000e-002, -4.52803512610730832244e-002, 2.52842212178803777550e-003, 1.87674247556738338361e-002, 1.43018323640677791353e-001, 2.18431458516392423830e-001, -3.17218308390973424693e-001, -2.72190285503457973793e-001, -2.51273265282176583302e-001, 1.51148220849031900137e-001, -1.03507465276318849634e-001, 1.43948096353823773441e-001, 1.42592589310253065049e-001, 8.26882205770790440491e-002, 1.74534924171262262327e-001, -1.87217012949299183022e-001, -1.14681523859316777947e-001, -2.37490987319070451234e-001, 6.84238176637949335746e-002, 1.42315930690053826790e-001, 5.31305498783466098600e-002, 1.03136880088706677644e-002, 2.24026284222724969553e-001, 2.15587918698644270821e-001, -1.97082938351240133379e-001, -1.36397691081484334630e-001, -2.66846296200527577369e-001, 8.11461951836306566443e-002, 4.39760670338889964048e-002, 1.61263749248739429731e-001, 1.43947806290408958363e-001, 1.78874975498002353191e-001, 3.05628233933670327704e-003, -1.90737855703746739255e-001, -1.05217293814283074926e-001, -1.45478533877918425610e-001, 6.48443852370002016272e-002, 1.89379611217199733675e-001, 4.56206023796502241341e-002, 9.19956658527865678288e-002, 1.04615665357288778470e-001, 7.72839846994353429910e-002, -1.07020752751760803156e-001, -1.54399689083289631819e-001, -3.13199240753460561582e-001, 1.03363800718274702339e-002, 3.01077487957569944754e-001, 4.37972783665027190492e-002, 1.11560997392898528235e-001, 2.06731294766878459512e-001, 2.07748949502437219028e-001, -1.62360288863671736737e-001, -2.67508322315444524442e-001, -1.48518345068341967030e-001, 7.99417369073435052362e-002, 1.80275385324140696719e-001, 1.20516681289792745857e-001, 7.39648742079075244282e-002, -1.19498074058932063357e-001, 2.38188998097382011176e-002, -1.69128731844607416157e-001, -1.90118171433325960917e-001, -1.44256638089061917096e-001, -6.01291142916544132935e-002, -1.26857358058335756290e-001, -3.00779269895323941864e-001, -3.24713224867478056357e-002, -7.42489532767859616857e-002, -2.25796940198416326573e-002, 6.74099116903465606088e-002, -1.39577127342430301615e-001, -1.31750756739382718363e-001, -2.42904996122987271168e-001, -1.38445000459559042216e-001, -2.54290736472048195527e-001, -8.05940770263131323059e-002, 1.10160475591075363022e-001, 1.55702308948569678737e-001, -1.62890143788409977321e-002, -5.88574331688459725931e-002, -3.99957108053495200006e-002, -1.35878204728498402920e-001, -8.83105369244906318604e-002, 3.72865601425001400027e-002, 3.52323693900046808203e-001, 2.32035066114030769091e-001, 1.55708949688885517348e-001, -3.20135972095935084081e-001, -2.96643765124918301623e-001, -3.10409988119922986005e-001, 1.44546240490825983471e-001, -3.22437082923834120174e-002, 5.20606924159051284717e-002, 1.09107528299884126710e-001, 1.97911080496401547979e-002, 5.72921392498373857616e-002, -3.31483398125032246995e-001, -2.68952466003955781293e-001, -1.87553154993890247582e-001, 1.30390356120023908574e-004, -1.34722434298971266431e-001, 2.09347506918393308495e-002, 8.61414606409581784519e-002, 2.05099259878500861376e-001, 1.63193813754285606266e-002, -3.50554373126890916890e-001, 3.77746359615483071059e-002, -5.83683741359922181324e-002, 5.53000782375174665395e-002, 1.71429500922488486925e-001, 7.26080174176702841660e-002, -3.04596703462666797135e-002, 1.74795383328212372565e-001, 2.01198080330829670581e-001, 3.28253733305857442470e-002, -5.71318586458483129720e-002, -9.19581045905263211315e-002, 8.74772074255632525741e-002, 2.15087482748600178351e-001, 8.28206541313199762211e-002, -1.35480345517594802374e-001, -3.97540178535487898070e-002, -4.60864852890815746012e-002, -1.99978101017638625059e-002, -1.92183229931336657659e-001, -1.62186458636584651671e-001, 1.76736324420990742468e-001, -6.05989087265934867066e-002, 4.23061342444792307105e-002, 1.43929460697731603780e-001, 1.92871287100419203098e-001, 1.16212087307103785483e-002, -2.03434428915196668930e-001, -2.13988578315698133037e-002, -2.03144828689190287685e-001, -1.65074590359740841494e-001, -1.34339985047341015090e-001, 5.95498852249640997503e-002, -5.50258314459399350271e-002, 2.09167023166256550726e-002, -1.31629985033843259490e-002, 1.04982819230881208039e-001, -1.21866041883902737064e-001, -3.07821029894376242686e-002, 7.08656701423387574978e-002, 5.89476165453655179260e-002, 1.57345279188201847553e-001, 3.18419213543791601584e-001, 1.69162317516782734206e-001, 1.44883808747812842244e-001, -8.29190656165118278320e-002, -1.60134110524650957741e-001, -2.11459659663008781028e-001, 5.44091876024558468439e-002, 8.56388402767674083993e-002, -1.41399391324956658078e-001, -8.60111594438080495628e-002, -9.77924488206491221431e-002, 8.53291334475983626051e-002, -7.97636723971534115918e-003, 3.23620336437182645750e-002, -4.28597982979552188237e-003, 6.97670218211209058889e-002, -2.74537837902665178558e-003, -2.30061001015589780549e-002, 1.85837894055024895230e-004, 1.15721095481375602088e-002, 6.48500691289498748526e-002, 1.07297853965875780724e-001, -1.18393914724618326550e-001, -1.15120497444441388657e-001, -1.02620612967328786458e-001, -1.32189831144729263990e-001, -3.31435783242631509804e-002, 6.61936545710748586169e-002, 6.69202958077996928887e-002, 5.59727454490969861256e-002, -1.71468042395988923277e-001, -7.57600924097521222222e-002, -2.22423169162166228796e-001, -4.11052541631909754138e-002, 1.12706387561965840072e-001, 8.63966008025504605961e-002, -1.99099899116832786822e-003, 9.19709876622276240044e-002, 5.86002030520334851738e-002, -1.27108392320251478713e-001, -2.92998075963346593653e-001, -1.98203609340192488109e-001, 1.01078094681272004363e-001, 1.18912590510375532071e-001, 8.02360469664717239346e-003, 1.26589940270840112246e-001, 7.34436874660937544235e-002, 2.30150545574513386293e-002, -8.52120692112737498913e-002, -1.10147035440998158906e-001, -1.67921888845171757287e-001, -1.68188896400287918320e-001, -6.84649298550013829523e-002, -1.31141230734780844802e-001, 3.98076129326092043037e-002, 9.95064368320825870518e-002, 1.46442650424484701460e-002, -1.28441675230397706065e-001, -2.19688934460459117659e-002, 2.18211818411498635617e-002, 4.13255257832942507479e-002, -1.08638883654334383877e-001, 1.02117609813854426370e-001, -5.41655302870729798981e-002, -4.17633475418231966958e-002, -1.73542492344529203363e-001, 8.08997254692508244167e-002, 2.06247607260454622613e-002, 2.21063487336867925404e-001, -5.63386910784225078408e-002, -4.48307309170940526677e-002, -6.74272338994123671130e-002, -4.99338088838415863902e-002, 5.57991374416593188812e-002, -1.46008164314496615560e-002, 1.69475595584741185740e-002, -4.52279395068327649820e-002, 2.37861037042216769133e-002, -1.20298951004714674284e-001, 4.98815024357435743418e-002, -9.00530926202945669612e-002, -2.45134409679686367245e-002, -4.00088690645275593671e-002, -2.44800069943846565490e-001, -3.26682112653153694515e-002, -5.05953676629344942239e-002, -1.85414887675146911050e-001, 3.82252289586544752309e-002, -2.14121438802220391551e-002, -3.32078705285447986495e-002, -1.19497474871145523134e-001, -1.34448096805924455222e-002, -8.10823694253934718068e-002, 4.31842513099060729131e-002, -1.56567177203045415634e-001, 8.20487813451554470756e-002, -1.20490029615616819902e-001, -1.48061519034201616307e-001, 1.10270892603118939035e-001, -9.42522913677384110986e-002, -3.02066378576261035382e-002, -8.06111584569616790308e-002, -3.41974662485358474329e-002, 2.56154303195334706600e-002, -2.17109923496193388259e-002, -6.31294180639605656546e-002, -6.81591912726830714830e-003, -2.59922640883275879453e-001, -9.53477137177788647282e-002, -4.00955324752865632787e-002, -2.45774228536546707202e-001, -2.49395861402572638355e-002, 8.62649893408376777781e-002, 3.53189668663798014836e-002, 2.64542416989743851830e-002, -1.41979913039300159605e-001, -1.53885061416945082696e-002, 9.27947905289780577975e-002, 1.48837046449624726963e-001, -2.59629340896146872109e-002, -2.19687277814236119750e-004, -8.42833979507310038226e-002, 2.65550619261357319367e-002, 3.88809931115479956443e-002, 1.47711418967661437668e-002, -1.07821367725584302266e-001, -1.86473761718273678412e-001, -1.52561019404823888790e-001, 7.43251229527669560193e-002, -1.45957228526954630593e-002, 1.09112488395411821873e-001, 1.48194510908941423644e-001, 2.38207377327300934278e-001, 4.09231043937864080728e-002, 2.07847526362994083904e-001, -3.73549686773218606040e-002, -3.71288528385110448357e-003, -1.64662289366254682710e-001, -8.43568701898837480790e-002, -1.46856072087567457451e-001, -1.04025597481368792946e-002, 1.98608494619510134171e-001, 3.12400802921540578228e-002, 6.06148980132727860370e-002, -1.54751160269453902352e-001, 4.84687368537438986044e-005, -2.79149068577283117343e-002, 1.23317976030339629401e-001, 3.39146467811612187249e-002, -6.26848953409470249776e-002, -4.50535563837757384309e-003, -1.20036144140719169826e-001, 1.14186630128855132194e-001, -7.95771363458863331686e-003, -9.88378887206724648928e-002, -1.29482843118281204520e-001, 7.83698317490709173150e-002, -3.24320905297532380285e-002, 9.89970488647197999210e-002, -5.64138007260202040821e-003, 1.62141169080582486783e-001, 5.79032241071083531025e-002, -1.49441599599780899910e-001, -3.34350926286936106502e-002, -9.63693128634485612904e-002, -5.88843525079344107254e-002, -1.29896185321592139150e-001, -8.44555269829824935279e-003, 9.38182283512452863672e-002, 9.86841672884208737093e-002, 4.25787743109570307465e-002, -3.62211196825537734556e-002, 6.29156773059465351805e-002, -1.65508206801466745128e-001, -2.35389553142233115546e-001, -6.37552341900435911443e-003, -2.76575132658963995791e-001, 1.09851625894269777639e-001, 2.85622062413613764242e-001, 8.31721760091349293642e-002, -8.54991243978957121685e-002, -6.99623053886927886991e-002, -7.11129328522807219182e-002, -1.03163424399759298677e-001, -8.98643863342988152842e-002, -7.04145574842110072433e-002, 2.20431957985837062575e-001, 1.55918170313182419262e-001, 1.23720820873904110981e-001, -2.41073592787549723093e-002, 1.06203943067355810470e-001, 1.73745723911668203954e-001, -1.89589820473209491603e-001, -2.48913393942854110907e-001, -1.68045956400173890355e-001, 2.01609543225085730001e-001, 9.86389720396125407875e-002, 1.48503865600446205431e-001, -1.43603716252200058756e-001, -1.00202573350284915299e-001, 5.01320033284556182407e-002, -2.17084445524597546839e-001, -2.74079470290164606272e-001, -1.32398737652639153506e-001, -1.07775694582498762775e-001, 2.01701114893146210560e-002, -6.58863497982216245186e-002, 8.52552643937941057040e-002, 7.95679050026276979413e-002, -1.25853329873401760530e-002, -2.66619384564872122234e-002, 2.54961487958156457490e-002, -2.40885893966193281868e-002, 4.50713123534918977398e-002, 2.68964410265171462167e-002, 7.35201607668766882187e-002, -1.38809272530838606619e-001, -1.42928798199340567621e-001, -5.46862971812934403615e-002, -8.95302313213058587049e-002, -5.24947373206097120391e-002, -8.92908288465098509690e-002, -5.42409665485097808313e-002, 8.58272318665654482261e-002, -8.10251314549089163286e-002, 1.40050939140833434482e-002, -9.73638788600915128235e-002, -5.79195459927562966707e-002, -4.08577509729543264516e-002, 1.03329109221599949042e-001, 4.33928163015335349728e-002, -2.13444912854214782771e-002, 7.97960998301169982527e-002, 1.68241249314649926605e-001, -4.18937321355087200631e-003, 8.06630155953313721096e-002, -7.02829058721181343383e-002, -1.63661817847536444903e-001, -7.99426268040194787368e-002, -1.54661880555200442755e-001, -6.71253279105591305238e-004, -7.16018373348575737358e-002, -5.56404965029631548568e-002, -6.92258566906045619271e-002, -1.87765012190058769304e-002, -1.62308233480781716196e-001, 1.08212824579443228634e-001, -6.11470033401550552843e-002, 3.19287400930576489855e-002, 1.56453910092272940879e-001, 1.51778126963312103015e-002, 4.24748530758105174998e-002, 6.40975186165532312410e-002, 5.67128012573367423776e-003, -1.19957577162635012358e-001, 5.99078872632447592683e-002, -6.94789761280776296815e-002, -3.09897900580577527474e-002, -3.64503509152826754569e-002, 2.23001742907166962404e-002, 1.07841590986047147771e-001, -3.39386142284933134405e-001, -1.53666351442082960155e-001, -2.21199245486106865766e-001, -7.09789444785458301101e-002, 7.95297044393099283877e-002, -1.43922103915276461406e-001, 2.80326696587692089646e-002, 1.60901386042232336093e-001, 1.35415137302913685113e-001, -1.93904443793403158391e-001, -6.60387029827890631450e-002, -3.87550175052259818220e-002, 3.80222338390692315285e-003, 5.42358746020272300403e-002, -8.77564405735975494594e-002, -4.77583364038224822412e-001, -6.54672112271281303464e-001, -5.26321390766331331790e-001, 1.17335281634119895089e-001, -1.81024558852158540256e-001, 4.08081941154522023774e-002, -2.04756792991100416979e-001, -7.46055523219914945576e-002, -1.80126468479956808322e-001, -5.70786669285633263549e-001, -3.67954561970328830611e-001, -4.88793320090210647866e-001, 1.62321528602591969026e-001, 2.78596510246894413232e-001, 3.43390833498361636167e-001, 3.02008767689872833356e-003, -5.75717023173183267692e-002, -5.61350626704495911379e-002, 1.18101993621439887994e-002, 1.14444013894358154193e-001, -3.48510554106470568647e-003, 1.55676337913324941420e-001, 1.56282839632495479387e-001, 3.00227684144385331688e-001, -2.31678595506371293178e-001, -2.17407539737427130122e-001, -3.57621302398907825459e-001, 2.94153550383177919691e-001, 2.93039795965969497582e-003, -3.06580864755694390555e-002, 2.61693507731121488558e-001, 2.39761080122153191763e-001, 1.95492835029879824527e-001, -3.14917852412224363867e-001, -3.03620585980127255521e-001, -3.91838602731508833799e-001, 1.77106511252746345875e-001, -1.64870440290915930281e-002, 1.58618457642236421190e-001, 4.31767086404050315362e-001, 2.41365957926016255763e-001, 2.75750514498737830937e-001, -3.33150026070122395883e-001, -1.84864540498305418570e-001, -1.86493555219235634945e-001, -5.40368230372865951394e-002, 1.81226078573383519998e-001, -1.31644109822320026781e-001, -2.07829881043482656011e-001, -3.11970194319499238844e-001, 2.14981583338245213488e-001, -2.67374555748420839052e-001, -3.80777584842740213222e-001, -4.09035599567921681619e-001, -3.02286797814401264617e-001, -1.56497938048303170122e-001, -2.60872604447683231754e-001, -4.13541171748562585986e-001, -3.46794771644746702144e-001, -3.72790856431717887443e-001, -3.33485637529463863071e-001, -3.70313175178891118566e-001, -2.50388404092994287797e-001, -5.39421057622064617498e-002, -2.22960078534317152066e-001, -5.77915184895204311899e-002, 1.18229086199170940752e-001, -2.29733182999067413188e-002, 7.54698480631948998010e-002, -2.16550532302367093607e-001, -1.49653525180595797783e-001, -1.89755239316655555104e-001, -3.48203599466843038979e-001, -2.22962517036799728887e-001, -2.38738960736855104772e-001, 1.05578037689809944855e-001, -1.01242318584922504077e-002, -1.43962507271217605639e-003, -1.55763540866022009990e-001, -1.30672565967132309206e-001, -2.82209899669471839245e-002, -1.61794949061895149134e-001, -1.67867506893644768962e-001, -2.31971046112521180060e-003, 3.00263715595434688144e-001, 3.99454683715612546280e-001, 1.63001461593345942092e-001, -2.36720084552786591559e-001, -3.19979181121964328938e-001, -1.62978174883982446230e-001, -3.57861782702950159685e-001, -3.15878592913923117447e-001, -3.73710104769093443000e-001, -3.19275778231329840362e-002, -7.95463812490300598013e-002, 1.86409099867102773240e-001, -3.11759802577163958048e-001, -2.80979196844901635277e-001, -3.69528419991245693499e-001, -3.12574607072609977898e-001, -4.01873503936816922621e-001, -2.89777436107381491937e-001, -7.93389052436620084707e-002, 1.55186948338270902514e-001, 2.20467296947026242249e-001, -1.97880789138710627695e-001, -4.45525149435845924106e-001, -2.32978245264747085841e-001, -6.38090472901660377136e-002, -3.48339138375139800718e-001, -1.95723665109791306049e-001, 4.17917934598348098096e-002, 7.37321222618247812397e-002, -7.39909946337341806188e-002, -3.73770904444020724000e-001, -2.80031673560062255302e-001, -3.74441414546065276525e-001, -1.42462857151506944176e-001, -3.06732314307002540410e-001, -2.70554615196564096635e-001, -1.11827709053415061402e-001, 1.70855845129986416708e-001, -1.22873673686734075083e-001, -9.79133480568357972285e-002, -1.70155722184877150616e-001, -1.61561097303655837321e-001, -4.30450095337403471074e-001, -2.41476139145305190858e-001, -3.87769308484146868476e-001, 7.33832538201402428957e-002, -7.29075734783765916358e-002, 3.69360601703406565832e-001, -2.10785950493124152327e-001, -3.96351776330079397237e-001, -4.12352823426101799953e-001, -5.34374032258408182550e-001, -7.91964875947278157398e-001, -6.17039483646046882370e-001, -1.86355950965129912866e-001, 1.49049522811658508026e-001, 1.02572927566495927798e-001, -3.27893484152455838565e-001, -2.53108371899360029555e-001, -2.97944027823240420449e-001, -3.72334562162701998567e-001, -2.62367210918629134575e-001, -4.27660622379590960040e-001, -7.30206284025106122648e-003, 1.11124391049466628156e-001, -3.12296602846135439024e-002, -2.83291862004066308245e-001, -2.50968889104343118035e-001, -2.22296328357419248345e-001, -4.55639900437009748302e-001, -5.16700889958233489097e-001, -3.10700274429973666290e-001, 1.36612791126036914324e-001, 3.48956121723548506885e-001, 1.34579800745866368095e-001, -3.16093823985747812699e-001, -4.95867283721918905570e-001, -2.92894037998669254375e-001, -5.17368056561982259112e-001, -4.08948405255114999513e-001, -2.76736067915982764109e-001, -2.38761558218076014315e-001, 4.38296885544815634228e-002, -1.82704768243368953495e-001, -2.57731787961534841713e-001, -2.46749036880006239469e-001, -3.42760260253184900758e-001, -2.15781900400003445739e-001, -3.48033057696278347315e-001, -2.76379590582847944891e-001, -3.15597571073106986095e-001, -1.22664064662691169039e-001, -1.02721061150984102617e-001, -2.12627941211110255137e-001, -1.93135019384754469396e-001, -5.18719935805693616038e-002, -1.85396119058947234093e-001, -3.71555111966319850936e-001, -1.98875015223055978675e-001, -1.88119270725693982227e-001, -2.43896225910769259837e-001, -1.33835415687144909658e-002, -1.88792781171542661811e-001, -2.64688333496897409969e-001, -2.73908619138958198125e-001, -4.37263094466723511999e-001, -2.04602622134306716406e-001, -3.97079177748752176758e-001, 1.82033788322985140562e-002, 4.14360921232172912942e-002, -9.14939929566983096640e-004, -2.92852031029758541614e-001, -2.90980491771606619711e-001, -4.36403622819626635376e-001, -1.65186171817242988258e-001, -2.47331375607425490992e-001, -1.40454253946375950957e-001, 8.35485041531029565265e-002, 2.76725172283279974295e-001, 1.08899576188802318932e-001, -5.04256409306805819526e-001, -3.39715335031696319401e-001, -3.57627763614530913561e-001, -3.18114127288669945592e-001, -4.58632255399010424490e-001, -4.51847298148315257293e-001, 9.68250973078969429109e-002, 2.86226432936845909261e-001, 1.93037339788883322012e-001, -1.91483075576904526738e-001, -1.34027102113092794200e-001, -2.14335046867365569545e-001, -4.82342531527009787951e-001, -4.84535824970808881584e-001, -3.71941405351022880144e-001, 1.11500492088298042148e-001, 3.94369235874941603814e-001, 1.16843374376127281944e-001, -4.94739900895183770668e-001, -4.20547733448620397745e-001, -4.21239478052392590790e-001, -4.37775470360218188492e-001, -4.35549052108855805354e-001, -3.87500331065783798490e-001, 1.59596809503589759371e-001, 1.07466454393106661258e-001, 2.14267822398921781168e-001, -2.27826299152381367419e-001, -2.35018554649170763327e-001, -3.80176116753242754331e-001, -3.46553733258696428088e-001, -3.08942559902219693324e-001, -2.16099274311736228027e-001, 2.68887758929480913395e-001, -7.58538957380892747695e-002, -1.47961399000137744375e-001, -2.33309052385430426568e-001, -3.47735886896984536243e-001, -2.17532251617561095403e-002, -2.61774277841177571702e-001, -2.24391245247489018455e-001, -3.20850613216546731721e-001, -1.20116565235542052670e-001, 7.39700700505247221717e-002, 1.04296851021839553919e-001, -3.27985146810939931505e-001, -2.72184921129335732903e-001, -2.25240703565516231510e-001, -4.32548130299073740890e-001, -4.24630388402769343159e-001, -4.03478873127339154880e-001, -1.05410348275148696429e-001, 2.58593873029178966672e-001, -1.43440404951224315111e-001, -4.47909398125274027525e-001, -4.85702229724699119373e-001, -3.67758567426353599750e-001, -3.27792923414826853357e-001, -4.07790171847075222367e-001, -3.29849202721540724070e-001, 1.26385231244468339458e-003, 7.71483232052630474307e-003, 5.08614133466925646965e-002, -4.84464391417268158690e-001, -3.90641013254061919557e-001, -6.16816154329348997898e-001, -3.57871674990911659009e-001, -3.52623835003495700313e-001, -4.15123551199052809313e-001, 2.79787334104965479398e-001, 1.03894214743293994418e-001, 3.38047543679079520729e-001, -1.46112254391013496324e-001, -2.77107799914087071791e-001, -1.08014237416639971578e-001, -1.78328757348184652187e-001, -2.29742533881877986079e-001, -6.80190030583050359025e-002, 8.65199216948191046628e-002, 8.59725916013348995248e-002, 4.40484807411396783738e-002, -2.50876417191016831687e-001, -2.14723406642472580685e-001, -2.46280869461479340332e-001, -6.86966486586597979702e-001, -4.28523475062296543836e-001, -3.22406190131710512770e-001, -4.93511445381530633458e-002, -2.24132762670456842091e-001, -8.83439412319266953455e-002, -1.63044405931936337018e-001, -2.55724838702658496814e-001, -1.29476481437506479866e-001, -4.52474263762082939966e-001, -5.36367781077164984538e-001, -4.37572274642940628464e-001, 1.66644618726549155474e-002, -7.64125832579859304294e-002, -9.10156402365640097851e-003, -2.86010403741164154212e-001, -1.96618323312648113355e-001, -3.40394982708664362026e-001, -4.34283323403904464310e-001, -3.33079768866163528074e-001, -3.48288520530151302079e-001, -9.90002923202704249173e-002, -3.22938168680746318095e-001, -2.49427278960490078630e-001, -2.27707271265529753723e-001, -1.68306665012562556294e-001, -2.81382728003668702854e-001, -3.77788256054549076435e-001, -1.70638684801080520170e-001, -3.06291114303658296159e-001, -4.77568661114661022205e-002, 2.76073741424641860842e-001, 1.20396381034915428421e-001, -1.63129845516842841846e-001, -9.29834167167372660501e-002, -1.34879337501595170101e-001, -3.31755509903290279894e-001, -2.62582508404558601089e-001, -1.69696579734763569602e-001, 1.38296057482224121760e-001, -3.65713115600215729617e-002, -1.79983427444517729565e-001, -8.14565104175117848939e-002, 6.55827444409151777416e-002, 6.98140713462131329292e-002, -1.51280548251933349979e-001, -2.92157275896271662052e-001, -2.63374540843139326451e-001, -1.98878864001119592952e-001, -2.33617829434559415303e-001, -2.60411324719217296408e-001, -3.06636472488949936299e-002, 6.11311168366548071673e-002, -1.11913976592158279089e-001, -2.44406189465153717011e-001, 5.16350743027655656459e-002, -3.47922445243659880787e-002, -5.33503667857753577364e-002, -5.70990499426767134095e-002, -1.43108815744443534923e-001, -4.22330116307876424209e-001, -1.77673633822245269354e-001, -3.04300213752265180656e-001, -3.27462065803998184088e-002, -8.01217838350207385567e-003, -2.92913654285081523354e-003, -3.36744884531839150377e-001, -3.08291919910514133907e-001, 9.01660022844411879195e-002, -3.10293910937455952315e-001, -4.70329906102982087113e-001, -2.32926032035690455668e-001, 2.28105669267077648676e-001, -2.88028358490125891214e-005, -3.63345925114273660128e-001, -8.42193712178381376221e-002, -2.06630876478106573213e-001, 1.77134922464799622610e-002, 5.54240936316369170456e-001, 1.70132784330007252871e-001, -3.89834271177513236317e-002, -4.64402567849461822558e-001, -2.51627950054398419333e-001, -4.91594483378332280932e-001, -3.42954403707794452938e-001, 1.37530207172878976563e-001, 5.52195552679064782797e-002, 4.11937810833588269332e-001, 1.42814806134154675954e-001, 1.90192696388269244512e-001, -1.79130025085611072067e-002, 1.15784263449167812432e-001, -1.80778852765351577547e-001, 4.80530778989387619138e-001, 3.34561684285742400036e-001, 2.99990350018917051322e-001, -2.31799790501095226425e-001, -3.33324769607150461770e-001, -7.74295126467346161991e-002, 1.27216052633803960309e-002, -1.01789626568911245608e-001, -2.51389303524074125828e-002, -4.22722764939366738024e-002, -1.06308133330149490181e-001, 1.27423338799672845878e-002, -2.10045125356105533143e-001, 1.18507005118144020939e-001, 1.95582482154150194553e-002, -3.88694251548160285559e-001, -5.02074935926920318252e-001, -5.16634116602882054181e-002, 2.15005365445345736353e-001, 2.38921315616113211222e-001, 1.26229051097679789706e-001, -1.84771535547893911433e-001, 2.13580508159336157625e-001, -8.87210202119844276725e-002, 2.09965711817831877928e-002, 1.53334036112511874761e-003, 4.93071114821095959901e-002, -7.06188360006422960469e-002, 1.04819512574169885349e-002, 3.25293141257627371754e-001, 3.63936584697470977279e-001, 4.39375324387126620085e-001, 2.44470966825501068165e-001, 1.68107794837547078193e-002, 1.23820602649388544769e-001, 1.41344158158066307562e-001, -2.72111057360013841588e-001, 2.07968453992949331433e-001, -1.00427216240761355004e-001, 3.39302514037670366331e-001, 2.18054159040242612200e-001, 3.09946626482592080265e-001, 2.04498448266321776468e-002, -2.33530493692446272647e-001, -4.16730253349534909835e-002, 4.16479405366919852582e-001, 3.83632013135086880062e-001, 2.41651422294138717994e-001, 1.34580621747819428879e-001, 1.84769509385200925156e-001, 4.07415921873901243355e-002, -2.56167033252038545132e-001, -1.76246638866138449764e-001, -4.13813105753761609207e-002, -8.48225448725657693583e-002, 5.23067198314391135217e-002, -3.93503633681683770429e-002, 2.85191975754486737316e-001, 1.26189898154305507605e-001, 4.59441599639203224203e-001, -5.73061782904990130172e-002, -5.32545210560645132514e-002, 2.98053041585047903683e-002, 1.21307441450354297485e-001, 8.61275199262066804007e-002, 2.45981837143134457468e-001, 2.58808669694139736883e-001, 2.55214171310911064339e-001, 2.31991228562024948134e-001, 1.53778372839956534862e-002, -3.51786348865933684582e-002, -1.40114233404554422435e-001, -1.88828490437115997791e-001, -2.63554853711952141726e-001, 2.20321804339448285015e-001, 6.82889349040947002401e-001, 6.82254829086991532172e-001, 6.53186149211716360341e-001, -8.64845132554971501859e-002, 7.57586079231726272631e-002, -2.51577514282253777989e-001, -2.98363905268720808195e-001, -2.21407263778686580480e-001, 4.42403383447079051605e-002, 3.99210029546965716740e-001, 1.93788620898423219474e-001, 1.92001025142960191072e-001, 3.65174263259681886051e-002, -1.54226907849125904892e-001, -4.52191121443855162387e-002, -1.41213533468490498590e-001, 5.65692892766534154853e-003, 1.90643399614447107623e-003, -1.79528574266818279070e-002, 1.07908486792581900793e-001, -1.01266040531862291929e-001, 3.42773854495721619351e-001, 2.29286985034945850481e-001, 1.97130263077081091527e-001, -1.61735460602100894478e-001, -3.02289426122183887968e-002, 3.12892698615686373764e-002, 8.80107929971308544648e-002, -1.25672542516575724836e-001, 1.87021905059847753927e-001, 1.79417475627120320825e-001, 2.32052707363507110250e-001, 2.29386386641920625440e-001, 1.42536882685541065052e-002, 5.70862944812689475371e-003, 2.10728392840874662051e-001, 4.32209575992388295163e-001, 4.23799977713651576661e-001, 3.73284152987556849812e-001, 8.23818157922970722984e-002, -2.86052523613617715181e-002, -1.54568018891377029211e-001, -6.72603790294910436343e-002, -5.53126264606147652336e-002, -1.71889664161151589639e-001, 4.39041303699169827013e-001, 2.02247309309932343790e-001, 5.28955271894229750451e-001, 2.07721826229139011621e-001, -1.44212358298706017079e-001, 1.67136272840542721152e-001, -2.83668074354691934769e-001, -7.24674014035134577555e-003, -3.79215039816843846321e-001, 3.29033027687309242992e-001, 4.14753492440320281620e-001, 6.16349518758478764902e-001, 2.51527764149320348652e-002, -2.93485711661804413164e-002, 4.84835246699826388772e-002, -2.93161325846176157306e-001, -3.27638317621624028386e-002, -1.91896727672909384044e-001, 2.64671639678929260242e-001, 6.06409226026491318673e-002, 3.23254088003124606665e-001, -3.69821239356324549252e-001, 7.01824933514916537991e-002, 1.17692393121473070500e-002, -1.89541302464691530094e-001, -1.63553701278753349513e-001, -5.24265132349299167736e-001, 1.78475256872979187728e-001, 5.29394402070086256273e-001, 1.65835055431065553355e-001, 8.80549627880410773484e-003, 1.31004405009656349490e-001, -6.04255214543086283108e-002, -2.90743186536807696196e-001, -1.09525057178310979145e-002, -3.28946734052523559466e-001, 5.15530928613640249125e-001, 2.02724418116482424379e-001, 5.37957780147731545739e-001, -3.20896274767090497471e-002, -2.48114634410066564607e-001, 6.89551674401490538591e-002, -3.15044017591487923724e-001, -4.91703137069539608639e-001, -3.73470555256814551459e-001, 4.76106947362823051950e-001, 4.14391349822150978355e-001, 3.72369786450065076711e-001, -8.59697437526449857736e-003, 9.21077360353751706246e-002, -1.36845516706894182457e-001, -7.48526652501286804409e-001, -4.67168524496401171842e-001, -4.97329213852884921554e-001, 2.12433751079449312238e-001, 2.47376714113607482082e-001, 1.41758958726404232786e-001, -4.78913940849614166995e-002, -2.98066896124913605082e-001, -1.50125579065516101540e-001, -2.34082122202349807161e-001, -9.02829193159911252975e-002, -2.37318299506462493387e-001, 3.57891077707436666699e-001, 3.03976933266827509250e-001, 4.21345950666514590388e-001, 2.82291274491791199797e-001, 2.30951246745661115112e-001, -2.09908556886005043252e-001, -4.38178345161913673778e-001, -1.23719592913005466128e-001, 5.13925008539448599509e-002, 3.63267227325259567383e-001, 3.68693907569014656112e-001, 4.92542156128785935110e-001, 3.78059213894683443513e-001, 2.08307839031830366316e-001, 2.55035677702358798413e-001, -2.98983829229521935744e-001, 1.96668480082220868688e-002, -4.06887971242831769647e-001, 1.31443201340601223404e-001, 2.90967250976025437748e-001, 3.67394185940204009988e-001, 6.08015324551781644047e-001, 3.99466238750560587167e-001, 4.08300340960305763183e-001, -2.37897427664476412978e-001, -2.17349664912947854178e-001, -3.63099609348367033390e-002, 6.36209607707199475968e-001, 5.51685920644942928703e-001, 4.99209017285629996774e-001, 2.93915721087565584568e-001, 7.66752019606786738848e-002, 1.47296726877641753761e-001, -2.47620539546769512229e-002, -2.57466592172509389780e-001, -9.73367795568466642742e-003, 4.33698539967793339489e-001, 2.59404491627068523041e-001, 3.46872568785575652317e-001, -3.66975214619943632122e-002, 3.88393148412722877261e-002, -3.10079227698737081020e-001, -2.09362458190144012926e-001, -1.56014662305914930673e-001, -2.33464002821331506610e-001, 5.29623988090196284872e-001, 3.47640285011005190086e-001, 4.04000993323612722641e-001, 2.48029530559097863285e-002, 1.44320054350286202521e-002, 4.67876404508039342445e-002, -6.64756123905714396694e-002, 1.02086882484940896787e-001, -3.63161027571646921608e-001, 1.59215949082442242979e-001, 3.86778422492191908955e-001, 1.83029316373773953686e-001, 3.80317431594024424335e-001, 4.39868315912932794642e-001, 3.34296579020241235725e-001, 4.75918837969539140764e-002, -1.96089961136649615359e-001, -7.17284900720977780519e-002, 2.25229418895428440406e-001, 9.08535260746076850369e-002, 2.50354931430556038041e-001, 4.82648109440163119999e-001, 7.09487559450929228255e-002, 1.46757995111683497980e-001, 1.57188183079540022558e-001, 2.31693732578783090359e-002, 8.20908207517516280705e-002, 1.66559618805410036835e-001, 5.58858590017918613335e-002, 5.06158280123127704564e-002, 3.61215640223049028190e-001, 7.26986045683184062272e-002, 3.24501606584673474298e-001, -1.59226973374662378324e-001, -6.98824462317532424382e-002, -1.71180137239154955831e-001, 1.87818542405682915863e-002, 1.20650311887697717084e-001, -2.76151686682920560756e-002, -2.45398035549664571275e-002, 1.19345623976513645625e-001, -7.23794206842170821659e-003, 9.05135437929126540624e-002, 1.44124465842220633727e-001, 3.36184138580287394937e-001, 1.31367767089273418391e-001, 9.36474920595206372642e-002, 1.90648574354752464721e-001, 3.13222925620156411597e-001, 8.97950741868344948227e-002, 1.71365690940803255815e-001, -2.45789252607793995420e-001, -2.18036176788335339660e-001, -5.86745971754349615601e-001, 3.44137161498918597857e-001, 1.52799015271872784538e-001, 2.15955526297169603245e-001, 4.83203270452077157660e-002, 2.94690612173783839101e-001, 1.56161645414731653503e-001, -1.75262231466079221320e-001, -3.47391939462152965490e-001, -4.60582216568152347236e-001, 4.71274111236553161497e-001, 3.71522932899979396737e-001, 4.35980307168363834247e-001, 2.31219134916722218742e-001, 2.84013593390869734101e-001, -1.63878809730981345183e-001, 5.54517710518645859374e-002, -5.32850487507835063328e-002, -1.10279105329300575189e-001, 1.06924963144384835290e-001, 2.60144349895336135514e-001, 6.08299512545423248788e-002, 8.83663665557995886557e-002, -1.52466434837855800005e-002, 3.56341055900354910721e-003, -2.44375222165954614217e-001, -2.80508372929330895840e-001, -3.16979467374655321521e-001, 4.15530964772593269796e-001, 4.23163162460597819248e-001, 5.13880964676830753746e-001, 2.13793812391921800309e-001, -2.40362875834097017291e-001, -5.18633648879185740754e-002, 1.25738160685629513091e-001, 8.84837860188425751051e-002, 1.25168995031219004721e-001, 2.00831913649186677429e-001, 4.21310705988526712495e-001, 1.56791453299214345041e-001, 9.06065471619123818936e-002, 4.56261417446055597691e-002, 2.98589494083556117321e-001, -7.45556890899182311827e-001, -4.75466126399205102349e-001, -5.11005184200736928268e-001, 2.88675057800845569211e-001, 4.40581392088352952197e-001, 1.39078999567930156056e-001, 1.57524141924401478443e-001, 3.51771090838842004356e-001, 3.63967128688898855504e-001, -3.39000030546377562057e-001, -3.59183888661841088652e-001, -9.86177364440912751498e-002, 1.79190301590205686155e-001, 4.37961864062237249406e-001, 5.21711745048318409346e-001, 3.18293666262236152331e-001, 5.11986382199532630288e-001, 6.94214450487001366596e-001, -3.06695565534713610045e-001, -4.21642044106746993748e-002, -1.62182713591015770227e-001, -1.47742475928361732818e-001, 9.45430000841115392163e-002, -7.32416362763619287202e-003, 4.46755384032557101293e-001, 2.46870076133218152581e-001, 2.71101333205744920996e-001, -2.28019043732921894430e-001, -4.19131368972539330997e-001, -5.04387854029794246991e-001, -1.58362920276684637777e-001, 1.78036082345182852804e-002, 7.58578569420125109479e-002, -1.59072023063753759109e-001, -2.43771416031771603894e-001, -1.99812335356856496382e-001, -3.19208915637985146674e-001, -2.38090965550831229480e-001, -4.47702466153618694467e-001, 1.69370303031551094897e-001, 1.90915042395099460171e-001, 2.97169108098717105193e-001, -3.03370141699838946625e-001, -1.32920553332326524254e-001, -2.45400983467568452323e-002, -3.78477582474959606262e-001, -4.57144288618923533285e-001, -3.65950105696857153070e-001, 3.33112156083982591248e-001, 2.29662107052141600816e-001, 3.76834599184656282578e-001, -1.99429571904982838593e-001, 1.38829875515361855776e-001, -5.51200142875729187653e-002, -4.65856807835395902995e-001, -2.91295645820755177979e-001, -3.16062735571540298629e-001, 3.18088483871772242928e-001, 1.52650573919742377216e-001, 5.31805931835768255778e-002, -2.29260496475960751095e-001, -3.97846401762217305453e-001, -1.03480580328059415529e-001, 1.97411792031126381852e-001, 3.03412742828443215970e-001, -3.80714968722387581135e-001, 2.20574174494966412929e-001, 3.42238743070420958770e-001, 1.50591306055304491318e-001, 2.34882828684136485409e-001, -5.56805115015823332003e-002, 1.20308401447479194901e-002, 4.14084496825639969408e-001, 4.45234234445740784114e-001, 1.26328196073686394030e-001, 2.97911290080167978633e-001, 2.96349594765272505992e-001, 3.15695631820338884488e-001, -2.64375908441769003066e-001, 1.17500302496173020250e-001, -7.67574508771400737528e-003, -3.75558058291565521891e-001, 6.91194590670505953911e-002, -1.91781246134654914659e-001, 1.22146933761591566792e-001, 7.69327765901645643787e-002, 1.91661452688701272606e-001, 2.22642273480610747294e-001, 7.18030624943434142571e-002, 1.65183225631410079970e-002, -3.58180828692542391201e-002, -3.41682328074557006836e-001, -5.36937440382728933819e-002, -5.23308721124468231856e-003, 1.47091673520232418815e-001, -7.06522655076740908192e-003, 6.10355011906259931065e-002, 1.31629870249027475237e-001, -1.54037355608898002268e-001, -5.37647215186591642677e-001, -4.37989842706294874031e-001, -3.66408837102913664818e-001, 7.10578084327599529546e-002, 1.70205334924175166744e-001, 2.16963156125903583460e-001, 1.90359001976210494289e-002, 2.27833474801403673693e-001, 3.04685606677574938317e-001, -1.26116303188830380932e-001, -1.02665819386538931246e-001, -4.07070256402561170272e-001, 2.37400965960286369771e-001, -4.87144537046517583923e-002, 2.35578283588425807515e-001, -9.49529797316946144736e-002, -1.67140432766409059717e-002, 2.32695982030972498000e-001, -2.30212911669747499754e-001, -4.45125018730052390836e-001, -3.59457412985023039287e-001, -1.39679600048085335307e-002, 1.87322540309659973934e-001, 3.05003606455651332663e-001, 1.20598478942587322704e-001, 2.54902233311450898690e-001, -3.04863933705516766681e-002, -2.30709773897824960143e-001, -9.50256625879458138861e-002, 5.08898967449104080996e-002, 1.23767071345459889198e-001, 2.09097013323457536771e-001, 3.11390218282647679438e-001, 8.82482223220278222398e-002, -1.05878549515940733466e-002, 1.28240537145996591484e-001, 1.52946531907230953706e-001, -2.50907320110458686990e-001, -1.86781686986850020693e-001, 2.33450731427152724518e-001, 1.14036418894679594804e-001, 1.00642448845545906533e-001, 2.70875971542411830839e-001, 2.17193299898629843536e-001, 3.22141753040127265528e-001, -2.39816563284335315664e-001, -2.33801532587156440934e-001, -6.55007618382485667929e-001, 2.86844320977808597828e-001, 1.23086120128603648816e-001, 3.28543996520911318893e-001, 2.53564644618927970132e-001, 6.33335387863285359522e-001, 3.33320473984513587773e-001, -4.21302893866852407045e-002, -2.39664772671143416760e-001, -3.87473000718907834017e-001, 4.44046503006669091018e-001, 1.43830461675988841019e-001, 8.11060062978971318959e-002, 2.70840626652750326997e-001, 2.97758029200562435168e-001, 2.87458234457647454629e-001, -2.13278239965814742085e-001, -3.75785539997049833350e-001, -2.00043705458134518649e-001, 1.18120341004719325850e-001, 5.66939842643617852858e-002, 1.71422774516789937216e-002, 2.41972541249606903913e-001, 2.75918461613807453059e-001, 3.90313052199662002817e-001, -2.84293836751528528062e-001, -3.67350364685001762322e-001, -3.38814645472939879323e-001, 1.46766850501119011652e-001, 1.47786357387403560759e-001, 4.61212672533792000795e-002, 6.45661631442574768247e-002, 1.28004550294239072272e-001, 8.78650436707744120213e-002, -1.89869745936652928320e-001, -1.63221304866258271060e-001, -1.48191136150961411122e-001, -9.94969657681320784892e-002, 9.48418641345640800466e-002, 2.68782841438351460805e-001, 7.73765486497797472243e-002, 2.22254921035294428222e-001, 2.69444361824229317026e-001, -5.78829816788610715395e-002, 3.60363568690488036972e-002, -9.34227758321009293940e-002, -3.21020225190479513433e-002, 1.30068869963865157979e-001, 4.85412881352164371496e-002, 1.19242010487011440567e-001, 1.97530259541810693236e-001, 1.05571056577317815006e-001, -1.37357124763807670470e-002, 9.55006511624338916278e-002, -1.19466178720515087824e-002, -7.68610958198921376261e-003, -3.18083136887263497744e-003, 6.78824736635706971200e-002, 2.27983181692417380404e-001, 4.44412550512180634654e-002, 2.27352421803610260653e-001, -1.70915719400213553074e-004, -2.93983921789017332848e-001, 1.33232420845033505685e-001, -3.89123972170729581777e-003, 1.08057252986889021362e-001, 2.69129076592530436240e-001, 1.14417345966253511391e-001, 2.07090490359651047125e-001, -9.25629665897534786856e-002, -1.86586058708049840060e-001, -2.98682566831532159135e-001, -2.49898908105453482209e-001, 1.97683694341160759445e-001, 2.12571958212290634815e-001, 3.15902963925562496605e-001, 1.85254692237110746289e-001, 8.64001370244144861754e-002, 2.31003737774021972173e-001, -2.88124631954120469235e-001, -5.27833813086930114800e-001, -3.76637869088297549958e-001, 1.49886967657320846481e-001, -1.11956902850123454773e-001, 1.58235117882872866613e-001, 2.40665013633122898407e-001, -6.60739517606151460782e-003, 9.92442505006891628749e-002, -2.48700805079179854129e-001, -5.84691319029597478263e-001, -2.48082329572495291492e-001, 3.84061143658480319552e-001, 3.33342498986299140551e-001, 1.18778124491259393092e-001, 1.41704783675625167749e-001, 1.38512343269714927052e-001, 3.84435872797163694092e-002, -2.05987406010381401966e-001, -1.47529380325004122465e-001, -2.35190815057569668767e-001, -3.85962179367519836459e-002, 2.68070473295670859415e-002, 1.21088521559493955682e-001, -6.99565196292920455506e-003, 1.24212997857927331946e-001, 4.71012610713706508792e-002, -1.63552292098436691248e-001, 1.87888474637832730840e-002, 2.46476394607494410371e-002, 1.26703289971239474454e-001, 4.22569614044324304292e-001, 4.95819525587281734191e-002, 4.83470708442419530582e-002, 1.55369083466666731141e-002, 1.51029502994151909601e-001, 2.57798478498458827346e-001, 2.83431587446475695413e-002, -1.95927272761760251640e-001, 2.65091999921675369745e-001, 2.78977404653057460548e-002, -4.94326489868919943804e-002, 8.79734373235851047079e-002, 6.42770058009203559823e-002, 1.27955910163186664663e-001, -6.36533928273489701954e-002, -3.79264159938076828027e-001, 2.50217819974181757137e-002, 4.88754829325527495598e-001, 2.65402918870389969985e-001, 4.99420652115410312888e-001, 4.81890930043083406953e-002, -3.54024006954687386894e-002, 2.81754653322011001937e-002, -7.02669081431788952741e-003, 2.98767013688947501160e-002, -3.66278637595162798180e-002, 1.17496258963733127278e-001, 1.48154185853301673115e-001, 5.81057159537209932942e-001, -1.61018083195529418394e-002, -9.50546568351306325750e-002, 2.28605116000826086298e-003, -2.60321872794792963379e-001, -1.22507647640659772525e-001, -3.20286478792671247540e-001, 1.99510264497709921550e-001, 1.67393500331975475515e-001, 1.74183629193016137338e-001, 2.56507315641524465122e-002, -1.04354281087436912001e-001, -1.21216160859997770793e-001, -1.92868648761368027822e-001, -5.22178298132215876204e-002, -2.08264404427293409183e-001, 1.47218956019062124918e-001, 2.93572322214308623067e-001, 2.82223541870108340923e-001, 4.68193523477285211687e-001, 2.81351370865674577093e-001, 4.21892496700011776500e-001, -4.32269406562695232554e-002, 9.40876394869693405409e-002, -3.27983450484681915427e-001, 7.59179762340772834595e-002, 2.29368029285855562494e-001, 1.55501297616745137731e-001, 1.69869581099102662236e-001, 2.19471133385776978608e-001, 2.70037673114188137014e-001, -2.64611330244046427662e-001, -2.32466122378731460119e-001, -1.86574773787149178483e-001, 3.21552860526646503564e-003, 1.38314598260315252398e-001, 8.82508751095024551736e-002, 2.35772921078532676775e-001, 2.20077062497016279208e-001, -2.74389544367828024096e-002, -9.94075363111365274682e-003, 3.66411281631066010345e-001, -2.19344816444228506158e-002, 1.90961628060913324312e-001, 1.64074471923314785249e-001, 5.11421363108901516625e-002, -4.69499761791220687757e-002, -2.03287104266633378291e-001, -1.53295954970114722826e-001, 1.89491814053955424935e-002, -2.06982396642692467736e-001, -1.35184753623513786991e-001, -2.81441992239967742062e-002, 1.13463396926972243106e-001, -4.31902636776035006583e-002, 7.78800327049214424768e-002, 2.15225769238962007235e-002, -1.60400826246158867416e-001, -1.61256052033959991487e-002, -4.04350455214979379037e-002, 1.17104382683082680616e-001, 1.16433244132867885073e-002, -1.66920781352487279658e-001, -2.65552772376384471631e-001, -2.31866308997734138497e-001, -1.40389206974457281252e-001, -1.25205281957515429658e-001, 3.09913724854034636214e-003, -4.36570112412444089056e-002, 1.18663991507560490080e-001, -8.64834379761458410529e-002, 9.94745000198623587073e-003, 9.80332798530457183439e-002, 2.76479143758357956417e-002, -2.19355135172216164641e-001, -2.75206970436765563370e-001, 2.46997558645115050657e-001, -7.42158939947515083890e-002, 5.31923397326407657038e-003, 1.28293464965074432982e-001, 1.30714742288722873820e-001, 1.24394571385850305489e-001, -1.55628025640025507981e-001, -2.20176088161202015980e-001, -3.39404155635050053252e-001, 2.74043216799230937575e-001, 1.59154206874330128585e-001, -2.26415388144318469044e-001, 1.60638975389513799508e-001, 2.05909904714758673627e-001, -4.12100311843239044962e-002, -4.28322623361537979658e-001, -1.20687634822482792174e+000, -1.36991300151292927367e+000, 3.17596510846825386132e-001, -6.36077537096808448558e-002, 4.51338767103534155289e-001, 1.08985113039539519009e-001, -7.07954440361022313555e-002, -2.78787611056053097336e-001, -1.04612719270649567882e+000, -6.88284535615449000190e-001, -7.15412045717858768867e-001, 1.16575616730321907077e-001, 4.94071937299225660833e-001, 5.67639984694660260089e-001, 1.69333795583816948405e-001, 4.37763711497691221375e-002, -2.79451704398140987617e-001, -3.01874337287578953237e-001, 7.76444702071235528379e-003, -8.06802602416222397474e-002, 4.03286619543970881185e-001, 7.11571166165755109034e-001, 6.22152867003998966133e-001, -6.95966629016167570576e-001, -8.31847691325666382944e-001, -6.53683879506273268767e-001, 3.84234223190118462377e-001, 1.20682494111538793358e-001, 5.52404858770740442298e-002, 6.29148911626624229854e-001, 5.20595722283112238848e-001, 6.19734419585448503831e-001, -6.20467668146455375577e-001, -5.35454092065266729072e-001, -8.43882651772094427578e-001, 6.65786499724935060263e-002, -2.05367722189128965038e-001, 1.85844841523699871866e-001, 8.21915725234968030932e-001, 6.17680188707728228259e-001, 5.31538176989997723787e-001, -6.98769495609405821845e-001, -1.95663826216695063698e-001, -4.06027666389121522084e-001, 1.14016235911724522767e-001, 3.99443850588938886848e-001, 9.08204709191188647166e-002, -3.93122193492269123016e-001, -2.68303293595414382722e-001, 5.03920792742090450922e-001, -3.62615116416546201528e-001, -5.05057224647988745048e-001, -6.78998576895991856617e-001, -2.40218672710829056482e-001, -1.87160391888336219424e-001, 7.99837543346555851498e-002, -6.00137476496218513766e-001, -5.15263243803525616826e-001, -2.74540273355927733068e-001, -4.99615164541362288819e-001, -4.91823255528068492559e-001, -4.79129322659898881920e-001, 1.04599642091758385232e-002, -4.82937348555613654710e-001, -1.24282871832607874629e-001, 2.79672178507318958118e-001, -4.69215460765821795741e-002, -1.69805239559540077643e-002, -4.11839807696145532301e-001, -1.41843227180729808401e-001, -5.08635820469171773262e-001, -5.55873598655323153395e-001, -3.43077499964735577187e-001, -2.34017599053671226939e-001, 3.07521121051343264419e-004, 3.25215375984936660991e-001, 7.08284501670110311355e-002, -9.91090827973298560405e-002, -4.49358723965745276985e-001, -1.47162877889698562317e-001, -2.39299709404287505587e-002, -1.26220652868090088550e-001, 3.09306726830716922916e-002, 8.07763277282380953714e-001, 9.93387548074327497716e-001, 6.41485570135442717543e-001, -3.96598309037605400995e-001, -4.36611005739703017525e-001, -6.58684993990477307690e-001, -2.48767770387547076938e-001, -3.58807166873000460416e-001, -6.89593710587400487988e-001, -5.72684900859363119063e-002, 5.47789290602860700491e-003, 4.94005702164293181156e-001, -1.24457037750958079969e-001, -1.91455652592879471685e-001, -4.70934220819436422101e-001, -1.05947409706857884060e-001, -2.83794468509264319334e-001, -3.49016449830308439495e-001, 8.00860741229092454319e-002, 3.99586852884332821567e-001, 4.65491400847742486935e-001, -6.90239944068525429488e-002, -4.06188769604363897336e-001, -4.03890073915977254604e-001, -3.79595145425960622809e-001, -5.93780098607762596430e-001, -2.37433120529554231304e-001, 3.11806994480532062575e-001, 3.93989969178428045549e-001, 6.98619234014864476379e-002, -4.27381528012259925831e-001, -4.51896521242035276167e-001, -5.96367948171042439043e-001, -1.62977958026529062829e-001, -2.76057851270883114481e-001, -2.35062167289172285756e-001, -4.36207500067847184222e-002, 2.28480508913102314805e-001, 2.59457263770631774147e-001, -4.07839204842489033709e-001, -5.27748806994501440393e-001, -3.16655989356049605288e-001, -4.32786259584159282987e-001, -4.15153269335745922497e-001, -4.86255017761198671256e-001, 4.28671993766363668144e-001, 3.95902526511232033535e-001, 8.55902728180693017634e-001, -4.95341701130118994278e-001, -3.81199522542078172993e-001, -6.35132008640322709425e-001, -7.63658436559998210491e-001, -8.53970247387152103791e-001, -7.53662233077594390096e-001, 2.15898565316460400165e-001, 3.71941501809413210822e-001, 6.03987243016249508720e-001, -6.27722208427355821136e-001, -4.48028061199941041171e-001, -3.31342472085340566945e-001, -3.01173469806658267167e-001, -4.35224408093054848656e-001, -5.35358116111049664454e-001, -5.44609572667028099535e-002, 3.96335614565676175314e-001, -1.85224437806959713049e-001, -4.71392693986378785720e-001, -2.59477253425083598248e-001, -1.02316248676513218974e-001, -5.94068254516842975121e-001, -7.40445021789708057725e-001, -6.73141340497303342083e-001, 2.86748645867901275075e-001, 4.58354966815126219082e-001, 2.71839911205139062034e-001, -3.23588897037404343848e-001, -5.78608104771861198046e-001, -1.66136936922705702457e-001, -6.52389906877310354893e-001, -5.44761053023274821605e-001, -2.84750258533965794339e-001, 3.02854832171818411091e-001, 8.15808634756607364835e-002, -1.41167168503407908231e-001, -1.77401421589574143090e-001, -2.88644238597791535916e-001, -5.43587539523207152747e-001, -1.41637276891997260231e-001, -4.12495999209216979153e-001, -3.55781901964740021604e-001, -1.09651651862134644211e-001, -8.11098462258626889954e-003, -4.01249384378785968475e-003, -1.18368456387393281015e-001, -1.61500016334870599710e-001, -1.22575593476959648909e-001, -1.77122428558396494136e-001, -5.95742883150670032855e-001, -3.43804064168707734783e-001, -2.45732896757154123391e-001, -3.75172023826566169991e-001, -1.76138823651374787360e-001, -2.21253834704100510455e-001, -2.21832693521078427867e-001, -3.58939012813305979854e-001, -3.59845465690099342027e-001, -2.65764235436169393711e-001, -6.21719551838839090685e-001, -2.81115426613872065875e-001, -5.71743724369376260519e-002, -4.39255547764179521408e-001, -3.88315338975357471352e-001, -1.09159031649607773939e-001, -6.15676371267022126688e-001, -1.63389118274185868307e-001, -5.56855828014339415688e-001, -2.82155281317523043416e-001, 1.20781354973794469165e-001, 3.99331129256785211101e-001, 2.91489048111586490641e-001, -4.74893798367846620145e-001, -3.21958864623002993799e-001, -4.40701518739326447704e-001, -3.78685623500999546387e-001, -1.84544776067010335430e-001, -7.09710369112479533271e-001, -1.40531305304611192630e-001, 3.19239840228923210663e-001, 3.20402384013489471837e-001, -2.55271800103465118514e-001, -7.15099961692289148862e-002, -1.98180789365195120233e-001, -4.52370898079523797719e-001, -2.44870852832507618357e-001, -1.73473234905263867800e-001, 2.08674936781245240480e-001, 4.70279082240768198098e-001, 2.17746621744085044892e-001, -8.76871626384491675843e-001, -7.80131626673012501527e-001, -5.43959124979439323511e-001, -3.83134014466405325994e-001, -3.03182215574344438025e-001, -3.40184783308994098672e-001, 8.28222798362970302755e-002, 4.59883522117997128875e-002, 7.11823781365242963526e-002, -1.43578874048988780476e-001, -2.70267519422495494652e-001, -2.91799865890368104182e-001, -3.26784566717570779115e-001, -2.14116709351708345288e-001, -3.49479351733901141830e-002, 2.89475843204555660648e-001, -1.11681509978580964515e-002, -2.36488736573524455098e-001, -1.86730955006290694209e-001, -7.05817000536550387402e-001, -1.32515891598159584602e-002, -1.20443710271388851329e-001, -1.72125906024136243744e-001, -3.50006576268724778345e-001, -3.94980448531538630430e-001, -1.25430039530448372842e-001, 5.89320640495565595263e-002, -3.70637592013818961689e-001, -2.43629990500435988920e-001, -4.04558654098383721487e-002, -4.33253848881808290017e-001, -5.47505942062422756855e-001, -3.65290686197538905233e-001, 1.37785084409277388401e-002, 3.91971326984538348537e-001, -3.48682039844908087112e-001, -8.47284795116644229296e-001, -6.83100552460452425940e-001, -7.86044249698052199804e-001, -1.79815398994312924952e-001, -1.08019143525753466561e-001, -1.02518842161372525368e-001, -9.76622626022785600419e-003, -3.08084587171109369752e-001, -6.41765254330164403029e-002, -5.04858468140017446757e-001, -3.94813405512673687436e-001, -8.77671729947286038964e-001, -1.18129486336610925457e-001, -7.79801864267218036719e-002, -2.20861669039752517296e-001, 1.42716202471078940084e-001, 1.87805234975984752799e-001, 3.45814490194846835269e-001, -3.98059926361032656583e-001, -5.59009400583087345815e-001, -2.81465983697043453660e-001, -3.26185946318406569389e-002, -1.62610467088782878475e-001, 1.26580936524232079421e-001, 3.81113424278469586914e-002, -1.62957029733064001631e-001, 1.89894586489746386437e-001, -6.32696267263108347301e-001, -4.73452049833851751348e-001, -7.62514713235891150589e-001, -7.82520601744212229711e-001, -5.14118400097368977164e-001, -5.62567197337038971128e-001, 1.39622273751186104507e-001, -1.68244676547612791173e-002, 4.36734381073930422179e-001, -1.05098416718405904269e-001, -3.31058648491002138758e-001, -3.01210793902628226615e-001, -3.80076248148085216183e-001, -5.08044098281975387010e-001, -4.82377749537186262252e-001, 1.67666689362952869846e-001, 1.92079248797196344700e-001, 1.87219712995474629746e-001, -3.41036844116379744829e-001, -5.35333434104476646453e-001, -4.30870966561571477893e-001, -3.87765327302845186352e-001, -4.70475622249126201879e-001, -1.82485918600853641580e-001, -3.32226223371948348184e-002, -5.32041549198218999273e-001, -2.63912057922071729976e-001, -1.93457166540797642629e-001, -2.93479173818368577198e-001, -1.13119883612404464879e-001, -1.00578154242802794704e-001, 2.49936581776649568987e-001, -2.41927876033913857867e-002, 4.58140376629072795800e-002, 2.97320273733168716213e-001, 1.90405529425739378224e-002, -3.17196065045947384053e-001, -1.59957596460916867676e-001, -2.62019808349419680571e-001, -1.11029883656730207764e-001, -2.58415367976239596093e-001, -7.32699002380058639350e-002, -2.18717554583009565761e-001, -2.78124582850180213089e-001, -5.50284352037044177663e-001, -6.24259085597591023564e-002, 8.44607479542374001147e-002, 8.22728662110000230623e-002, 1.94838383062163916781e-001, -1.15760097514626209003e-001, 1.77946591537769593927e-001, 2.54745010038787515760e-002, 3.68351257579716470647e-002, -2.88156334369410627172e-001, 3.18393132748703774904e-002, -1.12921162609749353711e-001, -2.65171173749413180420e-001, 1.73322469336006611262e-002, 4.44208159793004486726e-002, 3.07566626767574013979e-001, -6.27932601296488313025e-001, -2.85102922143470605132e-001, -1.85470376818921756090e-001, -4.53661559760784094397e-001, -3.75403491327715443937e-001, -3.19736980100972845165e-001, 4.13509450036181822052e-002, 3.78771687386333766323e-001, 3.64941612577903751191e-001, -4.88480190373399680848e-001, -4.56887128786131024860e-001, 1.04341789277528323998e-001, -3.77344158151018682634e-001, -3.05977955754366037766e-001, -2.13399337507377939716e-001, 4.81902485612531253367e-002, -5.81838255687425112000e-003, -2.93417299534725617427e-001, -1.47434306391062072694e-002, -6.13033744591808746338e-002, -4.62816301122118967104e-002, 1.55320160279534685843e-001, -1.30822820179933244772e-002, -2.41649610764163476351e-002, -1.25278391751087708750e-001, -2.06993807000211277325e-001, -8.08735699939655827695e-002, 7.04472178519895964044e-002, -7.80025833469757956529e-002, -4.50010872657775288369e-003, 7.83853164084685472002e-002, 7.46184449866326565681e-002, -9.64444116112027488574e-002, 6.58043224436854062853e-002, 1.64656840309617358287e-001, -1.86822119611879319812e-002, 1.62526682951025736035e-001, 1.16935434340077124005e-001, 9.68724225490503743075e-002, -3.60124628358683652671e-003, -1.15775243612805903148e-001, 6.93512660699530103514e-002, -2.88959549274739081748e-002, 1.69962187085494903505e-002, 1.84643173726290778236e-002, -3.42453293442149947490e-002, 1.60437313702351015687e-002, -4.23089651671756244999e-002, -1.80140041469912409212e-003, 5.28784280042043156045e-002, -1.10745614534876843371e-001, -1.86941876711720023074e-001, -6.59913804842400808504e-002, 5.80432986979057593396e-003, 5.45694510705117055704e-002, 1.27309739177607905702e-001, 1.55243639678682876504e-001, -4.42555529395445915175e-002, 3.73937331572775435995e-002, 4.13496796979725828036e-002, 5.21742922666625225103e-002, -1.33961607596151371230e-002, 1.30677394236482172923e-002, 4.75914463641287782680e-002, -1.55546551638725355504e-001, 5.17363946436501243031e-003, -1.66806338642236789971e-002, 1.73461989398701749154e-001, 1.47790207022787861701e-001, -1.38585492549764210946e-001, -1.01126997413804903259e-001, -3.15980273133549408385e-004, 9.44462803798805719535e-003, 1.38688415183572166800e-001, 7.65018969520577657439e-002, 2.92316247926794475775e-002, -2.85538729676498813370e-002, 7.40186147538169358917e-002, 6.78990282701889130701e-002, -1.00546159715484750841e-001, -6.38925058675530177510e-002, 1.88747101151195362245e-001, 2.04226504686752352580e-001, 1.23347376986288670420e-001, 1.00762140224482127371e-001, -2.38936604537078184363e-002, -1.02063630941477689884e-001, -1.39096484522136715212e-001, -4.03961044491925325151e-002, 2.21838674511434406564e-003, 4.04859521893835769268e-002, 3.51502141548987248609e-002, 1.13800386357283400685e-001, 1.86775577707858714271e-001, -1.30248548568709498346e-002, 1.95159473824391305197e-001, -5.29997418274435888597e-002, -7.07476307893955547179e-002, 4.69426546447017645214e-002, 4.87692336080791932762e-002, -3.37514814051172937215e-002, 1.26694305537514512183e-001, -4.28131348116050358676e-002, 6.13641185059766169907e-002, 1.06420192020747081396e-001, -2.32386088229799628313e-002, -6.27566116448916300197e-002, -1.08892882314256256304e-002, -5.98814544656652361643e-002, -7.97637935977306977708e-002, 4.95313408869190521799e-002, 1.22030885104540715025e-001, 1.75008727266765862218e-001, 5.12812225549224773302e-002, 1.09263860286670545785e-002, -4.17941960511934301747e-002, -1.93384923258664437329e-002, -3.98102519158230472307e-002, 8.34148471503174809838e-002, 1.78877160563134962601e-001, 1.51398978303353720642e-001, -8.43374450317460194748e-002, -5.16350859595313266270e-002, 5.08124835860672657666e-004, -1.38076891879007290775e-001, -4.65379286419381199558e-002, 8.49577983154447546887e-002, 1.32691493114155123489e-001, 9.67681371673843743197e-002, -5.87389143836304777890e-002, 5.87753397934647533324e-003, -1.48503758749965008960e-004, -2.92203343012960685410e-002, -7.44874531437660497568e-002, -1.37858491293932974853e-002, -1.43943235683299374655e-005, 3.53331569703641545921e-002, 6.19742492962403052070e-002, -5.38385713902166176958e-002, 1.18193508627824198087e-001, 1.14459426727934118762e-001, 9.89164203479187403856e-002, 7.41396714535309947491e-002, 6.33721033910133735301e-002, -3.04597041725307819682e-002, 1.13575833083670151707e-002, -6.57897160448129517812e-003, 2.80262878964836099904e-002, 1.68840021064867035205e-001, -1.87983093526463279632e-002, -3.15054540924164933058e-002, -5.35140819153241964479e-002, -2.51668605152149810200e-002, 1.04501450097532061490e-003, 1.49041776870459552473e-001, -3.75167892163725397170e-002, 6.10308835118774511974e-002, 7.77926165802656638393e-002, 2.28628459867048244858e-001, -1.74140688921094743957e-002, -3.25250363589812685472e-002, 1.10213419711802068646e-001, -1.16922654637027084723e-002, 1.45861544237813445246e-001, -2.94000104963150730997e-002, 5.15005326038776370390e-002, -8.70909527201228252091e-003, 1.51191228711919783967e-001, -6.30816464755676736820e-002, -3.22197518761244347529e-002, -2.48006956246304595404e-002, -2.91168212748802342216e-002, -4.16377069825330792252e-002, -4.24783062006027223312e-002, 9.22961861804771632745e-002, -1.06712688058010457537e-001, 2.03829348071772123441e-002, -1.87641058975477420523e-001, -2.86335468107755536371e-002, 4.91150009858028376020e-003, -2.02244216141239663287e-001, 4.41986921319741238312e-002, -1.28239810505951568054e-001, -1.04497023193184920831e-001, -8.59330839136654596466e-003, -4.70544698706017953255e-003, -4.80671778283597514458e-002, -3.71785321952338709828e-002, -1.98985564244801099720e-001, 2.00120359409368675507e-002, 4.23371007950792271890e-002, -8.22116154476923849392e-002, 4.29001531066826799488e-002, -1.11692236093393321150e-001, 1.68581998059959187186e-001, -1.00695200342407517602e-001, -4.62540366040587944130e-002, -6.51199213303038371148e-002, -2.03284866937360163275e-002, 8.17977876941474169037e-002, 9.22960632674116147889e-003, 1.50929745352248179113e-001, 1.52586140330898401007e-001, 4.77799597220874422421e-002, 8.80271665171188655297e-002, -3.26535704197849496744e-002, -7.75706016449102808696e-002, 3.19842851635393152221e-002, -5.79894785205266119488e-002, -6.28141721831697724676e-002, 1.15657184641080573728e-001, 1.64746051111136160294e-001, -4.76550890662273546328e-002, 3.83342642511554712592e-002, -1.43787029201570076831e-001, 4.96013925139948824716e-002, 2.92059914497553411994e-002, 1.18150932356650334443e-001, -7.30489976259861562013e-002, 9.21387749113834475523e-002, -4.55516601519802347142e-002, 3.28146675771653142939e-002, 6.79425219396688484519e-002, 8.39917176683407512572e-002, -1.06199180934493139783e-001, -4.55009116550010445090e-002, -1.72214031805281476972e-002, -4.50433020667974637341e-002, -6.24144285162149189961e-002, -2.83200009206818689722e-002, -7.03550204068897067078e-002, 2.22632054475357631096e-002, 2.55404954204195150380e-002, -9.19621778105539910975e-002, 1.77626567822388004014e-001, 8.74400863948991413643e-002, 5.24711209484863480568e-002, -2.66691477623741957093e-002, -2.28545040911803457040e-002, -2.35566134373583653538e-002, -7.20563674135230869400e-002, 1.11366884508293281786e-001, -2.20623166566325662474e-002, 7.53061588121220343295e-002, 1.05562438452159110258e-001, -1.36017664808097231421e-002, 1.22293755404704648782e-001, 1.36933775033397014953e-001, 1.85269030117786698275e-001, -1.05512190146245299349e-001, -6.86918607694201183156e-002, 4.54326404705851852328e-002, 1.27138872522725380337e-002, 8.13848221739873166347e-003, -4.59968411325904769082e-003, 6.75506412475746081947e-002, -4.63907351412157428761e-002, 6.80010895519585628621e-002, -1.15673957134068097763e-001, 1.66427630791693946521e-002, -1.21877699602370673237e-001, -3.26048372152554846726e-002, 1.71857233179981166993e-001, 1.66267267638617988190e-001, 6.45836756580553117413e-002, 7.51114541553260517404e-002, 1.60923598856129279611e-001, -5.40096600056062872697e-002, -4.90490951603275021631e-003, 4.97494528259039558993e-002, 3.88906859599958132367e-002, 6.33602072496947943403e-002, 6.39684778121851205235e-002, 7.41052753936298908011e-002, 2.61634925243344820811e-002, -9.65014694780794851647e-002, 1.05266708254338564599e-001, 1.31819533777927377916e-001, -2.26169493664936643168e-003, -1.35740514641337489676e-002, 2.12816810944578792275e-002, 1.01140060220988065032e-001, -1.21754200632529716031e-001, -7.26260771811616523408e-002, -5.68928855645063277779e-002, -7.80513516332547174770e-002, -1.33388495527576519950e-003, -8.62474138390655065134e-002, 1.29056947688563711241e-001, 1.23794859792686243183e-001, -2.54164994625285731167e-002, -7.30433781067656301422e-002, 5.90861979526701025511e-002, 2.59666868300228699876e-003, 5.36766882693761951395e-002, 2.36381320665904233469e-002, -1.00339175588639348269e-001, 7.67505187971674173592e-003, -7.55972290850047967670e-002, 2.03391740173688266580e-002, -7.36049274007844339662e-002, -9.54141012544197919532e-002, -1.74593871583611365272e-001, -1.93644498539983667129e-001, -1.24491763277728359482e-001, 5.12952521374584677338e-002, 5.85293916237038247541e-002, 1.13140974363784618806e-001, -8.44474223514100549859e-003, 6.23765066685748117981e-002, 9.15281298923638214626e-002, 1.31849253473584809848e-001, -8.37688965158322196292e-002, -4.48533282180128278771e-002, -6.73020166993191799182e-003, -4.37848371120089716046e-002, 1.06273473426536473052e-002, 5.44783633166198086317e-002, 1.41585460367028875828e-001, 2.75092487073860768321e-002, 1.69103538430714378515e-001, -7.21708756035133319751e-002, -1.89734881645046010723e-002, -2.33512948325688973750e-002, 4.70285521278578783066e-002, -1.18568208077877962348e-001, -6.94533662145140340272e-002, 1.09473924311921738672e-001, 6.56722078727538377541e-002, 1.00967388435545708802e-002, -1.11749929259869498765e-001, -1.08904575156967432098e-002, -1.09024995814382477666e-001, 5.45021710604256526267e-002, 1.75371135297345936976e-001, 1.15059005822638199534e-001, -2.89751101719258920275e-002, 3.53660057864370949710e-002, -9.40269322165832900640e-003, -3.09786819422255971235e-002, 1.22029529765794531385e-003, 2.64667701960563557517e-002, -5.84445762885716854629e-002, 3.55365787877071001577e-002, -4.73353049800653083445e-002, -1.68998018778298356168e-002, 1.62174953017849732273e-001, 4.28180271938921955255e-002, 5.71146776510260620330e-002, -1.75959286109145712773e-001, -3.98356263909190530526e-002, 1.34485586079664209969e-001, 1.42577928308733892226e-001, 8.34548528670023548326e-002, 1.41494426529382627544e-001, 2.00608115773780321112e-002, 9.25889724849387196759e-002, -2.90454927794489559112e-004, -1.77492012033765328427e-001, -9.15272107351496333472e-002, -9.81748800133690480152e-002, 8.90027820710653505554e-002, -3.29216021494858207541e-002, -3.98718427150600226994e-002, -3.69799385547980377642e-002, 3.78597441463902339986e-002, 3.02359446331194499369e-002, -1.04467596476873092470e-001, 7.58597323397592476768e-002, 4.66045511636477977069e-003, 1.77565186536960753494e-002, -5.17115405270096931134e-002, -9.98203917443764854323e-002, -8.33944981652799677274e-003, 1.42048345195777525607e-001, 1.86106374431446064399e-001, 1.27901694537474103219e-001, 8.35161815594150647168e-002, 1.94247012631055503140e-002, -1.26461421510254828915e-001, 1.27006660438661156398e-001, -3.47096687442421614200e-001, -1.84016569056822038020e-001, -2.78056121695043012565e-001, 6.70116630324313761191e-002, 2.36756580622335399688e-001, 1.55839183040599932317e-001, 1.12451799392216097995e-001, 1.52464803568742895967e-001, 9.44446274628573528842e-002, -2.99343602234710681742e-001, -2.79499225354121139109e-001, -3.36183540525979318581e-001, 2.85725838287059941134e-001, 3.20867398560531591478e-001, 2.64503464842662905365e-001, -7.52669996785321343546e-002, 9.18202548217025016353e-002, 7.68499630659309155428e-003, -1.74631185842565234134e-001, -2.15709333644561601639e-001, -3.01056422307749260714e-001, 1.56572375219604154051e-001, 2.12059576983699427100e-001, 1.96977860960007050695e-001, -6.01124220308381432276e-002, 7.00292186130597321680e-002, -3.07076487261161712450e-002, -3.45822514116540358220e-001, -2.44296352041589032167e-001, -2.77555081945043136127e-001, 1.67200522326310718757e-001, 1.90971260866091369079e-001, 1.87737915121924670014e-001, 6.31707252499364713128e-002, 6.81757360900627079614e-002, -3.48370548604705412843e-002, -1.99859233528185548101e-001, -2.99956856993122911170e-001, -2.48388804827449127810e-001, 1.98988223196750885213e-001, 1.81738970842463154476e-001, 1.43245275917799286258e-001, 4.15966569125073015734e-002, -5.51826276643529751303e-003, -1.00318087614322010159e-001, -3.93286082138958603682e-001, -2.84099338768926568122e-001, -4.04839497178321239268e-001, 2.57899970493238150926e-001, 2.93571679002514573931e-001, 8.86134078025672122791e-002, -1.20574984581364050285e-001, -1.75512605204205307530e-001, -1.21042784693801780405e-001, -4.64835174634845194053e-001, -3.91174431991065385539e-001, -3.06879090934812470692e-001, 2.43529156543547731228e-001, 1.87675712136722128154e-001, 2.83058594075007774471e-001, -2.09857092345114189247e-002, -1.18161280212614544505e-001, -3.29711591582455623706e-002, -4.03786232613063233998e-001, -2.31324024711178771740e-001, -3.59392733425655197532e-001, 1.02368118417757114624e-001, 8.31793812853702380083e-002, 2.20562871499529633557e-001, 1.16992918533131554093e-001, -5.97631586987807453260e-002, 4.83510391869373043483e-002, -2.97505231629120625580e-001, -2.45535399126889236632e-001, -3.80173686672304944612e-001, 2.63616461497593657093e-001, 9.22493378158622395757e-002, 2.21172624329006306532e-001, 1.02955994739735198773e-001, -3.66550993744972561372e-002, 3.98373068963625218131e-002, -3.63927360174356451239e-001, -3.39602259285152530133e-001, -3.17804288559251801871e-001, 8.44895452925019246893e-002, 1.42046529558857409503e-001, 7.60819037855177682239e-002, 8.49306693855583533410e-004, -6.97066827245375747468e-002, 3.48344492783259282453e-002, -4.20677771542195655385e-001, -3.86567771389672742988e-001, -3.62479841578574990546e-001, 1.66184040625105555744e-001, 2.37507887157341029960e-001, 2.38215387958160301762e-001, -9.91450275688976895294e-002, 1.44304233878228216348e-001, -8.50813186818967642777e-002, -4.06726029978756342675e-001, -3.16114590817354490504e-001, -3.38029019719908452313e-001, 1.30768224452306208727e-001, 7.27177263149427904887e-002, 1.83122238119485830632e-001, 1.13741345999999153571e-003, 2.21398873480049621087e-002, -4.03297335269838658212e-002, -3.79611205256950856590e-001, -3.53645502224585239759e-001, -2.13472106690003327056e-001, 1.96087922991086432978e-001, 1.92753965112512470892e-001, 1.27407198392467391201e-001, 1.02196981154524697832e-002, 1.35546163892976911924e-001, -4.36577203215760406563e-002, -1.90295456513993349601e-001, -3.06876038215144419929e-001, -3.88078759358995994955e-001, 1.86909933706635583706e-001, 1.93546970337490242819e-001, 1.33247349972121426065e-001, -4.77056144523759773080e-002, 5.86905544119675215420e-002, 3.69754269418703859773e-002, -3.93861644400273658295e-001, -3.14111615726818116379e-001, -3.58603825116413532648e-001, 1.30107311052023000286e-001, 1.64117995918745471218e-003, 1.21183581292725231493e-001, -6.72464827964971006979e-002, 8.92100074121525074555e-003, 1.43872950001579652524e-001, -4.74974119318709753212e-001, -3.87930422940073849070e-001, -3.39395326244160966400e-001, 1.93629550095474500804e-001, 1.12362519830206300520e-001, 8.06762876235671833047e-002, 1.52555675943507780545e-002, -5.99176578968104583955e-002, 1.02479539013758003119e-001, -3.94840033379778021505e-001, -4.09338919403564982513e-001, -3.08768324181160014330e-001, 5.25358542475757583912e-002, 6.81501864300608772851e-002, 2.02960631012654962868e-001, 1.76157055892347674808e-001, 7.30273383158266398141e-002, 1.33213354426957336640e-001, -2.67440323306030625083e-001, -3.09739899037694943473e-001, -3.29986707640766652183e-001, 9.81497667938769774443e-002, 2.22866874177396645518e-001, 1.58615546922442174349e-001, -6.08620866863199411201e-002, 3.22760535578094018283e-002, -3.10326653115859272744e-003, -2.97743072887566517792e-001, -3.49096179268146789010e-001, -4.04394732603538142879e-001, 7.58939055714913379802e-002, 7.38146252353948650882e-002, 1.92391059401529701534e-001, -4.56110214776371675205e-002, -2.43961903312436799440e-002, 8.32978786324008041442e-002, -3.24809715033780588289e-001, -3.15256599548851768056e-001, -2.30075323853687813136e-001, 1.68877467025642352683e-001, 1.55492738668629778415e-002, 6.30670215119592120212e-002, 9.80925382879148932691e-002, -1.09881131302743198508e-001, -9.16697316165435288626e-002, -3.20783812442543836418e-001, -3.44303806212713392476e-001, -3.01281931863947138872e-001, 1.43972720957977612377e-001, 7.18700310116120455461e-002, 2.47004594241956837442e-001, 1.23609794468759512376e-001, 9.81384861666161761873e-002, 9.58527878976800778998e-002, -2.14045946005729875727e-001, -2.04924338686801876808e-001, -4.14250601649941208038e-001, 9.34029220672124016467e-002, 1.73929965586555407286e-001, 1.13378437630035563966e-001, 5.54347036148366834052e-002, 4.35044631574367235416e-002, 3.64226714589883579509e-002, -3.43132033013220483220e-001, -4.14360509576852387159e-001, -3.64007010111798479102e-001, 2.00455345029320664008e-001, 2.18909482377849656798e-001, 1.90229119650282385567e-001, 2.65659896716795539129e-002, 3.81722703359443499282e-002, -2.30770994979360988264e-002, -3.41550205967115605432e-001, -3.66634920573870870530e-001, -2.71794199373395994890e-001, 7.27831848851803603351e-002, 2.28815505664470231206e-001, 6.34916513235446178243e-002, -4.17309679614955436611e-002, 1.01804903758100195876e-001, -6.60727792163308125239e-002, -4.55842508507690813424e-001, -3.10879222882631756075e-001, -2.67727503049470905161e-001, 1.73420241231218186240e-001, 1.72558131086981869640e-001, 2.02893842360733378527e-001, 1.48041783045874453251e-001, -6.82970412370655921563e-002, 1.21317717265530380932e-001, -3.70953071277229817770e-001, -2.76142902985712423991e-001, -3.04322594748667130116e-001, 1.60806529404668302474e-001, 1.68606862217988484609e-001, 1.00993546559265942597e-001, 5.33931495890608703858e-002, -2.24425201542303096036e-002, -8.41212922335548007879e-002, -2.98910781491026789070e-001, -3.47362670694563280271e-001, -3.63232531606715480788e-001, 2.14133147561714254348e-001, 1.38936364043856147577e-001, 1.01030095535230082793e-001, -1.47439060322958198634e-001, 5.05004322823077167470e-002, -5.85514988964213611844e-002, -4.51573916189677793120e-001, -2.78459682832259192153e-001, -3.75014377370617824070e-001, 1.33309084983648462597e-001, 1.09064056550495752651e-001, 8.42083167388151254684e-002, 1.73067308459062749182e-002, 1.15239803522803427316e-001, -8.06881041631012929649e-002, -3.12260595535191198824e-001, -4.77568156671211385689e-001, -3.20345299979309550142e-001, -2.24921047173679521103e-003, 1.27702221932721626807e-001, 9.62592887893933685239e-002, 3.80229239409226593693e-002, -3.50511004117754765286e-002, 1.71196560336710906780e-002, -2.88867127705256132586e-001, -3.46991205644051614598e-001, -4.73698659413680667196e-001, 1.26768415851753524226e-001, 1.53318698743369341564e-001, 1.78337622214602531390e-001, -2.13147753253881307167e-002, 1.55677709163603378295e-001, 1.32958484255094960824e-001, -2.75323334169671196658e-001, -2.58277115537864754291e-001, -1.69265642229584567513e-001, 1.96935311952083969000e-001, 1.35634973312411616364e-001, 1.41917628063077505551e-001, 3.93369146745049455549e-002, 2.87032475669848317901e-002, 1.24648079575956735598e-001, -3.75022595818516268906e-001, -2.89832853463692308171e-001, -2.85543242267366603748e-001, 1.14709668152378777006e-001, 1.75680312405196437098e-001, 8.29327225522124150681e-002, -2.89019349578734999207e-002, -8.18982295462106907324e-003, -6.02072654912453458786e-002, -1.70830533222854935582e-001, -2.41175400544915069512e-001, -3.35144430899011858127e-001, 1.68055517139233889790e-001, 1.57251667827851215886e-001, 1.23895385280837128095e-001, 8.02047895732309057415e-002, 5.93573955293199145844e-002, 1.12370461902296062129e-001, -2.26712310598727539990e-001, -2.80984040054052808255e-001, -2.35084287532716484925e-001, 1.10334907504591211991e-001, 8.38640129252930383030e-002, 1.68789999264631340736e-001, -1.41279021370178919925e-001, -1.48211230843336774776e-002, -7.44920785421093883949e-002, -2.97949051947174858856e-001, -3.21451427650409904402e-001, -3.81569009447236651145e-001, 2.03260710222873203223e-001, 2.38223009614785041776e-001, 2.28588703595879821906e-001, -4.37800099847396664843e-002, -9.48369840868564378811e-002, -4.30068016768088562385e-002, -2.38116585528871355093e-001, -3.81966505076837659072e-001, -3.07732488952648042257e-001, 6.45406256535729638824e-002, 2.21409159743228223238e-001, 7.67934404613885290836e-002, 9.02564904187159594562e-002, -6.02249801576695970029e-002, -8.32682268597595420800e-003, -3.21709020223377328840e-001, -1.85833164232009545591e-001, -2.08402129165023319857e-001, 8.01985705568106499452e-002, 2.22911640241173242272e-001, 2.77233114627935539609e-001, 6.63691148733751706823e-002, -4.54650593712793357759e-002, -1.23837290246169740016e-001, -3.53300387253894399020e-001, -3.18949595810561647991e-001, -4.01397153744106505169e-001, 1.11689813368594417775e-001, 1.63317486110291565371e-001, 2.04961982358596667142e-001, -6.62579659062809134262e-002, -6.17242328604699075356e-002, -1.26683340448229004443e-002, -2.91063860831021481435e-001, -4.65672587917440317096e-001, -2.98670159343976560073e-001, 2.08331968563647718096e-001, 1.70368919418159625589e-001, 1.92249651314485014986e-001, -5.07376716988905060446e-002, 3.76763103774755761521e-002, 6.29919468981673946750e-002, -3.18645983122754439254e-001, -3.22921074799857987792e-001, -4.12120977074273475704e-001, 2.48967736586553023415e-001, 3.33722932188227738859e-001, 2.67361618913393050967e-001, -1.93773551861098680682e-001, 6.72767276599415126048e-002, -8.52310411411222046407e-002, 9.05468212649416792637e-002, 1.21186256374988338136e-001, -2.18792230785799131365e-002, 2.38246877557075936727e-001, 1.30139738394555004586e-001, -3.72252244837504714381e-002, -1.45332593594136860737e-001, -2.41268421801658777825e-001, -2.12622632667785693705e-001, 1.33623370501310706482e-001, -2.10615796606269889413e-001, -3.31703554402105194043e-002, -1.46894577724542785280e-001, -2.30630779205795548303e-002, -2.52676977158344528984e-002, 9.89076212223073125696e-002, 4.71801988348925574468e-002, -2.31426148691592642459e-002, 7.49825170283012626404e-002, -1.08650051811280984326e-001, 3.12449626155746756906e-002, -1.89241142652268712343e-001, -1.37887122071930129374e-001, -1.06652384692034529756e-001, -9.98363612286211205005e-002, -3.55860586137370815685e-001, -1.40173496273820141766e-001, 4.25384380255432112405e-002, 2.68744590276670303197e-001, 3.04850089342614427590e-001, -2.07055296833814850288e-001, -2.81045734579218831062e-001, -8.93642297687173431386e-002, -1.61121435754404823681e-001, -1.52730899098812190895e-002, -1.41347178436284984238e-002, 2.24817674883708087941e-002, 1.62630439372829782574e-001, 1.34053491096075672040e-001, -2.49974266455931341813e-002, -1.97754022140922525175e-001, -8.80001923730781843158e-002, 1.33534482307023943948e-001, 3.76549011901087388177e-002, -1.04646158904856109717e-001, 1.95673892204945243378e-001, 3.25036359130437713105e-001, 2.81942602161359079371e-001, -3.94124942423810381564e-003, 7.91063314288589919387e-002, 1.38202261668513015636e-001, 7.50741244566780208114e-002, 2.96494380075278562980e-001, -1.23239252193333478219e-003, 2.65038158037756710339e-001, 3.00241228587813269169e-001, 1.73202176671009622222e-001, 8.51828072850819295603e-002, 2.27749043729716035833e-002, 9.94849147494882152243e-002, 9.86629779278338364668e-002, 2.73468043706937335990e-001, 7.13133051827885694474e-002, 2.83948003973708618108e-001, 8.08715898584861508924e-002, 1.73303976854785879436e-001, 9.11988670615241081574e-002, 1.04964411172711408193e-001, -3.06566105172989995797e-002, -1.21880859370875907488e-001, -7.54189264284276655870e-002, -1.98219042440300308172e-001, 9.70612594491599145474e-002, 1.65420013057835962877e-001, 2.99645349837146413030e-001, 1.64339555322741207033e-002, 2.11119548408032174647e-002, 3.81279939290175631794e-002, -1.47406568827980477554e-001, -2.68689711866768210502e-001, -2.51566796795069623494e-002, 4.05504605783994220847e-002, 3.35927208862530357614e-002, 4.10997542384215347466e-002, 4.68492087573971829895e-002, -5.99107884772394350126e-003, 2.19387025688377534927e-001, -1.15717947044872565554e-001, -1.06869089815834067414e-001, 8.46301330891385990285e-003, 2.20030544009057499322e-001, 3.67890024112284608204e-001, 4.09189122118832959707e-001, 9.47101842388690523533e-002, 6.80526921995149997047e-002, 7.48393846108196952871e-002, -1.17097049695109881040e-001, -1.44490214665080940470e-001, -9.13579975492032486661e-002, 7.24812746983263811451e-002, 1.40882388451879003721e-001, 8.85522353823395280692e-002, 2.21529986972448716953e-001, 2.03172112860025344538e-001, 2.29731035895935298274e-001, -6.04034020046240321955e-002, -8.00771186626523939767e-002, 6.24238612581325333362e-002, -5.78516537790522838991e-002, 1.23408877381428527809e-001, 1.41752389152838935427e-002, 1.92312250429515246841e-001, 1.67242642336205393772e-001, 1.53302718738510007634e-001, -7.70891618733968164712e-002, -9.49974077898027430278e-002, -7.40973153510838533631e-002, 1.11403667322926780425e-001, 6.28880972964235007705e-002, 1.85504388500722289246e-001, 3.46647485561623502903e-001, 3.55233760396250264346e-001, 3.54531935687558086290e-001, -7.34582917068238722136e-002, -9.62585741378521736467e-002, -7.93157426525494674285e-002, 2.10702832617350732658e-001, 2.77389967674593507230e-001, 3.09006218058805015581e-001, 2.77778113750228761170e-001, 3.58742161544902571357e-001, 8.20349830153091486018e-002, -5.91420820590757567725e-002, -2.64984522929047949802e-001, -2.48470528339711893562e-001, 3.04538643063280323187e-001, 2.08918988671552535719e-001, 4.74774611189604234252e-001, 2.38016813741095956125e-001, 1.90278458887699147839e-001, 2.30393253019227112199e-001, -3.31427861798034573138e-001, -4.04205591775474937233e-001, -2.04445912083911413015e-001, 1.13346372080319363063e-001, 3.24360850067596573343e-001, 3.57759964885637937737e-001, 1.68284453574053416425e-001, 1.58392718416991984398e-001, 1.22411781222992746554e-001, -2.70587414307579321449e-001, -2.78817188899018908455e-001, -1.87620549363878952320e-001, -5.39297201572319293006e-003, 1.81739244609773753503e-002, 3.04785837007290061340e-002, 8.06085757530660002024e-002, 1.67519373255086895247e-001, 8.85448059090015136829e-003, -1.52098808301287330425e-001, -2.37719455325050316175e-001, -1.81004454770574224609e-001, -3.93775892429136867290e-002, 9.51305231132843209796e-002, 2.84789954182491977797e-001, 1.77473028907185192971e-001, 1.01817496636753296313e-001, 1.42123023986482743819e-001, 1.37240963624611855831e-001, 7.08491613262853814348e-002, -1.10245832753170930340e-001, 2.11521134727692045052e-001, 7.78934756300890679404e-002, 2.03200786113814979572e-001, 9.71245754569984853788e-002, 5.74121482369553751135e-002, 1.49515532209554324883e-001, -4.19960269707698591324e-002, -5.30260464718194587941e-003, 5.25195727875995138634e-002, 1.50671181086195149490e-001, 2.23455205726426048285e-001, 2.19017722555146981955e-001, 2.41607887067567528305e-001, 6.45029332288100526460e-002, 7.83797208060610720026e-003, -1.31471962471491093938e-001, -8.26690670683495193449e-002, -8.63070084750603150336e-002, 7.61495847472453551985e-002, 7.54139887444091605584e-002, 1.55666136267032066687e-002, 1.74204916984494556642e-001, 3.80861366540304144973e-003, 4.54799806533772998929e-002, -1.25088285280904987218e-001, -2.91245249072183298722e-001, -9.38610209219011143444e-002, 2.23070996233028173705e-001, 2.15602942561559096646e-001, 1.33403354187007550102e-001, 3.32209818846652071844e-001, 2.05728315728812116703e-001, 1.69343556705004671947e-001, -2.11144769593473224933e-001, -3.02067922888681894555e-001, -2.52430250471742945173e-001, 2.74371152162961373655e-001, -2.78073375286671288509e-002, 1.58012840499775819580e-001, 2.70681084623295264979e-001, 2.11302302338272351978e-001, 3.56351657842564950585e-001, -7.73173307697884448775e-002, -2.13973092081814447729e-001, -2.13852289087193614403e-001, 8.99808338370942373263e-002, 1.56735075203936619070e-001, 2.29494470399446315323e-001, 3.79723375574248955822e-001, 9.12793858565073140676e-002, 2.22504188544421999119e-001, -2.37818194970427471135e-001, -6.87769890244878251417e-002, -1.28335267540048258983e-001, 1.42897848099121871357e-001, 2.84060383346937894711e-001, 2.72817427991852712310e-001, 1.30420824202554797022e-001, 2.44680131212126261361e-003, 5.90495085628611263151e-002, -5.72051073234117538058e-002, -1.70876623383009462742e-001, 7.95420153320627182358e-002, 1.44096583638784941916e-001, 2.35970214903935798789e-001, 8.87954013324274427088e-002, -3.03277389002167239995e-002, 1.37119426723181697669e-001, 1.10664671144152265692e-001, 7.63772823146632862112e-002, 8.91860225717682336688e-002, -8.75202450747060711755e-002, 2.71223781314036016532e-001, 5.91612226405597713130e-002, -4.73261357788606409902e-002, 1.99878851097756854438e-001, 1.51049791682863632919e-002, 8.19300008539264462692e-002, 1.24663233921852356634e-001, -9.75809856455691487787e-002, 6.16365396104091370355e-002, 2.30910732860890102747e-002, 3.74669746992239538486e-001, 2.37838096231003270908e-001, 3.60660899176681593037e-001, 3.11051072612646195559e-001, 3.87235881402164527909e-001, 7.24269395071837768230e-002, 2.19718236534632571644e-002, -7.25213866089170211549e-002, 2.18535727744914282100e-001, -4.46516659329736567696e-003, 2.60957056309687129847e-001, 3.78831833266758677414e-003, 5.26742171831010436156e-002, 1.24530858894140381010e-001, 4.61176755187388473511e-002, 1.98772024492820456598e-002, -1.37934583882558053913e-001, 6.66228287393068746569e-002, 7.84359680397996028578e-002, -5.56534783392599041729e-002, 2.28129206320234922956e-001, -5.03183056919205007329e-002, 3.30040368653731000514e-002, -1.18078986622371248649e-001, -1.42517496490154799149e-001, -4.47408106226006019313e-002, 1.12650509637458706713e-001, -3.73895988381168220549e-002, -2.42310138887596795976e-002, 1.75822617876295189676e-001, 1.94508797802082328277e-001, 1.39131412909874546679e-001, 3.44754253878838262670e-002, 3.10458577678162317426e-001, 1.23199642248295691133e-002, -6.66770713856599250846e-002, 5.50574540393997530208e-002, 1.88095571189922011746e-001, 1.57247917661964803360e-001, 2.86608595169651259038e-001, 2.39017059568961659499e-001, -8.91251987385585919821e-002, -6.31737281020343377502e-002, -1.60883101670652617354e-001, 2.05050188563158125588e-001, 1.21296903921876128574e-001, 1.89769287562330329910e-001, 1.69952290363703989451e-001, 1.33412403924357853002e-001, 1.48055384111194288099e-001, 1.11809992278896250251e-001, 2.75241366181325462781e-002, 4.22711902243310191918e-002, 2.23831016710431429662e-001, 3.75533415006165660621e-002, 1.10742690805915616759e-001, 9.94794314867228912647e-002, 9.53790639881371693498e-002, -4.78221725496407804035e-002, 2.09524777834829215029e-002, -2.80180220415156208680e-002, -8.57419318113306766493e-002, 1.03123767979884130297e-002, 1.14460928376954568231e-001, -1.49990720588679765646e-001, 1.11116387397142635240e-001, -3.10624445446305678942e-003, 1.75296954304711635753e-002, 1.68715116122143959920e-002, -6.48854561242292043888e-002, 1.02657921346249080474e-004, 3.07886655308873668363e-003, -1.66552680302170824644e-001, -7.91294386533398369510e-002, -2.31081411413740743510e-002, -4.84456427358582932680e-003, -1.56092625538423707132e-001, -1.90486173667246544428e-002, -5.71984580133794648371e-002, 1.76132400626020646506e-001, -4.24070020786889434472e-002, -5.34428822293459768189e-002, 5.19708891978118495136e-002, -4.45610206961239430079e-002, -1.98188765453158222130e-001, -9.48002753229211791997e-002, -9.72098283326163631335e-002, -1.60137499959885049039e-001, -1.27187415594749053671e-001, -2.12906305100984370726e-002, 2.06078419437684179361e-001, 1.16071144827684907819e-001, -1.55645151744543325245e-001, -1.36118799680437052579e-001, 1.23584361306967593919e-002, -7.22992485138972650061e-003, -1.22093978376390955437e-002, -1.06972738772018974296e-001, 9.50011667996941006065e-002, 1.74331842549443394308e-001, 2.79694578051842668298e-001, 2.75287692187232591046e-001, -3.13796712588461645943e-002, -4.30658898682035828909e-001, 5.95910355828760830016e-003, -4.75706021165125461647e-002, -3.00299080239553898772e-003, 4.67253014605433003581e-001, 1.11708452705317470843e-001, -6.67578445326943853422e-002, -3.54591865498715186344e-001, -2.19366867119614922244e-001, -3.56459339374427197633e-001, -3.23519309402984844848e-001, 7.12419036384634302150e-002, 4.00957150317721167099e-002, 2.57829637160191749157e-001, -4.39455784842341795615e-002, -1.17678922838133276363e-001, -5.48091184126361791185e-002, -4.02472501443305250013e-002, 5.79514839240605830750e-002, 8.58267299715943648986e-002, 1.37999804485684135491e-001, 1.45590729208282532170e-001, -3.07280408239543334492e-001, -3.58052541387826495090e-001, -1.78594261357227279685e-001, 1.42628025065563518448e-001, 1.21294295463515014455e-001, 2.78822195413164886091e-001, -8.85155322373434166883e-002, -2.03493627518120528963e-001, 4.46536154023877418506e-002, -1.75603252836946610582e-001, -5.93641197662875957919e-002, -1.05034116523134754551e-001, -1.92564036354331030720e-001, -2.33924938727094244850e-001, -8.92846856152123835582e-002, 9.83135335844427388219e-002, 3.37188712521049149817e-001, -2.51073430545726856283e-003, -2.50670985965488979375e-001, 1.82792262664322080479e-001, 2.49805386434788778693e-002, -9.78439061696332115781e-003, 1.19256270699746466657e-001, 2.58872598268631293195e-001, -1.20071011730545129659e-001, -5.33609348514001019526e-002, 3.44405090228535493146e-001, 1.03972155148669267999e-001, 2.26453992222878902618e-001, 7.63124120038896208706e-002, 1.47803454750364660075e-001, 3.41881529836585429383e-002, 2.18001948001428386137e-001, -1.88449427382644474349e-001, 8.74141765164404144217e-002, 7.20950216837623336641e-002, 2.47723943297460724722e-001, 1.65296908649468415886e-001, 1.18723769938189720186e-002, -3.35259659015810715377e-002, -7.08867839153027451404e-002, -1.20791864523480438343e-001, 2.11462058152608683992e-001, 4.33977993610071444142e-001, 1.45600979767776889107e-001, 1.11894402719130300894e-001, 1.63515329359968347722e-001, -5.83108025069500809923e-002, -1.85510685716588352712e-001, -1.89264854130470894233e-002, -5.10396828894349452455e-002, -2.64995466839487103794e-001, -1.54270379986480229983e-002, 2.81138452187471334087e-002, 1.32924928311273976567e-001, 1.63883785099230683269e-001, 3.40496464664533426969e-001, 4.75983889691710820857e-002, -8.63515165855163469022e-002, 1.54967991135161548000e-001, 1.52221373123882397493e-001, 1.82986616450124431159e-003, 2.44713840754842731906e-001, 1.07284009861754112136e-002, -8.81249309572324640571e-002, 1.06048477558665671383e-001, 9.56055137572270480328e-002, 6.88199363991583851208e-002, 7.06800862005633155627e-003, -1.38613257858525934507e-001, -3.34439551725692132966e-002, 2.62119299169489006207e-001, 4.58616410446978650661e-001, 3.28676457669092869640e-001, 4.83107271701058660351e-001, 5.06562885184433792096e-002, 7.00396466015666546712e-002, -1.71439261686134408746e-001, -1.25509348655998220767e-001, -1.54539965954421324584e-002, 2.32491066222998421509e-001, 8.13859638671097507245e-002, 4.93767487574463519867e-003, 1.16469112750892861419e-001, -6.35780692489883031415e-002, -5.83181355837962128730e-002, 2.56555582837581924727e-002, 1.51881856756506145034e-001, -6.74195477013647508080e-003, 7.15384122451402232334e-002, 2.44029330681375458689e-002, 8.50544604467927956026e-002, -1.99735701217904765281e-001, 3.58140283855299834670e-001, 2.04628035763747967435e-001, 1.99183066410442949357e-001, -1.92828952487746063671e-001, -1.16503500950023070049e-001, 1.10086387278263683753e-001, 6.00273756313140574581e-002, -2.23354552388096788684e-001, 5.78779765644714949691e-002, 2.13605771645884373600e-001, 1.77722061035046674515e-001, 9.95581477456610325349e-002, 1.19508414400227802599e-001, -1.52076837870316634166e-002, -2.01747163795002806830e-002, 2.89494657106509567512e-001, 2.80206458692972837365e-001, 3.41576759830401588403e-001, -1.53089603192161805012e-001, -1.70216878798337523104e-001, -1.61162573340423026513e-001, 1.99530433047336586139e-001, 2.25494995719107138576e-001, 2.14593236144866944537e-001, 4.63562762904646763484e-001, 4.72844793815678440807e-002, 4.10826773167803527276e-001, 5.75001261750221065450e-002, -1.52677000497603604368e-001, 2.43083873717856696617e-001, -1.39948962030967877235e-001, 2.12152312770478093662e-002, -4.48861787525377198271e-001, 3.36003634234237347211e-002, 3.67818172513976526794e-001, 4.76750805846393899134e-001, -1.02770388903268908298e-001, -9.65384265514048350854e-002, 9.55185997311905621299e-002, -2.89563835593094454079e-001, 4.58485903034906439046e-002, 6.88829089645733895486e-003, 6.69778495388810984901e-002, -1.07671375052103987513e-001, 2.80872200307806740849e-001, -2.09210119224300605811e-001, 1.23543041087234989339e-001, -5.38621115888403279026e-002, -2.83726823408747108601e-001, -2.10535935833900289538e-001, -3.11560008677768951468e-001, 9.21670465331327487535e-002, 2.19670021149714428388e-001, 8.38465419315998286565e-003, 1.64465332105396877527e-001, -4.49710947830518001367e-002, -5.04258297193765150923e-002, -2.76367674986168598839e-001, 4.55617971549339487169e-002, -1.41818183175296735898e-001, 3.99239516224270230005e-001, 8.35100860734951516706e-002, 2.08819052405017829832e-001, -3.22801646991948132381e-002, -1.49645068335458708564e-001, 2.09466563535275034080e-002, -5.01542047747306485306e-002, -2.18168016174523665685e-001, -1.69214537190146036005e-001, 1.77697408863503714116e-001, 2.35302411460304256030e-001, 2.47008832892617852250e-001, 1.07643050526691472224e-001, 2.02245266004240697999e-001, -2.49359895156436917052e-001, -5.59448094611415203126e-001, -3.25586158887545940033e-001, -2.71559565758395571322e-001, 1.25862239289460282887e-002, 1.02018014737219400723e-001, -9.13874985498719510923e-002, 6.68083758672259470091e-002, -4.10951691443011274396e-002, -8.32525426092811521306e-002, -4.84693856493222732795e-002, 2.02924795935699418814e-002, -2.31713095334850849305e-001, 2.03818035789044893491e-001, 1.19018612880383914399e-001, 9.60953975309903341007e-002, 1.81044693575210219327e-001, 7.72307207867698186643e-002, -2.15204428592684959831e-001, -2.75093956825272267785e-001, -8.59684956311735082313e-002, -2.91942375750930752099e-002, 1.96233704858236379653e-001, 2.24156238154936959805e-001, 1.68881326856808566816e-001, 5.30605079906908194687e-001, -7.80698847040750196213e-003, 3.39086407791713784210e-001, 2.59905597704090593481e-002, 1.91928494193986887151e-001, -5.45988717017839783607e-002, 5.65828577731718254662e-002, 6.36781599828751682102e-002, 7.43355034794092751210e-003, 4.07625315594327242152e-001, 3.69056494762512843355e-001, 2.38639529079716250504e-001, 9.01739934719875263491e-002, -8.09309594216564842650e-002, -7.11396569842687870322e-002, 2.34967829609141198866e-001, 2.86629246795812142601e-001, 3.45927684192067264046e-001, 1.31051937397943657482e-001, 3.36785497568007664848e-003, 5.24888417253833935994e-002, 5.22108440438383489268e-002, -3.30183426432984067356e-002, -3.32096567057556940616e-002, 2.19743101587581479706e-001, 9.74183356899786453975e-003, 1.67704141000311196530e-001, 1.23324970723115046045e-001, 2.29845603683884708301e-001, -1.03289160959915471416e-001, 1.05398040939821361489e-002, 1.00109882532078281470e-002, 2.85021398960887692789e-003, 2.76021224304705825592e-001, 1.53802264503982044630e-001, 2.64416655977845027614e-001, -8.65683953702130332131e-002, -6.89740988541541200085e-002, 6.65069385985985334075e-002, -9.05278071268361961277e-002, 1.86951386279643833044e-001, -5.02648921684073768379e-002, -7.32883644706597003893e-002, 2.83519689366360655436e-002, 1.17035660241066055698e-001, 5.45565955050442141783e-001, 5.05747772951642304839e-001, 4.20085591243438472020e-001, -3.02896553098882491406e-002, -2.34588638683176892163e-001, -5.48992396503856644463e-002, 2.56964886376164665382e-002, -4.94769745434892535552e-002, -8.52035621001488024939e-002, 2.25532727237908126039e-001, 1.88145813685038389151e-002, 2.26227903949150155327e-001, -1.81201420667248154495e-002, 2.06378299491731323489e-002, 8.68837262480681438159e-002, 1.66473222051302001401e-002, 3.62744469881657316535e-002, 1.96377235935930177790e-002, 3.16372517939213449001e-001, 1.42414586076106269852e-001, 3.04720376985909091605e-001, -1.66714323300020644814e-001, -7.27770520463831005475e-002, -1.66685389256850030604e-001, -1.03210632851171504876e-001, -2.39897894803617728332e-001, -1.83522231238240407514e-001, 4.27906809637867424634e-002, 7.16943988185270719704e-002, -1.14219592874347311562e-001, 3.17853765812583233252e-001, 1.59599571261789197063e-001, 2.55532337725023095398e-001, 1.42054549359365039907e-001, 7.26563124579128125080e-003, 9.43148652034849072079e-002, 2.68330179179817496227e-001, 7.98803417994709691330e-002, 4.78452515697176412185e-003, 4.34987891645270685625e-002, 5.53554552508353919782e-002, -1.94731293687273793180e-001, 1.55347863313233192084e-001, -7.45071531552156524070e-002, 2.10739803107629242174e-001, -2.02003826857509692638e-002, 3.40725431375182297167e-001, 7.65387686115445720070e-003, 1.79953286117035177183e-001, -3.03131850627236687501e-001, -2.74781996663584215934e-001, 7.90028650709024282683e-002, -1.33003990870327049034e-002, -3.70400939169817089436e-002, -5.10414504801834645331e-002, 7.97398742002235066950e-002, -1.55297912809673227530e-001, 1.09952332576493793520e-002, 8.29418858844441914124e-002, -3.48881661581072364739e-003, 8.05664500400837813032e-003, -2.38899862897112812143e-002, -1.71162341238668691545e-001, 8.72369511717080436952e-002, 1.06271734525242647629e-001, 1.19309180173494816524e-001, -1.28193540783045539788e-001, -3.20755944706075046824e-001, -1.77318291609654371532e-001, 7.80640707572941155989e-002, 2.04452250695301901429e-001, 2.93710560295556255550e-001, 3.19837940117294994291e-001, -1.50128289703522155296e-001, 1.00012083964140949255e-001, 1.44211907542120792991e-001, 2.60733753933811651660e-001, 1.97278696491531586182e-003, 2.05088687810547065649e-001, 1.92928804605390025184e-001, 4.73766894353156858832e-002, 7.00450988973128491066e-002, 3.04715428787471834249e-002, 1.91046288908506722848e-001, -5.92895026708935790616e-001, -2.03832117069306123502e-001, -3.14364055599007929942e-001, -5.87276306029820560628e-002, 1.39142730469508563163e-001, -1.04929792990241327333e-001, 8.25264752720904076755e-002, 1.97450969611058513298e-001, 3.59831354604740638603e-001, -7.45322790505533461225e-002, -1.32768903511198965717e-001, -3.83050639772442649833e-002, 4.43703233103043687136e-002, 2.24170690634738156710e-001, 1.87491082055621038904e-001, 8.57004705833415980631e-002, 9.59123184732705857947e-002, 2.57457476116252637066e-001, 8.43206335090442293811e-002, 2.61598275800620401477e-002, -7.38089785160913058881e-002, -3.67025832449325906115e-001, -2.43546719406211226167e-001, -7.48078940221772042962e-002, 4.28459500470293352947e-001, 4.51335625142848972935e-001, 3.96685070600563405296e-001, 1.80721226852565836074e-001, -1.22376768265838750671e-001, 5.67626145037189097642e-003, -1.81800629379461980983e-001, -2.14063662634860846223e-001, -1.91878168386571706927e-001, 2.52683842131254166041e-001, 3.07736203595551260914e-001, 2.15667508483732978108e-001, -1.84373957065935678568e-001, -3.30590569982547932693e-001, -1.99904700905805920996e-001, 8.92147931235130059457e-002, 3.36947559922275569066e-002, 2.19482048442737609495e-002, 2.34644411459553253740e-001, 2.03284766536642763635e-001, 5.52059896139925135317e-002, -5.74697230468731515285e-002, -1.92518586764202914718e-002, -1.89867857414086238510e-001, -1.34690713479445733219e-002, -4.03841367471141424184e-002, -2.05954160214770511106e-002, 2.96948241625902609186e-001, 3.28894354627789209378e-001, 1.15088468071092367428e-001, -5.27786700207240333516e-002, -2.27134552906583131460e-001, -8.02906719282887038069e-002, 6.97452312198237108637e-003, -1.97420624026451690947e-001, -8.74208750145744756255e-002, 1.77585213273057956895e-001, 1.61925429054805419815e-001, 8.19946913579945035888e-002, 4.45209703240924264955e-002, 2.98969037504345433454e-002, -2.47469907064350402859e-001, -2.32916282762632542713e-001, -1.48803911112930842275e-001, -2.11589550122205843907e-001, 1.42694249357827068758e-001, 6.27672645977214171964e-002, -2.84931735586683720918e-002, 2.04902107369735436704e-001, 5.66900227956900273907e-002, 1.79135777437547626112e-002, -1.86911125607868627840e-001, -1.62171884790221904060e-001, -1.23331457805960983953e-001, 1.11130273335128856860e-001, 2.99268324962369436371e-001, 2.81389767243553856613e-001, -8.51010073480741729979e-002, -2.80919338130084739191e-001, 4.34755788786853197836e-002, -1.04010271726314051932e-001, 2.78962054660226548009e-002, 2.36295829038273771938e-002, 2.68039728059096982182e-001, 2.23599960016666959861e-001, 1.91695954256822453932e-001, 8.63895712033176804701e-002, 1.12385630371375257186e-002, 1.10790697472094731846e-001, -9.81120276562310739132e-002, -7.00421580556078449131e-002, -1.71122777339939330377e-001, 1.30706114026566899700e-001, 2.98014295454866573465e-001, 1.01186190605784029350e-001, -2.50574520061408345661e-001, -6.92809205675239681010e-002, -1.52485986133808676390e-001, -5.07689260669779221513e-002, 8.87208298887080665240e-002, 2.10328489728718766305e-003, 2.24041204485185663220e-001, 6.21917281638126734356e-002, 3.00856269042692248128e-001, 2.84001489548404872920e-001, 2.42326317484726327933e-001, -4.50981987272955284207e-002, -2.85494257901531711674e-001, -2.07436619211930933782e-001, -2.48865285678392417212e-001, 1.77914925769965537317e-001, 4.27903120034516804004e-002, 1.40935994437587336359e-001, 9.17332603644449851021e-002, -2.23554553995803685640e-002, -8.32107745156382833107e-002, -5.86763307604416944896e-002, -8.72318713313096349982e-002, -5.78959228291093669361e-002, 1.94703030920824665673e-001, 1.87048759079647797243e-001, 2.71473478535391277155e-001, 2.92523271713626444035e-002, -1.64037904768722347937e-001, -1.26790878533925066574e-001, 1.60258344900680388401e-001, -7.93550051707943848722e-002, 2.01203980927138259549e-001, 1.25026658379400440468e-001, 1.97315830843367318037e-001, 1.80100117728683478679e-001, 6.60607906265976430049e-002, 8.27974806018268727481e-002, 8.57369746795794487881e-003, 9.40413908974005452457e-002, 3.27959772886990824636e-002, 1.49790619329606793098e-002, 1.02411562190020469232e-001, 1.14604459262693511579e-001, 1.27669547068257505096e-001, -1.50943849776325689227e-001, -9.89813148073707405050e-002, -7.52003296626284623017e-002, -1.18310272765255838912e-001, -1.19059173461571216057e-001, 8.68380235454200427592e-003, 3.00070848670258516488e-001, 2.70876880608475867351e-001, 3.03424210064443700130e-001, -2.83890991761152136630e-002, -4.87607260392415031713e-002, 2.26270858967169696818e-002, -2.86722731834035793330e-001, -1.21416906416821873682e-001, -2.94567738787853694582e-001, 2.14997472844792231195e-001, 1.14831980081607817890e-001, 2.84570446154968868802e-002, 2.06004930095935345769e-001, -9.08878272170427154233e-004, 3.11757798093291516039e-001, -2.21427198891286092231e-001, -2.84581157059525968744e-001, -2.24484403854036312920e-001, 2.72140488046202722039e-001, 2.92237309208428608365e-001, 2.07720327701950591148e-001, 1.91326181999305178216e-001, 2.40568346303308977507e-002, 6.64888753318200048659e-002, -1.57859294737051542024e-001, -6.46331929607643629332e-002, -3.31777672182492142094e-002, 2.39213781907454958731e-001, 2.67123091286512515108e-001, 1.73210283214366544957e-001, -7.12057458598838732833e-002, 1.28985669915661738116e-001, 2.21927837696560492642e-001, -1.13803280897474531907e-001, -2.15828250681318528637e-001, 1.11637018074307436261e-002, 4.94134172274408450809e-002, 5.08026970442746195200e-002, 5.59150199034086567429e-002, 1.89740119863510692255e-001, 4.01385929527394835076e-003, 1.08790955745019624068e-001, -1.86421913149536488952e-001, -2.77785604779745773363e-002, -1.35526245466624256641e-001, 8.54693932360508779045e-002, 3.50400972991789738664e-001, 1.16122343239650163693e-001, 4.26549185110480649774e-002, 2.33598143816241415882e-001, 3.11073604922483537560e-002, -2.27399487795170301974e-001, -1.85722816461968559532e-001, -3.01114414058795028251e-002, 2.36681422714208833380e-001, 1.72735611549250683838e-001, 3.48952185713775508979e-001, 3.42043043402654733942e-001, 3.41179539978086032725e-001, 2.88137209080775669179e-001, -3.37367083694746147660e-002, -1.52861263308711220477e-001, -1.83800875141687247716e-001, 1.08317589379402334782e-001, 3.54813749814848367059e-001, 3.42584851806365220384e-001, 1.79680563974212753608e-001, -3.76978495414430278543e-002, -1.10351067150236828787e-003, -1.93256351012441762727e-001, -2.01036941194790375054e-001, -2.64922890738521377152e-001, -1.21504160721920074009e-003, 1.80864249562901341362e-001, 2.32120652031671093063e-001, 3.04527187153068590320e-001, 7.30194274625732830941e-002, 5.71362524095760868081e-002, -1.32353176836501884583e-001, -2.06859681226077091187e-001, -3.14624432675741638743e-001, -7.54528165934992972597e-002, 1.77689775597675951591e-002, -9.24327610224606188716e-002, 1.30491091450630897208e-002, 7.69409944269569406883e-002, 4.95584255111703175789e-002, -2.18392573121820393611e-001, -2.35394522960929053479e-001, -1.42848418020348089108e-001, -7.99260902377939425056e-002, -1.45012998523995656486e-001, -5.77017854590277726179e-002, 1.07598807568134252621e-001, -1.72091086766310470690e-002, 1.57145839338055676171e-001, -1.58028202843084941698e-001, -2.55716227208655388914e-001, -2.58215515036784526437e-001, -1.01831591535505496665e-002, 1.18633495129319851968e-001, 1.67419936827701204551e-001, -1.38253741722855649776e-001, -5.58035113232014517992e-002, 6.07195912700181431032e-002, -2.48709290182700881733e-001, -1.50510994888265386971e-001, -2.93488918026811429485e-001, -3.69373861501874969915e-002, 4.03482957070907533037e-002, 5.24339107766827947077e-002, 4.36301810306354218016e-002, 8.52374055616515607925e-002, 2.75641435059002792851e-001, -2.69330361610386703752e-001, -1.12262352208363946904e-001, -3.56554145502691599567e-001, 1.18122439828746414459e-001, 9.04289377962095297647e-002, 2.24983705309784121074e-001, -3.34347504260404798648e-002, 5.22562261038619392528e-003, 1.93152533726788977475e-001, 1.03946755897391912571e-001, -3.15151335977190139026e-002, -2.99623570313610476656e-002, -1.06236063085028406561e-001, -3.39905560246551580184e-002, -2.64719385694706342560e-002, 3.00037129782606895589e-002, 2.01881581698391848745e-001, 4.42970965648792486258e-002, -1.44124055458872885049e-001, -1.39906087344941115758e-001, 5.56552280196012522095e-002, 5.17948142278963769014e-002, 2.04810074141011683180e-001, 6.09938787440780002397e-003, -8.48923383336161879731e-002, -4.59722889042665922021e-002, -1.23128431789090608817e-001, -1.14598618599341547930e-001, 3.66815025907606881428e-002, 2.70952761535024899686e-002, -9.30702475873951412533e-002, 1.41601093694796537070e-001, 1.03068653638114376969e-001, -1.75629199422980136758e-002, 3.97889559981093460239e-002, 2.05249438710322223978e-002, -2.13638623640124911129e-002, 5.66242971166119532511e-003, -1.94003849248759289992e-002, 2.30099110566219539065e-001, 3.06590617080593121763e-003, 1.60597797384270102317e-001, -1.82432483343496293360e-001, -8.85289968804351887210e-003, -8.73257035016396510052e-002, -1.55181183072457318239e-001, 3.35394447693340772010e-002, -3.05588987201419262640e-002, -1.09835938479916059296e-001, 2.11631637194664157242e-001, 2.05065620368195811185e-001, 9.46032141249827929208e-002, 3.94993644181570735530e-002, 2.23595009971036262630e-001, -1.83517509331437483899e-001, -1.61818918829983754426e-001, -1.22652986641365160936e-001, -2.71426838376229648264e-002, -2.29830381684644792506e-002, 1.63721942400824105324e-001, 5.83081784471452604923e-002, 3.54561854833292944278e-002, 1.81999893443675869742e-001, -1.46866016892770706592e-001, -9.95530362874203489376e-002, -2.36180849357666422517e-001, -8.06949708666844650606e-002, -3.98462774396469571192e-002, 1.86059329130489226056e-001, -2.42625591312258734322e-002, 2.58428890536251849863e-002, -9.08444452316714209927e-003, -1.79458446078589767270e-001, -2.33091167572043816980e-001, -1.37755259010569369726e-001, -1.60136673507451018916e-002, 4.71657487938579728093e-002, 1.34584806290211606017e-001, 9.73673726799970801205e-002, 1.49726710917706812287e-001, 2.46856141019722918895e-001, -3.17256831298886043946e-001, -3.24622977813946833603e-001, -3.05662216923253293732e-001, -2.20675269596154327578e-001, 9.41583152046757132503e-002, 5.37133274038314526000e-002, 1.12254203301026506123e-001, 9.20528548873995045021e-002, 6.58661137943006430584e-002, -2.39068379504738970365e-001, -2.94818157750572129583e-001, -1.04780830434892432979e-001, 5.68385338695269887177e-002, 2.04575206904994894019e-001, -1.23233318644606862358e-001, 4.67905007839488129573e-001, 2.60112258630112558322e-001, 2.27104327169376840612e-001, -2.24543816325805223322e-001, -2.78526625829175034088e-001, -1.84301614606701719135e-001, 4.36311584936915838884e-002, 2.24520472290069827981e-002, 5.05112424309948973566e-002, 1.73631841739470077490e-001, 2.55228496472913901627e-001, 1.16214371916180600475e-001, -2.33481838871279073766e-001, -3.46427199735546587078e-001, -1.49395859386383306200e-001, 3.11711427797466689160e-001, 4.81033034144329074699e-001, 1.66046715309692588525e-001, -4.24039988594871325445e-002, 1.08259681304369623223e-001, 8.24797900170621059446e-003, 4.99620713795891346898e-002, 1.29838262060732873016e-001, -1.92575398741832742866e-001, 2.65378395393876087560e-001, 2.13608109176986638023e-001, 1.58270325448470368379e-002, -2.29782788959087741487e-001, -1.07144011644470890654e-001, -2.30614753433201064015e-001, -1.30294695147937563545e-002, -1.48356431573548025460e-001, 6.83871103027845622657e-002, -1.39373213807738299125e-002, 6.37316250270963807756e-002, 2.56045616694113888079e-002, -7.53794320172402332325e-002, 2.73869425844351470356e-004, -5.10588974980246412816e-002, 3.36527688351061227134e-002, -9.72273546550327522064e-002, 5.53067593086362940813e-002, -6.40345731143497770566e-002, -3.50296449190267769613e-002, 4.09453121699416278112e-002, -1.72690024188604657196e-001, -2.62650795477186949078e-001, -9.12932122941556012385e-002, -1.79678262200876175114e-002, 1.96461760239932503591e-001, 2.48765512009355371781e-001, -2.02479185793476457178e-001, -2.03141238088071579559e-001, -1.45800642727552970390e-001, -1.54295334894484603705e-001, -4.40736478168725354099e-002, -1.82864732698104770492e-001, -1.22222005877999195800e-001, 1.14441659448649660225e-001, 1.53913283858268828963e-001, 7.48554559313704404033e-002, -7.93679058172066902166e-003, 3.68014254038520546852e-002, 1.32336152995102540597e-001, 7.59470118288586709676e-002, -2.87785956792426973749e-002, 2.45348161628595518025e-001, 2.16377946509105217876e-001, 2.33777882920770979647e-001, 1.58112234929423306484e-001, 1.85791315285354502462e-001, 2.19044980093571012292e-001, 1.06642722226278310882e-001, 2.71392373446448564867e-001, 2.37059942312853100255e-001, 4.08236433698043132967e-001, 3.31130480632617185677e-001, 2.43286251726481494995e-001, -4.43793315153580003596e-002, 1.13927262049460256699e-001, -5.44175904696128816262e-004, 4.91581223027219710309e-002, 3.67883037124988043765e-001, 3.30243163930031002895e-002, 1.12130790322444551244e-001, 9.67667787804974005583e-002, 9.10080589247708460210e-002, 2.42057199443037912578e-001, 2.22295160824202281402e-001, 5.66496426478774808833e-002, -5.98595600677308270487e-002, -6.37128692657681766631e-002, 1.03347386299079569555e-002, 2.34653417715164486212e-002, 1.11911663852406612074e-001, 2.51653062078857903128e-001, 5.92881419111750337936e-002, 5.52198583153477584595e-002, 1.46372124612900833540e-001, -2.02199118647431230755e-001, -1.28935604942060633160e-001, -6.60927535843836982954e-002, 2.85421570259621441845e-002, 2.10483693390808745960e-001, 2.15539330733969386467e-001, 2.51967270245132435313e-001, 1.66851466332974734952e-001, 1.52273105062292024581e-001, -9.06764663511106933091e-002, -8.45470829627610331869e-002, 1.00261612708682015804e-001, 3.72118314918289228022e-001, 3.83096838106330050966e-001, 4.76314216777871335395e-001, 1.04676136129392444163e-001, 9.06500886395715244070e-002, 8.85528191590624902396e-002, -1.61910542676119401095e-001, -1.88424638043672265653e-001, -1.14593615135254317527e-001, 1.68437424810300967470e-001, 1.61914718622754666422e-001, 2.43747446135817724677e-001, 2.29117804321004148171e-001, 1.43564249752247657943e-001, 1.74436952071163497990e-001, -5.67518493110080596287e-002, -1.15968713613105359195e-001, 1.47618073013871670129e-001, 1.31210985292525172952e-001, 2.03455289600322941634e-001, 1.42123032226044831994e-001, 2.79754840709551810818e-001, 2.71606255646997696296e-001, 3.64273321993642595906e-001, -1.60046630477639756363e-001, -2.30566973109224360172e-001, 3.00508550645574683269e-002, 1.92349044922389023071e-001, -2.68839946367745719069e-002, 2.46740107612444886653e-001, 3.29735833026368552190e-001, 3.54503870326781045375e-001, 3.26072699069142601935e-001, -1.13448901406160568284e-001, -9.21944272138943282657e-002, -9.14775970491469303525e-002, 3.67156700116600454020e-001, 2.65951383939399488288e-001, 2.54689125030429674990e-001, 3.23992735208902371546e-001, 2.46798873055781520236e-001, 2.42790066480399330251e-001, -6.39426231294429880947e-002, -1.85064936038611460578e-001, -1.76069049694831142316e-001, 3.50090075100118192086e-001, 1.64380905047591646673e-001, 4.80479351069434179600e-001, 1.94557376222318889614e-001, 2.13759600569248947588e-001, 4.54404636897677016716e-001, -2.18749010786181558030e-001, -2.84006407264582538819e-001, -9.66668429135107559746e-002, 1.34525890423432409326e-001, 1.97678602404983416729e-001, 2.98798197452750324832e-001, 2.57109686662408243318e-001, 2.11090010317498494308e-001, 3.22227641888240212698e-001, -2.40766893442244861445e-001, -9.40519733222943687956e-002, -2.25757633350452069365e-001, 1.49038944839894049732e-001, 1.30588515750978406693e-001, 1.29048252593204793026e-001, 1.38252750792699496962e-001, 1.02169136248342659612e-001, 2.68615099054794970179e-001, -9.74993063120525305099e-002, -1.24534413991239295560e-001, -1.52138188444260857857e-001, 2.02115062564166309000e-001, 1.66946736302888754100e-001, 1.36597455089396635497e-001, 1.06798833038860688238e-001, 1.51754401916274678230e-001, 8.93116943984360589504e-002, -1.27402375980541576750e-001, -1.03251679634181012246e-001, -4.72067774988457755647e-002, 1.83420262948273016246e-001, 1.77718677233581812125e-001, 1.53884880472903357029e-001, 5.33921701097164885796e-002, 1.38657138906279064905e-001, 1.15569835304071041882e-001, -6.99176865329760449663e-002, 2.27150704081501009224e-002, -1.44671016215783682091e-002, 1.46599056866432320145e-001, 2.87583600775105419078e-001, 1.66445624945547682172e-001, 2.29844457488267484013e-001, 2.61457396202295799803e-001, 1.86492888436804143959e-001, -2.93355642554075535244e-001, -2.76346115566244776574e-001, -1.38598248530095391473e-001, 2.79293482816594162976e-001, 1.23002779035928683227e-001, 1.35682282860160097204e-001, 8.35193403891644342574e-002, 8.20345199589613272018e-002, 1.93362216096141431576e-001, -1.19490613460415839864e-001, -1.40592111595089136467e-001, -1.04700127863101857817e-001, 3.53579844452326541582e-001, 1.80543935290598256405e-001, 4.21783215287702739626e-001, 4.49281523307486052587e-001, 3.57526282543574713824e-001, 1.71751577688536993804e-001, -1.84642757888973441105e-001, -2.53210501313679670066e-001, -9.44204882372952636338e-002, 1.94714559042078377837e-001, 6.89719545809154843674e-002, 1.74877231978759983821e-001, 4.07716606332548026081e-001, 1.32642215535312912866e-001, 5.06001810159215414942e-001, -1.57635588041517588076e-001, -1.63608070683507716980e-001, -1.41706278741474761551e-001, 2.26458052700347134412e-001, 2.83796725947647821009e-001, 2.75339604824651529302e-001, 3.51001485281723535348e-001, 2.81565627653135919228e-001, 1.71829619762840613006e-001, 2.74782696565807373068e-002, -9.84075459121118018002e-002, -5.14001630741444323625e-002, 3.17204695287519655711e-001, 3.55611636333627911810e-001, 4.11983214243868522964e-001, 9.93756867836813606587e-002, 1.94990564211759614954e-001, 4.77381467149656998905e-002, 2.49668116970449584235e-002, -1.34524594765487753856e-001, 8.95668753909123899204e-002, 3.77185273199095949526e-001, 2.10644330012907637917e-001, 1.42891265532490679968e-001, 1.43161581897327694346e-001, 2.11671192988968998039e-001, 2.02358362464250152168e-001, 6.48025429332151764461e-002, 1.82389600278648061904e-002, -7.38183998278770792112e-002, 3.46938742983542158793e-001, 1.92348710826764718318e-001, 1.36762502221378090539e-001, 9.11472441308107950153e-002, 1.44336728037583850170e-001, 1.16606353472203980171e-001, 3.07145111613058748035e-002, 2.15087087034214231862e-002, 4.94283068080980866887e-002, 2.00330951388444922223e-001, 3.63374632079509818361e-001, 2.52793151385303671574e-001, 3.78906115668654452922e-001, 3.25743251589321602957e-001, 4.25619990709514284255e-001, 1.85913906169479475894e-001, 1.42004260385525438171e-001, 6.15593547347730446484e-002, 3.08590495511684770324e-001, 9.04084134607464340316e-002, 3.41984925078185397762e-001, 3.25757073032129751411e-001, 2.07031017046191201381e-001, 9.99437295236623030048e-002, -1.81193693266495925442e-002, -1.82685833920338547287e-001, -1.67915098844769988817e-001, 2.73011460572859521179e-001, 3.10521175409337102380e-001, 1.07882873477520065814e-002, 2.31362409446653649603e-001, 1.19230450863484785384e-001, 2.09187559302575376563e-001, -1.27529276224516346927e-001, -3.06303873578247926046e-002, -2.36366936215693851375e-001, 3.65289795681211781897e-002, -3.45809792391339188011e-002, 1.48419262110914523811e-001, 3.59703815252872260988e-001, 3.62858596438242364535e-001, 2.03534540900939364683e-001, 1.41917226304681832333e-002, 1.56472980084831014835e-001, 1.01431323528385727850e-001, 7.34286640969852993921e-002, 2.35727975593822358658e-001, 2.71912967741186450965e-001, 3.25183867792526781759e-001, 2.94682414236578538169e-001, 2.90309521400272552150e-001, 4.59472894466300130212e-002, 1.26488849249736419467e-002, -2.38210332203267927120e-001, 2.70507314271792920213e-001, 1.37964937889969357920e-001, 2.24609757383803287922e-001, 2.29296689297718070399e-001, 3.80893868238588728659e-001, 1.75383551729783898621e-001, -8.45910516086949004766e-002, -8.13710767240976989845e-002, -4.26565390360192919772e-002, 1.37841162642377362824e-001, 7.99502098055889787176e-002, 7.80054184562607548503e-003, 6.73320737999791724127e-002, 8.54900743602033108548e-002, 2.46420905845596630024e-002, -5.18223510255181527007e-002, -2.06117061994102429567e-001, -2.10882007782895064540e-001, 6.32699214120878705714e-002, 3.32581193815592243701e-002, 8.38711626207338523109e-002, 2.57790795167534281251e-001, 1.62906382397323329370e-001, 7.90103361505872237025e-002, -1.88985456744821866959e-001, -4.54761624312484888377e-002, 7.14370834175852842396e-002, 2.19762731388260024179e-001, 1.10959723712749827595e-001, -6.43539076013189062508e-003, 2.02769102932922412608e-001, -3.08312134860193633179e-002, 1.66346145972269043867e-001, -1.42954225169605736445e-002, -3.29744087849263706191e-002, 1.94265351571773520201e-001, 6.14319120841282997891e-002, 1.77258487599041031357e-001, 1.20949122177973558689e-001, 2.31812597759285143884e-001, -1.20390315654004723123e-001, 2.99080839893219631309e-002, -1.53781827728049214077e-001, 7.69450740774291486179e-002, -1.85034770991692881781e-001, 5.77944705962454702286e-002, 2.14830265171498585586e-001, 2.11002149428570595635e-001, 6.78974662871176803947e-002, 1.92718878340810861882e-001, 3.19729793492657538012e-002, 5.31522296530982721330e-002, 2.93576245214109132764e-001, -2.21232002942324174066e-001, 1.07758268048108049597e-001, 3.30789707257059306666e-001, 2.84166838991199044440e-001, -4.84517103694941220215e-001, -3.68664462333661457905e-001, -3.15653381917310793536e-001, 2.53099376944298071201e-001, -1.52912062222934214129e-002, 2.98099855227902631183e-002, -1.58598301347110087756e-001, -4.69921882857135056466e-002, 1.40754533898686182147e-002, -1.33693493255630485583e-001, -1.95842216049597256378e-001, 5.21530623448354727079e-002, 2.76641494004995991407e-001, 1.74348622288991422780e-001, 1.05257568351572558529e-001, 7.30073349599066750981e-002, -5.63053350035467008866e-003, -1.08338166097530649856e-001, -7.25619096242572647615e-002, 1.39847080575524005536e-002, 3.81258749371901073388e-002, -1.38972667979462033427e-001, 9.48546465295489749092e-002, -3.26001721538039315740e-002, 2.36072953819242120632e-001, 1.56593905024903223833e-001, 1.45440918193727924956e-001, 1.60825793951265144655e-001, 2.20460222184630473194e-003, -1.98363025112645308123e-002, 2.72968489481760112625e-001, 1.78004455613627460275e-001, 2.59017551860132422270e-001, 2.06309404504193522056e-001, 5.84181467772930916593e-003, -1.27029549990354290179e-001, 2.41225901729749475644e-001, 2.15356789057708414292e-001, 1.09326374784009777708e-001, 9.20372396234274137150e-002, -3.52643661250024789688e-002, -1.90628625952209522498e-002, 2.10135249581521021955e-001, -5.55474319313295147871e-002, -5.93288151143819483813e-002, -2.13471237851231808447e-002, 1.33522292519524576893e-001, -1.59291496391228581953e-001, -2.42105481742499961673e-001, -3.25212392307743347608e-001, -3.09242773391483691259e-002, -2.42749095603250752973e-001, -3.33210343408625264683e-001, -3.02312693435369428396e-001, -1.70658521346410074759e-001, -3.92183121389980404725e-001, -3.26468349058152751407e-001, -7.82878406042692293054e-002, -3.93124281710471978890e-001, -2.15199551591190391120e-001, -2.52405759418750930134e-001, -3.49326004085168728697e-001, -1.57106979014443287612e-001, 1.55199038242006051580e-002, -1.01130427948010512273e-001, -1.36079866482174155484e-001, 7.18447751149789148872e-002, -3.35121870819508560491e-001, -4.76402523783821113534e-002, -2.19796613644850591385e-001, -6.85919741080834310942e-002, -1.18344660475269383704e-001, -4.31651983384241710873e-001, -2.41954619494357758835e-001, -3.60587860057260400914e-001, 6.55983196604825041787e-002, 1.29853715963169580316e-001, 2.42544807744277141071e-001, -2.45471878122498800290e-002, 1.15283897757846920396e-001, -3.34647027106719854861e-002, -3.00923583658596283108e-001, -1.38353877848688466834e-001, -3.44547859791786981187e-001, 1.29805312468440903206e-001, 1.49472790607578426281e-001, -9.55867765721744033769e-002, -8.49619792772190879360e-002, -1.13824551977118760410e-002, -1.20522407084495533636e-001, -3.19273207892302735011e-001, -3.57803170172932116788e-001, -3.54926545227236656110e-001, 6.96351053799821873014e-002, 2.16671720121911853818e-001, -4.95304159750429018327e-002, -3.52877370347510821436e-001, -1.42505158066247250570e-001, -2.95757104405823145754e-001, -2.33515913504635602704e-001, -3.16350737667950132614e-001, -2.37359028010632688854e-001, -1.49427561268478236584e-002, 3.40458113819768815045e-001, 1.76842870766384246961e-002, 3.99184045642661383679e-002, 1.82273076601980749123e-002, -6.94032661889529417509e-002, -1.68914743741346767836e-001, -1.93598642017900390844e-001, -1.50983445365291235607e-001, 5.16288135763608643791e-002, -8.40238546251016321653e-002, -1.65126264055033999956e-001, 1.83155609136205682619e-001, 8.23043632096850941160e-002, 3.17846806122720135224e-002, -3.06283419515896992991e-001, -2.93115575372382808350e-001, -4.03859119106372677077e-001, 1.10784878754318194538e-001, 2.87315239198206229254e-001, 2.12417717144196133150e-001, -1.13406350439549056391e-002, 9.81702617131519766902e-003, 3.51192921423789661262e-002, -4.33835293758347229076e-001, -4.68364616099958164241e-001, -5.47949250950471422605e-001, 1.09070608227261431344e-001, 1.28378525982527247340e-001, 2.73763137891919583478e-001, -1.41782278177267462294e-001, -1.86917172976061946033e-001, -3.53707897739127807846e-001, -2.82120490880325869298e-001, -5.70044092790795819958e-001, -2.68829165344850462560e-001, 2.10864943088338446797e-001, 3.51140699247279475248e-001, 3.46198500725468427675e-001, -4.26977099616457300701e-001, -1.27452966132720807435e-001, -2.95115224827420419285e-001, -2.93761252699351049777e-001, -3.49443977031676622502e-001, -4.26689185805195159151e-001, 2.04206007426590147036e-001, 2.26940982593749840390e-001, 2.92965328687305348598e-001, -2.81922946194216705873e-001, -3.16832750726258438601e-001, -4.20637780935567251461e-001, -3.96735268161645504570e-001, -4.14029267492848185306e-001, -2.23052901943857434519e-001, 4.28469540618010680255e-001, 3.72313189581032155662e-001, 3.02523233652595757714e-001, -2.84187301741950837375e-001, -2.02509975604288489093e-001, -2.27421063370624843003e-001, -1.71755903536124798769e-001, -3.05843621890877881420e-001, -2.68724696178916422351e-001, 2.06259117450434070751e-001, 1.69849275092813639665e-001, 2.33893265031410307886e-001, -1.27825670184492257153e-001, -3.01844816973732499310e-001, -2.05063148117598736953e-001, -9.53278840452064374356e-002, -1.11049271496631421496e-001, -1.72720914590188262538e-001, 1.35732618176453934122e-001, 7.92933524807966916281e-002, 1.65081107355193323905e-001, -2.39362332691451518141e-001, -1.28662914062661476455e-001, -1.28239464176948148033e-001, -9.84014504888061358745e-002, -1.66291193284591659607e-001, -9.57378681504054002138e-002, 2.58998834086314910774e-001, 7.22229522173172405752e-002, 1.76301443226505538675e-001, -2.36438927725761915966e-001, -1.17735573291866083001e-001, 8.93320536155856569083e-003, -3.98048893862094632645e-001, -3.25059276829253562813e-001, -2.09329278818189273847e-001, 2.77044159098739029012e-001, 4.04142386171748912993e-001, 3.77432596452001445364e-001, -1.39481812547407296732e-001, -1.59867315987785224563e-001, -3.21640935701963448512e-001, -1.16286851351140252397e-001, -1.09882457331609478812e-001, -1.46844666529539341626e-001, 3.06333149049930086871e-001, 3.15771387671777842288e-002, 1.59049666414902646228e-001, -2.49834011001740907698e-001, -4.11762411876022804691e-001, -3.54529133303728316573e-001, -4.78201887968492000969e-001, -3.43610819204278494787e-001, -1.57833805183069636469e-001, 2.90713076375683443509e-001, 2.66875836978843761216e-001, 1.55724048814516929928e-001, -3.69982240070521550823e-001, -1.41600278853527716816e-001, -1.68514247118535354097e-001, -6.46660517844575899460e-001, -1.78095720788552291936e-001, -4.98777312667817995795e-001, 2.78361419527228037829e-001, 3.66706800451274184116e-001, 3.73228050633930219515e-001, -3.07928735134344266910e-001, -3.36685879084998418431e-001, -2.12064723342047151133e-001, -4.41880640378284617054e-001, -3.99307080707146822007e-001, -4.35629764751681192170e-001, 1.53642195415475024678e-001, 1.46516542076596728572e-001, 1.03678522756053423381e-001, -2.67648361138987878061e-001, -4.28171430513614004187e-001, -4.27375122271144769481e-001, -4.29778732065215274272e-001, -3.80896199185750905514e-001, -2.61620444047252653785e-001, 9.77664909260653018641e-003, 2.02613704857401322190e-001, -3.61349401162458505610e-002, -3.33644714478227633059e-001, -1.53440996971816345784e-001, -2.54934939901541146590e-001, -3.20082170321504877464e-001, -3.04045940365859468368e-001, -2.99023449820617681638e-001, 1.21361274575564184741e-001, 1.08403042534428298294e-001, 2.14349394199343318279e-001, -3.52557887668771108292e-001, -1.90138883593183760645e-001, -1.74758817129919113986e-001, -3.58923620213721483729e-001, -2.45646395237837267267e-001, -2.40940792150659416349e-001, 9.45655003582850373078e-002, 8.62803676571720912225e-002, 2.62627606344873698596e-001, -2.27680925649894699836e-001, -2.90052696219552486046e-001, -1.89403124611173395708e-001, -6.09628136702348277787e-001, -3.80097166438947031697e-001, -4.62055541307366701709e-001, 1.08547076132478936827e-001, -1.01167464408779592122e-001, -8.46116067691350948188e-002, -1.98374346822677516400e-001, -1.76539051514650185970e-001, -3.06768138835975368028e-001, -4.26007140043458187861e-001, -2.47392067166052970206e-001, -2.40452502073571661168e-001, 2.46632351569242375122e-001, 2.49031421323829577075e-001, 2.61001553311964062942e-001, -2.04115845302807991102e-001, -2.43572006030905785501e-001, -1.02672456524399269284e-001, -3.22781034356456164591e-001, -4.62007979876061722346e-002, -1.50748225457241369352e-001, 4.97422239693058876320e-002, 1.97180817338775737912e-001, 1.17414430880926637379e-001, 8.94830897097169536414e-002, -1.00592092058614506617e-002, -8.21916311015025297104e-002, -3.68872093286087110453e-001, -3.38054851383038479362e-001, -3.03403447374120782687e-001, -2.90669320041900686169e-002, -1.87635903966664546738e-001, -1.50639447472127013805e-001, -1.78353792804756272616e-001, -1.51012093892705950848e-001, -1.97933829234494818028e-001, -4.57193122811913044146e-001, -3.05325892915534025107e-001, -3.80719934454459785211e-001, 3.03736979283182662037e-001, 1.95776478336450038276e-001, 4.05866833028340534550e-001, -1.03815312012731322810e-001, -1.61969842394562080212e-001, -2.15987863177773825596e-001, -3.74087902260608451410e-001, -3.61013789171856558369e-001, -3.52483650246598501088e-001, 1.99682090600055012208e-001, 8.76849856474299360620e-002, 2.80948684507891954798e-001, -2.12905042987292847378e-001, -1.56735095076887848142e-001, -1.82216745431353716045e-001, -3.49891384137820504741e-001, -3.09709635705407659856e-001, -2.02286990317592230149e-001, 2.13815137732639409807e-001, 1.39087923113772743422e-001, 1.13801435538025227934e-001, 3.01620500156970471062e-002, -1.25300964623349941895e-001, 2.14081261986427129340e-002, -3.39828500456868520807e-001, -2.88399104551972151889e-001, -3.26523724360816280932e-001, 9.17662483240387211181e-002, 1.11225719517399013192e-001, 1.78279777263260219566e-001, -2.25502640053000941167e-001, 3.09935675124591789031e-002, 3.73561094393691246057e-003, -2.34323670437161596380e-001, 3.86662052552905199931e-002, -1.49958963258790517470e-001, -6.75127985909980687929e-002, 1.72743894706176459586e-001, -1.03620633632468941987e-001, -1.83523563660448862933e-001, -1.34184783760424586330e-001, -3.15103442308527825766e-001, -1.86701219373740789909e-001, -4.09554967411512801934e-002, -1.55678522983821288062e-001, 1.96374517090607797476e-001, 1.52753603172322227621e-001, 1.67325317678685303591e-001, -1.62614162430866598941e-001, -2.72419100473521635930e-001, -3.17238026175666876227e-001, -1.54610155865821469190e-001, -1.36079505599208311351e-001, -1.48527335668851595551e-001, 8.44333016054120977234e-002, 1.45643029006500123596e-002, 3.03176573028664464449e-001, -2.97471268037831026998e-001, -4.35833471881985401453e-001, -4.48736603085378993327e-001, 1.75712759052041103680e-002, 3.49532474758732059072e-001, 4.34325404403519799157e-001, -1.44066809674148837983e-001, 7.27651537167508660753e-002, -8.99061993716416818501e-002, -1.96101507665101093547e-001, -8.16683485818250030908e-003, 3.10179157426617377324e-002, 3.76633678353683942763e-001, 3.41895565196921658035e-001, 3.14095767636705436310e-001, 2.83890900755308039916e-001, 5.33033885350566380423e-002, 2.05726364344410508900e-002, -2.13650583211476730039e-001, 6.05508009309448438917e-002, 1.31848801901670226178e-001, 1.44944324526546430842e-001, -1.65853061508929061629e-001, 1.38294814171548319237e-001, -2.16509068910334806501e-001, -2.95009744454229061450e-001, -1.27893573520978992564e-001, 1.01041496991680621043e-001, 2.10890932014708404330e-001, -4.29980375448633864166e-002, -2.65099601863996614526e-001, 3.59357355278133554222e-004, -6.25293603606206643830e-002, 2.29936985907890426017e-002, -2.32913398484854402073e-003, -1.55431205710911707341e-001, 2.25900349991719207043e-001, 1.71955920564730829758e-001, 5.48108997203974462886e-002, 1.23087198187652513415e-001, 1.37709002319674117532e-001, 9.56395385542403025925e-003, -2.02311410228074473050e-001, -2.83429252428021916099e-001, -6.54947234854693360884e-002, 1.29000552658850908827e-001, -1.57479667922674648750e-001, 4.15657788550597082078e-002, -7.24754221300349527057e-002, -8.28235336878622163681e-002, -4.29044870851188198113e-002, 1.95645307124575174029e-001, 1.97936640234442851050e-001, -1.09010355421514423813e-001, 8.77873640059817217374e-002, 4.86636650845872417714e-002, -1.46331362201251764799e-002, 9.86887970825755800330e-002, 2.34605000900576843303e-001, -3.43295399821011149033e-002, 3.97499836062905897993e-001, 1.56373907358334396367e-001, 1.32587562034888334361e-001, 6.00589281168330477167e-002, 1.09274650720726784758e-001, 8.04262235991372170796e-002, 1.09423661948910136421e-001, 2.96704271731295488035e-001, 1.20990047222112220848e-001, -1.12462629356376520029e-001, -1.07856387244406784487e-001, -1.37812402913625897671e-001, 4.26786242198400403436e-002, -1.94837512622752541402e-002, 1.36688804863330737316e-001, 3.78478468994576044970e-001, 3.12167156778236476455e-001, 1.60029671097982106875e-001, 1.23216564464243616417e-001, -6.78895407536206363375e-002, -2.50281134747502419929e-003, -3.47039617547660814156e-002, 1.25632725553819074582e-001, -1.29317774471221391686e-001, 2.16732456952641233672e-001, 1.48319780622117008972e-001, -8.55046425034297896683e-002, -2.46032769602920697860e-001, -1.90458159165395018997e-001, -1.91819560481385875672e-001, -4.64229747197756267840e-002, 3.39821388427110210317e-002, 1.47807150633383704852e-001, 1.38433031879538315234e-001, 2.61586037507508528677e-001, 2.70636055765312855126e-001, 1.20400786070093759883e-002, 2.19589640458715290583e-001, -7.22492156902986154554e-002, -1.53891367308730542263e-001, -3.08492931693776728519e-001, -1.16329338175523641641e-001, 1.82956822888213382905e-001, 1.38674860283085031598e-002, 1.76163382083481839802e-001, 2.83466093388000717201e-001, -1.87469490235953745172e-001, -1.69471811592805693403e-001, -6.36497017134810411099e-002, 1.68456181565886764506e-001, 8.67973643328332489233e-002, -5.41642958983377525994e-002, 1.10668360045632713229e-001, -3.67220208571161397474e-004, 7.34941840894958314800e-002, -1.54219973654266734320e-001, -9.26416061715810007504e-002, 1.17077635812487854117e-001, 1.13633917001157935811e-001, 2.04188626044827431505e-001, 1.41565529902092906295e-002, -1.69923995178286844909e-002, -1.26902452078713479100e-001, 9.00351084467989198901e-002, -8.82317918603982009884e-002, -3.96296772101032077074e-002, -4.09906657767347346044e-002, 2.30664799843082121700e-002, -7.17856780651604381438e-002, 1.81480562251805400964e-002, 1.11635445370743852100e-001, 1.77230249391085559196e-001, -1.50911130236602627347e-002, 4.93950060861971101955e-002, -2.48425168499804949196e-001, -7.65683145838054468602e-002, -7.77879380307317375154e-002, -7.14303238479856161813e-002, 3.18466644643074392462e-001, 3.56406833304661607720e-001, 4.18586173906478509199e-001, 5.32814379881463087707e-002, 5.27072044613494383736e-002, -2.59303359964754842615e-002, 3.86704746232833587727e-002, 8.00037247151179908844e-002, -2.05547221816503533631e-001, -6.28755640118871996641e-003, 1.23625309631441776537e-001, 3.71247309633805505635e-002, 3.93928063606528433560e-002, 1.11073472523333299788e-001, 3.26469948985856350809e-001, 5.38308779550484492460e-002, -8.67649670562369995652e-002, -1.21750404279427432153e-001, 4.11055456447041445145e-002, 1.72644020255352081961e-001, 1.19338189123876822761e-001, 3.68335503237924716258e-002, -1.43347903061768422450e-001, -2.87732333243573869253e-002, 2.10855318888758497264e-001, 3.52743129901026630790e-001, 9.17836629724290142818e-002, 1.74525817924685161531e-001, 1.03266991712354677668e-001, 8.50583979162674724828e-002, 2.24897085252724615589e-001, 2.12127796210876379268e-001, 3.80757289152038935764e-001, -1.42238316927647268084e-002, 3.40417309053587593959e-002, 1.03900086549814391068e-001, 1.87155505692378765215e-001, 6.89242661808852075112e-002, -1.37319206282597080365e-002, 2.12939615513695362781e-001, 1.52337036487934202045e-001, 2.88835173901730413171e-001, -3.09768700721358147820e-002, 9.60320696002622820053e-003, 4.65393096854204990631e-002, 3.62070779403352999148e-002, 1.39469352469962892815e-001, 4.22915381090371023109e-002, 2.68376398422246476017e-001, 1.75060448438954990857e-001, 3.15705416024901319716e-001, 1.54805108877170166659e-001, 2.03517376543239231212e-002, -3.23389740935673686284e-002, 9.39582956455119189254e-002, 9.69360125493927832219e-002, 3.05709214655787542281e-001, 2.97434755741480316704e-001, 6.57863546906680696225e-002, 1.70609729919217190108e-001, 3.64068652440568407691e-002, 7.97038244171771950719e-003, 2.27411630688095944830e-001, 9.86590834435097374655e-002, 3.45763643426626243738e-001, 9.34172332962322216066e-002, 9.71092251986412254017e-003, -1.31245431260059192136e-001, 8.76932971112715925477e-002, 3.48085599241619372823e-002, 2.09803127959708096695e-001, 2.11996273640340571198e-001, -3.54190254071877416719e-002, 4.00652498839584592094e-002, 2.94667519643328879031e-001, 2.77248353539777669940e-001, 5.49918843789878528105e-003, 2.16599938754439530486e-001, 6.43429251119636141931e-002, 8.89056247120998122124e-002, -1.42668234006640970435e-001, -1.12799100661976903215e-001, 9.38276913328291856109e-002, -4.88597345965383414446e-002, -1.30498932937227918316e-001, -9.38413090980227682092e-002, 1.41433115106288399832e-002, 1.75552775318974535468e-001, 1.90746736160643359792e-001, 2.12955675310417952284e-002, -8.50227756748180157897e-002, 1.16339344269667577247e-001, 5.74744435502168651841e-002, -2.93253087883917282208e-002, 8.15203867859614350611e-002, -2.16331853749073890758e-002, -1.00916884811778642672e-001, 3.29408815532622467614e-002, 1.40806159662343416406e-001, 7.97235821470300282110e-002, 8.60424227558440890551e-002, 1.34310030550990722187e-001, 1.19662514550804913172e-001, -2.56091472963411274921e-002, 1.91061287136724211599e-001, -1.12674570803727881058e-002, 1.55592207543985366902e-001, -1.09201790464454426277e-001, 9.38183636022166672630e-002, 2.00317079603269360133e-001, 3.12378736973523030152e-001, 2.02333072300315330860e-001, -9.08902612480803340222e-002, 3.23413066928235834463e-002, 9.10735052932867134023e-002, 6.10634542929093110386e-002, -4.10711375863295063970e-002, 1.92645882254031869385e-001, 7.95924906636897300238e-002, 1.56486196388022739956e-002, -4.21852536474636025110e-002, -2.13226540436168079951e-002, 1.44892315987802389188e-001, 3.55348029834270773275e-001, 4.16474361949464230714e-002, 2.55898301565576691274e-001, 6.20274962734346305138e-002, -2.11233957244074371795e-001, -1.08767941402159368236e-001, 5.61569063523430361817e-002, 2.41749178514285512076e-001, 1.53730310707341388810e-001, 2.51914117809137694248e-001, 7.05776317391115376454e-002, 2.39768040279619509825e-001, 6.73599163841510500950e-002, 1.56123509942226040836e-001, 4.04027967030854764929e-002, -2.20517593769355493838e-002, -1.81481145181228292751e-001, -2.39637996596906655000e-001, -1.55480810124996003674e-002, 2.42180497157425816956e-001, 2.03782611816735376165e-001, -1.80049842267051979361e-001, 1.55925990843026301969e-001, -1.14289257516261136272e-001, 3.97157044820170418431e-002, -4.85212184581694516705e-002, 8.66067154134695371681e-002, 1.87971730164238071126e-001, 1.88782591057091359010e-001, 3.85407236690025911674e-001, 2.82488931191828607226e-001, 5.75804022690449487931e-002, 2.70574342877872242585e-001, -4.69573023653156243484e-002, 1.52947599110072433859e-002, -9.54078143543401896443e-002, 1.72073357567788763622e-002, 4.29869443546925730781e-002, 6.85840835169450047104e-002, 7.58547592497162831426e-002, 1.79980979752496161872e-001, 2.38310653862829735505e-001, 1.27083073237912680398e-001, -2.84068744008450814464e-002, 1.58893997367050288094e-001, -8.85725671424980320889e-002, -7.11708834826855762934e-002, -3.51862144972180587721e-002, 1.14126598033703979818e-001, -4.13203629440430861286e-002, 1.30553549370091642734e-001, -9.30395509847961738048e-002, 9.69484606329001769032e-002, 2.23865981367175920225e-001, 5.87528938611847559303e-002, 9.10565531650513459994e-002, 1.41283418399853699654e-001, 5.66105922388006818635e-002, -1.65339593194480549698e-001, 2.87661375276839659243e-001, -1.37199069411814617014e-001, -1.87633529914196309218e-002, -1.12091493536271930020e-001, -2.28196496080729574474e-003, 2.31734115555462971692e-001, 1.31533764854875251382e-001, 7.73873567297276715449e-002, 1.00686331728365746629e-001, 9.04603327666866768864e-002, 3.74446309299101692813e-002, 4.36567733807907611826e-003, 1.05096236933623646270e-001, 2.70012509473178674568e-002, -5.92115109198494953685e-003, -1.50873774165350471588e-001, -1.46480816463923357862e-002, 3.01136507261910213451e-001, 3.62066078456722909018e-002, -8.42425573861634163775e-002, -2.65176641120348569047e-002, -1.68620564990609483891e-001, 5.09473846300675589638e-002, -2.32664781376098278587e-001, 5.03829721783671455326e-002, -1.00580971955722284217e-001, -5.23194269003023418318e-002, -1.75938882626090142836e-001, 4.00880395550019030804e-001, 2.40754364775467744053e-001, 2.11200733607288942961e-001, 1.16668829335127288704e-001, -1.46367777522662459444e-002, 1.41617848082932040743e-001, 5.98111204123106393604e-002, -9.19196192375302395527e-003, -2.59010398663145569031e-001, 2.05121209497749784623e-001, 2.97323037811181634105e-001, -1.02233840637231017390e-002, 2.46667514648557517631e-001, -2.26712996019956605775e-002, -5.23510324744005314801e-002, -4.80722786788717215689e-001, -2.15940765128028733244e-001, 3.63835503961836559395e-001, 1.35875924090406857703e-001, 1.57857951556387127168e-001, -1.14365191251825787377e-001, -6.13605212957611056979e-001, -2.04748641887669335926e-001, 2.61171415763004233224e-001, 4.35468411368599261912e-001, 1.62914395401201811397e-001, 4.39627001968602493243e-001, 4.54206384953840358598e-001, -1.12654015777739532206e-002, 1.70869674303911478486e-001, -1.74365827728824057674e-001, 7.99116795939780882874e-002, -1.86269598294330845922e-001, 1.84691095578302516556e-002, -8.83310367201014939864e-002, -1.43844897369360489453e-002, -4.34968164531615630874e-001, -4.22005840419046651668e-001, -3.59346256419815435201e-001, 4.29074648352873400103e-001, 5.52885046496601750832e-001, 2.39170377451799642810e-001, -7.21566265909699133818e-002, 7.07304996263690283209e-002, -8.19763628827443070063e-004, 1.18107578258902935070e-002, 1.07584857688592286373e-001, -7.23064518380568399536e-002, 2.11049733858436200373e-001, -4.96907226303559546032e-002, -6.51543401486069789774e-002, 4.04248172893772295122e-001, 5.41373492706385350814e-001, 1.25647086774619606148e-002, -1.26399423316645775905e-001, -5.17625522414863148413e-001, -3.01470293321464966052e-002, 4.17201747253674704030e-001, -3.61622940849824103804e-001, 1.55849316834800799558e-001, -1.37278681778594605079e-002, 2.66074697546141505922e-003, -2.43294791226798340356e-001, 9.20241899311645267234e-002, -2.13913662951039085236e-001, -3.67934199204443534992e-001, -3.68472217917932942655e-001, -5.92597442869135737631e-001, -4.25648740342003617521e-001, -2.20884735872863557926e-001, -6.95706911834919616844e-002, -4.37674542654201859104e-001, 2.17590829022012766103e-001, -3.08463713255540838976e-001, -1.49290217619941247007e-002, -6.15619731920950208348e-001, -4.89233986176120849709e-001, -3.77972860304517765950e-001, -3.19500286797731389288e-002, 2.39104689089442823402e-001, 5.41673274054619013906e-002, -2.58339763663716859288e-001, -7.36659664160529525923e-001, 1.67192846241024720144e-002, -1.17424391009392989349e-001, -1.55602301914069873767e-001, -5.38811256618753897651e-002, 1.04396111652408252191e-001, 4.57459035805744887448e-002, -5.40890989836286806280e-002, 4.58073033199735468735e-001, -5.30658814560376890235e-002, 5.10102016556506984712e-002, -4.70029751306617116224e-001, -5.65325737476621847932e-002, -5.14022511897170852890e-001, -1.20655506788877570079e-001, 1.33451992128270746640e-001, -3.86165849495480661968e-001, -1.12146287020557733349e-001, 1.41476424875451117780e-001, -4.64035060222823703135e-001, -1.11024840449971712308e-001, -2.18036431890886200913e-001, -1.09198179235695212730e-002, -2.89509741859165836697e-001, -1.43404589391139397625e-001, -1.41276606892497026691e-002, 2.50216179417064477075e-001, 2.67385250672287522189e-001, -2.15881862333003327059e-001, -8.16851386425125336466e-001, -7.93906292941079061443e-001, -7.26861128981871273957e-001, -2.71836498991182395901e-001, -1.17621286977104097526e-001, 1.26984720687201513289e-001, 2.07919608450994802817e-001, 2.20872549724654809733e-001, -1.07863820308659388858e-001, -3.11515308121034395494e-001, -2.11170118675812701348e-001, -2.55096029344945018913e-001, 4.65189266731657891096e-002, 8.89265183060070490972e-002, -2.52932172545974387479e-001, -2.98783047229511863896e-002, -1.03283684993396782104e-001, -2.64650707960871145463e-001, 1.09354833860974845483e-001, -1.76765764778817557890e-001, 7.56911671573801819735e-002, -4.84036184184922224638e-001, -4.03627298127166911357e-001, -6.19014625217350844544e-001, 1.96470550530529447508e-001, 1.41943393086673058656e-001, -1.14877770890591261906e-003, -8.65021931603565108482e-002, 1.71686062332521038876e-001, -1.63509902075896412788e-001, -5.23044975593785377299e-001, -3.83795481321277665021e-001, -5.78189113209653382519e-001, -1.13868628687331024940e-001, -4.17439150836735467509e-002, 6.47021233701052245202e-002, -4.94201109939619298572e-001, -6.39650027931434994599e-001, -6.27474016813801993564e-001, -2.34711003253288419401e-001, -1.59177159348465963040e-001, -1.79149191870182411535e-001, 5.39051549936347008246e-003, 5.50164627955810475735e-002, 1.65283144640696932903e-001, -7.96122143540655580196e-001, -2.68931749593295854606e-001, -8.00288786752459624374e-001, -3.17934199515674753567e-001, 6.00774232591671439319e-002, -6.71281922939673703077e-001, 4.62483460655139622109e-001, 1.92371671606452826486e-001, 7.57368012383266342447e-001, -4.14466708789705873262e-001, -4.98215680346479172780e-001, -1.00052300507794589279e+000, -1.42668444135007760343e-001, -1.77678276447073735245e-001, -3.07027689046317719956e-001, 5.45920113925190242377e-001, 2.54357224582200558416e-001, 1.32064001105870021391e-001, -4.75896792123502831995e-001, -2.74669532041866060190e-001, -6.14264433073771987104e-001, 2.76074231389537794179e-001, -1.80667800261054362077e-001, -4.97983115145111815414e-002, 2.05334171505710649797e-001, 3.26564184943303636999e-001, 6.38435982102904198143e-001, -9.10797864284506875077e-002, -3.90685411739475130233e-001, -1.38363447218133678307e-001, -1.92459713060108339455e-001, -1.68260809216129125776e-001, 4.32202405975703057850e-002, 1.52833028449918029157e-001, 1.48863505908354620821e-001, 3.82311711873556281382e-001, -7.58820151038839041391e-001, -2.91676757958242605095e-001, -7.12216193259452734488e-001, -1.86301378366834566314e-002, 1.27357173841333187747e-001, -1.74322220730689980694e-001, 3.72288471486330763138e-001, 4.17751561175003616189e-001, 3.75940947988709583960e-001, -4.89699962612804073903e-001, -4.48037528756709158007e-001, -3.87605773977834355826e-001, -3.80694723692701353368e-001, -2.87536423742084212840e-001, 9.39502435804594471236e-002, 8.11955126971536711444e-001, 7.06036936731123665467e-001, 8.07360979223023855766e-001, -2.67358448874216558799e-001, -4.52571084806497048181e-001, -2.23008467010300692746e-001, -2.52969765530774826079e-001, 1.03995286922255195106e-001, 1.90838554269669898045e-002, 6.04035559909840924497e-001, 2.97266669000033789683e-001, 4.74659262178817931144e-001, -5.80354356629119050304e-001, -5.41484388984908360243e-001, -6.25690614094462804751e-001, -4.77091705199508442359e-001, -4.32900075577682508232e-001, 2.37183822743688099699e-001, 7.03786835306281499669e-001, 5.33968967956729989588e-001, 2.71330397316731974922e-001, -7.30037161099050480040e-001, -4.65813429895554020899e-001, -5.64038527062072692075e-001, -9.00550940427126134225e-001, -3.08691312574123855050e-001, -7.93761671273332081178e-001, 5.54315826366146069404e-001, 3.46864560185580483864e-001, 5.54403973479825395998e-001, -2.97738013408664958792e-001, -1.28874000613783096236e-001, -1.55069238798354464004e-001, -8.54846281637811844512e-001, -6.93660414869012198480e-001, -3.88405527017694485181e-001, 3.14563697300827782577e-001, 1.92754240318260744447e-001, 3.41909209109348799505e-001, -7.09252429843522991249e-001, -5.55920531072518708804e-001, -7.75594583133483284065e-001, -4.86514226766875057528e-001, -7.01678975323333647962e-002, -2.43258833200581725542e-001, 2.86560183466773414629e-002, 2.57709093363241270591e-001, 3.87389915129821293949e-002, -5.07921894227751913320e-001, -2.28005679914000891628e-001, -4.45923320956432722717e-001, -1.73629009018438557055e-001, -3.55615162048538158146e-001, -7.46634589923556163393e-002, 1.22228438929201738139e-001, 2.47676967272737018344e-002, 4.00804072120899801401e-001, -6.18200720879321652390e-001, -5.45582993949910277642e-001, -5.24401136419831104263e-001, -6.79070784836004887053e-002, -1.83670557674803058834e-001, -1.77389023927244898760e-001, 1.24642123537584748050e-001, 8.79210386655390196964e-002, 1.21655882584694868820e-001, -1.11836601265692028168e-002, -5.73657070118149814419e-001, -4.07197061688937544943e-001, -7.81700407588746037923e-001, -8.67635232561245972605e-001, -6.90985039396301292669e-001, 4.90628012831583176084e-003, 3.60908139594464383304e-001, 2.09449872995473573845e-001, -2.87743809375351156099e-001, 1.44220098180997263748e-002, -2.44280201217742160003e-001, -7.63913465608336728074e-001, -2.58373802511431771567e-001, -2.85474511203482383959e-001, -6.93865920651970669031e-002, 3.47191020304572328659e-001, 1.37021294733750853556e-001, -1.84597171322247816105e-001, -1.79851222444164876579e-001, -4.48957628672904188183e-002, -6.99329853649899080281e-001, -1.75709250164492569724e-001, -2.95794999227197485947e-001, 3.92460136362398182008e-001, 1.69395028328854280186e-001, 3.44918104769467659398e-001, -6.70197652531546450572e-002, 1.70159670734542078918e-001, 1.27564677102474460790e-001, -1.52277394653842795824e-001, -3.07368963166350706029e-001, -3.19428699134798738113e-002, -2.00145706067213241530e-001, -3.87924489273711203818e-001, -3.04797359855116023475e-001, -1.50764788848724684556e-001, -1.45459795468930674911e-001, -3.75413748586166995391e-001, -3.49079249750026465726e-001, -2.18012913644199446406e-001, -2.37193530836685373409e-001, 2.43616430982128290283e-001, 3.20836112732271194758e-002, 6.16840850640594240417e-001, -2.11737092052406400411e-001, -8.27819496623720674222e-002, -2.95843302973890331931e-001, -1.01907356047956115797e-001, -5.27367007779367513720e-001, -2.94614375591540467170e-001, 2.23772579221216579015e-002, 1.68806597374296235570e-001, 4.76542911775654054463e-001, -5.56904165353173774555e-001, -2.36860419740594158045e-001, -4.97381598113903977687e-001, -3.43897642078685117362e-001, -4.50507372072275313890e-001, 1.53780106222141083050e-001, 1.59221655852012755616e-001, 1.51878785977163477394e-001, 1.70642727834456137126e-001, -3.10314210419403331553e-002, -1.17287079722921877556e-001, 5.01216068946946785578e-002, -5.26491953140406310219e-001, 2.61958572225369987208e-002, -6.79719696474943846365e-002, 5.64790774937755313267e-001, 3.41659883405842024207e-001, 5.41540060977470538717e-001, -3.75499282861099570319e-001, -4.11696246558422962458e-001, -3.74742374481853934842e-001, -5.08622113780351603474e-001, 1.40140716513698193602e-001, -2.57941031333701442652e-001, -1.38552492652279757301e-001, -3.57730768752627381613e-002, 2.81944870604660252633e-002, -4.27933303399734066286e-001, -4.46150081754053351446e-001, -4.05901855378396625440e-001, -2.93146679567900692032e-001, -3.47595501084763947031e-002, -3.97630765172158617826e-001, 9.44733891524118463145e-001, 4.85558470367222105857e-001, 7.22080878813937232508e-001, -3.51100071529897916900e-001, -4.79206744061791145572e-001, -3.60296386965582748907e-001, -2.65949689700881897192e-001, -2.62175480892922752041e-001, -5.16543353604741906082e-001, 1.21994903818805719431e-001, 2.27796428802538530878e-001, 3.23455705456472786263e-001, -3.49650860912444239048e-001, -5.00598906580612235118e-001, -5.41964952457721027557e-001, -4.93296655715049492397e-001, -3.62731358800409964260e-001, 1.86202859951062754673e-001, 4.14114634068569076319e-001, 1.40574611710028163358e-001, 8.28628615317798973561e-003, -3.25832185735886847855e-001, -7.34025842519626381399e-002, 4.20826536922140503894e-001, 3.76345282254108071118e-001, 1.04049783853790586696e-001, 3.99769079967555396316e-001, 3.65947478554554672669e-001, -9.08130079487421970619e-002, -5.15872501059950333557e-002, 7.76496717137869912895e-002, 2.24264287182588062386e-001, 3.47504940573358012124e-001, 1.93627657743966147263e-001, -1.40818087555454579674e-001, 7.08457456303768773331e-002, -5.82655897979842296586e-001, -5.15090756554081430352e-001, -3.66120281119502566369e-001, 6.48839458609186348070e-001, 7.79516461944298133524e-001, 4.43091454557925423785e-001, -1.28113612676477472974e-001, -1.76660854562731728379e-001, -7.54908883019182602725e-002, 3.12497902690794769620e-002, -1.09986663166724119023e-001, -1.18869432555720438982e-001, 4.86785252311590754815e-001, -1.72005839673635869957e-002, 6.67764687056918715413e-002, 2.35376370696757486467e-001, 4.88487552470419528206e-001, 3.37653864060308145367e-002, -2.54656054848763191423e-001, -6.53632337773947025283e-001, -1.90617129766957049686e-001, 5.86146329776254693122e-001, 1.95022165921216288076e-002, 2.12085231449266720105e-001, -4.08875685703581001618e-002, -2.07669668313745836574e-001, -1.70460964118777813514e-001, -6.20501049153208555920e-002, -1.13326875155131664985e-001, -4.43321767154507995201e-001, -2.05256713258278544743e-001, -3.30990484071154555945e-001, -3.68605241778558800902e-001, -3.53621565327591869110e-001, -4.48787940971805410229e-001, -5.31216318176877311252e-001, 4.26828799631290348171e-002, -4.86110151704584825261e-001, -1.15317429313765526522e-001, -4.16695166724164733907e-001, -2.67537117979310234972e-001, -8.76058022686174719951e-002, -1.79354209337934750179e-001, 9.35014002205422356528e-002, -1.43876957785760123398e-001, -4.10981719848239945847e-001, -7.68952864701200389241e-001, -2.16742147759648090544e-001, -3.41211459670960753909e-002, -1.86359563499155944655e-001, 2.88504031846411268525e-001, 1.10036838483826004964e-001, 9.33436329861604165148e-003, -2.04079391110530417031e-001, 1.67420491295575124546e-001, 3.48742378954542686653e-002, 1.20392490878574093260e-001, -2.79409618297276451937e-001, 1.10811710809210497986e-001, -3.60572506936752190665e-001, -2.78407958980721625952e-001, -2.14179643313460116652e-003, -4.16632506187532503095e-001, -3.91885910128745185155e-001, -9.79273190798411463653e-002, -5.51506745129104913872e-001, -6.92135109737117976136e-002, 2.31324873875734526862e-001, 2.01292944445045585145e-001, -3.15724831948197559583e-001, -1.66136471177192018844e-001, -1.37049203839393340942e-001, 3.75822754609591025421e-001, 2.35423788905739395094e-001, -2.03114305972090847252e-001, -6.44591334386061531880e-001, -6.90167445508194310477e-001, -7.37731673406508914326e-001, -2.15823258715370336347e-001, -3.65784985085828129314e-001, 6.27443674483020019661e-002, 3.67016101156169838315e-001, 2.14393064517246295653e-001, -1.22286694008746435469e-001, -2.99051478766367839768e-001, -1.88842346643372654968e-001, -1.57849701378057094558e-001, -9.66692617308491097816e-002, 7.66724771594426146581e-002, -3.53635993271008419736e-001, 1.85320959090440384731e-001, 5.29551673357482738380e-002, -2.49760862177592940503e-001, 2.89252174726016886286e-001, 9.47250704579802871308e-002, 2.83593856004803190896e-001, -5.08588380550891283605e-001, -4.15528034507376076157e-001, -5.73461889732354568316e-001, 1.55818556380058953481e-001, -8.63583599816439978492e-002, -6.69248482672952782480e-002, 9.76538488725658959666e-002, 3.52601571433589944249e-001, 1.60291661030115106801e-001, -4.95509613831645379101e-001, -5.39958109975560485161e-001, -5.39994706156299519861e-001, -9.33678871134802357279e-002, 3.44838727538408634787e-002, -6.46459172141096161113e-002, -2.66215980977915545047e-001, -4.43990995445721958745e-001, -4.55671151981459188196e-001, -2.74264626112032838812e-001, -1.89925861486427843827e-001, -1.28869713269199714922e-001, 3.63808580944241510835e-001, 3.29362732665811119848e-001, 3.18160914511854464592e-001, -4.72336739856140053195e-001, -1.15076611638108301100e-002, -5.23816346045104186402e-001, -2.78166693048440938352e-001, -4.68514464477785830265e-002, -5.79994095881365523404e-001, 3.00761550827924606377e-001, 1.35012336654577486117e-001, 4.72617731927784279211e-001, -3.04395505403394717181e-001, -2.80680496178782878935e-001, -7.45544983810531136648e-001, -3.44519086491547832374e-001, -2.93981090436431835577e-001, -3.86928295904516550419e-001, 4.87209385187801879979e-001, 2.94358582484711583938e-001, 7.53139546162431283705e-002, -9.57487924337288923149e-003, 8.78355031218017445749e-002, -2.16485067221306171081e-001, 1.41175314790107725438e-001, -8.70725647654929796326e-002, -1.45998632516056818520e-002, 2.66573929602509696046e-001, 3.20631549248266922714e-001, 6.96347061707958792098e-001, 1.01891013541787714414e-001, -2.71415553546047905176e-001, 4.75852288661681929738e-002, -1.33132834204656602672e-001, -1.08125398017674609341e-001, -1.40268603661273694172e-001, 3.24666261670322031652e-001, 1.83398829396460294472e-001, 5.01680867160473664690e-001, -6.17433434384082935331e-001, -1.27967158245704537567e-001, -3.99427805898822818609e-001, 2.56309345195138045537e-002, 1.85579526071199596426e-001, -1.21500120861748085732e-002, 5.95728443127884976782e-001, 4.95239483963402948863e-001, 5.11583190941318988187e-001, -4.12641766022431022432e-001, -2.30551551788447134372e-001, -2.20990471021451084788e-001, -4.01198804310831935727e-001, -2.57947962544748499170e-001, 1.44429521183051412514e-001, 9.29552714760495502055e-001, 8.40459959945397905301e-001, 7.87411052540711975389e-001, -5.01431345839663256125e-002, -2.97836750564103025507e-001, -1.13984012730799361135e-002, -1.80774319021926532791e-001, 3.00884150028024988099e-001, 1.57578731545408939896e-001, 3.52690284796696340575e-001, 3.44288580513259223626e-002, 2.42706010042521985737e-001, -1.89369914031213448791e-001, -1.95576102232606324760e-001, -2.77972253798641877331e-001, -5.99762467124286158260e-001, -4.08850986765569579529e-001, 3.08001668575372034020e-001, 5.67412804214024180105e-001, 4.17522750853862700815e-001, 2.73720406695982632073e-001, -5.02676485296087438570e-001, -1.84091148652529873475e-001, -5.47565978533034236619e-001, -1.02902110989746842229e+000, -3.41985197079580305335e-001, -8.81064199422421423513e-001, 4.02606500280638879286e-001, 1.15387565865625540962e-001, 4.74597902972504093189e-001, -9.62410969231751317610e-002, -1.93712720985770858739e-001, -8.39331874484155332494e-002, -9.13168647997548155182e-001, -6.39683616139641308962e-001, -6.43115500974315246197e-001, 5.81157278938319254991e-001, 4.72472164380806247674e-001, 1.73261929246894069712e-001, -4.45597906773617047360e-001, -4.66941211388894383827e-001, -5.56532203189196383875e-001, -5.42224756520534256765e-001, -2.97611348917773688161e-001, -4.65382530959091655909e-001, -1.49228973894625444041e-001, 2.96412569469525322141e-001, 9.03006090306442410487e-002, -4.82674621777106405141e-001, -1.58231753001415703652e-001, -3.83768070836049857153e-001, -3.56741505868794994694e-001, -4.06947706378493423429e-001, -3.03906959829416713215e-002, 1.64345521244901732194e-002, 1.35182829489285255553e-001, 2.72435773671125758266e-001, -2.88232679125571711332e-001, -2.56652932632469854557e-001, -3.18764563072318318770e-001, -3.12258907108892536097e-001, -3.78902468228252020666e-001, -4.04162126427836498888e-001, -2.60783563660419966460e-003, 1.95589526816047597213e-002, 4.03645129012119963097e-001, 1.79358748287132135912e-001, -3.01248962667457320652e-001, -4.42873198553825656813e-004, -9.39830179100614948595e-001, -9.71630597454285482861e-001, -8.73769685165942333605e-001, 1.10456970423672765080e-001, 4.67707208968673626703e-001, 1.42242058244442748371e-001, -9.05650947642445414143e-002, 1.59621337318769762614e-001, -1.68116913227550263121e-001, -9.37146646483457246291e-001, -4.68263562241186759305e-001, -4.18807338544314122775e-001, 6.33812742385658073330e-002, -2.48540273122243998705e-002, -7.29455298148712627526e-002, -1.39039720552087214811e-001, 1.44943908357315437430e-001, 9.07442769320958297907e-002, -8.44005512278850344998e-001, -3.63115499405401276345e-001, -5.39417104056732821249e-001, 4.89082704156177383581e-001, 3.83327252740817747689e-001, 3.58822254280897423584e-001, 1.57143811785037834650e-001, 1.42156211800865295292e-001, 3.39680888774528511043e-001, -3.65982554161465745146e-001, -5.37861859302981692998e-001, -2.17129633610836675350e-001, -3.35847712914899843017e-001, -3.75603136804098680646e-001, -5.20776502223087023324e-001, -6.03095746192267717634e-002, 9.85120486303793924110e-002, -2.16061689946923068950e-001, -5.99657241243602201486e-001, -2.86756327292662316353e-001, -3.56518916386085571446e-001, 1.51918182874939661220e-001, 3.94365924262303317593e-003, 5.34533512047450254379e-001, -2.10065832582730066536e-001, 1.80684633043091784355e-002, -1.53022756516865782173e-001, -1.65414815262008907393e-001, -8.10099082440073003930e-001, -4.40406699510338728309e-001, 5.61921958459411265141e-003, 5.38128604498281926105e-001, 6.59865877259048660974e-001, -3.34846075827556877158e-001, -2.39942992165797473747e-002, -1.05569800445941150424e-001, -3.76930578628413448516e-001, -3.56485277123899990670e-001, -1.59521974383735248848e-001, 6.77733409927278561413e-003, 3.06034696342634138233e-002, 1.72760857053034927455e-001, -9.82982592985253839091e-002, -1.81701286447275484059e-001, -1.19329998771579900291e-002, -5.03266584456488641486e-001, -2.57064903954789092388e-001, -8.36273038908848381778e-002, 5.08003927449509284919e-001, 3.95265904428979297780e-001, 6.45970641584971860816e-001, -1.96845348912015410958e-001, -7.38385524536602222412e-002, -2.25439769468198464297e-001, -5.52537888879383709551e-001, 1.61607971952857448761e-001, -3.78186558935147132399e-001, -1.25799721020899946903e-004, -1.37971833782456781980e-001, -7.19055159147094918870e-002, -1.63352278973768721970e-001, -1.83863114493601903510e-001, -1.28011469225998958388e-001, -5.24957201870074441352e-001, -1.30353952128103439678e-001, -5.02767235867311979014e-001, 9.02451493457090636596e-001, 5.04387831503197880956e-001, 6.78828325937415710811e-001, -1.10771422192932511575e-001, -2.50138661068513123986e-001, -1.66334584794595674584e-001, -3.21498056262202291933e-001, -6.34050527513420836279e-001, -5.81181443624785853963e-001, 4.55764131200216193740e-001, 3.43114381908472432237e-001, 4.11518865699809943681e-001, -2.48507675182868842390e-001, -2.30504767977259300560e-001, -2.47912822706331775757e-001, -7.47232272340707659453e-002, -1.22780422615573509004e-001, 2.04570132119555492256e-001, -8.71917151783110216945e-003, 6.55414534275219756720e-002, -5.97373438010825805189e-002, -5.75154617347039473496e-002, -6.67014359518041805019e-002, 8.83839376498315315578e-002, 1.07215395878549488162e-001, 1.70798757951342222716e-001, 5.13859117803019543880e-002, 1.84868562700250982367e-001, -7.38302391700933341445e-002, -3.42951608183137204855e-002, -1.40587719976924041543e-001, -4.46257994695119838274e-003, -3.88657786194259100010e-002, 6.53407682575118109458e-002, 9.17404002265593127019e-002, 1.49006167995845463514e-002, -1.09236678776110734956e-001, -1.49823212366736485679e-001, -4.73866831564732846060e-002, 2.77379625051038025685e-001, 1.00841589513799234634e-001, 1.04656270675940299419e-001, 5.88928906435417544307e-003, -6.31502825182354982081e-002, -1.68339671006088459349e-002, -4.45266917537602141541e-002, -1.19181733329144834421e-001, -7.05027223836334759888e-002, 4.01833167599216986576e-002, 6.40905108768540648922e-002, 6.56064898707432869740e-002, 1.23281648773887989035e-001, 1.83978646730010853005e-001, -3.90217593254562414296e-002, 3.00507981930334990006e-002, -1.38977282893682052567e-001, -1.36004987368424701266e-001, 1.00932981633151799827e-001, -8.74808076749896135205e-002, 9.35755598466177090922e-002, 1.11996788051473769587e-001, -1.24121981366759850940e-001, -3.13491615877455470640e-002, -1.79499571996106859449e-003, -1.42747634667402013842e-002, -2.22947009764850573310e-001, -1.22102929606424850245e-002, -2.27428446053737493004e-001, -8.80935603746057227514e-002, -1.48564644535077811094e-001, -1.06186470337323576874e-001, -3.37685614895330277196e-002, -5.60430284349569748925e-002, -1.64649800451222072528e-001, -3.56286910082805122202e-002, -7.30257051077623925428e-002, -1.20919478558872320328e-001, 2.78238246320366595932e-002, -4.19538015451976081804e-002, -8.68418210118505722039e-003, -1.57025227613861589893e-002, 3.11906324375807730842e-002, -2.31747497855350759188e-001, -6.51276811130293842300e-002, -8.93710462079120443457e-002, -8.04802650924618667716e-002, 2.49972671790827730143e-002, 1.29555171508350663867e-001, -4.69324186585241692748e-002, 8.97964196965135574846e-002, -3.35351254495786232912e-002, -8.23093392277828295178e-002, 9.26199820638359400116e-002, -1.28656818351184198956e-001, -3.61597084102829660623e-002, -2.09534213163730415053e-001, -1.19970783163136182625e-001, 7.84897021265962141490e-002, -6.62791538645076117042e-002, 2.85669668642359285415e-002, 8.77501803570856185599e-003, -2.78831237826040537198e-002, 2.12950458023121839968e-002, -1.38577432299604258459e-001, 3.41736991242016282383e-003, -8.29727426726551003933e-002, 6.05672269185477674114e-002, -3.33202575667254849434e-002, 1.47050691127206173414e-001, 1.09019723381700420206e-001, -1.19468655655030162044e-001, -2.75265255948953846410e-001, -2.89888606887739486151e-001, -3.12548033920596490809e-001, -6.43357367082541681258e-002, -1.53687701735789550295e-001, 1.60146214750039678210e-001, 1.22454903657509509007e-001, -4.32852836013282275818e-003, -2.79903961568559456197e-002, -1.42620003018999713662e-001, 4.68092336969822067627e-002, -1.22295019538585694741e-001, 1.11578373646974260414e-001, 3.55540818502960223602e-002, -5.37662677207079650610e-002, -9.84322375398656579382e-003, 6.19821981318844847375e-002, -7.94490842919156822766e-003, 5.67801094496327568573e-002, -5.01026796413086162457e-003, 7.60370566099823341766e-002, -7.24591749792070777270e-002, -2.01147168796047930150e-002, -1.57492733135475571071e-001, 9.74414110328126609195e-002, 2.37322448311677383637e-002, 2.08166456977431323094e-002, 2.03892713892071808512e-002, 1.74948440505623303842e-001, -6.67491254195247130099e-002, -5.46620799093263803892e-002, -7.42165559692970489003e-002, -9.21426941897158791051e-002, -1.10062129265588282134e-001, -1.75978843786525867687e-004, -2.52551906661099868912e-002, -1.51252312838639074721e-001, -7.39582149639212010905e-002, -2.14701388945963800303e-001, -3.10496582377716157097e-002, 1.47379737598017594019e-002, 5.64084686543462644759e-003, -1.12612507951455470545e-001, 7.32564158826618100351e-002, -1.07613529412897104831e-001, -2.09309270277220654810e-001, -7.97330717674040179155e-002, -2.35609276506605791468e-001, -9.21032841213866443342e-002, -5.32594570563149488640e-002, -3.33739822990503295919e-002, 1.35148010959787873153e-001, 9.43345613471054944554e-002, 1.97487702004140314171e-002, -1.46802260639263271180e-002, -1.22191275013747144285e-001, -2.72726355427003352982e-001, -7.20385072955234961878e-002, -9.17807438710062373222e-002, -2.12801614562204040315e-002, 4.40555222021085934880e-002, -1.12916508083268543605e-001, 4.35236898977537159383e-002, -2.81518596379919730510e-002, 7.44370925670400675200e-003, -3.21883977009727248464e-002, 1.83415465654213211133e-002, 3.77563556944440353869e-002, 8.14492146135595562750e-002, -3.55351639060768166936e-003, -1.16893771935662298123e-002, 9.06422818423139459165e-002, 7.11957512306073125874e-002, -3.34018353730120912126e-002, -5.10029387318181245958e-002, 5.65695307899420976594e-003, -5.58571459144530310659e-002, 1.00249499542258174722e-001, 1.09910218677193236014e-001, -1.03961824251680295950e-001, 6.96128005059212379146e-002, -2.65664766409259123225e-001, -4.70538515411743699102e-002, -1.73034742456299600599e-001, 8.95809717115303855151e-002, 1.71472722788679116102e-001, 5.13637498048203078316e-002, 1.34674136312227715750e-001, 4.96890161740613373054e-002, 1.66661250182952441756e-001, -1.60486918780912535265e-001, -1.18320651433024517929e-001, -7.38052194010757195430e-002, 4.51237594964034108291e-002, 8.08222070347646565081e-002, 8.70775227708679572247e-002, 2.93684218075119296554e-001, 3.01096594100227155089e-001, 3.02179395616322732376e-001, -9.41525188321802597446e-002, -1.34298407906992961491e-001, -1.14554533879778430716e-001, 1.05883723257231013304e-001, 1.46665559648032295392e-001, -1.13707403277529071201e-002, 3.13758971236559672247e-002, 1.15495070880324984808e-001, 2.93214149967369538952e-002, -2.53169229548062535429e-002, -1.14458844910196394506e-001, -1.42638898224263704906e-001, -2.21279206435548714271e-001, -1.41840831967444569450e-001, 1.04396510456384705723e-001, 3.06504584804354815453e-002, 2.17722092715829873555e-001, -9.16797341169994228771e-002, -2.61958532345788475126e-001, -1.22333097952066136016e-001, -1.25946048367147706015e-001, -4.32334619359991401133e-002, -1.42026107747239949131e-001, -2.91146831319689727846e-002, 7.78492816090314287969e-002, 1.26342116065777471112e-001, 1.84914578879190799610e-001, -1.22619182215240277167e-001, -1.30941072806404296136e-001, -1.11829563963939018767e-001, -1.43758765226593115960e-001, -9.11385813676783840265e-002, -1.88893431740369405203e-001, 1.16747025156642120214e-001, 3.86823662666895135009e-002, 1.11954664621220750798e-001, -3.93338918645425167364e-002, -1.35613531040495977065e-001, -2.16683203358882352230e-002, -2.34449922300552296428e-002, 4.59973822076847893570e-002, -1.01881067914308606759e-001, 3.97145169696710917395e-002, 1.49940488914416358845e-001, 1.48359039921967139630e-001, -2.17809493960645611521e-001, -8.89160248820157900207e-002, -3.00567850488289538269e-002, -1.27391929628971611876e-001, 2.75580474806489117423e-002, 8.35895108493399374705e-002, 7.64222935211001791478e-002, -6.55113464348291117678e-003, 2.85761638415908368616e-002, -1.48878305235683433549e-001, -7.00022271352954417178e-002, -3.81645646883565364815e-002, 2.12947200389625446171e-002, 3.27264817389006090753e-002, -6.80106484068141448063e-002, -6.40482382701034747008e-002, -6.62680494554359622583e-002, -2.68993757110679125588e-002, 1.00846590890191808998e-001, -1.32906805984495446360e-001, -5.54970597174698210274e-002, -2.87749243030991030956e-001, -2.29409311612638638911e-001, -2.16334838159534775803e-001, 1.90436916253828511514e-002, 1.97005259347924149838e-001, 7.46711111982165109957e-002, 4.98110674051070907720e-003, -9.68402755591266789503e-002, -6.97476687541820766780e-002, -6.61816102585126436741e-002, -6.34008929326274894844e-002, -1.40416539456396372021e-001, 6.45145675580268279647e-002, -9.16763169830161345208e-002, -7.58117673464800273520e-002, -2.34723567373367712763e-002, -6.55796983117843124145e-002, 4.19689165500025940236e-002, -1.82526934566394100079e-001, -1.16357346145622708722e-001, -1.99535577990523294023e-001, 4.30543560696840105217e-002, 9.62463237316049519121e-002, -4.58930376289296265008e-003, 1.60160900845682206695e-002, -7.52808285810961097528e-002, 1.40314005075209052853e-001, -3.80314942454728008303e-002, -5.34279248973359502384e-002, 1.64353391185130038622e-003, -1.09934034006588174370e-001, -1.26745060328657760396e-001, -9.51829508535734503116e-002, 4.94215286136758941149e-002, 8.26611608220515457768e-003, -1.51384641864907715236e-001, -1.67414024778483161437e-001, -3.05167953961320570500e-002, -8.06954303888720858584e-002, 7.15328040128132905395e-003, -1.09549924935002401805e-001, 3.88838857585287953067e-002, 3.84619324511470753181e-002, 1.00239008468990670186e-001, -1.22060888991490021360e-003, -1.33088250462707669008e-001, -4.03325475834443863965e-002, 1.04533769529046305369e-002, 2.05953571186669633086e-002, 9.24122536116098736159e-002, -1.28512921771851747893e-002, -2.55344958181235419381e-002, -1.18458111141090380314e-001, -3.13453708868842231827e-002, 6.91741114308121463061e-002, -1.20458657927802081922e-001, -1.05675682062294259977e-001, 7.88654754459297280267e-002, -1.33051248423454893111e-001, 1.13102710789810771003e-002, 4.39359862051653254911e-002, -1.56486946766858404934e-002, 8.22058990608337952777e-002, 3.09250211645009653871e-002, 9.73845180037861968270e-002, 3.95128779673932298278e-002, 1.13632708563700793314e-001, -2.21735189985847614552e-004, 2.13999891788991120078e-001, -6.20151775408651351196e-002, -4.40580548267357555159e-002, -6.62167436752704452463e-002, -1.20483702081973953479e-001, 1.43922108474508203546e-001, 3.41961833599078446344e-002, 1.03843860658195383251e-001, -5.80961579521568072249e-002, -3.30560347467432763535e-002, -8.53481234981311653529e-004, 1.22294046852734154124e-002, -6.00862121938727095083e-002, 3.04155297955654053965e-002, 1.06466407708861426906e-001, -9.70246723817852207983e-002, 2.34565348725432859522e-001, 1.54848827374962898923e-002, 2.23321108112713162530e-001, -1.64783316521488532036e-001, -9.80608401177358035561e-002, -9.38582876291066264818e-002, -1.64621195159547328152e-003, -4.07779969675469491919e-002, -2.26436488584835435289e-002, 3.86342246541485773159e-002, 4.80558198272190498224e-002, 1.56774042207086544698e-001, -1.12767481909976194365e-001, -5.62990393546042092177e-002, -2.12114297551126262942e-001, 3.30601519011720634822e-001, 3.87268597421809357417e-001, 2.50195367639184651498e-001, -2.23533654059620001675e-001, -6.97275054035567526389e-002, -8.04398928781403649291e-002, 1.16655521830987707332e-001, 1.60640441527896776774e-001, 2.01304266526737274390e-001, 2.46228004864030514121e-001, 1.26678553722074066501e-001, 1.12078422175872438604e-001, -1.94842397257249028142e-001, -2.03933679507156601085e-001, -2.08150737167887622814e-001, 7.92260659898185032324e-002, 1.83398382738098247868e-001, 1.49033120894274340174e-001, -2.03497133130586260741e-002, -9.45234404486104129450e-002, 1.51822087242463234918e-002, 2.09255750218020862563e-002, -4.78110752597386973184e-002, -1.57569158225867200773e-001, 2.94825722114778920879e-001, 1.97237660465215902672e-001, 1.87917116373253978434e-001, -2.43114535233705908457e-001, -2.11734774623913768465e-001, -1.66333315964740574566e-001, -1.10346929557215506223e-001, -2.68642344400944976801e-001, -2.27299695276625191021e-001, 3.11012390870081034677e-001, 2.27727678690347989932e-001, 3.29176330227068825174e-001, -2.78752632505314679179e-001, -1.47570153561190405694e-002, -2.21135904286294177057e-001, -3.90325220592348309800e-001, -1.57461269389441327338e-001, -1.48342156868257857294e-001, 2.40992328889376883350e-001, 3.32682503203984347717e-001, 2.47080806622184151466e-001, 1.43410050233713608214e-002, -2.11256475679052951877e-001, -9.34945546686571926642e-002, 3.32115193662574248457e-001, 2.93186929693349196402e-001, -3.05213528430144549752e-002, 2.45278908748598589717e-001, 3.90120508518459807590e-001, 4.61334326388570858946e-001, 1.33139723392847103556e-001, 1.09210907027021505988e-001, 6.10519632198452191774e-002, 2.49929023215518880674e-001, 3.32250034112690106891e-001, 2.12570543372717774000e-001, 3.67663783786410625076e-001, 3.97552536795858724172e-001, 2.98328383273293196165e-001, 6.65572776720136233264e-002, 3.24201079758636018235e-002, 1.42823500249481226410e-002, -1.08623082482945179650e-001, 1.45583780748018587481e-001, -9.77071995063939378531e-004, 2.98094677802178908976e-001, 8.76770386901322418272e-002, 3.68473346182533745274e-001, 2.04519014991048714291e-001, 1.74272266750805059077e-002, 2.31484895951333896624e-001, -5.71253558510681352933e-002, -1.47542299095977462974e-003, -6.28039972483855901686e-002, 1.50933570694942759127e-001, 2.34659332322654679004e-001, 1.81174278510289693545e-001, 5.81964761381566011988e-002, 5.16428533029084091410e-002, -1.19072205776342442997e-003, -3.91745928568716039742e-001, -3.27327284620454905806e-001, -1.89388773953298478192e-001, 2.70587029746287677234e-001, 3.31659198317182157822e-001, 4.25101870512851420791e-001, 2.69532094158312696131e-001, 2.50665364510022581346e-001, 3.45095929848667493101e-001, 4.63454170092891040711e-002, 4.46920544681512765806e-002, -9.31357262444910821708e-002, 2.72631881427834010800e-001, 1.95409219629434860455e-001, 4.90706653178914431468e-001, 1.95106498817162521409e-001, 2.26547944015488528224e-001, 2.77557660454568089214e-001, -6.70710647800997622481e-002, -1.12866266292500266877e-001, -2.85362185214253050169e-001, 1.77107831884712352277e-001, 3.11878331675097597575e-001, 2.48163938673369804944e-001, 1.94012817655370740921e-002, 7.15292131412309517557e-002, 1.29624902941721659166e-001, -6.77209769846068634913e-003, -7.70292485331189324960e-002, 1.45949487412859901792e-001, 3.63214177854331687900e-001, 2.47062196712997117487e-001, 2.17288936463867266013e-001, 1.64422193829874135895e-001, 2.55217364107730437794e-001, 2.57258460866650218168e-001, 6.44838849819288767451e-002, -4.47965648317382447718e-002, -5.21196899822432002658e-002, 1.58842211176303899078e-001, 8.36731089842715630711e-002, 2.95108896772869777614e-001, 2.77046366734472249149e-001, 2.23201125091422175606e-001, 3.24034786643980554643e-001, -1.86105107602609842754e-001, -2.07933397304383149606e-001, -2.94759427997543344002e-001, 4.39077234856418696651e-001, 3.38031256780041866605e-001, 3.84360969583146749873e-001, 3.50796971854319405981e-001, 3.65171067237371860248e-001, 3.82318765852305675335e-001, 1.09715993661913910340e-001, -9.86112637756576398962e-002, -1.15345700986623708739e-001, 3.94562813635700948556e-001, 3.86111177909427560895e-001, 4.25239025395190983758e-001, 7.10407365816092817301e-002, 1.29737465431281229211e-001, 3.58510366740354191606e-001, -1.10330244173831734655e-001, -5.06920176917511206005e-002, -1.69820133570298763791e-003, 3.54118780564019408619e-001, 2.52495250429828899108e-001, 2.68516369784360886541e-001, 4.15031893785290817434e-001, 3.13568027859564446569e-001, 3.86176140390794842006e-001, -2.78109471544070119275e-001, -1.80151232780090375662e-001, -1.03748351452002438022e-001, 2.64275114838582736443e-001, 3.50020421516380408899e-001, 3.89133118099989128158e-001, 8.80628207709877458553e-002, 5.17598501833067964339e-002, 1.28263655473791982065e-001, -2.35166162350098177647e-002, 4.34862905404328967118e-002, -3.43688949510738625537e-002, 2.18650666631281548336e-001, 2.20358611520481528778e-001, 3.37957272451884338516e-001, 2.07447036778835386395e-001, 1.19243698542847886834e-001, 1.39952692861731481377e-001, 1.26980917857005465299e-001, 1.03286600027622896270e-001, 5.38705436982237148569e-002, 3.94792674805102494773e-001, 1.82012511385316488877e-001, 2.57580137937245268187e-001, -2.98732509960677669603e-002, 1.40586695569222014379e-001, 1.01399028122395720719e-001, -7.97512832745096156284e-002, 6.76982796143301701619e-002, 1.21841597740328752564e-001, 2.03493321141359345683e-001, 4.15032524305917804863e-001, 3.42346787972324317906e-001, 1.80059265614332858485e-001, 1.54392624531196509530e-001, 2.61790426966386595431e-002, -2.62335797115255779655e-002, -9.54184943717253236661e-002, -2.78203191142011793668e-002, 3.50838300962890037304e-001, 3.34472585340155226241e-001, 3.61406913038602561894e-001, 2.11320898529864659166e-001, 1.64030271359711793400e-001, 1.13899590567255223905e-001, -1.12132316305618179308e-001, -1.11170934580232833033e-001, -2.42223087393344888030e-001, 3.58366108883999390233e-001, 3.95006111607843601874e-001, 3.06350200618571655298e-001, 2.77798300476838344597e-001, 2.43793082386651011051e-001, 2.46229806584545352077e-001, -1.20713996919953700515e-001, -4.81434484714349728018e-002, -3.84671941281666384532e-003, 3.50084076265542443185e-001, 2.53566105974535827006e-001, 1.58347870875907736909e-001, 3.78818738665556487000e-001, 2.71686211344766559428e-001, 3.19918040366094114102e-001, -9.56456152617734256527e-002, -1.69967303035112510257e-001, -1.76180641300304641206e-001, 5.08444411993726474996e-001, 4.79714291482187582538e-001, 4.14355826109550184899e-001, 4.06068842624562720278e-001, 1.78540420973003599592e-001, 1.44843699055718894142e-001, -9.82305664030103109496e-002, -5.19462693504994365429e-003, -1.52624292117526483281e-001, 2.91966196822413259770e-001, 2.79596779477050860763e-001, 3.96662295343019832838e-001, 6.86182768649309521303e-002, 1.97836824856547188745e-001, 1.45906800318235746472e-001, -6.84380455771325946213e-002, -1.03395761835096675063e-001, 2.18364217965729578985e-001, 2.68573648316826341098e-001, 4.31269875880578967831e-001, 9.23584137443531905109e-002, 1.10581677954327731173e-001, 2.30850611974661862336e-001, 1.93717209280734187216e-001, 2.64943646662878395937e-001, 1.25971518991775405932e-002, -2.11308183908185329147e-002, 3.74933448102159450066e-001, 2.33821725568456151301e-001, 1.44377204626299798784e-001, 3.02512783029424525694e-001, 1.30676711764030700769e-001, 2.25775820495935974908e-001, 6.02383124769950359378e-002, -2.36386837303518421161e-001, 1.90862291748815360304e-001, 4.28960090157925799659e-001, 3.51352981731815450228e-001, 5.14050475475024915006e-001, 2.11989429470008455825e-001, 1.63524152738538208762e-001, 2.88915015255937102090e-001, 9.93900372745219577719e-003, 6.63041330657217903299e-002, 1.15165099531640779951e-001, 3.25304889136535158034e-001, 3.84078337915885081877e-001, 6.00748834718031976543e-001, 1.54374202290254863845e-001, 1.01455078051570335429e-001, 3.96327729521408628210e-002, -8.69320206809150453076e-002, -1.58881038089974557792e-001, -1.66095811495134998426e-001, 2.40232970567152509522e-001, 3.65546576161881797695e-001, 2.03512560525308361381e-001, 1.88891212902553340403e-001, 9.67432272423850159182e-003, 1.02796009990913955745e-001, -1.02217948931740618135e-001, -1.89602891137057527615e-001, -3.00085658528740396866e-002, 2.93040520604515908332e-001, 3.27046626505156756703e-001, 3.68916243417260536486e-001, 4.17073985958997472956e-001, 2.00860352788871043828e-001, 1.73101146184864496114e-001, 7.26087638314314581800e-002, 2.31656753086432798394e-001, -7.34840670967158715587e-003, 2.13781455353119986817e-001, 2.27713019823279211318e-001, 1.56559348487078781043e-001, 3.58603330154528721074e-001, 3.13318238228953993563e-001, 2.60892820038825190565e-001, -9.65066731986354356398e-003, -1.45438175111189064298e-002, -3.20754801202907460778e-002, 1.56415309787728246116e-001, 2.52098839635657767655e-001, 2.80810535658311100082e-001, 3.33950841731250780420e-001, 3.54010704948605925413e-001, 1.25984588505119787794e-001, 1.20322246981658890347e-002, 1.95160041534550771081e-001, 4.44560694642757020523e-002, 3.42128462966725221950e-001, 2.39275258238667271060e-001, 3.25295762702735635763e-001, 2.34858675820157902780e-001, 4.38793963677235818177e-002, -3.86608587707778644793e-002, -6.47404596823355216184e-002, -1.41568674978902409034e-001, -1.23721012804511837357e-001, 1.16728247630533965573e-001, 1.31287279828744329890e-001, 1.92626272666985648430e-001, 7.20150564785370095322e-002, 7.84584589029980739028e-002, 1.50074817709600488724e-001, -2.83632246061232308476e-002, -3.03095636545825733443e-002, -4.41112255760637353430e-002, 1.53524505626067286901e-001, 2.24924969859591067367e-001, 7.36962446088886280471e-002, -9.48659750146519688274e-003, -6.49717523423703341434e-002, -1.63210765550187986150e-002, 1.21344919519067950819e-001, 3.32756196046582464199e-003, 7.97515363479888578224e-002, 2.64959491076225073236e-001, 1.99024478855012620926e-001, 1.90701169289280852981e-001, 5.72623727234890383953e-002, -1.38395228170681117152e-001, -6.26094232538540323985e-002, 2.92458735593143642761e-002, -5.25545070314056318728e-004, -3.49413461021218091362e-002, 3.75442488617753755697e-001, 3.81014639305427171845e-001, 3.13092995805823337552e-001, -2.53623549183344468294e-002, -1.26538815600675091932e-001, -6.48959918737898877605e-002, 3.29638478015791658304e-001, 1.34617943005029438996e-001, -7.54535223809191680361e-003, 3.59977295487765469595e-001, 3.15365738843856269202e-001, 1.87222283989108118085e-001, -1.30914357404892350845e-001, -5.00680660453744902361e-002, 2.07836234338325792637e-001, 1.84429789100380159272e-001, 6.21053558698603305754e-002, -3.08243170676085302684e-002, -3.19142728845697998263e-001, -1.46887699539607313737e-001, 5.01536352376083308102e-002, 1.00922573134631002323e-001, 9.38542360183584195577e-002, 1.74623316827894697889e-001, 1.37787905672244276323e-001, 8.56485520252341647751e-002, -1.54217979475237444709e-002, -1.01246240085846123113e-001, 1.07186822600462985933e-001, -1.53424307964195372200e-001, 1.58865429504936012117e-001, -5.05088235746663921644e-002, 8.83828625228070680064e-002, -5.05554050222229364731e-002, -2.17887153318976067862e-001, -1.15277284195233267750e-001, 2.62127890491906989645e-001, 1.58277318800766397811e-001, 4.51920750109582047838e-002, 1.91237754257030878602e-001, 8.41954024273372236831e-002, -6.44141967429243539334e-002, 1.03713736711921092337e-001, 2.07871960039438280488e-001, 6.68709506233539086040e-002, 3.40494010282754930308e-002, -1.33858765290616799071e-001, -2.16145517810935848535e-002, 1.64681294472145717256e-001, 3.92007936962287695248e-001, 4.79608392738926359034e-002, -7.98507938861478944181e-002, -1.44020180331265096330e-001, -3.86550775038171749720e-003, 2.48423653409239553191e-001, -1.36031707507064669738e-001, -3.03680444545007081902e-002, -3.55147866146053522995e-002, -9.13188611203877287359e-003, 1.20883128583720370064e-001, 2.30278286026642641654e-003, -1.90313221295773937758e-001, -5.33657945234675412660e-002, -2.30669615970596292298e-001, -2.11451541696281608562e-001, -2.48718156337007723078e-001, -1.84797281533353924265e-001, -1.09030931990154428268e-001, -1.45352612234519673606e-001, 6.72493877162164046396e-003, -1.75662123025182859148e-001, -1.21052717476493515436e-001, -1.60779166537419332395e-001, -6.87746115059457013841e-002, -1.90663614954680260549e-001, 1.31084237481300575068e-001, 1.74386724940366333314e-001, -2.74224750264572096625e-002, -8.31187675913241524883e-002, -3.56952826580243132160e-001, -8.45775661991739896584e-002, -5.08161989115377410453e-002, -1.41612924421784774909e-001, -5.86120808093328962696e-002, 5.77583509680869230940e-002, 4.83458396195746778479e-002, -6.16793212206620256044e-002, 1.99343326766444374487e-002, -9.18685024302595548695e-002, -2.00827909162615003691e-002, -2.53328717711908402155e-001, -4.01442574156071971259e-002, -2.96445045412099539295e-001, -5.59368056717527012411e-002, 7.02030684084953698898e-002, 5.16990355203242931553e-003, 5.07921644326161936256e-002, -6.27031412025453316339e-002, -9.04722575924308131112e-002, 9.41307397002560074240e-003, -1.19635075092579951095e-001, -1.88761796782757146351e-001, -8.86513795238596247206e-002, 5.61598381604139357259e-002, -2.99978848097866949984e-002, 1.80072133012847579447e-001, 3.66924305649570167698e-002, -1.06528818121001928043e-001, -4.96765636748492334096e-001, -3.40661724827369560842e-001, -3.98800468356544035586e-001, 2.44030968836116048809e-003, -5.47223196544290926835e-002, 3.32158684318744268013e-003, 3.69153117975202574308e-002, 2.38584625877983097508e-001, 7.04013914905326776417e-002, -6.54566613622034748632e-002, -1.78011101020478845758e-001, -2.09641012581752522737e-001, -1.46545749700074612321e-001, -6.07929394362492214743e-002, 1.38257902042767614331e-002, -2.54294811677600041122e-002, -2.60516001628378346400e-002, -7.45060364477067721412e-002, 6.47890366591452326883e-002, -1.65297276040097196326e-001, 7.17358868321056469819e-002, -1.79948974982154341618e-001, -7.46503483421135788367e-002, -1.80627719264547764721e-001, 1.42308672985559658830e-001, 2.56319319199595663239e-001, 7.83627839967410144695e-005, -1.79344249246470410775e-001, -5.98213935967449525477e-002, -1.83490329988234723846e-001, -3.28615298905945152352e-001, -1.77493749297898378847e-001, -3.21866129248662147244e-001, 1.02727123243114532025e-001, 6.34707863745738176675e-002, 8.24438247811252605812e-002, -1.22152759878539282634e-001, -2.79310310930399707807e-001, -2.83482273864467004820e-001, -4.12676591516426896633e-002, -1.44860592133552706917e-001, -1.07432232177715900057e-001, 2.20363497569536215259e-002, -2.10899111656450664876e-002, 1.72249470435216822661e-001, -4.52603832476366929605e-001, -1.78192064222357726688e-001, -3.08814011170286284447e-001, -5.72944342550373436618e-002, 7.15590829048928372957e-002, -2.44199509348718285517e-001, 1.67425290782813041002e-001, 1.94498491294767150706e-001, 1.86454053697910099308e-001, -7.35132098875400930016e-002, -1.64152611701435385827e-001, -4.35490051745632933411e-001, -6.92347275054761707169e-002, -5.18609658723491878662e-002, -1.05703542503520819817e-001, 3.17031545650858059826e-001, 2.44795121300661056019e-001, 2.05777245638205319445e-001, -2.02194705102443667011e-001, -5.97120470666915661995e-002, -2.73020921362998381099e-001, 1.87762641203900459974e-001, -1.15955491665641521881e-001, -1.02709833038480214187e-003, 3.40981109440866902993e-001, 3.52091579303699331316e-001, 2.69749806524358315407e-001, -4.26279763079824656341e-003, -1.93273736164296050521e-001, -1.77870552211961047151e-001, -1.05177452324981698939e-001, -1.46247552854482321116e-001, -7.79878192664611308293e-002, 1.13697427948593471347e-001, 1.89143785366151506722e-002, 3.78107062368990554102e-002, -2.45504753066474290524e-001, -2.98826371660079123660e-002, -1.72868313867650558180e-001, -1.65303342565608274439e-001, 2.98414434140754254721e-002, 5.29714998940579787079e-002, 2.53211781297146165670e-001, 1.66126286015874480295e-001, 1.42702298944095057331e-001, -3.05478094331189997668e-001, -2.59284518327257629267e-001, -2.53995794605534341848e-001, -2.51624562545461671892e-001, -2.70964314475241087321e-002, 4.31630633612408026734e-002, 1.85425607144940246540e-001, 1.65221310501042856211e-001, 9.65218948833090062411e-002, -7.16723840862768940552e-002, -2.83439247220754364509e-001, -1.61374191724571514062e-001, -1.32547910719210904062e-001, 7.54162932635854821317e-002, -2.15441463579914178894e-002, 1.17860190160219258093e-001, 1.95808187175729453422e-001, 1.06549987389913961011e-001, -3.41434306274049192975e-001, -2.12312658569448559076e-001, -3.29102787398482421466e-001, -1.61492410855061135910e-001, -9.70845468781365572575e-002, 9.30518244496478658112e-002, 3.66856671217087482173e-001, 1.84871421585137862831e-001, 8.91607461118075483864e-002, -3.01392679909289029627e-001, -9.80557799125821305530e-002, -2.02689885540799225039e-001, -3.61616750964142086300e-001, 6.46084557103426392749e-003, -3.81134525146192282286e-001, 1.73989491789682620970e-001, 2.17000513989044546692e-001, 2.46009846684617894397e-001, -9.88338449740725766279e-002, -7.78994822623113730709e-002, -1.05914452256403099351e-001, -3.27325301576848859408e-001, -3.02124537946213300721e-001, -2.07464551941564656623e-001, 7.73812551034535299477e-003, 1.11308944007254662090e-001, 1.26909786698369220215e-001, -2.09761332069035827397e-001, -2.30535754744670501326e-001, -2.52977756937835251971e-001, -4.76786977315053830950e-002, -6.79752756803572999456e-002, -5.80470162909927783756e-002, -4.91537528876736240502e-002, 1.39861266607503142989e-001, -7.58360193284784711576e-002, -2.80221238331518629483e-001, -2.84896237669815199922e-001, -2.66743187247129254214e-001, -2.50402692947592538791e-003, 2.16428919801725759553e-002, -1.35157989569076347758e-001, -1.01839473317728024249e-001, -6.59179868299777579899e-003, 1.38240136007379166294e-001, -3.37765860639397008658e-001, -2.30754660299611863428e-001, -2.72764902045393553554e-001, 1.86955407870965616135e-002, -5.06884749102688089706e-002, -7.24552009118256679088e-002, 1.02077669027684100889e-001, -5.24667446845072035777e-002, 2.47388396030066709530e-002, -8.17474484159725761634e-002, -2.49192837464600941422e-001, -1.24200535760994767998e-001, -4.54713173135725068352e-001, -3.93298962870010981874e-001, -2.85492489133461757600e-001, -8.22596812503923191517e-002, 5.20049052444105236459e-002, 6.85801380833512691515e-002, -1.19569577366744006497e-001, 1.10673659867292245584e-001, -2.50252440947664911430e-001, -1.07326240674773643047e-001, -3.87622777400401449799e-002, -3.06336151527959281438e-002, -3.61630265177957724299e-002, -8.91240938398446813640e-002, -1.20249083736143121820e-002, -2.13747389292900352720e-001, 4.43290594500787213383e-002, 9.89461410638307024834e-003, -2.80540293030559939602e-001, -1.33940418077640566175e-001, -2.00380918749478276197e-001, 1.84210454217623303963e-001, 6.71800456222345354629e-002, 1.08368679757426755739e-001, -1.97579168748884381052e-003, 8.11491193253356113413e-002, 1.26013920220349406875e-001, -5.12700467740483667445e-002, -1.51296319393612016535e-001, -9.05389433545449179297e-002, -9.85948593753333824008e-002, -1.83379733610229300744e-001, -5.49997847993642097197e-002, -2.09437256715037295463e-001, -1.39040052758749699269e-001, -9.81600977756258569196e-002, -2.52426998751948239441e-001, -7.04695624094830719297e-002, -1.83898769650790744334e-001, 1.34298768574653143437e-002, 7.33346859859173721974e-002, 2.71212339231195032063e-001, -1.31009472585125297250e-001, -1.48805879656556117041e-001, -1.43620972314650152679e-001, -9.64029900937767442182e-002, -1.89033475709086157268e-001, -1.66047530124494718828e-001, -2.12462406641166848265e-002, 1.06747857514843474958e-001, 1.21449516717923630682e-001, -2.12789258447061091495e-001, -2.41150823324657259672e-001, -2.51087484678854146181e-002, -1.51316171997289333762e-001, -1.67961130001164887782e-001, 1.56345117224329005490e-001, -1.70284321917113581901e-002, 6.47001265783632845130e-002, -3.25643415503923091062e-003, -1.27464760294721257683e-001, -8.28336510586030888570e-002, -8.03573325320141168548e-002, -1.43352982914905724421e-001, 6.78323666509768191668e-002, -9.83343070658315443477e-002, 1.30401988605724328263e-001, 3.94442262763269810288e-002, 1.86180249202946346276e-001, -3.77386988194579678368e-002, -1.51395140106717895900e-001, 2.83932882365395405921e-002, -1.55820014352269164970e-001, 9.12676645633042765704e-002, 9.57017463318604877376e-002, -3.30395499374357901057e-002, -1.03967640371022670975e-001, -1.39167634026489184240e-001, -6.29077386408100069914e-002, -9.66747593743988026249e-002, -3.54083502526437790547e-002, -2.31688332026038674993e-002, 1.15426288836688636930e-001, 4.99561115435261521300e-002, 2.13758094911668417026e-001, 2.09974623997739612280e-001, 1.41510284221179893915e-001, 2.99041876587019042621e-002, -1.60583742045126903752e-001, -9.87588441862623928058e-002, 3.32765955273706948159e-002, -9.13327530457272718234e-002, -3.18015015987623689275e-002, 6.89499398455759998638e-002, -1.33365732453913338196e-001, 2.54260904572207596663e-002, -6.56429097911644110486e-002, -2.61924342535521992303e-001, -2.78792005723874303236e-001, -2.01308668123643980108e-001, -4.92471661569192142860e-001, -5.09187717574952736221e-001, 4.66170133800601696472e-002, -5.86489563857263251911e-001, -6.93915016596208383826e-002, 1.54062559355021722052e-001, 9.16385187562119563065e-002, 1.62257222981586179955e-001, -3.73321337748141024449e-001, -1.30494353982317151663e-001, -2.50674199847904344285e-001, 3.88573045969803965161e-001, 4.17316682643942671316e-001, 1.19024098610856804425e-001, 2.78363527083370809745e-001, 4.44087394573986604662e-001, -4.88547243260278665766e-002, 1.68646159575899012850e-001, 3.12701387068184177842e-001, 3.31219194535163130588e-001, 2.28527611826017551522e-001, 3.69339369570876208115e-001, 4.67834886738536070983e-001, -1.12672318714402641682e-001, -7.00614660016067591908e-002, -2.98463458761346500658e-001, 5.41596977469724460974e-001, 2.89111739090471830949e-001, 9.80517559215421524721e-002, 2.12810251853126491950e-001, 3.46807369393039466310e-001, 2.90951123695156910198e-001, -1.87651808315269758021e-001, -7.39599124053227363618e-002, -2.09638858695965685230e-001, 4.69884280420580391358e-001, 4.48646857077101071654e-002, 9.50245560677752953982e-002, 3.79214217043488011072e-001, 2.68842032500163197195e-001, 2.30011504058991567145e-001, -1.39256879531920174653e-001, -3.11089469181508281037e-002, 1.05603775773908614699e-001, 3.86570719055489731009e-001, 5.19673618801279491031e-001, 3.38032656894387328883e-001, -3.86086101581378071668e-001, -2.36892873945381110534e-001, 2.19663129841269316733e-001, -2.51477258587176177862e-001, -1.43808612585072465029e-001, -1.93213792799922956522e-001, -2.00810557196191979967e-002, 9.28994483060150699760e-002, -2.76714239375944817678e-002, -2.52559743783256684946e-001, -2.82145769792235212581e-001, -2.66390841930417066052e-001, -2.79826714388744401951e-001, -1.62278765219888543303e-001, -1.44638636647663881840e-001, 2.75328504653053918183e-001, -7.91463035156777933166e-002, -8.45064870433355902479e-002, 3.56195866042722963929e-001, -5.61327954149242955295e-003, 3.56147052321931334440e-001, -1.48324599550481828203e-001, -5.88560555400448048857e-002, -1.29565854792562384912e-001, -3.98074958996217698193e-001, -1.56715239491398067306e-001, -1.18485762719013870692e-001, 1.33694036720453379719e-002, 1.07244864324483782370e-001, 8.81885088025691349367e-002, 2.23666080061887040387e-001, -5.85125686211028506190e-002, -1.28884437613100335390e-002, -1.70233009550504292562e-002, -1.55194874973967056331e-001, 8.11027059355075435887e-002, 5.24000553117200285058e-001, 6.16467328200875464006e-001, 1.09126087748803557442e-001, 1.48116383279062374667e-001, 1.28793034198714462235e-001, -1.36548677181272032355e-001, -2.58267565838705082104e-001, -1.65639025996328875801e-001, -4.74012516090853430750e-001, 1.77925280543491139140e-002, -5.51082246255785238032e-002, 1.88962202024366143771e-001, -1.41702637836841199848e-001, 2.63821006152447530557e-002, -3.16025331201393755443e-001, 2.06875727209583526456e-001, -5.13651583510018189260e-002, -4.26175074412307106075e-002, -5.99400049078961105753e-002, 2.38798947326326255203e-001, 1.81616052657852522501e-001, 1.62514611244304107984e-001, 1.53850154669200350765e-001, 2.64166646865597529170e-002, -1.42934588807516083087e-001, -2.69644994886541311541e-001, -1.46735268267900897943e-001, 7.26966443892275993033e-002, -1.03462987410476589534e-001, -2.41551629686963781340e-001, -2.83902176201743627892e-001, -3.26950946080384996506e-001, -2.28986418003377240060e-001, -5.23115679708951106242e-002, -9.24480459089236233927e-002, -8.77079033543030905928e-002, -1.43970928295237748928e-001, 3.32139913164052835715e-001, 2.01432530108655805101e-001, -5.25198254298197483858e-002, -6.20833644466693423958e-002, 2.13696275770148408357e-002, -3.50844653976883025237e-001, -2.53717678970462046095e-001, -2.21886272881247709199e-001, 1.90782322085865319039e-001, 1.36045424051484675765e-001, 4.68220463956134536065e-001, -5.34532814523817415009e-002, -1.34065043631176050720e-001, -1.54139790281388161519e-001, -4.89347910529941421132e-001, -6.76490092448504998224e-001, -3.36146763488139710407e-001, -2.02619506022784473531e-001, 2.04875722780095192999e-001, 2.65111978788882596270e-001, -4.65407899776586087004e-001, -2.37031041555163968226e-001, -1.86674190505544290719e-001, -2.06302866073210383613e-001, -2.07471150600401860187e-001, -3.71829424086129178839e-001, 8.65728830375497859784e-002, 5.27148236318623175656e-001, 7.26459808595437822598e-002, -8.13143505348362938268e-002, -8.03207763943622893299e-002, -1.43492466008142749434e-001, -2.24800195057341445359e-001, -4.55624117830443653432e-001, -2.67511702794406946992e-001, 1.76182202539698462562e-001, 5.51819190215428800883e-001, 1.76461338864088823630e-001, -2.39493821309045118451e-001, -2.57566327379073700676e-001, -1.56088253519409934922e-002, -1.28500354837523200757e-001, -1.79991092015522047287e-001, -1.42311632695896278511e-001, 3.95565725058343253817e-001, 3.13932921438231649081e-001, -3.16204368261006202312e-002, -4.89023515110414766505e-002, -6.11339068381207897951e-002, -2.21633644044241268078e-001, 1.62335755380725144104e-001, 1.09258908063137871736e-001, 1.12115114422707447261e-002, -3.23599914969591451186e-001, -3.98064745280485743351e-001, -1.79960556142399891177e-001, -8.92315970732645569186e-002, -1.03237208699971480530e-001, 8.20753371565422495948e-002, -7.06137754712988091610e-002, -3.10267522667386552726e-001, 1.62521661060136074495e-001, -3.01880616985585215062e-001, -2.61025050640540434710e-001, -4.69114673068462051386e-001, 9.34352904103611797693e-002, -1.00068487100733096579e-002, -3.84200154837414098452e-002, -4.61893912483072821562e-001, -2.13259977965161939828e-001, -2.36278371210889848175e-001, -1.24921829207400011952e-001, 2.18507570916300269959e-001, -3.05737056457817957256e-001, -1.40109268611002674154e-001, -1.67788236861208028827e-001, -1.74874935048940222115e-001, -1.33682223815049461280e-001, -3.47645698151399118458e-001, -1.42458380183791921691e-001, 2.94568902102532947929e-001, 5.22272849025566143766e-001, 1.84090878071937469329e-001, -2.40133668468053063094e-001, -1.86372513511348564252e-001, -3.01001014406605094109e-001, -2.69614790987413865953e-001, -1.65793736539765673710e-001, -3.54519308652946452121e-001, 1.87798910240047772779e-001, 6.02746896300972556659e-001, 5.27762827688121882730e-001, -1.96356652918627666571e-001, -2.66161349967762722590e-002, -4.85267065632204730452e-002, -2.76688253068397338463e-001, 1.94372423908066270515e-002, -2.35812357596197064158e-001, 3.41024357462798508034e-002, 5.21119392807555481539e-001, -4.99534219428953828873e-003, -2.47434404986694639339e-001, -3.53391820977485004995e-001, 9.99803279346140640060e-003, -3.57219710510169805029e-002, -2.69915670250049088974e-002, 1.70720474083747575378e-001, -9.40015108630571083470e-002, 4.57515470511944966070e-002, 4.46038833940366197250e-001, -6.84664269005713513674e-004, 1.99751219006519056820e-002, -2.67313120308301788164e-001, -5.89725864969578572605e-002, -6.20535097432621390867e-002, 2.12681895611779164801e-001, 2.44141409072460707774e-001, 1.08421587229955429521e-001, 2.42750469325630734152e-002, 9.30963999421066668027e-003, -3.17755242949200711333e-001, 7.48342234541515965995e-002, 2.19261314063064691182e-002, -5.92614405694833704802e-003, -3.53570066709968877650e-001, -3.88009628250012006401e-001, -4.75108167481687659883e-001, -2.50135083892140619444e-001, -2.69336558457804020605e-001, -9.42732222989285835457e-003, 1.78802393270681675430e-001, 2.34961976431190266990e-002, 1.81022864547343204089e-001, 2.34984602670135593605e-002, 1.31727158303169861187e-001, 2.61793121664047223618e-001, -3.56942125104417196102e-001, -3.22316917914998390948e-001, -5.27100418946958249045e-001, -3.25258324620721572806e-001, -5.41111327396618380092e-002, -5.99903800228224481916e-002, -2.09140325105013263896e-001, -3.96739879669475159485e-002, 2.39369907158403436020e-002, 1.03905509859944761297e-001, -2.87238479631299115091e-001, -1.23051044536252485173e-001, -5.30650818741186136585e-001, 8.80024278932728214186e-003, 1.96269222954908201251e-001, 1.79549507234761485108e-001, 2.02144265353315699674e-001, 1.29477394529129735679e-001, 2.32556333498142392413e-001, -1.30258236325905052411e-001, -3.83400423706849680094e-001, -1.59929895345257491734e-002, 1.69296888114654819901e-001, 9.22474789515728282874e-002, 2.03426608259479085872e-001, 1.87345487345906419607e-001, 1.19747941474088459568e-001, -5.39798566233692517224e-002, -2.08760652085180853366e-001, 6.37604043215651838938e-002, -3.76391281221443108063e-001, -5.34806162556618391868e-001, -2.76962425811917212215e-001, -3.47626832946530128776e-001, 2.90071615994075791833e-002, -1.72988840333334586985e-001, 6.00999418825155062862e-001, -7.70577928389880040250e-002, -2.75089957228307535608e-001, -9.71498350877767063993e-002, -1.35156028467996985887e-001, -3.63304673757567309078e-001, -1.67277534780962744421e-001, -5.92260084856357296723e-002, -9.52971600992012363163e-002, -2.30790187434908814629e-003, -1.80155327998795189437e-001, -1.57423784342728023677e-001, -7.47335210802793914464e-002, -2.34699651702347696081e-002, -2.00234391946996881373e-001, -1.50031508267391477940e-001, -3.71332321588598093798e-002, -5.02398927850110088578e-001, -9.95483630631081167772e-002, 4.63209754794277686618e-002, 5.70853568617369355742e-002, 8.86644885842258756448e-002, 1.34630960907200780685e-001, 2.59559113625227100286e-001, 5.38722317988529902921e-002, 2.78720566457059781840e-001, 2.51190300943885780338e-001, 1.23168811163395196251e-002, 1.65211779254090140867e-001, 1.68172785261195278927e-001, 2.07777213078568750992e-001, 1.43325435004209411627e-001, 8.47220414547313199760e-002, 1.74061274081931324775e-002, -1.39386246478594655329e-001, -5.00966356954160654813e-002, -1.78695419069613642415e-001, 4.02737010454345900623e-001, 3.84704860294892425632e-001, 5.18689591256902726712e-001, 2.03670052315591681991e-001, 1.62215460927553789539e-001, 2.95649796268135783839e-002, -8.93865506542045190619e-002, 1.41817866099365502697e-001, -1.17132884806200376904e-001, 2.22873607038169024852e-001, 3.19935115730180907878e-001, 7.81350580511865761002e-003, -2.60524795190439188708e-002, 3.53756425413241759603e-001, 2.11837546304978058265e-001, -4.69993754982278133525e-001, -1.43827423736146486899e-001, -1.99787011152294968763e-001, -4.18540904967961129718e-003, -2.70221352101533036916e-002, -2.10299429559851092097e-001, 3.59431053184975479731e-001, 4.58588166431204480311e-001, 6.62255934080994923541e-001, -4.30490190240980119540e-001, -7.29359130555400025919e-001, 1.75892607692099633976e-001, -4.50443623719870983590e-002, -2.84454819985327844734e-001, -6.89567712543853461593e-002, 2.17487054895797976561e-001, 1.06879514546457665691e-001, -1.25399440605997253284e-001, -1.81773263325316125627e-001, 2.00465279260456902266e-001, 1.20391609671274046889e-001, 2.16239173806369644470e-001, -5.90235093819063763587e-002, -1.87020160902923254787e-001, -3.26383421135003959357e-001, -8.52964487743448768198e-002, -1.59610048731795045596e-001, -2.77813310948848368742e-001, -4.96535449945564449914e-002, -3.51011443855395663394e-002, 1.87602645192490001536e-002, -2.38147068452863791554e-001, 7.75717086716476017516e-002, -9.27169329461064173348e-002, 5.72200490299540898143e-002, -1.98726249481702754718e-001, 2.96940559853473007301e-001, 2.16164645557199414094e-001, 2.77786422624360040956e-001, -2.54471556780001662013e-001, -3.38699215143737852873e-001, -2.17617281544361496071e-001, -5.41395688823732915140e-002, 1.89550760791144488893e-002, 1.33970856389214215687e-001, -8.62231007020032580446e-002, -2.05611201342569716033e-001, -1.35405878079010222326e-001, -1.91462532916574224018e-001, 1.34476117147977636268e-001, 7.12432766681620754934e-002, -2.84233640041084589800e-001, -3.55904465908051137468e-001, -1.14569981484636141539e-002, 1.05341585227996192842e-001, 3.23888530842356303641e-001, 1.93510570499133699451e-001, -2.53001688216830500355e-001, -1.53941142779778755018e-002, -1.03894522957720891743e-001, -2.93570595052850512319e-002, -8.26806766704703266502e-002, 1.83982805973055496551e-001, 8.50694020679163692700e-002, 2.45176574462719149006e-001, 4.33286595183485556682e-001, 2.97369379346173579037e-001, 3.93006055443771651348e-001, 2.15918015053716466634e-001, 9.48013006908812461138e-002, 1.95583131988276842650e-001, 2.71498292022402720747e-001, -8.70988953642716154380e-003, 3.33900727484442938486e-001, 1.87400776435549365484e-001, 2.90816971824968906191e-001, 9.92505363440226717753e-002, 1.99976046808647105191e-002, 1.10957359460787149952e-001, -4.94134511487338348723e-002, 4.37454966612082912780e-002, 1.84747451347844204861e-002, 3.01354289065465796860e-001, -7.00971571662452469509e-002, 4.45864344081853616886e-002, 6.30236884610678033125e-002, 7.91159443240792153995e-002, -7.05426426849063842317e-002, -9.10121609137204135020e-002, -4.94367711568758846918e-002, -1.37688701141767622094e-001, 8.69701480339934718256e-002, 1.01503326237578780054e-003, 3.46530948105119307456e-002, 1.88644668737377729784e-002, 3.08739188288143784344e-001, 3.03432847158363640239e-002, 4.20331602672724055636e-002, 1.56037841110417602186e-001, 2.26333663093740977690e-002, -3.70577766498643018656e-002, 2.15860588618090515345e-001, 1.40898694545064068206e-001, -5.34203174950692721845e-002, 1.38588840144773461915e-001, 3.54742513639298207018e-001, 1.76088018266728624228e-001, 1.96210688853593051562e-001, -1.31398193192716283839e-001, -6.69306823879509682484e-002, 2.64791854695620165749e-001, 5.30398735135655385875e-001, 4.59092686225997470562e-001, 3.82074502109087166257e-001, 1.68989443681220263827e-001, 1.23487074053544532148e-001, -1.84376470886540785865e-002, -4.76219819382364059623e-002, -1.39629706565655709039e-001, 2.43397472343548859630e-001, 1.44614458902504433579e-001, 1.39784389935553921003e-001, -3.40382426793165993040e-002, 4.62972260700695234514e-002, 7.94519044297558501080e-004, 6.44261720045476299346e-002, 1.07519853996569422772e-001, 2.51927802204540252085e-001, 2.68940658899798012982e-001, -9.07798179521191461738e-002, 1.19532661630315506507e-001, 7.16622189204888177319e-004, 3.13027409363255404440e-001, 2.33662074484186771395e-001, 3.28800087892891834684e-001, -9.50203346192659142888e-002, -1.07690466220042913026e-001, -2.93618606919592538274e-002, 1.22302333194243342818e-002, 3.84071217890941118966e-004, 1.63052640810799398530e-001, 3.25380066448591409589e-001, 1.84753973486055100839e-001, 1.85205535249439501300e-001, 1.63601681431034845504e-001, 6.36114576813226056951e-002, 1.99229293330509781013e-002, 2.55096746519185457736e-001, 3.78159839514512374770e-001, 4.09142390578020542780e-001, 1.61622629433790798714e-001, 1.17678127570598811680e-001, 1.29026406646863434080e-001, 4.44446883585007668227e-002, 2.51906700198263715229e-002, 1.91298070029637862222e-001, 3.40964451250859335030e-001, 6.12034845561277088266e-002, 3.74628988460712630815e-001, 7.25999598007991409077e-002, 7.03953127701511111036e-002, 2.87039759876182964948e-001, -3.98277722509335185830e-001, -1.79316937712651586212e-001, -4.52075963558337401427e-001, 1.26560067902009631968e-001, 3.16502208098086934562e-001, 3.52001607652582093611e-001, 1.37259280714481485264e-001, 3.88172665648406356453e-002, 1.30558758857360707184e-001, -3.66823453875395610879e-001, -3.23076075465368650619e-001, -1.71051290218279167243e-001, 2.49257629277089887143e-001, 9.62356059268710817278e-002, 3.35278969648955649241e-001, 9.93190354695445837274e-002, 6.64640330537981521841e-002, 4.59987170113685672757e-002, -2.73052816782907437076e-002, -1.86474538901255260104e-001, -1.70525608216069463063e-001, 1.46099650188529800454e-001, 1.35833254450637125332e-001, 1.06919925391460279851e-001, 8.83920564942481251647e-002, 7.90027082001805158740e-002, -1.80450802622893091698e-001, -1.63743065698835725541e-002, 2.87292930648775923785e-002, -1.43592789340706017409e-001, 3.30101942586355556752e-001, 1.06135611603434931727e-001, 2.92106804183623947058e-001, 6.62363384928315590550e-002, -2.05571093373117103065e-002, 8.59956791732437442199e-002, 3.46011308902507142005e-002, -1.61706211102116637068e-001, 1.01169346999906151208e-001, 8.61474824676007333579e-002, 2.94339168210131896242e-001, 2.01190969147850090559e-001, 5.90011320352083895591e-002, 1.83795420976925361067e-001, -2.12554170381814760971e-001, -3.64153384453565376333e-001, -4.70199651394755890887e-001, -4.80486983756956143043e-001, 7.90080331798495849593e-002, 1.85886804110456549388e-001, 1.86193377190703279744e-001, 1.66940645971527940050e-001, 7.26985902071348587435e-004, 5.26193819801427445371e-002, -2.42070665740931834087e-001, -1.46842053085718626804e-001, -1.02905529452300845139e-001, 2.65568006202654804948e-001, 1.51385579562274136256e-001, 2.13953968585211290465e-001, 2.57361871700628797033e-001, 1.57890703565278012199e-001, -1.78279533807871419515e-002, -2.75466501489208592801e-001, -2.45794854707339721633e-001, 4.61269078805368309276e-003, 3.19115331852982853089e-001, 2.34088935328171987571e-001, 2.45035850014113876227e-001, 4.62556672924704204153e-001, 6.54966577180043085793e-002, 4.15415653550343155764e-001, -1.10216851828917702938e-001, -5.89000399879835781491e-003, -1.03675810002282223210e-001, 1.33797730072602705231e-001, 2.03295223834658922435e-001, 5.59388535848926171656e-002, 5.00294700055796237592e-001, 4.74214711481300565943e-001, 3.80012907797448840075e-001, 1.26816063226353401006e-002, -2.08165920794806634520e-002, -2.42534006510606442442e-001, 4.10912662020446017852e-001, 1.81996770285085929242e-001, 3.70530225776679100758e-001, 1.99444627298401150339e-001, -4.01184147116580708259e-002, 8.49115327505768069383e-002, 4.04599184459268415570e-002, -1.97396650963749184515e-002, -3.26193221878843739314e-002, 2.92393039034835766632e-001, 9.26255431968167480816e-002, 1.85817358672016569310e-001, 8.58845256715892180210e-002, 3.79592354881941179690e-002, 5.18751863804916765743e-002, -3.23459866737528523029e-002, 1.41572463519452157454e-001, -3.64410656184527073642e-002, 1.98386084702251802581e-001, 1.05248471175539343170e-001, 2.40500106345307163025e-001, 1.56616889801036052177e-001, 2.37534653506979526183e-001, -9.98217630625439916736e-003, -5.34123289964584316292e-002, 1.28915613673779155812e-001, -7.12518983357260660139e-002, 1.00163235257347812968e-001, 2.33990759406912662843e-001, 1.33092185847427085105e-002, 3.94699789120646182816e-001, 3.89926954968818129110e-001, 4.98830768129946866551e-001, -1.13676142940975333229e-001, -1.94931236058917406462e-001, 4.94013250247936491766e-002, 7.64659269488871390363e-002, 2.93077044622515846262e-002, 7.15160199521791967170e-002, 2.13190787911268192500e-001, 2.32580004034709603156e-001, 1.65338032601085316298e-001, 8.03280697309130126138e-002, -1.56284047005536247399e-001, -1.39129914463941406488e-001, 4.82693048840966143498e-002, 1.84586768382741045480e-001, -5.61602769767385739952e-002, 3.36924819267927666555e-001, 6.70872992310045795916e-002, 8.73621276251675543678e-002, 4.66569600089037500590e-002, -4.10978157325832330060e-002, -1.78822831057529829657e-001, -1.11046417320043902532e-001, -2.28876682976289491656e-001, -8.16461834132874153536e-002, 1.82101756433179690076e-001, 1.81904737892087914330e-001, 2.94577358749113123182e-002, 1.10022441051296493431e-001, 2.48820100293303703154e-001, 3.13606150289417628940e-001, 1.44485414685419671921e-001, 1.49252024576303793379e-001, 7.01728291617891575260e-002, 2.80560723789591459632e-001, 1.00217819609439914852e-001, 1.84799016899260565294e-001, 7.49968272715934372585e-003, 1.99310588783296382953e-001, 4.18599835294199574404e-003, 6.51129485471026447918e-002, 5.89681774495820557047e-002, 1.12552286063407600003e-001, 1.32063551409077634125e-001, 1.86428428964973025295e-001, 1.23089982374599768433e-001, 3.31318208426090096697e-002, -2.35729576078239938530e-001, -2.44703283100427659846e-001, 1.16907358564492372399e-001, -4.28114462643839205347e-002, 3.54336900861321191236e-002, -2.36511276461054305298e-002, 8.93466575343133430354e-003, -9.50636089325455069243e-002, -1.62309735701669177743e-001, 5.26491290550808455073e-002, -7.15127659402541998590e-002, 1.46384421523904663387e-002, -1.06635082902392486215e-001, -1.52212092409635679768e-001, 2.18068652240630461714e-001, 9.27219420910183750317e-002, 1.36451914223004955318e-001, -1.29871726134855064450e-001, -1.06548874807854423996e-001, -8.12208716149666748452e-002, 8.12145144928638346160e-002, 8.59926044410658368955e-002, 8.51745000146908737282e-002, 2.67695689200242226136e-001, -9.14360807592305702141e-002, 3.67587721754897775450e-002, 2.10714179095736531266e-001, 6.20902661231758426497e-002, 5.39759337644018094560e-002, 1.90483205755973467044e-001, 1.00392931070122148896e-001, 1.25483634486757894555e-001, 1.32971702837792731672e-002, -8.53025765370850203029e-002, 2.57636463677543503525e-001, -3.73723977135936025196e-001, -1.08702642356827652859e-001, -2.73073540705579820287e-001, 8.09936141135426390658e-002, 1.60865368044352891053e-001, 7.26381203174213119222e-002, 2.08304520513740501486e-002, 1.74334030602831452361e-001, 1.45991929064213682432e-001, -7.69464860202369593800e-002, 6.15694602089113598997e-002, -1.01762873722217789263e-001, 9.57076327297558537843e-002, 3.48120632336636759430e-001, 2.48524458265765080256e-001, 3.04970372938785483363e-001, 1.91588445181864797107e-001, -2.46405250395020335163e-002, -1.63702019893707750864e-001, -4.27328158561044585406e-002, 4.67008294006074353710e-002, 3.86995497722358583470e-002, -4.37369803276186908114e-002, -6.47764532326306485821e-002, -4.54327441690630662308e-002, -1.15246555459136406502e-002, -1.26259142775172777950e-001, -1.72354840428498884419e-001, -1.21027368440855515042e-001, -1.29409890460687820868e-001, 4.66684020543316965823e-002, -1.33091459298110004195e-001, -8.74345981522123422147e-002, -5.33236859353545047946e-002, 1.88973774955170301104e-002, -4.55474511090382880307e-002, 2.48045433802314363447e-001, 1.26211778329971491264e-001, 1.62036762979964776843e-001, -2.42347232641350884830e-001, -2.45889847620270662887e-001, -5.48700000701835208239e-002, 1.06371838903685247968e-001, -4.79311353391682348768e-002, 1.29106232794644587569e-001, 4.68089626666466779303e-002, -3.99604179631937728168e-002, 9.71335751966809213265e-002, -5.28826813348940785731e-002, 1.78364883551813749318e-002, -1.16516357342615853310e-001, -1.71333134711286194651e-001, -1.48010616632054337050e-001, 9.46742739712661852958e-003, -1.00915726297272315137e-001, 4.74974929703242537693e-002, 1.06093846407099720586e-001, -1.68579466925064563876e-001, -9.58897291715959804170e-002, 2.50396706550599923435e-003, 1.13931320401985017310e-001, 2.06747753574641375540e-002, 9.18857355230346672936e-002, 1.54694870814119367353e-001, 1.18750912231064417734e-001, 2.53870800259585638337e-001, 4.24196915940193222672e-002, 4.46747940757856940031e-002, 1.03476444847556636741e-001, 6.94922557206767432803e-002, 1.89485135377967406356e-001, 2.17143858934499500712e-001, -5.69739940254123874985e-002, 2.31971333716583960616e-001, 1.00425876126178870162e-001, 7.54182938229139010478e-002, 8.73040755700447007603e-002, 2.60990931719978468128e-002, 9.25583319457409237074e-002, 1.42880406455694053403e-002, 3.41466566790173185579e-004, 9.21143659512478479856e-002, 1.65912643904307849363e-001, -9.06868278002024436057e-002, -3.19400395965367955853e-002, 2.19232887245689213318e-002, -1.30661706779808761691e-001, -1.07501670069629531867e-001, 1.30699203019935761283e-001, 1.19905290728175253911e-001, -2.57729638163132664108e-002, 2.77572169196841599115e-002, 8.04628223919365836991e-002, 2.89828886816664681170e-002, 5.98088483480798266401e-002, 2.10316896034356652645e-002, 7.98479108226138323268e-002, 7.33787749989583404364e-002, 6.12352382282612822673e-002, 4.32635665543622954798e-002, 1.81531993751983394825e-002, -9.41502743659654479924e-003, -4.28909544272662868192e-002, -1.14219063856028257842e-001, -5.17280833087542177284e-003, 5.48277233702172753227e-002, 1.78441232431910123957e-001, 8.31850103722450162635e-002, -9.73426896422367321504e-002, -5.10554392459953293448e-002, -3.34156263118241120269e-003, 8.78088469235166479976e-002, 1.67618312396928759167e-001, 1.26628521409937605524e-001, 1.89411295829332360086e-001, 1.05145250788401672937e-001, 1.19884805109843575743e-001, -2.12765096185809576834e-001, -6.18803520742785065356e-002, 4.12877130177716836212e-002, 6.07218804474118564740e-002, 1.03935027324909608909e-002, 7.23586575313409224863e-002, 9.75100231052264954101e-002, -1.35605753156234770662e-002, -3.71145387447187162511e-003, -2.06339583394079956191e-002, 4.62448164288559240842e-002, -4.34607750968776934686e-002, -9.04011136825422223495e-002, 5.22633469121931964335e-003, -1.91005597477937327788e-001, 7.17424249076839409822e-002, 6.36477754968955977688e-002, 8.42659659626395218801e-002, -2.91078136285085773902e-003, 7.94094917664615457253e-002, 1.81690553919863356791e-002, -9.28484269626008162923e-002, -1.46670022784303855090e-001, 5.06266717983127612079e-002, 6.40166467587040544096e-002, 1.26423443774032334685e-001, 7.49539386597594531336e-002, -3.87977529898711412382e-002, 3.40416629196928222090e-002, -1.58076663475197387587e-001, 1.77994343430896262426e-001, 6.90149966489659733027e-002, 1.00070640084541973014e-001, 1.83305300544182564471e-001, 1.89430863858162740199e-001, 1.57453771411089599175e-001, -1.48267173434512483654e-001, 4.45680176314134993132e-002, 6.32763172126878381540e-002, 2.83111386148536370300e-001, -7.76428205327491238741e-002, 2.30273888321442465887e-001, 6.75914660160275987399e-002, 5.84306516425752153765e-002, 1.03961593736423940637e-001, -2.38243183049581530586e-001, -1.41386761041260383687e-001, -2.22662390805625831636e-001, 7.08135547144537330633e-002, 2.00080502788214154020e-001, 1.23414200563962198065e-001, 2.04941486033065417560e-001, 1.75404079239046273297e-001, 4.78060676425370728593e-002, -1.55088313212472739266e-001, 2.80166357238314459727e-003, -9.62853311179652227025e-002, 1.15933150172395929567e-001, 3.56877589182186608086e-002, 1.44236427693457486265e-001, -5.99800027693629406872e-003, 1.93427264858258923796e-001, 7.72092838776825968194e-002, -1.31894194666010544648e-001, -1.42622926211920020290e-001, -2.70447797616639673546e-001, 7.54867110690759374192e-002, 2.94641283826374660026e-002, 4.55218272099212686865e-002, 1.11342811733489588377e-001, 2.22399237186304207792e-002, -5.44141059436735255450e-002, -1.02000339449787716384e-001, -9.23638619042477654331e-002, -1.38870824961104061268e-001, 7.12295311798208374832e-002, 9.78404852309519845743e-002, 5.68779422377976504044e-002, 1.49476752426627140791e-001, -3.94456801875192886175e-002, 5.66429695558885379358e-002, -1.39353321455300827036e-001, -1.31000263092169097479e-002, -2.27197083995680254587e-001, 1.75863433879192926357e-001, 6.01475939608268131420e-002, 3.05448031073029466209e-002, 8.36202534873136532623e-002, 1.26473685340718844383e-001, -5.29132805919426268959e-002, -1.62650223758199180546e-001, -1.45415891835213445527e-001, -2.17201308774166573778e-001, -5.79153474076868901577e-002, -1.63753740861425738096e-002, -5.45710562213279626320e-002, 5.70403158609335894647e-002, -6.62582785339335261776e-002, 3.82161258296751238372e-002, -1.92240627582708767385e-001, -1.30522521673040819978e-001, 2.53018409460689618073e-002, 5.11664617404946203694e-002, -3.23072709809252567315e-002, 1.43565261031847302142e-001, 2.44498366139484640813e-001, 1.71910972710137194275e-001, -5.00873751807211706200e-002, -1.39501934520047887744e-001, -4.28926679979763358919e-002, 4.02708557821653337361e-002, 7.52464750301184009951e-002, 8.05403852735198377832e-002, 1.22264814265861984643e-001, 3.35991390678573587092e-001, 2.10035212664407666683e-001, 2.31424895137834818470e-001, -2.03061790778980054764e-003, 1.02886547488535332051e-001, -9.93951878829073681709e-002, 1.15223077543024424174e-001, -2.32630921602201591603e-002, -6.46140020352757721289e-002, 3.25346277098231384528e-001, 3.57559812045003644343e-001, 9.79443932194498378951e-002, -7.03549190178718586441e-002, -1.83058358371062518399e-001, -2.30500951761677223828e-002, 5.31344001331636190538e-005, 1.79667100264129658838e-001, 1.01823394651716109260e-001, 1.70538245294120954787e-001, 3.03256764771382240908e-002, 1.42784864153211205062e-001, -2.25515927514415952249e-002, -1.60320279180316327405e-001, -1.52744719650056842708e-001, 6.03337181679249531796e-002, 1.01951165835337170806e-001, 7.91779351110818985227e-002, 1.82331904024167046341e-001, 1.34364858034241807516e-001, 8.04563928165904079792e-002, 7.51660577553900643988e-002, -1.67847844499856513334e-001, -2.17688582250014805997e-001, 7.83516664715770416727e-002, -2.10729374671737093583e-002, 1.62002968947886960560e-001, 5.47078259162791097348e-002, 7.90206157459752284167e-002, 2.01693167333422650189e-002, -1.68212449659322138551e-001, 2.72627542621431753767e-002, -1.54194976867135208343e-001, -1.31919024371732057643e-001, 7.62265127230833949845e-002, 1.09763679109829925817e-001, 1.64686529666231151747e-001, 1.92438489139818286189e-001, 3.28883593191025391800e-001, -5.09191273973542204989e-002, -2.72803091756068337437e-002, -2.27482647000035259621e-001, 9.45325184312126032271e-002, -8.82128385197106096305e-002, 1.37775495544729953412e-001, 1.83865174277573262263e-001, 1.15531265656083195759e-001, 1.31642018876605343403e-001, 2.88882936759934233484e-002, -1.90669656398929299179e-001, 6.79616938801367587164e-002, 1.37352956528318220775e-001, 4.59911980595652178372e-002, 7.35337195198909332472e-002, 3.09869116050246529159e-001, 1.96378556279413168939e-001, 1.49919236250674076105e-001, -9.17818686196701129243e-003, -1.56197402071203972351e-001, -1.68108134012280807656e-001, -8.67007084785444415154e-002, -6.95248292030685860476e-002, -1.36706473496759933761e-001, 5.28770501031186959673e-002, 2.22050673591729280654e-001, 1.51836558430379880980e-001, -4.58704310737509529661e-002, 1.13070153878325085905e-001, 1.74265716952899413217e-001, -4.80772442068766597822e-002, -4.67059769846170994012e-002, -1.40348295851821652791e-002, 1.82978868577885062097e-001, 9.26259238752372288106e-002, 2.48535546367556231528e-001, -2.63837468793508382603e-002, 7.16410482275051524459e-002, -3.56091437345997102737e-002, 1.15405226866864885071e-001, 6.75485981387468209514e-002, 1.07339165068218958532e-001, 9.96394170376412036116e-002, 3.32461643730353750836e-001, 2.22298137353132085892e-001, 1.50058121769802120526e-002, -1.27460310938631776745e-001, -1.49964796430548219508e-001, 1.42895371107488594609e-001, -4.45811226753212233587e-002, 1.35063737944773526456e-001, -1.11017945714861551720e-002, 3.95206492576387138915e-002, -4.21783870996583001856e-002, -8.32388458989959112433e-002, -8.34219701046394201960e-002, 4.78979445721463073515e-003, -1.49900608643290578215e-001, -2.86671961471860643755e-002, -1.00605160236857435474e-001, 2.06986467561146164629e-001, 2.25753648601938722296e-001, 2.25069218830121792196e-001, 3.46692206823622367518e-002, -7.64978538116942441416e-002, -7.16150957681906952246e-002, 5.11627066037622091343e-002, 5.69433549574690570094e-002, 1.90649115942112812316e-001, 2.86687777471798854734e-001, 4.07310075738242516330e-002, 4.73703987615195290517e-002, -3.55603827743635400593e-002, -1.86461291211492755093e-002, -5.69023972541272127224e-002, 7.08967401050748097235e-002, 7.46605300125689069768e-002, 9.54809238161148099433e-002, 1.32430995941563434126e-001, 1.08075757539413692260e-002, 1.30288051362633827690e-001, -1.64283491689942523495e-001, -1.88429676110174276760e-001, -2.32757846567621828893e-001, -4.53200051739236497994e-002, 2.10272619828388886154e-002, -2.41879204614493352465e-002, 2.11282015806291828541e-001, 3.06473756023669441362e-001, 6.08635193618035086338e-002, -1.32848669979760608539e-001, -6.84790054574470063997e-002, -1.21901115596023748577e-001, 1.10414273910577120930e-001, 2.48035239454716498197e-002, 1.82557831748385163140e-001, -1.12432420738761718049e+000, 1.09376482506242944659e+000, 2.11984231912246856577e-001, -4.29458880615093241406e-001, 7.04517816701641201582e-003, 1.04203320511947383764e+000, -5.02591734869104689309e-001, 7.47952227210713305183e-001, 5.63585868186977978489e-001, 4.12642250666039878126e-001, -1.07019835796799495098e-001, -3.00182430899554354709e-002, 1.22547743273591497326e-001, 4.62571569620684741597e-002, -9.30515320914126753404e-002, -2.11499322809717213434e-002, 7.57604666202624232874e-001, 8.35408886970689157359e-001, -1.77288160524383731076e-001, -2.29449012180479833267e-001, -3.67440056946625237533e-001, -9.21245816792133492834e-002, 3.85885954312259138455e-001, 4.56081165258562015730e-001, 3.06899416844166536555e-002, -5.95455654976618564689e-001, 8.78057994776661021596e-001, -5.96445671694714074640e-001, -7.23968671320836643091e-001, -6.07424270757390027953e-001, 5.94552739032125132645e-001, -4.66532332229996182793e-001, 6.23077072680557786377e-001, -2.22665513032112377667e-001, -5.27977992630473749736e-002, -1.38864505296615037278e-001, 1.61051862566685938249e-001, -6.69546760260611661941e-001, 7.50522979598559208947e-002, 1.66487218838603373561e-001, -1.10647610961366260618e+000, 3.25575298992654554864e-002, -7.88972084337718038149e-001, 1.16104952553693935302e-001, -9.02570330661467301603e-001, -4.50038548668043103529e-001, 3.89554422135245492775e-001, 1.23544208724446685776e-001, 5.53195947312886793235e-001, 1.00939223505602737596e+000, 1.53086301493068649426e-001, -1.75742346511820413113e-001, -3.12022581444502622450e-001, -1.56417126311245963111e-001, -1.03930265840110086506e-001, 6.71522380087416159711e-001, -1.26105771559189561160e-001, -3.88470245602127672857e-001, -3.30863907930822764847e-001, -5.50587499408733083150e-001, -5.57902680369143921801e-001, -2.32380968757544437153e-001, -1.25419025535610878519e-001, -2.26046367502268724659e-001, -2.55758649988929720465e-001, 1.04686798394430624626e+000, -1.43702029059282559986e-001, 1.14169626045059469099e+000, 4.74104009458422681611e-001, 3.06020689089019692908e-001, 2.82341140851027572189e-001, 7.89511102953636412227e-002, -5.33401659216377194150e-002, -3.79453152045036212758e-001, 1.18509123500960406039e-001, 1.65695267254528239009e-001, -9.28182393688219864458e-001, 1.23130440303862775941e-001, 1.15771407513633989295e-001, 5.95852847680306774159e-001, 5.30888907500708606690e-001, 3.18231554757385126653e-001, -1.14219503703517633042e+000, 1.12368198578805889021e+000, -2.58489383547597706414e-001, -1.18236466077436944144e-001, -1.72633418371848978978e-001, 5.76410115668058664617e-001, 2.89374045564524257079e-002, -4.36836571926883729389e-002, 3.40251046905512166685e-001, -5.51381946705713499313e-001, -8.06482990378160180533e-001, 4.57620998246146062916e-002, 1.28177900773035879228e-002, -4.61510424037125999153e-001, 1.39731981976389668665e-001, 3.61930008869271180316e-001, 2.88669971773844125096e-001, 1.92787604581321714292e-001, -5.65873069772928394272e-001, 2.92769965615438942930e-001, 3.46606087467911549993e-001, -4.69710830826934933047e-001, 2.34246747027144097686e-001, 5.82445457083996753767e-001, 1.09542176884132851783e-002, -9.36207812865138211400e-001, 4.02991117057999226336e-001, -1.13720017544843754465e+000, 1.39493858721122965250e+000, 1.61837417735679972575e-001, -5.11080119107760744157e-001, -5.57654102011022334562e-002, 4.31758714156437253817e-002, 1.43979204283276873699e-001, -3.91745187302959652076e-001, -1.69079424034257130849e-001, -2.47891279777267131701e-001, 2.97109922787940072819e-001, 7.83495847576443860127e-001, 3.25511584160887601502e-001, -3.75981191711677820155e-001, -6.31758148135151853531e-001, -6.97285585006105490535e-002, 4.81628991470658851526e-001, -2.81635706244636629947e-001, -6.88075116482748331409e-003, -7.45897287015690801937e-001, -7.95402070138593875193e-001, 4.18293458867356679476e-002, 7.23713491172238376770e-001, 3.83761506348091752105e-001, 9.85028579774569054348e-004, -1.10060392606454698905e-001, 4.54928306875018784172e-001, 3.29602230003966600869e-001, -1.73957580203642742100e-001, 1.04944954985368543721e-001, 1.97940919594667863457e-001, 1.53983642264203846040e+000, 2.72821365765128942549e-001, -2.72065186867211483701e-001, 2.95097997014789892312e-001, -1.20866091865986041709e-001, -4.53002037610047258998e-001, -1.01787379566529012642e+000, 1.11686913345719868174e-001, -1.48233853543161073901e-002, -5.85553274485448471687e-001, -4.51722305988687233835e-001, -2.88659463214125555641e-001, -4.43991629108813012916e-001, 3.09041341419390325207e-001, -7.07004961615300547839e-002, -9.87073295150914353790e-001, -1.00275067113882454528e-001, -1.76709070523438371847e-001, -6.33924984325334617274e-001, -1.65156471201473226129e-001, 1.52527243491227315619e-001, -5.97893256464707367748e-001, 3.71952137564153934024e-002, -4.32028924749880305356e-001, 2.78824485482902159617e-002, -1.25995586217721555755e-001, 1.98318896457846061132e-001, 3.96312245662110818056e-001, 1.22130264441214247961e-001, -9.53218866106040341180e-002, 1.53861642215449206939e-001, -2.11269617778209184422e-001, 2.35752093648706945173e-001, 2.66743605153431651011e-001, -5.03077614238978787498e-001, -4.88303272775746435852e-003, -8.34780617161000826343e-001, 6.74143648034833918581e-003, 4.96920493334047030931e-001, 1.78926264105570609342e-001, 2.18407940895281899030e-001, 7.06835626068514077947e-002, -7.23092112216710214412e-001, 2.96500613085456776741e-001, -5.62257683958093501531e-001, -1.93768035297704366293e-001, -4.98924308184228948448e-001, 1.48353835909220937994e-001, 3.24871910117518425398e-001, -1.22448496724742936226e-001, -1.53641701463006277728e-002, -4.35054068060469895096e-002, 9.64118575868136207241e-001, 5.71307585386158084395e-002, 4.00670495440528795505e-002, 4.40716311480750244645e-002, 7.79541662896237330660e-002, 1.14643913677214492886e+000, -4.96769251088445107367e-001, 1.92787890258025201851e-001, 1.17456443471587984595e-001, 1.25441725850185731295e-001, 1.60147365619598913700e-001, -5.26773494301501998827e-001, 6.60025385953286886087e-002, 6.77909917704298203844e-001, -2.13783715667193063847e-001, -2.60398174176577554273e-002, 1.41670051433400112639e-001, -2.12304819311872894350e-001, 7.56199928196960441396e-002, -2.82256196810158177524e-001, -2.40971686290201686509e-001, 1.94097263717950802020e-001, 2.67109411377284625133e-002, -2.49030153405046972281e-001, -2.84138806002461941080e-001, -6.29963098011437905299e-002, -1.22694246107783386246e-001, 1.04118490040688835285e-001, 1.95848414315898416982e-001, 3.66731946631061567210e-001, -4.81414330457597294810e-001, -2.90984641112722042244e-001, -2.22261228766061275097e-001, 5.17337540155131336839e-001, -7.92444903234384157020e-002, -3.38850620424528625740e-001, -1.67747922601256316266e-001, -5.10098659505059170982e-001, 3.73659537794510943076e-001, 4.48099845077178315922e-001, 3.97016717276901021094e-001, -1.99755903189190536784e-001, -3.55374999493220433688e-001, -1.92759036601557659507e-001, 3.53295643817923055163e-001, 2.71615203047186372365e-002, -1.20599617130302302903e-001, 3.94298482685029705319e-001, 1.03149187660638810837e-001, -4.07975333976847265305e-001, -1.36368544717623801921e-001, 2.10791114041840699223e-001, -2.55077258068392431767e-001, -3.53826191756693830825e-001, -5.21269940967532652287e-001, -1.43737328121788909829e-001, 1.89621217263811980835e-001, 3.11355468724150361015e-002, -2.64590975515657855777e-001, -1.34572463325882241136e-001, 1.50561281213921951266e-002, 9.66105563115620263881e-002, -1.21077150473092767791e-001, -2.81001401218557503303e-002, 3.06751733773539224381e-002, 2.74765926288676354261e-001, -3.37626713008134016203e-001, -3.61951500405626527823e-002, -1.14704265918372613764e-001, -4.58172071541658898486e-001, 1.11846568520200487229e-001, 1.58220985887775028589e-001, 2.93871287120868351916e-001, -1.44256562807226373923e-001, -2.75446741055007486565e-003, 1.44701327858738543197e-001, 1.88990420727910113374e-001, 3.31128162454709384921e-001, 1.32508454939309239240e-001, -1.83807159014335724789e-001, 3.38895892898328665588e-001, -1.79572698611755093845e-001, -5.49224055599985439002e-001, -5.94732516166282879078e-002, -3.34109525217013703102e-001, -1.77158328039538986998e-001, -1.52706779280926435716e-001, 4.05019499050263243056e-001, -4.05935238006882359585e-001, 1.82506263727700013266e-001, -4.68442678903905729282e-001, -9.72236675436185804333e-002, 2.64334791214527464742e-001, 2.16698029153331611640e-001, -1.40166784203602928782e-001, -2.01152602258394153090e-001, 3.27274457187760714483e-001, 3.65433444757044048612e-002, -2.83976932120158731543e-001, 7.09089175836866425495e-002, 1.94591469772231046020e-001, 7.82038233660923703949e-002, 2.17942584969999630928e-001, 7.82011674780914017857e-002, 1.11755992942293075343e-001, 1.04610723053743193134e-001, -1.47896341756857507832e-001, 3.94864264335006875939e-001, 4.35161999533284271635e-001, -7.42822094909678098951e-002, 1.07407929935015855616e-001, -2.66365153269475019027e-001, -6.80055834487333921157e-002, -1.61620781498486160155e-002, 1.36228884657315890694e-001, -4.32782852969999021209e-001, -4.15053189815121278960e-002, -7.81427499281613591187e-001, 6.84359235109506691686e-001, 4.90605835418902902489e-001, -6.42488949884087556796e-001, -2.76795510079234252654e-001, 7.53194742463797056731e-002, 1.27824713384319499365e-001, -1.12607754872201670793e+000, -4.54620592059522932171e-001, 1.89397072728766990846e-001, 3.79761676148629656602e-001, 4.25906070216809817808e-001, 9.65502962728542302173e-001, -1.79739608498763442368e-001, -4.19466476628499229662e-001, -1.51069464213755610960e-001, 1.06998537201226828763e+000, -1.34414304379711158077e+000, 9.40317000472259828525e-002, -5.37094071029934894135e-001, -8.07719752261406576110e-001, -7.37835552310326242553e-002, 5.61347416871062154797e-001, -7.23717739913953689301e-002, 9.82145373557783002427e-002, 3.02550310772611748267e-002, 2.82611568363946241700e-001, -1.28399144264779024871e-001, 1.95983273328031282201e-001, 6.70272346301026056281e-001, -2.39817644036358912363e-001, 2.99344281199542094907e-001, 2.43961380086444412640e-001, -8.66176579219611747495e-002, -1.87997018011497485368e-001, 4.43592661342986638306e-001, -1.99357299636212237370e-001, -1.01740447200385486504e+000, -4.10242313038259476254e-001, -4.62836976860699800262e-001, -4.05966498498722239141e-001, -3.22644821459245223494e-001, 9.27239734126664300051e-002, -3.05704755801713967678e-001, 8.33483383446647907444e-002, -2.76743750450358705351e-001, -1.08851377020162720655e+000, 2.84126425491931122735e-001, 3.99947195200080263255e-001, -1.37785314548486192976e-001, -2.47949999371550822147e-001, 3.57299203605622117674e-001, -3.64073591692580189605e-001, 2.72801885771064622777e-001, 4.77482133480181869523e-001, -1.87999477383667346064e-001, -7.11570600781299272830e-002, 1.07977206003611228557e-001, -4.37039067471102077311e-002, -2.18574308697364966259e-001, -3.63146421422032295023e-001, -1.88994636270212651441e-001, -1.18766222066581872419e+000, -3.35239332744726448166e-001, 1.99282131496549053118e-001, -4.71762301227247493607e-001, 5.67720645812999150093e-002, -2.76699048518561752097e-001, 1.51335424405315444041e-001, 4.95991343629603245735e-002, -1.62695521544785476342e-001, -2.89035898616480046996e-001, 2.26981888936047065952e-001, 2.97859079752883115777e-001, -3.23127951865489093652e-001, -6.95380909303841832081e-002, -5.69091224199960055152e-001, -5.15456076796271034368e-001, 1.91183158647263068408e-001, -1.24098093721029895109e-001, -5.56612728999577865974e-002, -8.02577487571655423526e-002, 4.52866135766736357948e-002, 2.89849772217127710228e-001, -2.48788194451246308381e-001, 2.39939621332858066260e-002, 8.97719743448168849831e-001, 1.90376832617757708876e-002, 5.63375285247771806496e-001, -2.65205814635798065027e-001, -1.79100914766914143250e-001, -6.95598925094205844388e-001, 8.81636839715677411711e-001, 6.96439505224044297371e-001, -1.02882774252142916716e+000, 2.29123701443243760201e-001, 2.24796305386190109488e+000, -3.68874379520590434112e-001, -8.33488807305694967553e-001, 5.55695361994534509087e-001, -1.03224686466901349746e+000, 1.73473147599434907029e+000, 3.93108490696752688187e-001, -6.13972297481731543733e-001, -3.43081851234467549716e-001, 4.53208818516227907036e-001, 1.66748003748333317731e-001, -3.99137116124947066709e-001, -1.92239546136813266308e-001, -4.96068366398786486648e-001, 3.95515824854966946411e-001, -9.77880546350757551277e-002, 5.48217341100249000441e-001, -1.71949333902992218537e-001, -8.93509100404623057834e-001, 1.21415766796228521973e-001, 8.99422156055475041647e-001, -5.86280167572736155002e-001, -6.19392563724259437308e-001, -1.57047677631167981183e+000, -2.05911665286845302347e+000, 8.29022796476456380610e-001, 6.48583978203572719679e-001, 7.30875296252818773546e-001, -3.81013857505790531910e-001, -3.05420319985117705297e-001, 3.95572553918930203132e-001, 1.88667435446810666244e-001, -2.31885017527411724236e-001, 6.11611839634313314562e-001, -2.02616041252359241343e-001, 1.54913751359586737699e+000, 2.22702110058108915247e-001, -1.39588204810341909301e+000, 3.28852514756219793668e-001, -7.99230006495711409187e-001, -5.34844969257902147497e-001, -1.69530372662992401267e+000, -4.99304407963847063368e-001, -3.34192076074232458094e-001, 3.05250207856650968008e-001, -7.26367192329546607077e-001, -8.13366535224948949967e-001, -8.28937565567236855912e-001, 2.93289944229155274957e-001, -3.03706474898351730385e-001, -1.05652179871936935385e+000, -6.03627035678934609209e-001, 1.63180554954584527971e-001, -1.02720618621444059748e+000, -2.27762729320639706332e-001, 2.19847136183003166732e-001, -8.15223287372203397894e-001, 1.53615199260672685710e-001, 6.81361644593665660707e-001, 2.20963955645392187699e-002, 1.13353334303933372951e+000, 4.38792075046736451682e-001, 1.02481272978799453632e+000, 1.36699189260200637541e-001, 1.52913450714314315404e-003, 3.06495922220345440312e-001, -9.61638097119242862831e-001, 1.86178739775102020104e-001, -1.74321807302049075483e-001, -1.51182833626049650810e+000, -4.51468896964047558540e-002, -1.91306511029858072881e+000, 1.32488342381201218423e-001, 6.28196052923706504956e-001, 1.11062174895424303767e-001, 1.01539627464109147303e-001, 1.58026298430924816429e+000, -1.34710141696429097635e+000, 8.60335949699881474828e-001, -1.01026166868456029890e-001, -6.11740438790272622605e-001, -1.02232894261185536244e+000, 7.62781994647391825559e-001, 3.03053066813101568133e-001, 2.10791507983643822133e-001, 4.89992324174698234973e-001, -4.57634652145755271846e-002, -2.68660790625048162550e-001, 2.58982371958667412226e-001, -2.51936966064734424453e-001, 4.33340123781972702544e-002, -3.41756063192151238184e-001, 2.67057758540405210113e+000, -6.39487498827764233589e-001, 5.04093001106133142830e-004, 1.57471924192201517823e-001, 2.55279432495020441873e-001, 1.03381300103460860296e-002, 1.42743741474780139189e-001, 3.96834588671937660287e-003, -2.03983184763699004760e-001, 3.24522652263227046054e-002, 1.77872554259017545686e-001, -1.79599134102294361037e-001, 1.11079229380580180031e-001, -1.97872023643069938625e-001, -1.21951545511082837248e-001, 1.33261785340988120341e-001, 7.36593713206863953680e-002, -2.89089520141617047078e-002, -1.35074577140576329581e-001, -4.88706779136779734252e-001, 1.31181534491549428578e-002, 4.53868083491779539251e-001, 1.18471165663500840881e-001, 7.85336675823182922551e-002, 5.30748229226252060675e-002, 1.10886553541830620850e-001, 2.27153915963756392049e-001, 1.43860161587464535637e-001, -1.68686480036933234006e-001, -4.31362728601266232076e-001, -3.24466910145168041524e-002, 1.00090911496014789428e-001, 2.96770349355491513954e-001, -6.34029288806934321343e-002, -1.15254807308547715938e-001, -1.81481832710347790183e-001, -3.06956845403914269088e-001, 1.29775384395383386327e-001, -2.58506991314658873815e-001, -3.07375185277462659172e-001, 2.61822730394801195253e-001, 8.24453223997413942037e-002, 3.18421352689747735876e-002, -2.10804233846106719996e-001, 7.92797303261031649502e-002, -2.39750422952235107965e-002, -1.64221628627313848137e-001, -1.55413561629764745975e-001, 1.78490598305443254334e-001, -7.10099671300240681271e-002, -2.35554750984681739168e-002, -2.90464373410999787684e-001, -1.87348486778416506437e-001, 3.50041051864842578389e-001, 5.15670256708034707716e-002, -7.77444893686903282237e-002, -2.67915762886097585938e-001, 3.91747883458628431974e-001, 4.13064934559362384459e-001, -1.78818726239118763743e-001, -1.61327947757801432038e-001, 3.52224198264080967657e-001, 1.94762218707873663304e-001, 6.15094141323879739502e-002, -2.31966560310507005985e-003, 2.49938123641123777219e-001, 1.29706474243571678873e-001, -1.34207148326510899983e-001, 1.85426684934163282792e-001, 1.70964695702587954687e-003, -3.38452841256965536454e-002, -4.89178142053387290944e-002, -1.23921370614680712019e-003, 6.24154350330549320680e-002, -1.81556637704902740227e-001, -3.42815609418529593233e-002, -1.01500900463263155071e-001, -9.86595661538224866227e-002, 8.01230988871863697431e-002, 1.66979310860454033261e-001, 2.73309351852091597657e-001, -1.93204529023961762979e-001, -2.22623417639907200671e-001, -1.11647403727561059239e-001, -2.91890998351084229867e-001, 2.63150903087721155238e-001, -2.20559686702966412097e-001, 2.54501792253070346916e-001, 2.44262148915428307927e-002, -1.07172079033283573768e-001, -1.56451502512604916084e-002, -2.44867031834535925361e-001, -9.36670803904123827621e-002, 2.35278203754487158506e-001, -3.28519367809931628344e-001, -3.27822626234046787808e-001, 3.10421223724151207346e-001, -3.14191902055204821953e-002, 3.65894791981215994348e-001, 1.77407187468196142488e-001, 1.33827262901491661484e-001, 5.05928579526498056751e-001, -3.58973068274031914537e-001, 1.65979803689394422861e+000, -8.77726933739277570545e-001, -2.53965110653730397061e-001, -1.17169770267495886029e-002, 3.84098608927487261688e-001, -1.02781229242003990798e+000, 8.95424889253873979023e-001, -5.12218258160066164386e-001, -5.63036353703698200235e-001, -6.22223566141730244361e-001, 1.78350268742749684669e+000, 4.12919585511875575357e-001, -2.56552263576931671718e-001, 7.80583605198374164136e-002, 2.93546983770623326482e-001, -5.23941092163998645148e-001, -1.46007194786332861192e+000, -8.51922267113754516643e-001, -3.55815681236958669675e-002, 6.10246175319862915742e-001, 1.58785665408385257003e+000, 1.44324199103965788993e+000, 7.58377706031353737703e-002, -6.62845826873237564669e-001, -5.92907609038315075445e-001, 2.14883197219549870738e+000, -1.75347910110489157987e+000, 1.34130054606926218952e+000, -1.13020408264903407525e-001, -5.90455641890129223626e-001, -9.95598922633619265454e-001, 7.02935479807947238839e-001, -9.99935151084883067085e-001, -6.35985638486289417415e-002, -1.01750543523788108957e-001, 1.72410617278674155317e-001, 1.95918044496526527753e-001, 5.06864990418295469077e-001, 4.36559752785448618173e-001, -3.45486237697850362416e-001, 1.60199582781408378374e+000, -8.07397921088574398868e-004, 1.24273444584294256998e+000, 1.87832724118782073974e-001, 1.58941905381429093858e+000, -1.63973667141276618908e-001, -1.26043465853443192870e+000, -3.14223945614710079011e-002, -7.12707120639287983188e-001, -1.47778571293502980488e+000, -6.39187059049843964154e-001, -2.58514383522586710384e-001, -2.36681685074788261680e-001, 8.28043405461985904115e-002, -2.46041313834819780348e-001, -1.39703676750943572848e+000, 5.48714799926106167050e-001, 5.56926163754980940723e-001, 4.93937838610658611072e-002, 4.68256791240684533406e-001, 8.94545301875750320519e-001, -2.18772683156873509747e-001, -8.58316500913265389983e-002, -9.27167782724404920813e-001, 3.34260704166188193920e-001, -7.06821017891947400713e-001, -3.54624619508969618487e-001, -7.81467444031989533215e-001, -5.90139063871242930404e-001, 2.41562829777980297985e-001, -1.55953290832402918786e-001, -8.57052525188232827702e-001, 6.89403860269402219557e-003, 7.36254079678466455405e-001, 2.23521985468212919246e-001, -3.84961000084930282661e-001, 2.08563256375122685338e-001, -2.30561585569144855690e-001, 1.21319016812598018396e-001, -3.32116401000063288240e-001, 3.47620901228565259977e-002, -3.16378808844450964965e-001, 1.18268637499626239062e+000, -2.29089961190593305318e+000, -5.19355083563538322267e-001, -3.52679336525013820136e-001, -6.77215772870853993659e-001, -1.79445025281095710268e-001, 6.00627528517625255966e-002, -4.02910366566898214824e-001, -6.31649470828855363891e-001, 8.17521793733459345432e-001, 1.51349671924496953501e+000, -1.83933879944842226806e-001, 1.43304922331523365564e-001, 6.90289684769936462416e-001, 8.54306707244044533089e-002, -4.30920503757049599969e-001, -7.42219733516672031115e-001, 1.87131417282677292580e-001, 1.35900827331587903402e+000, -1.15626048841544926127e-001, 2.40600458497077840381e-001, -7.37415517211490900706e-001, 7.03294743331542848708e-001, 4.25908947550373395696e-001, 6.89704770790650179002e-001, -1.57332820568377895754e+000, -3.79123248565349402206e-001, -2.47506339877126446680e+000, 2.26213064365336213868e+000, 2.88589769139347918081e-001, -8.06734154300916328495e-001, -9.61548281215692801638e-002, 5.00699270545081343009e-001, 9.34319052305987787777e-003, -1.61374393037573748977e+000, -8.81463116529141998967e-001, 2.61470787541051019609e-001, 7.99696584524726139520e-001, 1.47989553490190051122e+000, 1.42937712673611905245e+000, -8.89357457964962017094e-001, -1.46007066695255249833e+000, -5.29304443278138303519e-001, 2.75014168263444158669e+000, -1.88863155603062504717e+000, 1.00152561739625634019e+000, -5.02035234867115098822e-001, -1.57859701475923763780e+000, 7.59489440263561021993e-002, 1.90165560738349070924e+000, -1.21965577125062743513e-001, -2.32219938435206468830e-001, -3.81877620763830971651e-001, 6.07812907743042085684e-001, 2.42233898608389036644e-001, 2.17348056439697789877e-001, 5.10788557375982721354e-001, -3.48515611797440977293e-002, 2.55283695338255123275e+000, 9.04636736862884094368e-002, 1.63701563414401195240e-002, 5.98552329868099475263e-001, -1.17598997925043580182e-002, -8.63094746566809067900e-001, -2.12352749326646916828e+000, -7.93974077855958748628e-001, -6.00008809973341494803e-001, -1.32795591724346717655e+000, -1.14626764819007176399e+000, -7.37598344084912316276e-001, -3.85526939284375702588e-001, 6.57638468311952273382e-001, -7.10724025739286835446e-001, -2.43364298029291337144e+000, 5.76087185219167699501e-002, 2.91297988815865604995e-001, -8.09149766109588552965e-001, 2.29450147388372466262e-001, 7.17645218192235478938e-001, -8.35283769363561967580e-001, 3.01990651628897655012e-001, -5.82269838996440358692e-002, 5.97122955636108621036e-001, -1.31385314084843241034e+000, 1.49884614868334459237e-001, -4.52832606034733603506e-002, -1.64775903346493918233e-001, -3.70844347759821502120e-001, 3.32935605815194235815e-003, -1.37056410954724450235e+000, 2.59462280636660935773e-001, 5.02297160300008482814e-001, -1.32053026486590940891e+000, -5.76743051697668596134e-001, -9.24027619093437446729e-001, -3.61327967276176775790e-001, 4.35398722121858428036e-001, -2.19238765263408824646e-001, -2.23545719253994357167e-001, 3.57911432241311555646e-002, 3.85590541449711832200e-001, -1.57636354198017536454e+000, -4.15252025829730642137e-001, -2.37240557415196812174e-001, -1.43881525526665821069e+000, -3.70560812613917156533e-001, 3.17913796741882637154e-001, -2.58298958349815033220e-001, -3.74147132871746890270e-002, 4.91473758987314046642e-001, 1.11791295027245074500e+000, -2.90296571902006611543e-002, 2.07405501311672707532e-001, 6.34352233009679800091e-001, 1.92057368763773356202e-001, 1.19589314091031329035e+000, -9.00725092876158983657e-001, -1.16601599787253470963e-001, 8.53489300918721882638e-001, -1.32395582767366093435e+000, -9.45192151406625380439e-001, 1.23448156261567221215e+000, -3.32311795656493436102e-001, -2.03225714405429247478e+000, -7.99494611763169465979e-002, 9.68750896365705549407e-001, -2.41561587885007533760e-001, 1.22320850709357875630e+000, -7.78395797655557775130e-001, -5.19236520169328419350e-001, 1.02772421095192556528e+000, 3.17958712386048170107e-001, -1.17724052287238728498e-001, 1.08086988554611969360e-002, 4.79505906127642766990e-001, -2.21495124974575047228e-001, 3.65552737553755779931e-001, -1.10916689972639170847e+000, -4.06967338206701695347e-002, -2.19331740506671868385e-001, 6.56396894938474084746e-001, 1.14798057453639201775e+000, -2.44075048019100654395e-001, -2.03059264464150457385e+000, 5.34575508140590960338e-001, -4.15321943563092405016e-002, 1.73972158998037285116e+000, 1.85024637108736711433e+000, -7.94824513791073328228e-001, -1.22970187220517512827e+000, -8.53060824246285598349e-001, 3.10523667486537480187e-001, 3.61328048989285444126e-001, -4.44899231989796473119e-001, -5.20796660238416975197e-001, 7.86184505215945517165e-001, -7.19048389167946777611e-001, 2.76167749913766247261e-001, -1.32055385504352829074e+000, -2.53160121619515621205e-001, 1.99254530705913923683e+000, -6.01012471734322706318e-001, 1.43236707689228670581e+000, 7.07442656595536512043e-001, 1.39158256765271315381e+000, 1.38949366094224568968e+000, 2.88652686028294025444e-001, -2.34335090053085032258e-001, 1.15898665366280750888e+000, 9.86638354829280639358e-001, 1.16796572401666476360e+000, -5.06825070916567033130e-001, 3.08983228767658213432e-001, 1.44938619777644439601e+000, 8.34020932711850071506e-001, -8.45411882174329720741e-001, 1.58485819287889118101e+000, 1.59626926476959141166e-001, -1.28303255435693375208e-001, 7.49811239041175081610e-001, -1.03785963862304722594e-001, -7.77434610584644913978e-001, 7.01024759182159312720e-002, -5.87979581046509158782e-001, -5.05882228949318446531e-001, -1.85099318048757321975e+000, -3.34335223210036613928e-001, -3.24828662209960705720e-001, -5.28632602478895541331e-001, 1.24384524939745300109e+000, -3.03826903382401036779e-001, 2.04964335386454560295e-002, 1.46074194946614177582e+000, -4.19442593617560977037e-001, 1.81979998894765615525e+000, -5.67086685120657338355e-002, -9.22500262307036855702e-001, -2.86529615483464172865e-001, 9.28355472550412008648e-002, -1.10644074485330690116e+000, 1.17588221384244961953e+000, -4.88876655346653574141e-002, 5.97590703533421696569e-001, 1.20498305520907189603e+000, 1.15416129329216921029e+000, -5.27916170427600306425e-002, -2.50186382373067062179e-001, -1.91863353684116888509e-001, -5.22476765198554127245e-001, 4.62758842393079627975e-001, 5.39226471909041604746e-001, -4.68084155202524887507e-001, -5.69548928692921885980e-003, -2.81912592028042974235e-001, -2.09440512742710915894e-001, -1.82318998182553637655e+000, 7.76456824596925776483e-001, -5.02070936749533180965e-001, -1.49724895343026620509e+000, 1.30081879382091814001e-001, -4.75045149992999737876e-001, 7.19624706991289775360e-002, -5.07402470257081628091e-001, 4.51360499795059100236e-001, 6.71454859278281385171e-002, 6.92430212170640602132e-001, 2.91039314441134289169e-001, 1.06670073532609244182e+000, -1.20162468300160329981e+000, 6.52087078030095662617e-002, -1.82513922100024678086e-001, 3.23520036413091793825e-001, -2.64407125738414572336e-001, 5.33630435342418385503e-001, 1.34659886008573370653e+000, 2.30077527106954726754e-001, -5.91583446392767720035e-001, -1.62844460232319077075e-001, -8.92880555127354647027e-001, -1.61704600245862883945e+000, 8.54612376152833613796e-002, 3.78516244817911684528e-001, 7.39928692695400846979e-001, -3.73401918905782170821e-001, 1.82333052757467872773e+000, 8.25861069118195567640e-002, 1.17825921648600603908e-001, 5.06981453315129448889e-001, 4.37907726278424988542e-002, -8.70738495642993992618e-001, 7.32643877154622868986e-001, -8.86070908812859464598e-002, 3.30504744435281605508e-001, -1.41853131050629993615e-001, -9.56057852537014057903e-002, -3.87024388775767835824e-001, 1.72141619766326386953e-001, -1.80610166779049424735e-001, -3.84630562651991525502e-001, 1.98828004275120984179e-001, -1.45666598496200805357e+000, -1.86040962272938203981e-001, -7.92125966146443039051e-001, 3.92359116572548072277e-001, 1.55220027461858856022e+000, -5.48073399925953830270e-001, 1.98851091681081920681e-001, 1.14626293607817242304e+000, 5.86815531703327009083e-001, -1.57640457122281446578e-001, -6.03636229606307361806e-001, -2.12430364915504460432e-001, 3.48547179136050988557e-001, 1.15756820285709616236e+000, -7.53902314144274110497e-001, -9.36840884081792668603e-002, -5.72550420265339310433e-001, 4.02051526019848559645e-001, -1.31904709066120173766e-001, 8.23048340745390238915e-001, -2.38725887331324826413e-001, -2.12475718876819569259e-001, -5.30805708542513521309e-001, 1.47145635881578334958e-001, 5.08776760375365233458e-001, -5.67155159500688232921e-002, 2.28145384303747478238e-001, 1.41864720745514122369e-001, -2.14670555718180555704e-001, 8.01731705486478984923e-001, -4.15987949851852500949e-001, -3.89844300370186469529e-001, 4.13325275659921886895e-001, 6.12557851290166821556e-001, -2.92487485522829437912e-001, 5.16682945721788633442e-001, -2.76593958675518704349e-002, 5.07130959593096036775e-002, 2.95166594610124732867e-001, -3.53343859211174837753e-003, -4.17685413559889140434e-001, -1.48511562935834222354e-002, -1.79942170666497341935e-001, -3.13792715503270092103e-001, 1.01994946659158070013e+000, -1.53497322389210377747e-001, -2.62513583443940545781e-001, 4.80743173227576980899e-001, 5.41797201204986755840e-001, -4.20644903832821881462e-001, -8.40946414225263061404e-001, 5.12995516028470377456e-001, 4.30448212248663100721e-002, -7.64452366716556586113e-001, -2.11257479413174437122e-001, -8.47296548546693450987e-001, -1.02107924488568410637e-001, -1.99632111592056515903e-001, -3.50447307004475350212e+000, 2.52899253983125404943e+000, 2.47462843418272321339e-001, 5.44922234255349913212e-001, 2.72248464342726936849e+000, -8.13900104771661636605e-001, 2.93850773952487687168e+000, 4.62083229785147953095e+000, 1.26590070841101798305e-001, 9.62267890819744287079e-001, -6.74757899637362990042e-001, -2.65840859675848761867e+000, 8.77447353837156440726e-001, -1.93842236614250329474e+000, -4.77608882201257323175e+000, 1.22407128588707680983e+000, 2.47605332237037067955e+000, -2.54965831994818170614e+000, 4.34302210153432177719e+000, -4.10194538612054460103e-001, 3.55884988590710404921e+000, -5.72103832193617600765e-001, -9.37797304610345161535e-001, 1.30746704657575296693e+000, 1.67054139956452041282e+000, 7.25607391238567434044e-001, -4.92454287205215557321e+000, -2.67062317545698579835e+000, -4.47604440631164202102e+000, -4.91998702811891064357e-001};

const fann_layer fann_layers[4] = {{0, 360}, {360, 460}, {460, 470}, {470, 473}};

#endif // FANN_FANN_NET_H_
